{
  "version": "1.0",
  "truncation": null,
  "padding": null,
  "added_tokens": [
    {
      "id": 0,
      "content": "<|pad|>",
      "single_word": false,
      "lstrip": false,
      "rstrip": false,
      "normalized": false,
      "special": true
    },
    {
      "id": 1,
      "content": "<|unk|>",
      "single_word": false,
      "lstrip": false,
      "rstrip": false,
      "normalized": false,
      "special": true
    },
    {
      "id": 2,
      "content": "<|bos|>",
      "single_word": false,
      "lstrip": false,
      "rstrip": false,
      "normalized": false,
      "special": true
    },
    {
      "id": 3,
      "content": "<|eos|>",
      "single_word": false,
      "lstrip": false,
      "rstrip": false,
      "normalized": false,
      "special": true
    }
  ],
  "normalizer": {
    "type": "Sequence",
    "normalizers": [
      {
        "type": "Replace",
        "pattern": {
          "String": "，"
        },
        "content": ""
      },
      {
        "type": "Replace",
        "pattern": {
          "String": "："
        },
        "content": ""
      },
      {
        "type": "Replace",
        "pattern": {
          "String": "；"
        },
        "content": ""
      },
      {
        "type": "Replace",
        "pattern": {
          "String": "！"
        },
        "content": ""
      },
      {
        "type": "Replace",
        "pattern": {
          "String": "？"
        },
        "content": ""
      },
      {
        "type": "Replace",
        "pattern": {
          "String": "（"
        },
        "content": ""
      },
      {
        "type": "Replace",
        "pattern": {
          "String": "）"
        },
        "content": ""
      },
      {
        "type": "Replace",
        "pattern": {
          "String": "％"
        },
        "content": ""
      },
      {
        "type": "Replace",
        "pattern": {
          "String": "＃"
        },
        "content": ""
      },
      {
        "type": "Replace",
        "pattern": {
          "String": "＠"
        },
        "content": ""
      },
      {
        "type": "Replace",
        "pattern": {
          "String": "｛"
        },
        "content": ""
      },
      {
        "type": "Replace",
        "pattern": {
          "String": "｝"
        },
        "content": ""
      },
      {
        "type": "Replace",
        "pattern": {
          "String": "［"
        },
        "content": ""
      },
      {
        "type": "Replace",
        "pattern": {
          "String": "］"
        },
        "content": ""
      },
      {
        "type": "Replace",
        "pattern": {
          "String": "…"
        },
        "content": ""
      },
      {
        "type": "Replace",
        "pattern": {
          "String": "　"
        },
        "content": ""
      },
      {
        "type": "NFKC"
      },
      {
        "type": "Replace",
        "pattern": {
          "String": ""
        },
        "content": "，"
      },
      {
        "type": "Replace",
        "pattern": {
          "String": ""
        },
        "content": "："
      },
      {
        "type": "Replace",
        "pattern": {
          "String": ""
        },
        "content": "；"
      },
      {
        "type": "Replace",
        "pattern": {
          "String": ""
        },
        "content": "！"
      },
      {
        "type": "Replace",
        "pattern": {
          "String": ""
        },
        "content": "？"
      },
      {
        "type": "Replace",
        "pattern": {
          "String": ""
        },
        "content": "（"
      },
      {
        "type": "Replace",
        "pattern": {
          "String": ""
        },
        "content": "）"
      },
      {
        "type": "Replace",
        "pattern": {
          "String": ""
        },
        "content": "％"
      },
      {
        "type": "Replace",
        "pattern": {
          "String": ""
        },
        "content": "＃"
      },
      {
        "type": "Replace",
        "pattern": {
          "String": ""
        },
        "content": "＠"
      },
      {
        "type": "Replace",
        "pattern": {
          "String": ""
        },
        "content": "｛"
      },
      {
        "type": "Replace",
        "pattern": {
          "String": ""
        },
        "content": "｝"
      },
      {
        "type": "Replace",
        "pattern": {
          "String": ""
        },
        "content": "［"
      },
      {
        "type": "Replace",
        "pattern": {
          "String": ""
        },
        "content": "］"
      },
      {
        "type": "Replace",
        "pattern": {
          "String": ""
        },
        "content": "…"
      },
      {
        "type": "Replace",
        "pattern": {
          "String": ""
        },
        "content": "　"
      }
    ]
  },
  "pre_tokenizer": {
    "type": "ByteLevel",
    "add_prefix_space": false,
    "trim_offsets": true,
    "use_regex": true
  },
  "post_processor": {
    "type": "TemplateProcessing",
    "single": [
      {
        "SpecialToken": {
          "id": "<|bos|>",
          "type_id": 0
        }
      },
      {
        "Sequence": {
          "id": "A",
          "type_id": 0
        }
      },
      {
        "SpecialToken": {
          "id": "<|eos|>",
          "type_id": 0
        }
      }
    ],
    "pair": [
      {
        "Sequence": {
          "id": "A",
          "type_id": 0
        }
      },
      {
        "Sequence": {
          "id": "B",
          "type_id": 1
        }
      }
    ],
    "special_tokens": {
      "<|bos|>": {
        "id": "<|bos|>",
        "ids": [
          2
        ],
        "tokens": [
          "<|bos|>"
        ]
      },
      "<|eos|>": {
        "id": "<|eos|>",
        "ids": [
          3
        ],
        "tokens": [
          "<|eos|>"
        ]
      }
    }
  },
  "decoder": {
    "type": "ByteLevel",
    "add_prefix_space": true,
    "trim_offsets": true,
    "use_regex": true
  },
  "model": {
    "type": "BPE",
    "dropout": null,
    "unk_token": "<|unk|>",
    "continuing_subword_prefix": null,
    "end_of_word_suffix": null,
    "fuse_unk": false,
    "byte_fallback": false,
    "ignore_merges": false,
    "vocab": {
      "<|pad|>": 0,
      "<|unk|>": 1,
      "<|bos|>": 2,
      "<|eos|>": 3,
      "!": 4,
      "\"": 5,
      "#": 6,
      "$": 7,
      "%": 8,
      "&": 9,
      "'": 10,
      "(": 11,
      ")": 12,
      "*": 13,
      "+": 14,
      ",": 15,
      "-": 16,
      ".": 17,
      "/": 18,
      "0": 19,
      "1": 20,
      "2": 21,
      "3": 22,
      "4": 23,
      "5": 24,
      "6": 25,
      "7": 26,
      "8": 27,
      "9": 28,
      ":": 29,
      ";": 30,
      "<": 31,
      "=": 32,
      ">": 33,
      "?": 34,
      "@": 35,
      "A": 36,
      "B": 37,
      "C": 38,
      "D": 39,
      "E": 40,
      "F": 41,
      "G": 42,
      "H": 43,
      "I": 44,
      "J": 45,
      "K": 46,
      "L": 47,
      "M": 48,
      "N": 49,
      "O": 50,
      "P": 51,
      "Q": 52,
      "R": 53,
      "S": 54,
      "T": 55,
      "U": 56,
      "V": 57,
      "W": 58,
      "X": 59,
      "Y": 60,
      "Z": 61,
      "[": 62,
      "\\": 63,
      "]": 64,
      "^": 65,
      "_": 66,
      "`": 67,
      "a": 68,
      "b": 69,
      "c": 70,
      "d": 71,
      "e": 72,
      "f": 73,
      "g": 74,
      "h": 75,
      "i": 76,
      "j": 77,
      "k": 78,
      "l": 79,
      "m": 80,
      "n": 81,
      "o": 82,
      "p": 83,
      "q": 84,
      "r": 85,
      "s": 86,
      "t": 87,
      "u": 88,
      "v": 89,
      "w": 90,
      "x": 91,
      "y": 92,
      "z": 93,
      "{": 94,
      "|": 95,
      "}": 96,
      "~": 97,
      "¡": 98,
      "¢": 99,
      "£": 100,
      "¤": 101,
      "¥": 102,
      "¦": 103,
      "§": 104,
      "¨": 105,
      "©": 106,
      "ª": 107,
      "«": 108,
      "¬": 109,
      "®": 110,
      "¯": 111,
      "°": 112,
      "±": 113,
      "²": 114,
      "³": 115,
      "´": 116,
      "µ": 117,
      "¶": 118,
      "·": 119,
      "¸": 120,
      "¹": 121,
      "º": 122,
      "»": 123,
      "¼": 124,
      "½": 125,
      "¾": 126,
      "¿": 127,
      "À": 128,
      "Á": 129,
      "Â": 130,
      "Ã": 131,
      "Ä": 132,
      "Å": 133,
      "Æ": 134,
      "Ç": 135,
      "È": 136,
      "É": 137,
      "Ê": 138,
      "Ë": 139,
      "Ì": 140,
      "Í": 141,
      "Î": 142,
      "Ï": 143,
      "Ð": 144,
      "Ñ": 145,
      "Ò": 146,
      "Ó": 147,
      "Ô": 148,
      "Õ": 149,
      "Ö": 150,
      "×": 151,
      "Ø": 152,
      "Ù": 153,
      "Ú": 154,
      "Û": 155,
      "Ü": 156,
      "Ý": 157,
      "Þ": 158,
      "ß": 159,
      "à": 160,
      "á": 161,
      "â": 162,
      "ã": 163,
      "ä": 164,
      "å": 165,
      "æ": 166,
      "ç": 167,
      "è": 168,
      "é": 169,
      "ê": 170,
      "ë": 171,
      "ì": 172,
      "í": 173,
      "î": 174,
      "ï": 175,
      "ð": 176,
      "ñ": 177,
      "ò": 178,
      "ó": 179,
      "ô": 180,
      "õ": 181,
      "ö": 182,
      "÷": 183,
      "ø": 184,
      "ù": 185,
      "ú": 186,
      "û": 187,
      "ü": 188,
      "ý": 189,
      "þ": 190,
      "ÿ": 191,
      "Ā": 192,
      "ā": 193,
      "Ă": 194,
      "ă": 195,
      "Ą": 196,
      "ą": 197,
      "Ć": 198,
      "ć": 199,
      "Ĉ": 200,
      "ĉ": 201,
      "Ċ": 202,
      "ċ": 203,
      "Č": 204,
      "č": 205,
      "Ď": 206,
      "ď": 207,
      "Đ": 208,
      "đ": 209,
      "Ē": 210,
      "ē": 211,
      "Ĕ": 212,
      "ĕ": 213,
      "Ė": 214,
      "ė": 215,
      "Ę": 216,
      "ę": 217,
      "Ě": 218,
      "ě": 219,
      "Ĝ": 220,
      "ĝ": 221,
      "Ğ": 222,
      "ğ": 223,
      "Ġ": 224,
      "ġ": 225,
      "Ģ": 226,
      "ģ": 227,
      "Ĥ": 228,
      "ĥ": 229,
      "Ħ": 230,
      "ħ": 231,
      "Ĩ": 232,
      "ĩ": 233,
      "Ī": 234,
      "ī": 235,
      "Ĭ": 236,
      "ĭ": 237,
      "Į": 238,
      "į": 239,
      "İ": 240,
      "ı": 241,
      "Ĳ": 242,
      "ĳ": 243,
      "Ĵ": 244,
      "ĵ": 245,
      "Ķ": 246,
      "ķ": 247,
      "ĸ": 248,
      "Ĺ": 249,
      "ĺ": 250,
      "Ļ": 251,
      "ļ": 252,
      "Ľ": 253,
      "ľ": 254,
      "Ŀ": 255,
      "ŀ": 256,
      "Ł": 257,
      "ł": 258,
      "Ń": 259,
      "ä¸": 260,
      "ï¼": 261,
      "ï¼Į": 262,
      "çļ": 263,
      "çļĦ": 264,
      "ãĢ": 265,
      "Ġt": 266,
      "ãĢĤ": 267,
      "åı": 268,
      "Ġa": 269,
      "er": 270,
      "in": 271,
      "on": 272,
      "re": 273,
      "he": 274,
      "äº": 275,
      "æľ": 276,
      "åĪ": 277,
      "at": 278,
      "Ġs": 279,
      "åĲ": 280,
      "Ġc": 281,
      "ä»": 282,
      "å¤": 283,
      "åħ": 284,
      "en": 285,
      "è¿": 286,
      "ç»": 287,
      "çĶ": 288,
      "ä½": 289,
      "æĺ": 290,
      "åŃ": 291,
      "åľ": 292,
      "å®": 293,
      "es": 294,
      "an": 295,
      "Ġthe": 296,
      "ä¸Ģ": 297,
      "éĩ": 298,
      "or": 299,
      "al": 300,
      "æĺ¯": 301,
      "æķ": 302,
      "it": 303,
      "Ġm": 304,
      "ion": 305,
      "ed": 306,
      "åĬ": 307,
      "Ġp": 308,
      "è®": 309,
      "ing": 310,
      "åº": 311,
      "Ġd": 312,
      "Ġb": 313,
      "ar": 314,
      "ĥ½": 315,
      "ä¹": 316,
      "Ġw": 317,
      "åľ¨": 318,
      "æĹ": 319,
      "å°": 320,
      "is": 321,
      "æĪ": 322,
      "Ġf": 323,
      "æĸ": 324,
      "ä¸į": 325,
      "å¾": 326,
      "ro": 327,
      "æľī": 328,
      "Ġo": 329,
      "Ġan": 330,
      "ä¼": 331,
      "ç§": 332,
      "éĢ": 333,
      "le": 334,
      "åĩ": 335,
      "çī": 336,
      "åĽ": 337,
      "æķ°": 338,
      "ic": 339,
      "åĮ": 340,
      "ä¸ª": 341,
      "èĥ½": 342,
      "å¹": 343,
      "ct": 344,
      "è¯": 345,
      "åĴ": 346,
      "åĴĮ": 347,
      "ä¸º": 348,
      "æĿ": 349,
      "Ġre": 350,
      "å¼": 351,
      "å¯": 352,
      "åı¯": 353,
      "æĢ": 354,
      "ãĢģ": 355,
      "åĪĨ": 356,
      "Ġin": 357,
      "æł": 358,
      "ent": 359,
      "éĩı": 360,
      "åį": 361,
      "è¡": 362,
      "Ġe": 363,
      "ä¸Ń": 364,
      "Ġand": 365,
      "è§": 366,
      "èĢ": 367,
      "éĹ": 368,
      "æĹ¶": 369,
      "åŃ¦": 370,
      "ä»¥": 371,
      "çĽ": 372,
      "æ°": 373,
      "çİ": 374,
      "åŃĲ": 375,
      "çĶ¨": 376,
      "æŀ": 377,
      "Ġn": 378,
      "åĨ": 379,
      "å½": 380,
      "å¸": 381,
      "æī": 382,
      "Ġl": 383,
      "as": 384,
      "ly": 385,
      "æĪĲ": 386,
      "æµ": 387,
      "çĲ": 388,
      "æŃ": 389,
      "Ġth": 390,
      "çī©": 391,
      "æ³": 392,
      "åĮĸ": 393,
      "è´": 394,
      "åĲĮ": 395,
      "åº¦": 396,
      "om": 397,
      "ce": 398,
      "å®ļ": 399,
      "Ġof": 400,
      "ation": 401,
      "ut": 402,
      "Ġto": 403,
      "âĢ": 404,
      "äºİ": 405,
      "us": 406,
      "æĢ§": 407,
      "ä¼ļ": 408,
      "çº": 409,
      "åıĺ": 410,
      "un": 411,
      "å¤§": 412,
      "Ġh": 413,
      "å·": 414,
      "åĽł": 415,
      "Ġbe": 416,
      "åİ": 417,
      "çĶŁ": 418,
      "ot": 419,
      "ä½ĵ": 420,
      "è¾": 421,
      "éĹ´": 422,
      "è¿Ļ": 423,
      "èĢĮ": 424,
      "Ġst": 425,
      "å¯¹": 426,
      "¦Ĥ": 427,
      "çĲĨ": 428,
      "ï¼Ī": 429,
      "ï¼ī": 430,
      "éĻ": 431,
      "ve": 432,
      "ä¸Ģä¸ª": 433,
      "ç³": 434,
      "åĪ°": 435,
      "æĸ¹": 436,
      "ä¸Ĭ": 437,
      "et": 438,
      "im": 439,
      "éĿ": 440,
      "å¤ļ": 441,
      "äºĨ": 442,
      "åŁ": 443,
      "æĿ¥": 444,
      "æİ": 445,
      "è´¨": 446,
      "åľ°": 447,
      "ç®": 448,
      "é¢": 449,
      "è¿ĩ": 450,
      "ç¨": 451,
      "èĩ": 452,
      "Ġcon": 453,
      "åĲİ": 454,
      "åĬ¨": 455,
      "è¦": 456,
      "æ¯": 457,
      "åĩº": 458,
      "ra": 459,
      "å±": 460,
      "ç©": 461,
      "id": 462,
      "æĽ": 463,
      "è¦ģ": 464,
      "st": 465,
      "ur": 466,
      "åıĳ": 467,
      "ul": 468,
      "çĶµ": 469,
      "æĬ": 470,
      "Ġon": 471,
      "il": 472,
      "ä¸İ": 473,
      "æį": 474,
      "ç³»": 475,
      "çİ°": 476,
      "è¡¨": 477,
      "æĶ": 478,
      "ver": 479,
      "çĽ¸": 480,
      "åħ¶": 481,
      "ç»ĵ": 482,
      "ow": 483,
      "å¦Ĥ": 484,
      "åĢ": 485,
      "ä¾": 486,
      "ä½ľ": 487,
      "åĲĪ": 488,
      "åĬĽ": 489,
      "ç´": 490,
      "ç§į": 491,
      "å¸¸": 492,
      "æ³ķ": 493,
      "Ġcan": 494,
      "åı¯ä»¥": 495,
      "ol": 496,
      "ä¹Ł": 497,
      "äºº": 498,
      "çŃ": 499,
      "éĺ": 500,
      "å¿": 501,
      "qu": 502,
      "ter": 503,
      "ä¸ĭ": 504,
      "Ġg": 505,
      "æĮ": 506,
      "çŁ": 507,
      "Ġis": 508,
      "åºĶ": 509,
      "æĪĸ": 510,
      "The": 511,
      "her": 512,
      "éħ": 513,
      "å¹¶": 514,
      "è½": 515,
      "éĢļ": 516,
      "æĭ": 517,
      "ç¨ĭ": 518,
      "æĽ´": 519,
      "åĲĳ": 520,
      "èµ": 521,
      "if": 522,
      "ig": 523,
      "am": 524,
      "çľ": 525,
      "Ġmo": 526,
      "æľĢ": 527,
      "åİŁ": 528,
      "ad": 529,
      "æ²": 530,
      "Ġpro": 531,
      "el": 532,
      "åŁº": 533,
      "ure": 534,
      "ch": 535,
      "ç®Ĺ": 536,
      "ä¿": 537,
      "ç±": 538,
      "åģ": 539,
      "è®¡": 540,
      "è¢": 541,
      "æīĢ": 542,
      "çĤ": 543,
      "äºĽ": 544,
      "ä½¿": 545,
      "éĩį": 546,
      "ä¹ĭ": 547,
      "éĽ": 548,
      "çŃī": 549,
      "os": 550,
      "è¢«": 551,
      "å¼ı": 552,
      "è¶": 553,
      "ç»Ł": 554,
      "æľ¬": 555,
      "å½¢": 556,
      "æı": 557,
      "ä½į": 558,
      "å®ŀ": 559,
      "æŃ¤": 560,
      "è¡Į": 561,
      "è®º": 562,
      "åıį": 563,
      "èĩª": 564,
      "Ġit": 565,
      "çĤ¹": 566,
      "å¾Ĺ": 567,
      "éľ": 568,
      "ge": 569,
      "Ġex": 570,
      "è§£": 571,
      "ist": 572,
      "æł¸": 573,
      "æ°Ķ": 574,
      "ç´ł": 575,
      "ï¼ļ": 576,
      "æľº": 577,
      "ate": 578,
      "ab": 579,
      "å°ı": 580,
      "åŀ": 581,
      "æŀľ": 582,
      "å®ĥ": 583,
      "åī": 584,
      "åĳ": 585,
      "Ġthat": 586,
      "å¾Ī": 587,
      "éĥ½": 588,
      "ç±»": 589,
      "em": 590,
      "ity": 591,
      "éļ": 592,
      "æ¨": 593,
      "ay": 594,
      "éģ": 595,
      "ç½": 596,
      "åħ³": 597,
      "ri": 598,
      "åĵ": 599,
      "åıª": 600,
      "Ġnot": 601,
      "um": 602,
      "Ġfor": 603,
      "åĢ¼": 604,
      "æŁ": 605,
      "éĿ¢": 606,
      "æ¸": 607,
      "çī¹": 608,
      "ç¡": 609,
      "æ°´": 610,
      "å¹´": 611,
      "é¡": 612,
      "ith": 613,
      "ä¸įåĲĮ": 614,
      "æ¨¡": 615,
      "åħĥ": 616,
      "Ġor": 617,
      "éĥ": 618,
      "éĥ¨": 619,
      "Ġch": 620,
      "åŀĭ": 621,
      "æį®": 622,
      "ect": 623,
      "çł": 624,
      "æŀĦ": 625,
      "Ġwh": 626,
      "çĶ±": 627,
      "per": 628,
      "Ġal": 629,
      "æ´": 630,
      "Ġv": 631,
      "é«": 632,
      "Ġcom": 633,
      "æĦ": 634,
      "é«ĺ": 635,
      "åĿ": 636,
      "çº¿": 637,
      "çĦ": 638,
      "åı¯èĥ½": 639,
      "ç»ı": 640,
      "und": 641,
      "åĬł": 642,
      "Ġde": 643,
      "ir": 644,
      "âĢľ": 645,
      "ĠThe": 646,
      "Ġwith": 647,
      "âĢĿ": 648,
      "ain": 649,
      "çĦ¶": 650,
      "æ¯Ķ": 651,
      "èĥ": 652,
      "å°±": 653,
      "ç©º": 654,
      "è¿Ľ": 655,
      "æµĭ": 656,
      "fer": 657,
      "ions": 658,
      "du": 659,
      "åĪĻ": 660,
      "æŃ£": 661,
      "ĠA": 662,
      "Ġas": 663,
      "ä»£": 664,
      "å¤į": 665,
      "Ġr": 666,
      "åŃĺ": 667,
      "ces": 668,
      "è·": 669,
      "res": 670,
      "éĢŁ": 671,
      "ç³»ç»Ł": 672,
      "åįķ": 673,
      "æĻ": 674,
      "æ¬": 675,
      "çķ": 676,
      "ç»Ħ": 677,
      "éľĢ": 678,
      "éķ": 679,
      "Ġne": 680,
      "ä½Ĩ": 681,
      "æĬĬ": 682,
      "åĨħ": 683,
      "çİĩ": 684,
      "pp": 685,
      "ç§°": 686,
      "æ²¡": 687,
      "å¹³": 688,
      "å¢": 689,
      "ç»Ĩ": 690,
      "éĶ": 691,
      "æĥ": 692,
      "rom": 693,
      "ç«": 694,
      "éĩĮ": 695,
      "ical": 696,
      "å¥": 697,
      "ä¸¤": 698,
      "æģ": 699,
      "ä»İ": 700,
      "éª": 701,
      "æµ·": 702,
      "½æķ°": 703,
      "Ġse": 704,
      "art": 705,
      "åīį": 706,
      "åıĬ": 707,
      "ant": 708,
      "ä¾ĭ": 709,
      "åĩ½æķ°": 710,
      "å¤ĸ": 711,
      "ç§¯": 712,
      "æľŁ": 713,
      "æİ¥": 714,
      "Ġen": 715,
      "éĹ®": 716,
      "é¢ĺ": 717,
      "æµģ": 718,
      "Ġat": 719,
      "å¼Ģ": 720,
      "ä»¶": 721,
      "ç¬": 722,
      "ç¦": 723,
      "å½ĵ": 724,
      "å¯¼": 725,
      "use": 726,
      "Ġsu": 727,
      "åħĥç´ł": 728,
      "ä»ĸ": 729,
      "æĹ¶éĹ´": 730,
      "è°": 731,
      "æĸ°": 732,
      "æ¬¡": 733,
      "Ġco": 734,
      "æł·": 735,
      "åħ¥": 736,
      "æĺİ": 737,
      "ä¼ł": 738,
      "ive": 739,
      "ç¼": 740,
      "ac": 741,
      "Ġfrom": 742,
      "pl": 743,
      "igh": 744,
      "åĪ¶": 745,
      "ç¦»": 746,
      "éķ¿": 747,
      "ĠS": 748,
      "ä¹ī": 749,
      "åĪĹ": 750,
      "éľĢè¦ģ": 751,
      "ç¡®": 752,
      "äº§": 753,
      "åħī": 754,
      "ç¤": 755,
      "ak": 756,
      "æłĩ": 757,
      "ater": 758,
      "æĢģ": 759,
      "æıĲ": 760,
      "ment": 761,
      "å¤©": 762,
      "çĥ": 763,
      "Ġsh": 764,
      "ç©¶": 765,
      "çłĶ": 766,
      "ç²": 767,
      "Ġdif": 768,
      "éħ¸": 769,
      "Ġare": 770,
      "åºı": 771,
      "éªĮ": 772,
      "çĲĥ": 773,
      "è½¬": 774,
      "ç»ĵæŀĦ": 775,
      "pe": 776,
      "çłĶç©¶": 777,
      "ds": 778,
      "è¿Ĳ": 779,
      "åĮº": 780,
      "èĢħ": 781,
      "å·®": 782,
      "Ġbec": 783,
      "åİŁåŃĲ": 784,
      "åĩł": 785,
      "åį´": 786,
      "èµ·": 787,
      "ence": 788,
      "æķ°æį®": 789,
      "æĦı": 790,
      "æ¯ı": 791,
      "åıĺåĮĸ": 792,
      "èĥŀ": 793,
      "çľĭ": 794,
      "å®Į": 795,
      "çĻ": 796,
      "åĽłæŃ¤": 797,
      "æ²¡æľī": 798,
      "pt": 799,
      "è¿ĳ": 800,
      "å±Ĥ": 801,
      "æ¨¡åŀĭ": 802,
      "æ±": 803,
      "ial": 804,
      "è¿ĺ": 805,
      "å·¥": 806,
      "ç¤º": 807,
      "all": 808,
      "éĹ®é¢ĺ": 809,
      "è¾ĥ": 810,
      "æĶ¹": 811,
      "èĭ": 812,
      "Ġcomp": 813,
      "iz": 814,
      "åĨ³": 815,
      "ies": 816,
      "Ġun": 817,
      "åĻ": 818,
      "Ġchan": 819,
      "ĠI": 820,
      "æĹł": 821,
      "lect": 822,
      "ä¸ŃçļĦ": 823,
      "ç»Ĩèĥŀ": 824,
      "ore": 825,
      "oc": 826,
      "ä»¬": 827,
      "çĽ´": 828,
      "è§Ĥ": 829,
      "Â·": 830,
      "æ³¢": 831,
      "åħ¨": 832,
      "åħ·": 833,
      "è®¡ç®Ĺ": 834,
      "å®¹": 835,
      "orm": 836,
      "åĮĸåŃ¦": 837,
      "ers": 838,
      "ä¸įæĺ¯": 839,
      "æ¶": 840,
      "çľŁ": 841,
      "é£": 842,
      "ä½¿çĶ¨": 843,
      "ug": 844,
      "å®¶": 845,
      "éĽĨ": 846,
      "ong": 847,
      "se": 848,
      "Ġme": 849,
      "Ġbut": 850,
      "Ġdiffer": 851,
      "ï¼Ľ": 852,
      "Ġcont": 853,
      "est": 854,
      "å°ĳ": 855,
      "è¯´": 856,
      "ated": 857,
      "ä½ľçĶ¨": 858,
      "å¾®": 859,
      "Ġso": 860,
      "åĵį": 861,
      "hen": 862,
      "èī": 863,
      "äºĮ": 864,
      "ort": 865,
      "è®¾": 866,
      "Ġone": 867,
      "å½±": 868,
      "ç§ĳ": 869,
      "iv": 870,
      "ran": 871,
      "æĿ¡": 872,
      "è¯ģ": 873,
      "éĿŀ": 874,
      "éĺµ": 875,
      "çĬ": 876,
      "éĢļå¸¸": 877,
      "çĲĨè®º": 878,
      "æ¸©": 879,
      "ag": 880,
      "åŁŁ": 881,
      "å£": 882,
      "è±": 883,
      "Ġthan": 884,
      "åĻ¨": 885,
      "çŁ©": 886,
      "å½¢æĪĲ": 887,
      "çİ¯": 888,
      "act": 889,
      "åĽłä¸º": 890,
      "åĮħ": 891,
      "âĪ": 892,
      "ugh": 893,
      "çĬ¶": 894,
      "å§": 895,
      "éļı": 896,
      "çĶŁçī©": 897,
      "çĿ": 898,
      "çĻ½": 899,
      "çĥŃ": 900,
      "èĬ": 901,
      "å·²": 902,
      "low": 903,
      "ä¹ĭéĹ´": 904,
      "able": 905,
      "ä¸»": 906,
      "å°Ĩ": 907,
      "ä¿¡": 908,
      "å¤Ħ": 909,
      "NA": 910,
      "Ġåľ¨": 911,
      "Ġhe": 912,
      "ations": 913,
      "æº": 914,
      "åıįåºĶ": 915,
      "erg": 916,
      "Ġqu": 917,
      "æķ´": 918,
      "æĮĩ": 919,
      "åľº": 920,
      "éĢļè¿ĩ": 921,
      "ç¬¬": 922,
      "pen": 923,
      "äº§çĶŁ": 924,
      "è¿°": 925,
      "èĦ": 926,
      "éĻį": 927,
      "ame": 928,
      "ç»Ń": 929,
      "è±¡": 930,
      "ç£": 931,
      "ile": 932,
      "ff": 933,
      "éĵ": 934,
      "è¿ĻäºĽ": 935,
      "å½±åĵį": 936,
      "å¢ŀ": 937,
      "ä¾ĭå¦Ĥ": 938,
      "çŁ¥": 939,
      "æ¦Ĥ": 940,
      "ib": 941,
      "å°Ħ": 942,
      "æĸ¯": 943,
      "å¸¦": 944,
      "Ġby": 945,
      "éģĵ": 946,
      "ä½İ": 947,
      "åĪĨåŃĲ": 948,
      "ight": 949,
      "æĶ¾": 950,
      "ç§°ä¸º": 951,
      "éĻĲ": 952,
      "Ġres": 953,
      "ide": 954,
      "å°Ķ": 955,
      "od": 956,
      "ç½®": 957,
      "and": 958,
      "æķĪ": 959,
      "æĺ¾": 960,
      "ç«ĭ": 961,
      "åŁºåĽł": 962,
      "åĪ«": 963,
      "ĠT": 964,
      "éĢŁåº¦": 965,
      "çŁ©éĺµ": 966,
      "å¼ķ": 967,
      "æŁĲ": 968,
      "èī²": 969,
      "æ®": 970,
      "ä¸Ģç§į": 971,
      "Ġint": 972,
      "ĠC": 973,
      "åĲĳéĩı": 974,
      "èģ": 975,
      "ä¿Ŀ": 976,
      "å¦Ĥæŀľ": 977,
      "è¶Ĭ": 978,
      "è·¯": 979,
      "æĶ¹åıĺ": 980,
      "ç©ºéĹ´": 981,
      "åŃĺåľ¨": 982,
      "Ġro": 983,
      "æ·": 984,
      "æ°§": 985,
      "ç¢": 986,
      "å§ĭ": 987,
      "ace": 988,
      "å¼º": 989,
      "è®©": 990,
      "ire": 991,
      "æĸŃ": 992,
      "è¾ĵ": 993,
      "åıĳçĶŁ": 994,
      "åĪ©": 995,
      "å¤Ł": 996,
      "çĽ®": 997,
      "ergy": 998,
      "æį¢": 999,
      "av": 1000,
      "Ġpl": 1001,
      "Ġac": 1002,
      "è¿ĩç¨ĭ": 1003,
      "Ġle": 1004,
      "out": 1005,
      "åıĹ": 1006,
      "å»": 1007,
      "çĿĢ": 1008,
      "è®¤": 1009,
      "çķĮ": 1010,
      "åħĪ": 1011,
      "Ġdo": 1012,
      "å¸ĥ": 1013,
      "åį³": 1014,
      "èĽ": 1015,
      "æŀģ": 1016,
      "çĶµåŃĲ": 1017,
      "èĥ½éĩı": 1018,
      "very": 1019,
      "ple": 1020,
      "è´¨éĩı": 1021,
      "æĸ¹æ³ķ": 1022,
      "é£İ": 1023,
      "form": 1024,
      "éĥ¨åĪĨ": 1025,
      "åıĸ": 1026,
      "ç»´": 1027,
      "è¯Ń": 1028,
      "Ġhad": 1029,
      "èĽĭ": 1030,
      "èĪ": 1031,
      "è®¸": 1032,
      "Ġwhile": 1033,
      "ause": 1034,
      "è¡¨ç¤º": 1035,
      "éĴ": 1036,
      "Ġev": 1037,
      "ç»ĵæŀľ": 1038,
      "Ġmore": 1039,
      "ance": 1040,
      "ç§ĳåŃ¦": 1041,
      "Ġus": 1042,
      "ĠE": 1043,
      "ction": 1044,
      "èĽĭçĻ½": 1045,
      "age": 1046,
      "ave": 1047,
      "çī©çĲĨ": 1048,
      "æĮģ": 1049,
      "æīĢæľī": 1050,
      "ç£ģ": 1051,
      "æĸĩ": 1052,
      "è¿ŀ": 1053,
      "è¾¾": 1054,
      "åĳ¨": 1055,
      "ç®Ĺæ³ķ": 1056,
      "è®°": 1057,
      "çª": 1058,
      "ere": 1059,
      "äºĭ": 1060,
      "ä»»": 1061,
      "Ġdifferent": 1062,
      "Ġk": 1063,
      "åħ±": 1064,
      "00": 1065,
      "åħ¬": 1066,
      "å®ļä¹ī": 1067,
      "ä¼¼": 1068,
      "èĬĤ": 1069,
      "ally": 1070,
      "Ġinter": 1071,
      "19": 1072,
      "æ¼": 1073,
      "åıĳçİ°": 1074,
      "og": 1075,
      "ine": 1076,
      "æģ¯": 1077,
      "æĺĵ": 1078,
      "ä¹Ī": 1079,
      "ress": 1080,
      "Ġstr": 1081,
      "ill": 1082,
      "éĤ": 1083,
      "Ġwas": 1084,
      "é¢Ħ": 1085,
      "åĩºçİ°": 1086,
      "åĽ¾": 1087,
      "ome": 1088,
      "ient": 1089,
      "éħ¶": 1090,
      "å±ŀ": 1091,
      "æĺŁ": 1092,
      "rans": 1093,
      "ature": 1094,
      "æıı": 1095,
      "çī©ä½ĵ": 1096,
      "Ġ(": 1097,
      "Ġob": 1098,
      "åľ°çĲĥ": 1099,
      "ç²Ĵ": 1100,
      "æ±Ĥ": 1101,
      "Ġwhen": 1102,
      "Ġchang": 1103,
      "å¤ª": 1104,
      "Ġtim": 1105,
      "ä¹ł": 1106,
      "è¯¯": 1107,
      "rib": 1108,
      "yst": 1109,
      "å¹¶ä¸į": 1110,
      "åıĤ": 1111,
      "ç½ĳ": 1112,
      "ç§»": 1113,
      "æīį": 1114,
      "ä¸Ķ": 1115,
      "åĨį": 1116,
      "è§Ħ": 1117,
      "Ġenergy": 1118,
      "cess": 1119,
      "Ġim": 1120,
      "éĢł": 1121,
      "ç¾": 1122,
      "æķ°åŃ¦": 1123,
      "ts": 1124,
      "Ġsp": 1125,
      "åĲ«": 1126,
      "æĿĤ": 1127,
      "Ġpart": 1128,
      "éĶ®": 1129,
      "ç®Ģ": 1130,
      "å¤±": 1131,
      "æ»": 1132,
      "ä¸ĬçļĦ": 1133,
      "ther": 1134,
      "ess": 1135,
      "éĩĬ": 1136,
      "Ġdist": 1137,
      "æŃ¥": 1138,
      "ok": 1139,
      "ä½ķ": 1140,
      "æııè¿°": 1141,
      "åĬŁ": 1142,
      "åĩĨ": 1143,
      "ud": 1144,
      "ï¼īï¼Į": 1145,
      "Ġab": 1146,
      "red": 1147,
      "ç¨³": 1148,
      "åģļ": 1149,
      "åħ³ç³»": 1150,
      "åĽŀ": 1151,
      "æĸ¹åĲĳ": 1152,
      "åĿĩ": 1153,
      "fore": 1154,
      "ard": 1155,
      "å¾Ģ": 1156,
      "å¾ĭ": 1157,
      "çī©è´¨": 1158,
      "ĠM": 1159,
      "ĠR": 1160,
      "ary": 1161,
      "Ġcl": 1162,
      "å¿«": 1163,
      "ates": 1164,
      "æ´»": 1165,
      "Ġits": 1166,
      "è¿ĲåĬ¨": 1167,
      "Ġsc": 1168,
      "è¿Ļä¸ª": 1169,
      "ï¼īãĢĤ": 1170,
      "Ġbecause": 1171,
      "åı·": 1172,
      "æ´ĭ": 1173,
      "éĢī": 1174,
      "æĢ»": 1175,
      "Ġapp": 1176,
      "éĩĳ": 1177,
      "Ġdis": 1178,
      "äºĴ": 1179,
      "up": 1180,
      "Ġmod": 1181,
      "uld": 1182,
      "åħ¶ä»ĸ": 1183,
      "æºĲ": 1184,
      "Ġtrans": 1185,
      "è¯¥": 1186,
      "åİĭ": 1187,
      "æĿ¡ä»¶": 1188,
      "è¾¹": 1189,
      "çº¿æĢ§": 1190,
      "Ġrel": 1191,
      "ork": 1192,
      "Ġper": 1193,
      "æĥħ": 1194,
      "èĥ½å¤Ł": 1195,
      "æŀĲ": 1196,
      "ä½įç½®": 1197,
      "è°ĥ": 1198,
      "èº": 1199,
      "ass": 1200,
      "åħ·æľī": 1201,
      "æĵ": 1202,
      "ç»Ļ": 1203,
      "èĩ³": 1204,
      "è¶ħ": 1205,
      "Ġtra": 1206,
      "åĽ½": 1207,
      "ign": 1208,
      "è¿Ľè¡Į": 1209,
      "æ¡": 1210,
      "æİ¨": 1211,
      "ap": 1212,
      "ust": 1213,
      "ens": 1214,
      "å¾ģ": 1215,
      "åĩı": 1216,
      "çº¦": 1217,
      "th": 1218,
      "Ġad": 1219,
      "åı¦": 1220,
      "èº«": 1221,
      "èį": 1222,
      "äº¤": 1223,
      "æĸĻ": 1224,
      "ren": 1225,
      "Ġsm": 1226,
      "å¥½": 1227,
      "atter": 1228,
      "Ġsame": 1229,
      "Ġdes": 1230,
      "å®¹æĺĵ": 1231,
      "dit": 1232,
      "ä¸ī": 1233,
      "ç¨³å®ļ": 1234,
      "åĲ¦": 1235,
      "å£°": 1236,
      "ä»į": 1237,
      "éĢĤ": 1238,
      "Ġelect": 1239,
      "è§ģ": 1240,
      "op": 1241,
      "ä¸¤ä¸ª": 1242,
      "åģĩ": 1243,
      "è®¸å¤ļ": 1244,
      "ç§¯åĪĨ": 1245,
      "ten": 1246,
      "èĩ´": 1247,
      "æİĴ": 1248,
      "åĢĻ": 1249,
      "èİ": 1250,
      "ç»ĥ": 1251,
      "ä¸ĢäºĽ": 1252,
      "å®ŀéªĮ": 1253,
      "ä»¥åıĬ": 1254,
      "è¿Ļç§į": 1255,
      "ult": 1256,
      "å¤įæĿĤ": 1257,
      "ding": 1258,
      "åĤ": 1259,
      "çī¹å¾ģ": 1260,
      "éĤ£": 1261,
      "ystem": 1262,
      "ä¸ĸ": 1263,
      "æł¹": 1264,
      "å¯¹äºİ": 1265,
      "å¯Ĩ": 1266,
      "è§Ĵ": 1267,
      "èĮ": 1268,
      "åİ»": 1269,
      "å¿ħ": 1270,
      "ĠD": 1271,
      "åŃĹ": 1272,
      "åŃ¦ä¹ł": 1273,
      "å¿ĥ": 1274,
      "å¼Ģå§ĭ": 1275,
      "Ġund": 1276,
      "ä¾Ŀ": 1277,
      "æ¸©åº¦": 1278,
      "åĲĦ": 1279,
      "æĴ": 1280,
      "ä»·": 1281,
      "æĸ¹ç¨ĭ": 1282,
      "æĭ¬": 1283,
      "éĩįè¦ģ": 1284,
      "con": 1285,
      "å¼Ĥ": 1286,
      "åħ¶ä¸Ń": 1287,
      "Ġinto": 1288,
      "ĠP": 1289,
      "æ¢": 1290,
      "æ£": 1291,
      "Ġrem": 1292,
      "æĥ³": 1293,
      "ä¿¡æģ¯": 1294,
      "uct": 1295,
      "ç¥": 1296,
      "Ġph": 1297,
      "ç³ĸ": 1298,
      "èĳ": 1299,
      "è£": 1300,
      "Ġhow": 1301,
      "æĦŁ": 1302,
      "duct": 1303,
      "çĭ": 1304,
      "æī¾": 1305,
      "çªģ": 1306,
      "emper": 1307,
      "ility": 1308,
      "åĲį": 1309,
      "åĪĨæŀĲ": 1310,
      "emperature": 1311,
      "ron": 1312,
      "ãĢĮ": 1313,
      "æĶ¶": 1314,
      "erv": 1315,
      "åĽ´": 1316,
      "å¢ŀåĬł": 1317,
      "å»º": 1318,
      "ĠN": 1319,
      "Ġtime": 1320,
      "è®Ń": 1321,
      "ç»ľ": 1322,
      "ather": 1323,
      "'s": 1324,
      "rough": 1325,
      "ating": 1326,
      "å±ķ": 1327,
      "é¡¹": 1328,
      "ãĢį": 1329,
      "åĲĮæĹ¶": 1330,
      "éĺ³": 1331,
      "åĨ³å®ļ": 1332,
      "Ġinc": 1333,
      "Ġdoes": 1334,
      "æĭ©": 1335,
      "å¾Ħ": 1336,
      "æł¼": 1337,
      "çĬ¶æĢģ": 1338,
      "Ġsur": 1339,
      "æķ£": 1340,
      "éĻħ": 1341,
      "è®Ńç»ĥ": 1342,
      "åħĭ": 1343,
      "å®Įåħ¨": 1344,
      "ç½ĳç»ľ": 1345,
      "éģĹ": 1346,
      "ĠB": 1347,
      "åĮħæĭ¬": 1348,
      "çĽ¸åĲĮ": 1349,
      "çľŁæŃ£": 1350,
      "å°±æĺ¯": 1351,
      "å²": 1352,
      "èĤ": 1353,
      "Ġdepen": 1354,
      "çģ": 1355,
      "èĻ": 1356,
      "Ġsmall": 1357,
      "ep": 1358,
      "å¢ĥ": 1359,
      "èĽĭçĻ½è´¨": 1360,
      "Ġunder": 1361,
      "Ġra": 1362,
      "ors": 1363,
      "Ġmay": 1364,
      "åĬ¿": 1365,
      "è¡¡": 1366,
      "Ġthrough": 1367,
      "å¿µ": 1368,
      "æ¼Ķ": 1369,
      "Ġevery": 1370,
      "æ®µ": 1371,
      "ari": 1372,
      "åĨµ": 1373,
      "vel": 1374,
      "ä¸įèĥ½": 1375,
      "è¯Ĩ": 1376,
      "æŁ¥": 1377,
      "ice": 1378,
      "æłĳ": 1379,
      "æĸ¹å¼ı": 1380,
      "å®ĥä»¬": 1381,
      "ĠO": 1382,
      "one": 1383,
      "Ġuse": 1384,
      "ĠF": 1385,
      "èĭ¥": 1386,
      "ys": 1387,
      "ip": 1388,
      "Ġsystem": 1389,
      "ack": 1390,
      "å¤ĦçĲĨ": 1391,
      "æļ": 1392,
      "ä¸»è¦ģ": 1393,
      "å¾Īå¤ļ": 1394,
      "ĠH": 1395,
      "çĶ¨äºİ": 1396,
      "åģı": 1397,
      "Ġwe": 1398,
      "é©": 1399,
      "åĥ": 1400,
      "here": 1401,
      "éĢīæĭ©": 1402,
      "æĵį": 1403,
      "Ġlo": 1404,
      "èĳĹ": 1405,
      "åĬĽåŃ¦": 1406,
      "è¶³": 1407,
      "éģĹä¼ł": 1408,
      "Ġover": 1409,
      "éĵ¾": 1410,
      "ĠL": 1411,
      "ach": 1412,
      "çİ¯å¢ĥ": 1413,
      "å·²ç»ı": 1414,
      "Ġman": 1415,
      "ase": 1416,
      "åĥı": 1417,
      "åĬ¡": 1418,
      "åĨĻ": 1419,
      "èĲ": 1420,
      "Ġtemperature": 1421,
      "ich": 1422,
      "ç´¢": 1423,
      "åįĬ": 1424,
      "Ġsim": 1425,
      "èĩªçĦ¶": 1426,
      "les": 1427,
      "ous": 1428,
      "Ġï¼Į": 1429,
      "çº§": 1430,
      "é¢ĳ": 1431,
      "Ġgra": 1432,
      "ä¹ĭéĹ´çļĦ": 1433,
      "ç¥ŀ": 1434,
      "ros": 1435,
      "è¯ķ": 1436,
      "èĮĥ": 1437,
      "ck": 1438,
      "Ġspe": 1439,
      "éĩĳå±ŀ": 1440,
      "æĹ©": 1441,
      "èĢĮæĺ¯": 1442,
      "è§£éĩĬ": 1443,
      "ç®Ģåįķ": 1444,
      "æĹ¥": 1445,
      "ä¼ĺ": 1446,
      "æ¶Ī": 1447,
      "ning": 1448,
      "Ġdat": 1449,
      "éĶĻ": 1450,
      "¥¿": 1451,
      "ory": 1452,
      "åĪĨå¸ĥ": 1453,
      "ell": 1454,
      "Ġout": 1455,
      "åįģ": 1456,
      "âĢĶ": 1457,
      "Ġmeas": 1458,
      "è¥¿": 1459,
      "erm": 1460,
      "Ġcondit": 1461,
      "æħ": 1462,
      "Ġmodel": 1463,
      "åıĪ": 1464,
      "Ġlar": 1465,
      "æĢ§è´¨": 1466,
      "æµĭéĩı": 1467,
      "20": 1468,
      "ĠW": 1469,
      "æľª": 1470,
      "cy": 1471,
      "round": 1472,
      "åĽº": 1473,
      "æİ§": 1474,
      "fter": 1475,
      "æ¦Ĥå¿µ": 1476,
      "çĽ¸å¯¹": 1477,
      "æĵįä½ľ": 1478,
      "so": 1479,
      "ĠçļĦ": 1480,
      "ible": 1481,
      "æ·±": 1482,
      "ear": 1483,
      "Ġ1": 1484,
      "ä»Ģ": 1485,
      "æĺ¯åĲ¦": 1486,
      "Ġbet": 1487,
      "è®¤ä¸º": 1488,
      "¨Ģ": 1489,
      "è¨Ģ": 1490,
      "Ġonly": 1491,
      "ind": 1492,
      "æĭī": 1493,
      "æ³¨": 1494,
      "èģļ": 1495,
      "Ġthey": 1496,
      "ast": 1497,
      "aterial": 1498,
      "Ġwater": 1499,
      "åĪ©çĶ¨": 1500,
      "åĳ¨æľŁ": 1501,
      "å½ķ": 1502,
      "éĽĨåĲĪ": 1503,
      "Ġimp": 1504,
      "æĥħåĨµ": 1505,
      "ä¸Ģæ¬¡": 1506,
      "Ġeff": 1507,
      "Ġval": 1508,
      "ject": 1509,
      "èĢĥ": 1510,
      "æģĴ": 1511,
      "éħį": 1512,
      "ä»Ģä¹Ī": 1513,
      "çļĦæĺ¯": 1514,
      "Ġmak": 1515,
      "Ġfi": 1516,
      "Ġprob": 1517,
      "èµ·æĿ¥": 1518,
      "çĽ´æİ¥": 1519,
      "Ġmeasure": 1520,
      "Ġar": 1521,
      "Ġhave": 1522,
      "ful": 1523,
      "Ġalso": 1524,
      "arth": 1525,
      "Ġcol": 1526,
      "å®ļå¾ĭ": 1527,
      "ound": 1528,
      "ents": 1529,
      "è§ī": 1530,
      "Ġloc": 1531,
      "åıªæĺ¯": 1532,
      "Ġrep": 1533,
      "é¢Ĩ": 1534,
      "RNA": 1535,
      "Ġmaterial": 1536,
      "Ġpo": 1537,
      "Ġwork": 1538,
      "ç¡®å®ļ": 1539,
      "ç²ĴåŃĲ": 1540,
      "Ġdire": 1541,
      "å¾·": 1542,
      "ä¾Ľ": 1543,
      "Ġprodu": 1544,
      "å¾ĹåĪ°": 1545,
      "Ġwhich": 1546,
      "ç»Ī": 1547,
      "ose": 1548,
      "ail": 1549,
      "é¦": 1550,
      "ç»ĦæĪĲ": 1551,
      "Ġexp": 1552,
      "å¤ªéĺ³": 1553,
      "çİ°è±¡": 1554,
      "çºª": 1555,
      "formation": 1556,
      "Ġother": 1557,
      "å¯Ł": 1558,
      "æŁĵ": 1559,
      "æĻ®": 1560,
      "èĭ±": 1561,
      "æ¦Ĥçİĩ": 1562,
      "ould": 1563,
      "éĻ¤": 1564,
      "é¡¿": 1565,
      "agn": 1566,
      "æĿĲ": 1567,
      "Ġrequ": 1568,
      "éļ¾": 1569,
      "ative": 1570,
      "Ġfe": 1571,
      "Ġact": 1572,
      "osit": 1573,
      "æł¸ç³ĸ": 1574,
      "æ¯ıä¸ª": 1575,
      "çĭ¬": 1576,
      "Ġrec": 1577,
      "ä¸įåĲĮçļĦ": 1578,
      "åĿĹ": 1579,
      "Ġrather": 1580,
      "çĽ®æłĩ": 1581,
      "ç¥ŀç»ı": 1582,
      "te": 1583,
      "Ġ=": 1584,
      "Ġno": 1585,
      "èĪ¬": 1586,
      "åĲ¸": 1587,
      "ics": 1588,
      "éĩįæĸ°": 1589,
      "çķĻ": 1590,
      "èµĦ": 1591,
      "ue": 1592,
      "ä¸ĢèĪ¬": 1593,
      "å½¢å¼ı": 1594,
      "å®ŀéĻħ": 1595,
      "Ġpre": 1596,
      "åĪ¤": 1597,
      "Ġoften": 1598,
      "è¾ĵåħ¥": 1599,
      "Ġchanges": 1600,
      "Ġredu": 1601,
      "éļıæľº": 1602,
      "ry": 1603,
      "we": 1604,
      "çħ": 1605,
      "éĽ¶": 1606,
      "Ġy": 1607,
      "å¹¿": 1608,
      "Ġlong": 1609,
      "Ġcre": 1610,
      "ä»ħ": 1611,
      "Ġgen": 1612,
      "èĬĤçĤ¹": 1613,
      "åĳ½": 1614,
      "æħ¢": 1615,
      "æľ¯": 1616,
      "çĶ±äºİ": 1617,
      "è·Ŀ": 1618,
      "face": 1619,
      "Ġcur": 1620,
      "åĲĮä¸Ģ": 1621,
      "èĦ±": 1622,
      "é¢Ħæµĭ": 1623,
      "tain": 1624,
      "è§Ĩ": 1625,
      "Ġthere": 1626,
      "åįķä½į": 1627,
      "ribut": 1628,
      "ms": 1629,
      "çłģ": 1630,
      "å¼ķåĬĽ": 1631,
      "é¢ĨåŁŁ": 1632,
      "wo": 1633,
      "ict": 1634,
      "è´Ł": 1635,
      "å¹³è¡¡": 1636,
      "xt": 1637,
      "ä¸Ģå®ļ": 1638,
      "Ġass": 1639,
      "æµ·æ´ĭ": 1640,
      "Ġdesc": 1641,
      "æľ¬èº«": 1642,
      "äºĳ": 1643,
      "æĹĭ": 1644,
      "ç»ĵåĲĪ": 1645,
      "Ġwithout": 1646,
      "éŁ": 1647,
      "éĿł": 1648,
      "æĮ¯": 1649,
      "Ġprocess": 1650,
      "serv": 1651,
      "æľĪ": 1652,
      "ath": 1653,
      "Ġmany": 1654,
      "Ġdata": 1655,
      "è¿ľ": 1656,
      "ise": 1657,
      "äººå·¥": 1658,
      "åĪĿ": 1659,
      "row": 1660,
      "Ġpartic": 1661,
      "çħ§": 1662,
      "å±Ģ": 1663,
      "è§Ĥå¯Ł": 1664,
      "ough": 1665,
      "ual": 1666,
      "é»": 1667,
      "éĹ¨": 1668,
      "æĶ¯": 1669,
      "ved": 1670,
      "çĲĨè§£": 1671,
      "åºĶçĶ¨": 1672,
      "éĽ¨": 1673,
      "ross": 1674,
      "Ġconditions": 1675,
      "lu": 1676,
      "æ¤": 1677,
      "etic": 1678,
      "ä¿®": 1679,
      "ability": 1680,
      "éĢĴ": 1681,
      "æĮī": 1682,
      "éľĩ": 1683,
      "Ġnear": 1684,
      "Ġstruct": 1685,
      "ced": 1686,
      "éĢĲ": 1687,
      "åŁºæľ¬": 1688,
      "æıĲä¾Ľ": 1689,
      "ç¾¤": 1690,
      "èį·": 1691,
      "é¡»": 1692,
      "æĺİæĺ¾": 1693,
      "ç²¾": 1694,
      "èĥ½åĬĽ": 1695,
      "ç»Łè®¡": 1696,
      "hes": 1697,
      "æ¯Ķè¾ĥ": 1698,
      "ç¬¦": 1699,
      "æ»¡": 1700,
      "uch": 1701,
      "Ġcar": 1702,
      "Ġdec": 1703,
      "ä¸ļ": 1704,
      "ular": 1705,
      "éĺ¶": 1706,
      "oss": 1707,
      "de": 1708,
      "ks": 1709,
      "Ġmet": 1710,
      "å¹³åĿĩ": 1711,
      "æł¸éħ¸": 1712,
      "der": 1713,
      "æĲ": 1714,
      "èı": 1715,
      "åı£": 1716,
      "åºķ": 1717,
      "éĩıåŃĲ": 1718,
      "Ġequ": 1719,
      "çŁŃ": 1720,
      "æł·æľ¬": 1721,
      "Ġchange": 1722,
      "ween": 1723,
      "Ġè¿Ļ": 1724,
      "æĻº": 1725,
      "æĿĲæĸĻ": 1726,
      "çļĦä¸Ģ": 1727,
      "å°º": 1728,
      "å¿ħé¡»": 1729,
      "Ġbetween": 1730,
      "çĹ": 1731,
      "è¡¨éĿ¢": 1732,
      "ically": 1733,
      "hed": 1734,
      "Ġli": 1735,
      "ĠIn": 1736,
      "åģĩè®¾": 1737,
      "å¹²": 1738,
      "æŃ¢": 1739,
      "ower": 1740,
      "chan": 1741,
      "ĠIt": 1742,
      "åĪ¤æĸŃ": 1743,
      "ree": 1744,
      "ization": 1745,
      "è®¡ç®Ĺæľº": 1746,
      "èİ·": 1747,
      "åºıåĪĹ": 1748,
      "Ġeven": 1749,
      "Ġbeh": 1750,
      "Ġexpl": 1751,
      "è¿ŀç»Ń": 1752,
      "ually": 1753,
      "ĠTh": 1754,
      "ä¸ĸçºª": 1755,
      "æ£Ģ": 1756,
      "its": 1757,
      "Ġbefore": 1758,
      "è®¾è®¡": 1759,
      "ç©ºæ°Ķ": 1760,
      "æŁĵèī²": 1761,
      "è¯į": 1762,
      "oth": 1763,
      "uring": 1764,
      "èĮĥåĽ´": 1765,
      "ting": 1766,
      "äººç±»": 1767,
      "èµĸ": 1768,
      "ä¸įä¼ļ": 1769,
      "å¤ļä¸ª": 1770,
      "æĿ¿": 1771,
      "æıĲåĩº": 1772,
      "ç¢³": 1773,
      "rent": 1774,
      "æł¹æį®": 1775,
      "ph": 1776,
      "æķ°éĩı": 1777,
      "å¤§éĩı": 1778,
      "å¯¼æķ°": 1779,
      "è·Ŀç¦»": 1780,
      "Ġafter": 1781,
      "ments": 1782,
      "ç»§": 1783,
      "çĽ¸åħ³": 1784,
      "Ġhel": 1785,
      "lo": 1786,
      "Ġreg": 1787,
      "å¤§æ°Ķ": 1788,
      "é¡º": 1789,
      "æ¢¯": 1790,
      "Ġdepends": 1791,
      "çīĽ": 1792,
      "åįĩ": 1793,
      "åĵª": 1794,
      "Ġstructure": 1795,
      "Ġdet": 1796,
      "Ġhas": 1797,
      "str": 1798,
      "éŁ³": 1799,
      "åıĺéĩı": 1800,
      "ç®¡": 1801,
      "ays": 1802,
      "åĨħéĥ¨": 1803,
      "Ġsuper": 1804,
      "æł¸ç³ĸæł¸éħ¸": 1805,
      "åĪĩ": 1806,
      "Ġsol": 1807,
      "Ġstill": 1808,
      "è½¦": 1809,
      "èģĶ": 1810,
      "cur": 1811,
      "Ġche": 1812,
      "Ġquant": 1813,
      "åĩıå°ĳ": 1814,
      "ä½ľä¸º": 1815,
      "ç«¯": 1816,
      "çĨ": 1817,
      "äºļ": 1818,
      "åĬ©": 1819,
      "Ġvari": 1820,
      "å¾®åĪĨ": 1821,
      "Ġmuch": 1822,
      "æīĭ": 1823,
      "èĩªå·": 1824,
      "å¡": 1825,
      "Ġup": 1826,
      "Ġam": 1827,
      "Ġnew": 1828,
      "æŁĲäºĽ": 1829,
      "Ġsurface": 1830,
      "DNA": 1831,
      "Ġmatter": 1832,
      "Ġinformation": 1833,
      "ç¼ĸ": 1834,
      "Ġremain": 1835,
      "ving": 1836,
      "æĿĥ": 1837,
      "éĻĨ": 1838,
      "ç±³": 1839,
      "çī¹å®ļ": 1840,
      "âĢĿï¼Į": 1841,
      "ency": 1842,
      "ific": 1843,
      "æ¸ħ": 1844,
      "Ġvis": 1845,
      "âĪĴ": 1846,
      "Ġstrong": 1847,
      "ke": 1848,
      "Ġca": 1849,
      "åıªæľī": 1850,
      "åĬŁèĥ½": 1851,
      "ä¼°": 1852,
      "other": 1853,
      "æłĩåĩĨ": 1854,
      "èĦ±æ°§": 1855,
      "cle": 1856,
      "int": 1857,
      "Ġcor": 1858,
      "å®ī": 1859,
      "vers": 1860,
      "éĩįå¤į": 1861,
      "Ġdescrib": 1862,
      "çīĽé¡¿": 1863,
      "é©¬": 1864,
      "èĩªå·±": 1865,
      "Ġwhere": 1866,
      "Ġ2": 1867,
      "åģľ": 1868,
      "Ġform": 1869,
      "Ġabout": 1870,
      "ä¾Ŀèµĸ": 1871,
      "æĴŃ": 1872,
      "èĨ": 1873,
      "å¯¹åºĶ": 1874,
      "æĬĢ": 1875,
      "æĭŁ": 1876,
      "çī©çĲĨåŃ¦": 1877,
      "åĨ°": 1878,
      "ä½ĵçļĦ": 1879,
      "çĶµèį·": 1880,
      "åĲĪæĪĲ": 1881,
      "irst": 1882,
      "Ġneed": 1883,
      "ä»»ä½ķ": 1884,
      "èĦ±æ°§æł¸ç³ĸæł¸éħ¸": 1885,
      "Ġmagn": 1886,
      "çķ¥": 1887,
      "æĹłæ³ķ": 1888,
      "å¤§å°ı": 1889,
      "æ¡Ī": 1890,
      "å¤ĩ": 1891,
      "omet": 1892,
      "æİ§åĪ¶": 1893,
      "æĳ": 1894,
      "åıĳå±ķ": 1895,
      "co": 1896,
      "ward": 1897,
      "Ġtwo": 1898,
      "æĪĳ": 1899,
      "èĢĮä¸įæĺ¯": 1900,
      "åŁºç¡": 1901,
      "åĮºåŁŁ": 1902,
      "Ġke": 1903,
      "åŁºç¡Ģ": 1904,
      "Ġer": 1905,
      "å®Ī": 1906,
      "å¤§çļĦ": 1907,
      "ç¦»åŃĲ": 1908,
      "Ġlarge": 1909,
      "ä¹ĺ": 1910,
      "æķ°åĢ¼": 1911,
      "åıĹåĪ°": 1912,
      "æ¹": 1913,
      "è§£åĨ³": 1914,
      "Ġgener": 1915,
      "ier": 1916,
      "ty": 1917,
      "ons": 1918,
      "Ġfirst": 1919,
      "æ°ĶåĢĻ": 1920,
      "ivity": 1921,
      "éĴŁ": 1922,
      "Ġobject": 1923,
      "é¢ĳçİĩ": 1924,
      "ric": 1925,
      "å¸Į": 1926,
      "åĳ³": 1927,
      "åĮħåĲ«": 1928,
      "èĲ½": 1929,
      "ded": 1930,
      "Ġsome": 1931,
      "urn": 1932,
      "æĢ§çļĦ": 1933,
      "è¡¨çİ°": 1934,
      "ade": 1935,
      "åĤ¨": 1936,
      "è£Ĥ": 1937,
      "Ġä¾ĭå¦Ĥ": 1938,
      "éĢłæĪĲ": 1939,
      "Ġeffect": 1940,
      "çĽ¸äºĴ": 1941,
      "Ġsupp": 1942,
      "è¯ģæĺİ": 1943,
      "Ġfiel": 1944,
      "ä»¥åĲİ": 1945,
      "ases": 1946,
      "ä¼łæĴŃ": 1947,
      "å·®å¼Ĥ": 1948,
      "æĻºèĥ½": 1949,
      "åħ¸": 1950,
      "æ¸Ĳ": 1951,
      "Ġobserv": 1952,
      "gan": 1953,
      "åĪĴ": 1954,
      "Ġset": 1955,
      "ä¹İ": 1956,
      "Ġwere": 1957,
      "ç¼©": 1958,
      "ize": 1959,
      "æ¼ĶåĮĸ": 1960,
      "æ¤į": 1961,
      "Ġtheir": 1962,
      "åĨ·": 1963,
      "ä½įç´ł": 1964,
      "æľºåĻ¨": 1965,
      "çľŁå®ŀ": 1966,
      "èĦĳ": 1967,
      "åıĤæķ°": 1968,
      "åĽºå®ļ": 1969,
      "Ġhelp": 1970,
      "åĲĮä½įç´ł": 1971,
      "éĻĦ": 1972,
      "ä¾¿": 1973,
      "èµ°": 1974,
      "çŃīäºİ": 1975,
      "ie": 1976,
      "par": 1977,
      "Ġchar": 1978,
      "æ¶²": 1979,
      "çŁ¥éģĵ": 1980,
      "å½Ĵ": 1981,
      "æĪĲæľ¬": 1982,
      "åĲİæĿ¥": 1983,
      "çŁ³": 1984,
      "æľĢç»Ī": 1985,
      "è¯Ńè¨Ģ": 1986,
      "åħ±åĲĮ": 1987,
      "å¾Ģå¾Ģ": 1988,
      "put": 1989,
      "ç»Ŀ": 1990,
      "Ġall": 1991,
      "éĿŀå¸¸": 1992,
      "Ġuseful": 1993,
      "Ġte": 1994,
      "åıĮ": 1995,
      "æ°¢": 1996,
      "å®ĮæĪĲ": 1997,
      "Ġmean": 1998,
      "18": 1999,
      "è¯»": 2000,
      "Ġcontin": 2001,
      "éĻįä½İ": 2002,
      "Ġincre": 2003,
      "ior": 2004,
      "åı¤": 2005,
      "ä»ĭ": 2006,
      "als": 2007,
      "ark": 2008,
      "ists": 2009,
      "ç§»åĬ¨": 2010,
      "åĪĨç±»": 2011,
      "ä»£è¡¨": 2012,
      "æ°§åĮĸ": 2013,
      "Ġanother": 2014,
      "å¯¼èĩ´": 2015,
      "è·¯å¾Ħ": 2016,
      "çĭ¬ç«ĭ": 2017,
      "get": 2018,
      "èĴ": 2019,
      "Ġmot": 2020,
      "Ġnum": 2021,
      "æīĢä»¥": 2022,
      "Ġcomm": 2023,
      "å±Ģéĥ¨": 2024,
      "åķ": 2025,
      "æĺ¯åľ¨": 2026,
      "å¾ª": 2027,
      "æįŁ": 2028,
      "éĶĻè¯¯": 2029,
      "10": 2030,
      "ism": 2031,
      "Ġoc": 2032,
      "åľ°éľĩ": 2033,
      "è°±": 2034,
      "å·¥ä½ľ": 2035,
      "è¯¯å·®": 2036,
      "ared": 2037,
      "é¥": 2038,
      "æľį": 2039,
      "åİĨ": 2040,
      "ç½Ĺ": 2041,
      "Ġhigh": 2042,
      "åĬ¨éĩı": 2043,
      "åĵģ": 2044,
      "å¥¹": 2045,
      "ressure": 2046,
      "æ¢¯åº¦": 2047,
      "ä¸ĩ": 2048,
      "éĿĻ": 2049,
      "æĽ²": 2050,
      "è¡¨è¾¾": 2051,
      "resent": 2052,
      "Ġent": 2053,
      "ining": 2054,
      "æĿŁ": 2055,
      "æĪĲä¸º": 2056,
      "ä¸ĭéĻį": 2057,
      "æİ¥è¿ĳ": 2058,
      "åħĥç´łçļĦ": 2059,
      "yn": 2060,
      "ĠèĢĮ": 2061,
      "Ġflow": 2062,
      "æľīæĹ¶": 2063,
      "ä¹Łä¼ļ": 2064,
      "ç¨ĭåº¦": 2065,
      "Ġvol": 2066,
      "ber": 2067,
      "Ġpath": 2068,
      "Ġtherefore": 2069,
      "read": 2070,
      "æĹı": 2071,
      "çīĩ": 2072,
      "Ġlight": 2073,
      "Ġthis": 2074,
      "ä¹Łæĺ¯": 2075,
      "æ··": 2076,
      "è¾ĵåĩº": 2077,
      "äºĭä»¶": 2078,
      "Ġlook": 2079,
      "èİ·å¾Ĺ": 2080,
      "ç»§ç»Ń": 2081,
      "Ġsign": 2082,
      "ä¸įæĸŃ": 2083,
      "olog": 2084,
      "ç¾İ": 2085,
      "gth": 2086,
      "Ġå¦Ĥæŀľ": 2087,
      "éĩĩ": 2088,
      "Ġmade": 2089,
      "Ġfin": 2090,
      "own": 2091,
      "ç¼º": 2092,
      "è¿ĳä¼¼": 2093,
      "Ġcontain": 2094,
      "conduct": 2095,
      "ger": 2096,
      "ience": 2097,
      "åĪĨéĴŁ": 2098,
      "çĶŁæĪĲ": 2099,
      "ä¸ĭçļĦ": 2100,
      "Ġsub": 2101,
      "æĸ°çļĦ": 2102,
      "Ġbehav": 2103,
      "ves": 2104,
      "Ġ)": 2105,
      "rol": 2106,
      "Ġem": 2107,
      "éªĮè¯ģ": 2108,
      "Ġheat": 2109,
      "ne": 2110,
      "ood": 2111,
      "å¼±": 2112,
      "ential": 2113,
      "éĥ½æĺ¯": 2114,
      "iss": 2115,
      "æĿ¥èĩª": 2116,
      "Ġwhat": 2117,
      "è¿Ľåħ¥": 2118,
      "Ġbu": 2119,
      "ract": 2120,
      "æľĢåĲİ": 2121,
      "æľºåĪ¶": 2122,
      "éķ¿æľŁ": 2123,
      "ĠU": 2124,
      "ite": 2125,
      "æľīåħ³": 2126,
      "æī§": 2127,
      "æĪĸèĢħ": 2128,
      "çĸ": 2129,
      "ä¹ħ": 2130,
      "è¯Ŀ": 2131,
      "å±±": 2132,
      "âĢĿãĢĤ": 2133,
      "Ġdistribut": 2134,
      "our": 2135,
      "Ġå½ĵ": 2136,
      "Ġpar": 2137,
      "éĢı": 2138,
      "å¹¶ä¸Ķ": 2139,
      "å®ĥçļĦ": 2140,
      "Ġdirect": 2141,
      "æī§è¡Į": 2142,
      "Ġsam": 2143,
      "è¡°": 2144,
      "è¿Ļä¸Ģ": 2145,
      "æĮģç»Ń": 2146,
      "éĤ£ä¹Ī": 2147,
      "æ³¨æĦı": 2148,
      "¬åĮĸ": 2149,
      "æ½": 2150,
      "Ġ19": 2151,
      "Ġthem": 2152,
      "ational": 2153,
      "Ġcons": 2154,
      "è½¨": 2155,
      "æĻ¶": 2156,
      "å²©": 2157,
      "æľīäºĽ": 2158,
      "æľīéĻĲ": 2159,
      "æĽ´å¤ļ": 2160,
      "ç¬¬äºĮ": 2161,
      "Ġappro": 2162,
      "Ġspec": 2163,
      "æŁĵèī²ä½ĵ": 2164,
      "Ġpressure": 2165,
      "éĺ»": 2166,
      "æĥ¯": 2167,
      "åĩłä¹İ": 2168,
      "ä»»åĬ¡": 2169,
      "æ¤įçī©": 2170,
      "cer": 2171,
      "Ġj": 2172,
      "ä¸ľ": 2173,
      "åĪļ": 2174,
      "ä¸ĢæŃ¥": 2175,
      "ional": 2176,
      "å¾ªçİ¯": 2177,
      "çĪ": 2178,
      "Ġmin": 2179,
      "Ġstate": 2180,
      "æĿ¥çļĦ": 2181,
      "çĶµç£ģ": 2182,
      "å¤©æ°Ķ": 2183,
      "åĤ¬åĮĸ": 2184,
      "12": 2185,
      "æīĵ": 2186,
      "Ġlim": 2187,
      "ĠG": 2188,
      "Ġshe": 2189,
      "Ġbl": 2190,
      "cean": 2191,
      "Ġbeen": 2192,
      "Ġstar": 2193,
      "Ġelectron": 2194,
      "çĮ": 2195,
      "èħ": 2196,
      "cel": 2197,
      "ident": 2198,
      "æĬ½": 2199,
      "ä¹Łåı¯èĥ½": 2200,
      "Ġmove": 2201,
      "è¾¹çķĮ": 2202,
      "å°ºåº¦": 2203,
      "ences": 2204,
      "æĢĿ": 2205,
      "Ġconf": 2206,
      "èıĮ": 2207,
      "ĠThis": 2208,
      "Ġmotion": 2209,
      "app": 2210,
      "ft": 2211,
      "Ġæĺ¯": 2212,
      "Ġboth": 2213,
      "Ġins": 2214,
      "åıĺæĪĲ": 2215,
      "èŀ": 2216,
      "å¼ł": 2217,
      "åį¡": 2218,
      "å¹¶ä¸įæĺ¯": 2219,
      "æĻ¯": 2220,
      "æº¶": 2221,
      "çªģçĦ¶": 2222,
      "are": 2223,
      "åı¶": 2224,
      "åĽĽ": 2225,
      "æī©": 2226,
      "çİ°ä»£": 2227,
      "èĩªåĬ¨": 2228,
      "ä½Ĩæĺ¯": 2229,
      "è¿ŀæİ¥": 2230,
      "Ġquantum": 2231,
      "æĬĢæľ¯": 2232,
      "ä¹¦": 2233,
      "Ġref": 2234,
      "Ġeas": 2235,
      "ï¼īãĢģ": 2236,
      "Ġcomple": 2237,
      "è§Ĥæµĭ": 2238,
      "æķĪåºĶ": 2239,
      "Ġlocal": 2240,
      "Ġcurrent": 2241,
      "çļĦçłĶç©¶": 2242,
      "Ġmem": 2243,
      "veral": 2244,
      "ç±»ä¼¼": 2245,
      "Ġcomput": 2246,
      "éĢĲæ¸Ĳ": 2247,
      "ied": 2248,
      "ang": 2249,
      "æ²¿": 2250,
      "ä»İèĢĮ": 2251,
      "ç¢±": 2252,
      "Ġspace": 2253,
      "ç¥ŀç»ıç½ĳç»ľ": 2254,
      "èĨľ": 2255,
      "ues": 2256,
      "requ": 2257,
      "Ġcould": 2258,
      "Ġacross": 2259,
      "éĻĦè¿ĳ": 2260,
      "ead": 2261,
      "Ġinf": 2262,
      "åĲĮæł·": 2263,
      "è¡Įä¸º": 2264,
      "å»ºç«ĭ": 2265,
      "Ġsuperconduct": 2266,
      "Ġslow": 2267,
      "Ġbound": 2268,
      "Ġwould": 2269,
      "Ġsepar": 2270,
      "åĨ³äºİ": 2271,
      "Ġcontrol": 2272,
      "åıĸåĨ³äºİ": 2273,
      "æĪĳä»¬": 2274,
      "Ġ+": 2275,
      "ãĢĬ": 2276,
      "åıł": 2277,
      "åĨ²": 2278,
      "ç¨ĭåºı": 2279,
      "ä½¿å¾Ĺ": 2280,
      "è¢«ç§°ä¸º": 2281,
      "çļĦå½±åĵį": 2282,
      "ãĢĭ": 2283,
      "ç»ĦåĲĪ": 2284,
      "Ġmake": 2285,
      "Ġproble": 2286,
      "çļĦåľ°": 2287,
      "çļĦåħĥç´ł": 2288,
      "ä¸Ģèµ·": 2289,
      "æľīæķĪ": 2290,
      "åĽ¢": 2291,
      "ick": 2292,
      "æ°¨": 2293,
      "æ³Ľ": 2294,
      "éĢŁçİĩ": 2295,
      "ä¿ĿæĮģ": 2296,
      "é¦ĸ": 2297,
      "å°¼": 2298,
      "å¸¸è§ģ": 2299,
      "ç±»åŀĭ": 2300,
      "cent": 2301,
      "åĭ": 2302,
      "æĪ·": 2303,
      "åıįèĢĮ": 2304,
      "éļĶ": 2305,
      "Ġsuch": 2306,
      "éķ¿åº¦": 2307,
      "Ġmechan": 2308,
      "Ġplan": 2309,
      "Ġbehavior": 2310,
      "æĺ¯çĶ±": 2311,
      "è´Ŀ": 2312,
      "unt": 2313,
      "ram": 2314,
      "ç¿": 2315,
      "åºĵ": 2316,
      "çĶµåľº": 2317,
      "åĲĪçī©": 2318,
      "è¯´æĺİ": 2319,
      "æŁĲä¸ª": 2320,
      "In": 2321,
      "ub": 2322,
      "ucle": 2323,
      "ä¸¥": 2324,
      "Ġpred": 2325,
      "Ġrepe": 2326,
      "æĹ¶åĢĻ": 2327,
      "è½¯": 2328,
      "æŀĦæĪĲ": 2329,
      "æĦıåĳ³": 2330,
      "ized": 2331,
      "çī©ä½ĵçļĦ": 2332,
      "åı¦ä¸Ģä¸ª": 2333,
      "é¡ºåºı": 2334,
      "·éħ¸": 2335,
      "¿Ģ": 2336,
      "æ¿Ģ": 2337,
      "ities": 2338,
      "Ġopt": 2339,
      "Ġlater": 2340,
      "åİŁåĽł": 2341,
      "éĿ¢çļĦ": 2342,
      "ç¼ĵ": 2343,
      "åĩłä¸ª": 2344,
      "ä»įçĦ¶": 2345,
      "ma": 2346,
      "Ġair": 2347,
      "æĺł": 2348,
      "åĮĹ": 2349,
      "ä¸ºäºĨ": 2350,
      "çī©ç§į": 2351,
      "çº³": 2352,
      "ç»ıè¿ĩ": 2353,
      "åį³ä½¿": 2354,
      "è®°å½ķ": 2355,
      "è£ħ": 2356,
      "æĿ¿åĿĹ": 2357,
      "air": 2358,
      "din": 2359,
      "è¯ĳ": 2360,
      "Ġstud": 2361,
      "éĺŁ": 2362,
      "quak": 2363,
      "Ġprov": 2364,
      "æŃ£ç¡®": 2365,
      "å»¶": 2366,
      "Ġspeed": 2367,
      "arthquak": 2368,
      "nect": 2369,
      "æĺ¯ä¸Ģä¸ª": 2370,
      "omes": 2371,
      "ç»Ļåĩº": 2372,
      "åĸ": 2373,
      "Ġcr": 2374,
      "å¤ļæķ°": 2375,
      "åı¯ä»¥çĶ¨": 2376,
      "æĻļ": 2377,
      "ĠSc": 2378,
      "éĻĲåĪ¶": 2379,
      "aves": 2380,
      "Ġfield": 2381,
      "Ġoccur": 2382,
      "hip": 2383,
      "æ¥": 2384,
      "ĠãĢĤ": 2385,
      "ä¼łéĢĴ": 2386,
      "çľĭèµ·æĿ¥": 2387,
      "Ġchanged": 2388,
      "æĲľ": 2389,
      "cing": 2390,
      "åįĹ": 2391,
      "Ġconst": 2392,
      "äººä»¬": 2393,
      "æĭ¥": 2394,
      "Ġmost": 2395,
      "æ°Ķä½ĵ": 2396,
      "åĳĺ": 2397,
      "åħ³éĶ®": 2398,
      "çľĭåĪ°": 2399,
      "Ġused": 2400,
      "Ġduring": 2401,
      "Ġfun": 2402,
      "Ġbecame": 2403,
      "Ġresp": 2404,
      "è¾¾åĪ°": 2405,
      "æ·±åº¦": 2406,
      "ç¬¦åı·": 2407,
      "ution": 2408,
      "è´¨åŃĲ": 2409,
      "Ġext": 2410,
      "ç£ģåľº": 2411,
      "Ġrequire": 2412,
      "cul": 2413,
      "ä¸ĵ": 2414,
      "atch": 2415,
      "Ġeach": 2416,
      "èĩªçĶ±": 2417,
      "Ġseveral": 2418,
      "Ġacc": 2419,
      "æĥħåĨµä¸ĭ": 2420,
      "äººå·¥æĻºèĥ½": 2421,
      "æĦıåĳ³çĿĢ": 2422,
      "led": 2423,
      "xim": 2424,
      "çļĦéĹ®é¢ĺ": 2425,
      "Ġmass": 2426,
      "æķ°ç»Ħ": 2427,
      "Ġreact": 2428,
      "åıĺæį¢": 2429,
      "çĶµèĦĳ": 2430,
      "Ġproper": 2431,
      "å¯Ĩåº¦": 2432,
      "edi": 2433,
      "âĢ²": 2434,
      "æĽ´å®¹æĺĵ": 2435,
      "è¶ĭ": 2436,
      "Ġallow": 2437,
      "åĩ½æķ°çļĦ": 2438,
      "èĻ½": 2439,
      "åıī": 2440,
      "ä½ı": 2441,
      "è¦ģæ±Ĥ": 2442,
      "å®Įæķ´": 2443,
      "çĶŁçī©åŃ¦": 2444,
      "åĲĦç§į": 2445,
      "å®ĪæģĴ": 2446,
      "ä¸ĢçĽ´": 2447,
      "Ġexam": 2448,
      "å¹´ä»£": 2449,
      "andom": 2450,
      "ĠEarth": 2451,
      "æĵįä½ľç³»ç»Ł": 2452,
      "çĹħ": 2453,
      "not": 2454,
      "ä»½": 2455,
      "ä¸Ģæł·": 2456,
      "æĸ½": 2457,
      "Ġoper": 2458,
      "åĪĨåĪ«": 2459,
      "æŀ¶": 2460,
      "å¸®": 2461,
      "ç²¾ç¡®": 2462,
      "ĠåĽłæŃ¤": 2463,
      "åı³": 2464,
      "Ġag": 2465,
      "âĢĻ": 2466,
      "åĿı": 2467,
      "Ġbecome": 2468,
      "åİŁåŃĲæł¸": 2469,
      "é£Ł": 2470,
      "000": 2471,
      "è¶ħå¯¼": 2472,
      "èĻĳ": 2473,
      "Ġparticles": 2474,
      "åĪ»": 2475,
      "Ġread": 2476,
      "æĬ¥": 2477,
      "ately": 2478,
      "åĨħå®¹": 2479,
      "æ»¡è¶³": 2480,
      "Ġcorre": 2481,
      "æ¹¿": 2482,
      ")ï¼Į": 2483,
      "ration": 2484,
      "æĤ": 2485,
      "Ġè¿ĻäºĽ": 2486,
      "Ġmust": 2487,
      "çīĪ": 2488,
      "Ġinv": 2489,
      "Ġinst": 2490,
      "æµĵ": 2491,
      "idence": 2492,
      "Ġscient": 2493,
      "çģ«": 2494,
      "åĬ¿èĥ½": 2495,
      "Ġsupport": 2496,
      "ness": 2497,
      "åĶ": 2498,
      "ä½Ļ": 2499,
      "åĬ¨çī©": 2500,
      "çī¹åĪ«": 2501,
      "éĩĮçļĦ": 2502,
      "ĠSt": 2503,
      "äº§çĶŁçļĦ": 2504,
      "è§ĦåĪĻ": 2505,
      "Ġerr": 2506,
      "An": 2507,
      "è®®": 2508,
      "ision": 2509,
      "è¯Ħ": 2510,
      "å¯¹è±¡": 2511,
      "ä¹ĭåĲİ": 2512,
      "Ġshould": 2513,
      "Ġlike": 2514,
      "å¾®åĪĨæĸ¹ç¨ĭ": 2515,
      "âĭ": 2516,
      "åı¥": 2517,
      "åĪĽ": 2518,
      "Ġmain": 2519,
      "å°½": 2520,
      "ä¸įåı¯": 2521,
      "Ġreal": 2522,
      "åĪĨä¸º": 2523,
      "Ġearthquak": 2524,
      "çŃĶ": 2525,
      "plic": 2526,
      "å¤įæĿĤåº¦": 2527,
      "çļĦæľĢ": 2528,
      "åħħ": 2529,
      "æķ°åŃĹ": 2530,
      "æİ¢": 2531,
      "çŃĸ": 2532,
      "è½½": 2533,
      "åİŁæľ¬": 2534,
      "osition": 2535,
      "work": 2536,
      "åįł": 2537,
      "Ġloss": 2538,
      "éĥ½ä¼ļ": 2539,
      "åĮºéĹ´": 2540,
      "è¿ĩç¨ĭä¸Ń": 2541,
      "Ġinteract": 2542,
      "Ġtest": 2543,
      "ines": 2544,
      "ä¸ĢçĤ¹": 2545,
      "æķħ": 2546,
      "arch": 2547,
      "åĪĨè§£": 2548,
      "Ġinde": 2549,
      "çĽĲ": 2550,
      "Ġconnect": 2551,
      "è¡ĮæĺŁ": 2552,
      "æ´²": 2553,
      "Ġrate": 2554,
      "Ġatt": 2555,
      "Ġcool": 2556,
      "è¯ģæį®": 2557,
      "Ġkn": 2558,
      "Ġabs": 2559,
      "åĲ¸æĶ¶": 2560,
      "Ġcaus": 2561,
      "èĻ½çĦ¶": 2562,
      "åı²": 2563,
      "å¤´": 2564,
      "ç»ķ": 2565,
      "Ġbo": 2566,
      "å¸¸æķ°": 2567,
      "ä¹Łåı¯ä»¥": 2568,
      "ç¡¬": 2569,
      "çł´": 2570,
      "Ġresult": 2571,
      "Ġlear": 2572,
      "èµĦæºĲ": 2573,
      "Ġest": 2574,
      "Ġaut": 2575,
      "ä»Ĭ": 2576,
      "ä¸Ģèĩ´": 2577,
      "Ġpower": 2578,
      "Ġback": 2579,
      "Ġfol": 2580,
      "Ġret": 2581,
      "åįı": 2582,
      "ased": 2583,
      "åĽłç´ł": 2584,
      "Ġexper": 2585,
      "åıªèĥ½": 2586,
      "Ġcomb": 2587,
      "æµĭè¯ķ": 2588,
      "æıĲé«ĺ": 2589,
      "ä¿¡åı·": 2590,
      "ä¼ĺåĮĸ": 2591,
      "èĢĥèĻĳ": 2592,
      "æĲľç´¢": 2593,
      "ked": 2594,
      "hether": 2595,
      "å®Ļ": 2596,
      "éĢĨ": 2597,
      "ute": 2598,
      "Ġcannot": 2599,
      "tern": 2600,
      "å¾®ç§¯åĪĨ": 2601,
      "ç¬¬ä¸Ģ": 2602,
      "Ġrelations": 2603,
      "Ġproduce": 2604,
      "Ġpredict": 2605,
      "å®ĩ": 2606,
      "Ġless": 2607,
      "éĻ©": 2608,
      "ets": 2609,
      "iron": 2610,
      "æ´»åĬ¨": 2611,
      "èİ±": 2612,
      "indow": 2613,
      "Ġdirection": 2614,
      "çĨŁ": 2615,
      "Ġcontinu": 2616,
      "val": 2617,
      "way": 2618,
      "çļĦæĸ¹æ³ķ": 2619,
      "äºī": 2620,
      "åľŁ": 2621,
      "Ġfail": 2622,
      "ä¸įç¡®å®ļ": 2623,
      "æĬ¤": 2624,
      "åĵĪ": 2625,
      "Ġforce": 2626,
      "Ġatom": 2627,
      "éĩĬæĶ¾": 2628,
      "Ġphys": 2629,
      "Ġdescribes": 2630,
      "è½¨éģĵ": 2631,
      "eo": 2632,
      "Ġvery": 2633,
      "Ġident": 2634,
      "ä¸įè¿ĩ": 2635,
      "åŃ¦å®¶": 2636,
      "Ġnet": 2637,
      "Ġge": 2638,
      "elf": 2639,
      "å°ıçļĦ": 2640,
      "èĥĮ": 2641,
      "åĩłä½ķ": 2642,
      "åıĤä¸İ": 2643,
      "attern": 2644,
      "éĢĤåĲĪ": 2645,
      "èĭ±è¯Ń": 2646,
      "ä¼°è®¡": 2647,
      "çļĦäºº": 2648,
      "å®¤": 2649,
      "Ġwave": 2650,
      "icient": 2651,
      "è¡¥": 2652,
      "åıĺå¾Ĺ": 2653,
      "Ġdef": 2654,
      "å·¥åħ·": 2655,
      "æķ´ä¸ª": 2656,
      "éĻįæ°´": 2657,
      "çĽ¸å¯¹è®º": 2658,
      "è§īå¾Ĺ": 2659,
      "Ġpoint": 2660,
      "Ġrepeated": 2661,
      "ĠçĶ±äºİ": 2662,
      "ä¸´": 2663,
      "Ġthen": 2664,
      "çĽĸ": 2665,
      "çº¯": 2666,
      "è¾Ĳ": 2667,
      "æĬĺ": 2668,
      "ç´¯": 2669,
      "amet": 2670,
      "åĬłéĢŁåº¦": 2671,
      "ç³»ç»ŁçļĦ": 2672,
      "è¿Ĳç®Ĺ": 2673,
      "âĪĤ": 2674,
      "æŀģéĻĲ": 2675,
      "Ġmagnetic": 2676,
      "ost": 2677,
      "ator": 2678,
      "å¤«": 2679,
      "ç»ĩ": 2680,
      "çĶļ": 2681,
      "Ġpattern": 2682,
      "æĹ§": 2683,
      "è´¹": 2684,
      "ç©·": 2685,
      "å®ŀçİ°": 2686,
      "é«ĺåº¦": 2687,
      "åĿĲ": 2688,
      "åħ¬å¼ı": 2689,
      "Ġtraining": 2690,
      "çī¹å¾ģåĢ¼": 2691,
      "èĴ¸": 2692,
      "å¸®åĬ©": 2693,
      "Ġrelationship": 2694,
      "port": 2695,
      "Ġz": 2696,
      "ins": 2697,
      "Ġdel": 2698,
      "verse": 2699,
      "å¦Ĥä½ķ": 2700,
      "åĢį": 2701,
      "å¤įåĪ¶": 2702,
      "æµ·æ°´": 2703,
      "Ġdiff": 2704,
      "ptions": 2705,
      "è¿ĺæľī": 2706,
      "pend": 2707,
      "çŁ¥è¯Ĩ": 2708,
      "çŁ©éĺµçļĦ": 2709,
      "ä»»æĦı": 2710,
      "åı¦ä¸Ģ": 2711,
      "å£°éŁ³": 2712,
      "ä¸ĸçķĮ": 2713,
      "certain": 2714,
      "Ġide": 2715,
      "ined": 2716,
      "arm": 2717,
      "Ġfrequ": 2718,
      "è¿Ļæł·": 2719,
      "ä¾§": 2720,
      "æł¸å¿ĥ": 2721,
      "å°ıæĹ¶": 2722,
      "çĦ¶èĢĮ": 2723,
      "ä¾ĭåŃĲ": 2724,
      "ä»·åĢ¼": 2725,
      "æī¾åĪ°": 2726,
      "åĳ¨æľŁè¡¨": 2727,
      "Ġassum": 2728,
      "Ġbuil": 2729,
      "å®ĩå®Ļ": 2730,
      "light": 2731,
      "mical": 2732,
      "åĲĮä¸Ģä¸ª": 2733,
      "å¤§éĻĨ": 2734,
      "å·¥ç¨ĭ": 2735,
      "Ġroom": 2736,
      "ven": 2737,
      "Ġsize": 2738,
      "Ġdi": 2739,
      "Ġanal": 2740,
      "usion": 2741,
      "Ġgu": 2742,
      "è½»": 2743,
      "éĥ½æľī": 2744,
      "åĭĴ": 2745,
      "æĭ¥æľī": 2746,
      "ld": 2747,
      "ond": 2748,
      "Ġwhether": 2749,
      "ç§©": 2750,
      "Ġline": 2751,
      "çĶŁåĳ½": 2752,
      "åľ°åĮº": 2753,
      "Ġgrow": 2754,
      "ä¸¤ç§į": 2755,
      "Ġuni": 2756,
      "Ġusually": 2757,
      "è§Ħå¾ĭ": 2758,
      "æģĴæĺŁ": 2759,
      "Ġlimit": 2760,
      "Ġaround": 2761,
      "ength": 2762,
      "Ġocean": 2763,
      "çĶ¨çļĦ": 2764,
      "Ġlow": 2765,
      "åħ·ä½ĵ": 2766,
      "Ġperform": 2767,
      "Ġreflect": 2768,
      "Ġfunction": 2769,
      "16": 2770,
      "gen": 2771,
      "ted": 2772,
      "ĠæŃ¤": 2773,
      "Ġnucle": 2774,
      "çĽ¸ä¼¼": 2775,
      "Ġorgan": 2776,
      "ç»ıåħ¸": 2777,
      "Ġuncertain": 2778,
      "ives": 2779,
      "åĲ«æľī": 2780,
      "è¶³å¤Ł": 2781,
      "Ġrecor": 2782,
      "eople": 2783,
      "çļĦç»ĵæŀľ": 2784,
      "æĺ¯ä¸Ģç§į": 2785,
      "Ġstat": 2786,
      "ides": 2787,
      "æĽ¼": 2788,
      "Ġprot": 2789,
      "ä¹ĭä¸Ģ": 2790,
      "åħ³äºİ": 2791,
      "ç»Ħç»ĩ": 2792,
      "æ¶ī": 2793,
      "Ġscal": 2794,
      "æĻ®éĢļ": 2795,
      "Ġinflu": 2796,
      "aw": 2797,
      "bit": 2798,
      "èĹ": 2799,
      "çļĦçĲĨè®º": 2800,
      "Ġcent": 2801,
      "æĺ¯æĮĩ": 2802,
      "ings": 2803,
      "Ġwor": 2804,
      "ä¸ŃåŃĲ": 2805,
      "æĽ¿": 2806,
      "ä¹ĭåīį": 2807,
      "åīĤ": 2808,
      "æ¨¡å¼ı": 2809,
      "æ¯Ķå¦Ĥ": 2810,
      "è½¬åĮĸ": 2811,
      "ption": 2812,
      "æĹłç©·": 2813,
      "ages": 2814,
      "ĠRe": 2815,
      "Ġdistribution": 2816,
      "è¾Ĳå°Ħ": 2817,
      "hing": 2818,
      "ix": 2819,
      "Ġif": 2820,
      "çļĦæķ°æį®": 2821,
      "Ġcir": 2822,
      "æķĻ": 2823,
      "å·¦": 2824,
      "éģį": 2825,
      "æĦıä¹ī": 2826,
      "æĴŀ": 2827,
      "âĢĶâĢĶ": 2828,
      "Ġexplain": 2829,
      "cl": 2830,
      "me": 2831,
      "ole": 2832,
      "¢å¤į": 2833,
      "çļĦæĹ¶éĹ´": 2834,
      "Ġthese": 2835,
      "Ġpot": 2836,
      "è®¨": 2837,
      "æľīäºº": 2838,
      "ä¼¯": 2839,
      "Ġlay": 2840,
      "æĺ¾èĳĹ": 2841,
      "åıĤèĢĥ": 2842,
      "è§Ħæ¨¡": 2843,
      "æŁ¥æī¾": 2844,
      "Ġgrav": 2845,
      "Ġrepresent": 2846,
      "ä»ĭè´¨": 2847,
      "Ġav": 2848,
      "åħģ": 2849,
      "Ġind": 2850,
      "Ġsto": 2851,
      "Ġconver": 2852,
      "åĩºæĿ¥": 2853,
      "stand": 2854,
      "çĶµæµģ": 2855,
      "ä¹Łå°±æĺ¯": 2856,
      "æ¬§": 2857,
      "æģ¢å¤į": 2858,
      "Ġshow": 2859,
      "è½¬æį¢": 2860,
      "èĬ±": 2861,
      "Ġdesign": 2862,
      "æĹ©æľŁ": 2863,
      "Ġcreate": 2864,
      "dient": 2865,
      "Ġaver": 2866,
      "Ġwr": 2867,
      "èĢĹ": 2868,
      "Ġthough": 2869,
      "è¿Ĳè¡Į": 2870,
      "å¼ºåº¦": 2871,
      "çĽ¸äºĴä½ľçĶ¨": 2872,
      "æµĵåº¦": 2873,
      "çĶļèĩ³": 2874,
      "åħģè®¸": 2875,
      "di": 2876,
      "ires": 2877,
      "viron": 2878,
      "åł": 2879,
      "çļĦæ¦Ĥå¿µ": 2880,
      "åĲ¬": 2881,
      "Ġcle": 2882,
      "åľĪ": 2883,
      "ition": 2884,
      "Ġopen": 2885,
      "å¼¹": 2886,
      "oment": 2887,
      "æĢ§èĥ½": 2888,
      "çº¢": 2889,
      "å¤§å¤ļæķ°": 2890,
      "æĿ¥è¯´": 2891,
      "æĪĸæĺ¯": 2892,
      "å¾Īå¿«": 2893,
      "é¡µ": 2894,
      "Ġorder": 2895,
      "å·²çŁ¥": 2896,
      "æĶ¾å°Ħ": 2897,
      "ply": 2898,
      "Ġä¸º": 2899,
      "ĨĴ": 2900,
      "äº¿": 2901,
      "è¾ĳ": 2902,
      "ä¸Ĭåįĩ": 2903,
      "å¿Ĩ": 2904,
      "åŁºäºİ": 2905,
      "åģ¶": 2906,
      "è½¬å½ķ": 2907,
      "ä¿ĿçķĻ": 2908,
      "ude": 2909,
      "Ġrelative": 2910,
      "äº¤æį¢": 2911,
      "çªģåıĺ": 2912,
      "å¨": 2913,
      "rop": 2914,
      "éĹŃ": 2915,
      "çĶ¨æĿ¥": 2916,
      "Ġtoget": 2917,
      "ç©¿": 2918,
      "éĩįåĬĽ": 2919,
      "çĤ¹çļĦ": 2920,
      "éĿ¢ç§¯": 2921,
      "çĽ®åīį": 2922,
      "Ġmeth": 2923,
      "celer": 2924,
      "Ġoptim": 2925,
      "Ġtogether": 2926,
      "tle": 2927,
      "Ġ-": 2928,
      "æľĽ": 2929,
      "åħį": 2930,
      "å½¼": 2931,
      "Ġalone": 2932,
      "ĠAn": 2933,
      "Ġquest": 2934,
      "æ¢°": 2935,
      "Ġimpro": 2936,
      "Ġimport": 2937,
      "Ġnumber": 2938,
      "æįŁå¤±": 2939,
      "Ġparamet": 2940,
      "Ġx": 2941,
      "äº®": 2942,
      "å¾ħ": 2943,
      "Ġrele": 2944,
      "ention": 2945,
      "Ġtherm": 2946,
      "éĺ¿": 2947,
      "åİŁçĲĨ": 2948,
      "æ²ī": 2949,
      "æľºæ¢°": 2950,
      "ä»£æķ°": 2951,
      "Ġtransfer": 2952,
      "åİĭåĬĽ": 2953,
      "ears": 2954,
      "Ġlonger": 2955,
      "aces": 2956,
      "ape": 2957,
      "çı": 2958,
      "Ġä¸Ģä¸ª": 2959,
      "åı°": 2960,
      "Ġcal": 2961,
      "Ġcap": 2962,
      "Ġpass": 2963,
      "æ¯į": 2964,
      "çİ°åľ¨": 2965,
      "ä½įäºİ": 2966,
      "Ġnext": 2967,
      "Ġshort": 2968,
      "ock": 2969,
      "æ³¢åĬ¨": 2970,
      "éļıçĿĢ": 2971,
      "æ®Ĭ": 2972,
      "å±ŀäºİ": 2973,
      "Ġvalue": 2974,
      "å¹¿æ³Ľ": 2975,
      "Ġdeterm": 2976,
      "Ġvisible": 2977,
      "ä¸įåıĺ": 2978,
      "Ġrese": 2979,
      "å¯»": 2980,
      "éĩıçļĦ": 2981,
      "äºĨä¸Ģ": 2982,
      "ify": 2983,
      "åĿĢ": 2984,
      "Ġrandom": 2985,
      "å¥Ĺ": 2986,
      "ç»Ĩèĥŀæł¸": 2987,
      "ee": 2988,
      "atically": 2989,
      "Ġwell": 2990,
      "éĢ»": 2991,
      "æİī": 2992,
      "é¢Ŀ": 2993,
      "Ġmole": 2994,
      "çī¹æ®Ĭ": 2995,
      "å°±ä¼ļ": 2996,
      "ference": 2997,
      "Ġenviron": 2998,
      "âĪ«": 2999,
      "Ġprobability": 3000,
      "èµĦæĸĻ": 3001,
      "æ½®": 3002,
      "Ġcall": 3003,
      "roup": 3004,
      "æķ°åĪĹ": 3005,
      "å¹ħ": 3006,
      "èĢģ": 3007,
      "æī¿": 3008,
      "âĢ¦": 3009,
      "ural": 3010,
      "ç»ĵè®º": 3011,
      "æĽ´æĸ°": 3012,
      "Ġenough": 3013,
      "çĻ¾": 3014,
      "æļ´": 3015,
      "éĵ¾è¡¨": 3016,
      "èģļç±»": 3017,
      "Ġfix": 3018,
      "æ°¨åŁº": 3019,
      "åĶ¯": 3020,
      "éĢ»è¾ĳ": 3021,
      "dx": 3022,
      "Ġaff": 3023,
      "åŃ£": 3024,
      "Ġear": 3025,
      "è§¦": 3026,
      "å¸Ĥ": 3027,
      "å®ļçĲĨ": 3028,
      "å¤ļå°ĳ": 3029,
      "æķ´ä½ĵ": 3030,
      "Ġresist": 3031,
      "Ġlevel": 3032,
      "æīįåıĳçİ°": 3033,
      "è¶ħè¿ĩ": 3034,
      "ged": 3035,
      "ways": 3036,
      "çļĦèĥ½éĩı": 3037,
      "Ġpr": 3038,
      "Ġpers": 3039,
      "è®¿": 3040,
      "ä¸Ńå¿ĥ": 3041,
      "Ġnorm": 3042,
      "å¤ļé¡¹": 3043,
      "ä¹Łæľī": 3044,
      "éģ¿": 3045,
      "Ġwhy": 3046,
      "Ġcost": 3047,
      "å£³": 3048,
      "ĠCon": 3049,
      "Ġclass": 3050,
      "æĳ©": 3051,
      "Ġimportant": 3052,
      "50": 3053,
      "Ġmult": 3054,
      "Ġmoment": 3055,
      "ä¸ºä»Ģä¹Ī": 3056,
      "ä¸¤èĢħ": 3057,
      "Ġsequ": 3058,
      "Ġrock": 3059,
      "è®°å¿Ĩ": 3060,
      "æīįèĥ½": 3061,
      "Ġincl": 3062,
      "çĽ¸åĲĮçļĦ": 3063,
      "è¯ĨåĪ«": 3064,
      "Ġlarger": 3065,
      "Ġmaterials": 3066,
      "Ġreduce": 3067,
      "Ġmemory": 3068,
      "Ġautom": 3069,
      "å¤ļé¡¹å¼ı": 3070,
      "ties": 3071,
      "çĵ": 3072,
      "çļĦæ°´": 3073,
      "end": 3074,
      "Ġpeople": 3075,
      "ilib": 3076,
      "åı¯ä»¥éĢļè¿ĩ": 3077,
      "osp": 3078,
      "Ġbecomes": 3079,
      "Ġevent": 3080,
      "å²¸": 3081,
      "Ġsystems": 3082,
      "Ġrequires": 3083,
      "Ġelectrons": 3084,
      "dinary": 3085,
      "Ġpotential": 3086,
      "æĶ¾å°ĦæĢ§": 3087,
      "bon": 3088,
      "ec": 3089,
      "ä»¤": 3090,
      "Ġbal": 3091,
      "åĩĿ": 3092,
      "æľĢå¤§": 3093,
      "åŃĺåĤ¨": 3094,
      "ä»ĸä»¬": 3095,
      "çªĹ": 3096,
      "åĩĨç¡®": 3097,
      "Ġitself": 3098,
      "ç¿»": 3099,
      "Ġèĭ¥": 3100,
      "Ġtas": 3101,
      "ä¸ŃéĹ´": 3102,
      "Ġtoo": 3103,
      "æĢ§åĴĮ": 3104,
      "ä¼ļè®©": 3105,
      "é¢ľ": 3106,
      "ull": 3107,
      "Ġcho": 3108,
      "Ġcompon": 3109,
      "Ġsour": 3110,
      "ä¿Ŀè¯ģ": 3111,
      "æļĤ": 3112,
      "Ġcheck": 3113,
      "Ġerror": 3114,
      "Ġfollow": 3115,
      "Ġuncertainty": 3116,
      "å¨ģ": 3117,
      "Ġaffect": 3118,
      "ilibri": 3119,
      "ges": 3120,
      "ices": 3121,
      "å¤§éĥ¨åĪĨ": 3122,
      "Ġmoving": 3123,
      "è¿Ľä¸ĢæŃ¥": 3124,
      "æİĴåĪĹ": 3125,
      "æİĴåºı": 3126,
      "Ġsimple": 3127,
      "æ¶Īå¤±": 3128,
      "Ġstrongly": 3129,
      "Ġproblem": 3130,
      "ove": 3131,
      "çļĦä¸Ģä¸ª": 3132,
      "Ġbr": 3133,
      "çĽĳ": 3134,
      "æĿ¥è¶Ĭ": 3135,
      "æĺİç¡®": 3136,
      "Ġunt": 3137,
      "æĺ¾ç¤º": 3138,
      "èĪª": 3139,
      "Ġdepend": 3140,
      "Ġgradient": 3141,
      "ä¸ľè¥¿": 3142,
      "èŀº": 3143,
      "å½¼æŃ¤": 3144,
      "é¢ľèī²": 3145,
      "ilibrium": 3146,
      "medi": 3147,
      "ral": 3148,
      "æĪ¿": 3149,
      "Ġreve": 3150,
      "åĪĨè£Ĥ": 3151,
      "Ġele": 3152,
      "åĽłåŃĲ": 3153,
      "æĸ¹éĿ¢": 3154,
      "ime": 3155,
      "Ġprog": 3156,
      "Ġordinary": 3157,
      "éª¤": 3158,
      "æ¯ıæ¬¡": 3159,
      "å½¢æĪĲçļĦ": 3160,
      "ç¢°": 3161,
      "Ġsimply": 3162,
      "éĽĨåĲĪè®º": 3163,
      "è§Ĩä¸º": 3164,
      "Ġestim": 3165,
      "ily": 3166,
      "king": 3167,
      "sc": 3168,
      "çļĦä½įç½®": 3169,
      "Ġsing": 3170,
      "å®¢": 3171,
      "ä¸įä»ħ": 3172,
      "æŀĹ": 3173,
      "aster": 3174,
      "Ġtok": 3175,
      "åĲİçļĦ": 3176,
      "ç´§": 3177,
      "å½¢çĬ¶": 3178,
      "åĨħçļĦ": 3179,
      "åĨħåŃĺ": 3180,
      "åĮĸåŃ¦åıįåºĶ": 3181,
      "è°ĥæķ´": 3182,
      "Ġphot": 3183,
      "Ġcommon": 3184,
      "åĶ¯ä¸Ģ": 3185,
      "..": 3186,
      "tal": 3187,
      "Ġ20": 3188,
      "Ġtre": 3189,
      "åı«": 3190,
      "è¿Ł": 3191,
      "è¯º": 3192,
      "Ġstre": 3193,
      "iment": 3194,
      "è½´": 3195,
      "Ġran": 3196,
      "Ġsecon": 3197,
      "ç¬¬ä¸Ģä¸ª": 3198,
      "æĶ¾åľ¨": 3199,
      "Ġusing": 3200,
      "æŃ¥éª¤": 3201,
      "Ġelectric": 3202,
      "Ġradi": 3203,
      "Ġvalues": 3204,
      "åķĨ": 3205,
      "Ġproperties": 3206,
      "Ġcapac": 3207,
      "wer": 3208,
      "é²": 3209,
      "Ġty": 3210,
      "äº¦": 3211,
      "åħ°": 3212,
      "ä¸ĢæĿ¡": 3213,
      "Ġma": 3214,
      "Ġfact": 3215,
      "éĢĶ": 3216,
      "å¤§çº¦": 3217,
      "è¿ĩåİ»": 3218,
      "åĩºçļĦ": 3219,
      "raph": 3220,
      "elt": 3221,
      "éĽª": 3222,
      "çĦ¶åĲİ": 3223,
      "æ®ĸ": 3224,
      "è¶ĬæĿ¥è¶Ĭ": 3225,
      "é£İéĻ©": 3226,
      "éĤ»": 3227,
      "Ġprec": 3228,
      "æĶ¯æĮģ": 3229,
      "Ġscientists": 3230,
      "Ġaverage": 3231,
      "æ°¨åŁºéħ¸": 3232,
      "è®¿éĹ®": 3233,
      "Â°": 3234,
      "ĠåĴĮ": 3235,
      "Ġmat": 3236,
      "ä¸įä¸Ģå®ļ": 3237,
      "æľīæľº": 3238,
      "æķ°çļĦ": 3239,
      "åĪĨéħį": 3240,
      "æĪĲåĬŁ": 3241,
      "åĽłæŀľ": 3242,
      "åľ°è¡¨": 3243,
      "Ġgroup": 3244,
      "æŀĦéĢł": 3245,
      "æµģåĬ¨": 3246,
      "åħ¨çĲĥ": 3247,
      "å¥½çļĦ": 3248,
      "ä¸īä¸ª": 3249,
      "Ġequilibrium": 3250,
      "æ£ĢæŁ¥": 3251,
      "æĽ²çº¿": 3252,
      "Ġlooked": 3253,
      "Ġstatist": 3254,
      "Ġenvironment": 3255,
      "11": 3256,
      "Ġ0": 3257,
      "Ġmiss": 3258,
      "ä¹°": 3259,
      "Ġflu": 3260,
      "ä¸įåĨį": 3261,
      "æĬĹ": 3262,
      "è®¡åĪĴ": 3263,
      "åĳĬ": 3264,
      "çĽ´åĪ°": 3265,
      "ç§ĳåŃ¦å®¶": 3266,
      "å¿«éĢŁ": 3267,
      "ç´¢å¼ķ": 3268,
      "Ġarri": 3269,
      "æľįåĬ¡": 3270,
      "Ġfixed": 3271,
      "TP": 3272,
      "log": 3273,
      "çļĦä½ľçĶ¨": 3274,
      "è®¯": 3275,
      "Ġdri": 3276,
      "åı¯éĿł": 3277,
      "åį«": 3278,
      "Ġstates": 3279,
      "åĪ°çļĦ": 3280,
      "å¤ļç§į": 3281,
      "Ġonce": 3282,
      "æ²³": 3283,
      "Ġexist": 3284,
      "éķľ": 3285,
      "oken": 3286,
      "Ġexpect": 3287,
      "æĭŁåĲĪ": 3288,
      "åİĨåı²": 3289,
      "ĠUn": 3290,
      "pendent": 3291,
      "è®¨è®º": 3292,
      "pre": 3293,
      "åľĨ": 3294,
      "ands": 3295,
      "åºĹ": 3296,
      "éĢģ": 3297,
      "è´£": 3298,
      "æ¸¸": 3299,
      "pped": 3300,
      "å¥ĩ": 3301,
      "äº§çī©": 3302,
      "Ġarea": 3303,
      "åıĳçĶŁåľ¨": 3304,
      "ression": 3305,
      "Ġprev": 3306,
      "éĺ¶æ®µ": 3307,
      "åĵªäºĽ": 3308,
      "ç¼ĸçłģ": 3309,
      "Ġsampl": 3310,
      "ĠâĢľ": 3311,
      "Ġå¯¹äºİ": 3312,
      "Ġdra": 3313,
      "Ġway": 3314,
      "Ġfaster": 3315,
      "çĶ¨æĪ·": 3316,
      "Ġlit": 3317,
      "åĮĸåĲĪçī©": 3318,
      "Ġbeg": 3319,
      "Ġstep": 3320,
      "Ġconcent": 3321,
      "aking": 3322,
      "åĮºåĪĨ": 3323,
      "åİŁåŃĲçļĦ": 3324,
      "Ġevidence": 3325,
      "Ġdisco": 3326,
      "Ġmeasurement": 3327,
      "Ġamo": 3328,
      "Ġapproxim": 3329,
      "æĥ¯æĢ§": 3330,
      "ç¢±åŁº": 3331,
      "by": 3332,
      "wn": 3333,
      "ints": 3334,
      "Ġbro": 3335,
      "åįĪ": 3336,
      "cept": 3337,
      "utes": 3338,
      "çĽ¸å½ĵ": 3339,
      "å¿½": 3340,
      "å¹¶æ²¡æľī": 3341,
      "Ġexact": 3342,
      "çī¹æĢ§": 3343,
      "Ġneut": 3344,
      "åĻª": 3345,
      "è®¾å¤ĩ": 3346,
      "åŁºåĽłçļĦ": 3347,
      "Ġchanging": 3348,
      "Ġadd": 3349,
      "æļĸ": 3350,
      "æĮ¯åĬ¨": 3351,
      "40": 3352,
      "Ġturn": 3353,
      "atic": 3354,
      "ene": 3355,
      "Ġpres": 3356,
      "Ġdown": 3357,
      "Ġwaves": 3358,
      "lying": 3359,
      "Ġthree": 3360,
      "Ġhard": 3361,
      "ilar": 3362,
      "éļĲ": 3363,
      "æ¨¡æĭŁ": 3364,
      "æ¯Ķä¾ĭ": 3365,
      "Ġris": 3366,
      "ially": 3367,
      "Ġrot": 3368,
      "éĴĪ": 3369,
      "ĠEn": 3370,
      "æ´»æĢ§": 3371,
      "Ġunderstand": 3372,
      "Ġmakes": 3373,
      "éĻ¤äºĨ": 3374,
      "å®īåħ¨": 3375,
      "Ġnetwork": 3376,
      "Ġve": 3377,
      "ero": 3378,
      "æµª": 3379,
      "Ġconduct": 3380,
      "å¾Īå®¹æĺĵ": 3381,
      "Ġdev": 3382,
      "åĪĻæĺ¯": 3383,
      "éĶģ": 3384,
      "æĹłéĻĲ": 3385,
      "ivid": 3386,
      "çĥŃå¸¦": 3387,
      "Ġdistance": 3388,
      "Ġcarbon": 3389,
      "Ġchemical": 3390,
      "Ġeasier": 3391,
      "é¢Ŀå¤ĸ": 3392,
      "ait": 3393,
      "çļĦåĩ½æķ°": 3394,
      "inal": 3395,
      "Ġcross": 3396,
      "ä»ª": 3397,
      "Ġday": 3398,
      "Ġthose": 3399,
      "äºĨä¸Ģä¸ª": 3400,
      "åı¯ä»¥åľ¨": 3401,
      "osed": 3402,
      "ables": 3403,
      "Ġalong": 3404,
      "é«ĺçļĦ": 3405,
      "ç»ĨèıĮ": 3406,
      "ored": 3407,
      "Ġplas": 3408,
      "æĿ¡ä»¶ä¸ĭ": 3409,
      "é¦Ī": 3410,
      "Ġhelps": 3411,
      "æĬ½è±¡": 3412,
      "éģ¿åħį": 3413,
      "Ġmulti": 3414,
      "ĠçĦ¶èĢĮ": 3415,
      "ances": 3416,
      "èĢĮè¨Ģ": 3417,
      "æĸ¹æ¡Ī": 3418,
      "ulation": 3419,
      "éĽ·": 3420,
      "åıįå°Ħ": 3421,
      "å¹³æĸ¹": 3422,
      "Ġselect": 3423,
      "çĥŃéĩı": 3424,
      "Ġuses": 3425,
      "åĳ¨åĽ´": 3426,
      "çī©è´¨çļĦ": 3427,
      "Ġphase": 3428,
      "å®ĥä»¬çļĦ": 3429,
      "èģĶç³»": 3430,
      "ynam": 3431,
      "éĩĩçĶ¨": 3432,
      "Ġsample": 3433,
      "Ġinside": 3434,
      "æĺłå°Ħ": 3435,
      "fect": 3436,
      "no": 3437,
      "ru": 3438,
      "âī": 3439,
      "ĠV": 3440,
      "å®½": 3441,
      "Ġfl": 3442,
      "æĹ¶çļĦ": 3443,
      "Ġground": 3444,
      "ures": 3445,
      "æİ¥åıĹ": 3446,
      "ç¡®è®¤": 3447,
      "æĮĩæłĩ": 3448,
      "ç»´æĮģ": 3449,
      "Ġtimes": 3450,
      "æ£®": 3451,
      "åĪĿå§ĭ": 3452,
      "Ġupd": 3453,
      "Ġconstant": 3454,
      "çīĪæľ¬": 3455,
      "Ġuntil": 3456,
      "ç¢°æĴŀ": 3457,
      "Ġsingle": 3458,
      "den": 3459,
      "ym": 3460,
      "å³": 3461,
      "éº": 3462,
      "atory": 3463,
      "Ġcy": 3464,
      "è¯·": 3465,
      "åį°": 3466,
      "æī¹": 3467,
      "Ġlab": 3468,
      "ä¼ļåľ¨": 3469,
      "åľ°éĿ¢": 3470,
      "åĬ¨ä½ľ": 3471,
      "åħ¶å®ĥ": 3472,
      "quid": 3473,
      "éļľ": 3474,
      "åħ³æ³¨": 3475,
      "è·¨": 3476,
      "åĩ½æķ°åľ¨": 3477,
      "Ġtravel": 3478,
      "éĢĤåºĶ": 3479,
      "åģıå·®": 3480,
      "Ġprocesses": 3481,
      "struct": 3482,
      "ium": 3483,
      "lic": 3484,
      "¹ģ": 3485,
      "ç¹ģ": 3486,
      "äºĶ": 3487,
      "å°¤": 3488,
      "å¼Ĺ": 3489,
      "åįĥ": 3490,
      "Ġlower": 3491,
      "åĬ¨èĥ½": 3492,
      "idation": 3493,
      "çľ¼": 3494,
      "æł¸èĭ": 3495,
      "åįķä¸Ģ": 3496,
      "å½ĵåīį": 3497,
      "ç¼ĺ": 3498,
      "äºĮåıī": 3499,
      "å¢ŀéķ¿": 3500,
      "åĪĨåŃĲçļĦ": 3501,
      "Ġleft": 3502,
      "åľ°çĲĥçļĦ": 3503,
      "ä¿®æĶ¹": 3504,
      "Ġcarri": 3505,
      "è¡°åıĺ": 3506,
      "å²©çŁ³": 3507,
      "ĠScience": 3508,
      "Ġagain": 3509,
      "Ġreveal": 3510,
      "Token": 3511,
      "tage": 3512,
      "Ġcell": 3513,
      "rodu": 3514,
      "Ġinput": 3515,
      "ä»¥ä¸ĭ": 3516,
      "æī°": 3517,
      "Ġher": 3518,
      "raction": 3519,
      "ider": 3520,
      "Ġgre": 3521,
      "å¹³éĿ¢": 3522,
      "Ġcompar": 3523,
      "éĵģ": 3524,
      "æ¼Ĥ": 3525,
      "åİĭç¼©": 3526,
      "å¯Ĩçłģ": 3527,
      "Ġnoise": 3528,
      "æľºåĻ¨åŃ¦ä¹ł": 3529,
      "ological": 3530,
      "Ġanalys": 3531,
      "èŀºæĹĭ": 3532,
      "pect": 3533,
      "Ġå®ĥ": 3534,
      "æľ«": 3535,
      "Ġfelt": 3536,
      "æĿ¾": 3537,
      "çĽĺ": 3538,
      "æĪĲç«ĭ": 3539,
      "Ġhot": 3540,
      "å·¨": 3541,
      "ä½ĵç§¯": 3542,
      "åĪ°äºĨ": 3543,
      "ç¨ĭå¼ı": 3544,
      "å®ŀæķ°": 3545,
      "åĢ¼çļĦ": 3546,
      "çĥĪ": 3547,
      "æķĪæŀľ": 3548,
      "æķĪçİĩ": 3549,
      "æīĢæľīçļĦ": 3550,
      "ensity": 3551,
      "ç®ĢåįķçļĦ": 3552,
      "Ġcollect": 3553,
      "å¹¿ä¹ī": 3554,
      "Ġliquid": 3555,
      "Ġcharge": 3556,
      "Ġperformance": 3557,
      "åĻªå£°": 3558,
      "ou": 3559,
      "Ġdid": 3560,
      "ish": 3561,
      "isms": 3562,
      "æł¡": 3563,
      "åŃ¦ç§ĳ": 3564,
      "Ġhand": 3565,
      "Ġstable": 3566,
      "ä¸Ĭè¿°": 3567,
      "ults": 3568,
      "åĬłåħ¥": 3569,
      "åħīè°±": 3570,
      "Ġshif": 3571,
      "oci": 3572,
      "éħ¶çļĦ": 3573,
      "æĹĭè½¬": 3574,
      "Ġrespon": 3575,
      "17": 3576,
      "For": 3577,
      "Ġ'": 3578,
      "Ġä½Ĩ": 3579,
      "çļĦåıĺåĮĸ": 3580,
      "äº«": 3581,
      "orage": 3582,
      "æĺ¯åĽłä¸º": 3583,
      "Ġpop": 3584,
      "Ġtoward": 3585,
      "éĹ´çļĦ": 3586,
      "Ġstart": 3587,
      "å¯¹ç§°": 3588,
      "åĬĽçļĦ": 3589,
      "å¸¸å¸¸": 3590,
      "åı¯èĥ½ä¼ļ": 3591,
      "ç«Ļ": 3592,
      "ĠIf": 3593,
      "Ġdifference": 3594,
      "å£«": 3595,
      "çº¦æĿŁ": 3596,
      "å¤įæĿĤçļĦ": 3597,
      "èĤ²": 3598,
      "Ġcoll": 3599,
      "ç»Ŀå¯¹": 3600,
      "Ġresistance": 3601,
      "OE": 3602,
      "çļĦæĹ¶åĢĻ": 3603,
      "æľĹ": 3604,
      "Ġsomet": 3605,
      "aries": 3606,
      "Ġfam": 3607,
      "asing": 3608,
      "å¤§å®¶": 3609,
      "ç¨Ģ": 3610,
      "vered": 3611,
      "çĽ¸åıį": 3612,
      "æľĢå°ı": 3613,
      "Ġorig": 3614,
      "æ±½": 3615,
      "arily": 3616,
      "Ġfew": 3617,
      "è®¡ç®Ĺæľºç§ĳåŃ¦": 3618,
      "æĿĥéĩį": 3619,
      "iew": 3620,
      "ç¾İåĽ½": 3621,
      "Ġminutes": 3622,
      "Ġinstead": 3623,
      "âĭħ": 3624,
      "Ġlearning": 3625,
      "cu": 3626,
      "Ġposit": 3627,
      "Ġwill": 3628,
      "icult": 3629,
      "å¤§äºİ": 3630,
      "å¤§åŀĭ": 3631,
      "Ġhy": 3632,
      "æĽ´å¿«": 3633,
      "ç»Łä¸Ģ": 3634,
      "ä½įç§»": 3635,
      "ç»ıå¸¸": 3636,
      "å¼Ģåıĳ": 3637,
      "Ġsound": 3638,
      "Ġquick": 3639,
      "Ġacceler": 3640,
      "äºĭå®ŀ": 3641,
      "åħ±ä»·": 3642,
      "æİ¨çĲĨ": 3643,
      "æĦŁçŁ¥": 3644,
      "Ġsimilar": 3645,
      "åĳ½åĲį": 3646,
      "æĮīçħ§": 3647,
      "Ġreturn": 3648,
      "å¯»æī¾": 3649,
      "å¿½çķ¥": 3650,
      "ex": 3651,
      "li": 3652,
      "èĸ": 3653,
      "æĺ¯ä¸Ģ": 3654,
      "Ġbi": 3655,
      "Ġwarm": 3656,
      "çº¸": 3657,
      "åĲĪéĢĤ": 3658,
      "çŃīå¾ħ": 3659,
      "å¾Īå¤§": 3660,
      "fficient": 3661,
      "Ġperi": 3662,
      "åįĬå¾Ħ": 3663,
      "ĠWhen": 3664,
      "ä¸¥æł¼": 3665,
      "Ġcorrect": 3666,
      "indows": 3667,
      "Ġgeomet": 3668,
      "Ġdifficult": 3669,
      "Ġsequence": 3670,
      "Ġautomatically": 3671,
      "ĠJ": 3672,
      "Ġè¿Ļç§į": 3673,
      "åħ¹": 3674,
      "ç»¿": 3675,
      "arant": 3676,
      "çº¬": 3677,
      "imens": 3678,
      "æĬķ": 3679,
      "åĢŁ": 3680,
      "äººçļĦ": 3681,
      "åºĶè¯¥": 3682,
      "åĳĪ": 3683,
      "è¿ĽåĮĸ": 3684,
      "ĠAt": 3685,
      "å¤ĸéĥ¨": 3686,
      "åĪ¶éĢł": 3687,
      "ake": 3688,
      "è¿ĺæĺ¯": 3689,
      "range": 3690,
      "æ»ĳ": 3691,
      "æĵ¦": 3692,
      "åģĩè¯´": 3693,
      "åºķçī©": 3694,
      "éĩıåŃĲåĬĽåŃ¦": 3695,
      "åĤ¨åŃĺ": 3696,
      "Ġstars": 3697,
      "Ġfrequency": 3698,
      "Ġguarant": 3699,
      "At": 3700,
      "ods": 3701,
      "ĠQ": 3702,
      "çļĦè¿ĩç¨ĭ": 3703,
      "ans": 3704,
      "Ġwait": 3705,
      "åľ¨äºİ": 3706,
      "å°ģ": 3707,
      "åĪĨç¦»": 3708,
      "æĪĲåĪĨ": 3709,
      "æŃ»": 3710,
      "Ġmoved": 3711,
      "chn": 3712,
      "ants": 3713,
      "å®ļä¹īä¸º": 3714,
      "ç»Ļå®ļ": 3715,
      "åı¦å¤ĸ": 3716,
      "Ġwee": 3717,
      "ç¥ŀç»ıåħĥ": 3718,
      "å®ŀéĻħä¸Ĭ": 3719,
      "ossible": 3720,
      "çļĦä¸Ģéĥ¨åĪĨ": 3721,
      "å¡ŀ": 3722,
      "Ġneeded": 3723,
      "Ġinfluence": 3724,
      "Ġnormal": 3725,
      "æł¸èĭ·éħ¸": 3726,
      "13": 3727,
      "ax": 3728,
      "cos": 3729,
      "ches": 3730,
      "ext": 3731,
      "rical": 3732,
      "Ġ.": 3733,
      "ĠåĽłä¸º": 3734,
      "çļĦæĸ¹å¼ı": 3735,
      "åĲ¯": 3736,
      "å®ı": 3737,
      "æĪĺ": 3738,
      "Ġans": 3739,
      "Ġrece": 3740,
      "Ġel": 3741,
      "Ġhol": 3742,
      "åĳ¼": 3743,
      "éģĩ": 3744,
      "æ°´å¹³": 3745,
      "Ġwithin": 3746,
      "å¹³æĹ¶": 3747,
      "è§ĤçĤ¹": 3748,
      "äºĮåĪĨ": 3749,
      "ody": 3750,
      "æķ°åŃ¦å®¶": 3751,
      "Ġtransport": 3752,
      "ready": 3753,
      "Ġcomplete": 3754,
      "åĽ¢éĺŁ": 3755,
      "Ġindependent": 3756,
      "Ġassumptions": 3757,
      "ious": 3758,
      "Ńä»£": 3759,
      "çļĦåŁºç¡Ģ": 3760,
      "äº²": 3761,
      "è¿Ńä»£": 3762,
      "itable": 3763,
      "itude": 3764,
      "Ġpol": 3765,
      "Ġany": 3766,
      "ç§Ĵ": 3767,
      "ä¸ºéĽ¶": 3768,
      "ason": 3769,
      "çĲĨæĥ³": 3770,
      "urb": 3771,
      "ä¸ĭæĿ¥": 3772,
      "æľĢä¼ĺ": 3773,
      "åī©": 3774,
      "å¹´åīį": 3775,
      "Ġalready": 3776,
      "Ġdevel": 3777,
      "å¥¥": 3778,
      "Ġseem": 3779,
      "éĹ®é¢ĺçļĦ": 3780,
      "izes": 3781,
      "äºĮæ°§åĮĸ": 3782,
      "åŁºåĽłç»Ħ": 3783,
      "é©±": 3784,
      "Ġmeasures": 3785,
      "æ£ĢéªĮ": 3786,
      "Ġremains": 3787,
      "Ġkeep": 3788,
      "é¥Ń": 3789,
      "Ġvoltage": 3790,
      "Ġcontinuous": 3791,
      "Ġclear": 3792,
      "Ġsource": 3793,
      "çĩ": 3794,
      "Ġåħ¶ä¸Ń": 3795,
      "Ġsun": 3796,
      "Ġpa": 3797,
      "åľ¨ä¸Ģèµ·": 3798,
      "Ġflo": 3799,
      "åĩ»": 3800,
      "åĮĢ": 3801,
      "è¯¢": 3802,
      "Ġbeing": 3803,
      "åĪ°è¾¾": 3804,
      "åıĳè¡¨": 3805,
      "ç³»æķ°": 3806,
      "æīĢéľĢ": 3807,
      "çŃīçŃī": 3808,
      "è¿ĺåİŁ": 3809,
      "èĪ¹": 3810,
      "Ġintern": 3811,
      "ograph": 3812,
      "æĢĿæĥ³": 3813,
      "æ¥¼": 3814,
      "æ¥ļ": 3815,
      "Ġexample": 3816,
      "çł´åĿı": 3817,
      "Ġzero": 3818,
      "åıĤèĢĥç³»": 3819,
      "Ġavail": 3820,
      "Ġquickly": 3821,
      "åħ»": 3822,
      "ense": 3823,
      "æĹ¢": 3824,
      "åĪĨæĶ¯": 3825,
      "Ġtotal": 3826,
      "èĢĮä¸Ķ": 3827,
      "çĽ¸çŃī": 3828,
      "ä½ľä¸ļ": 3829,
      "istic": 3830,
      "æĹ¶éĹ´çļĦ": 3831,
      "æ¬¡æķ°": 3832,
      "æıĲåīį": 3833,
      "pec": 3834,
      "åĲĳéĩıçļĦ": 3835,
      "åħ±äº«": 3836,
      "Ġinterpre": 3837,
      "äºĴçĽ¸": 3838,
      "åĽ½éĻħ": 3839,
      "Ġoutc": 3840,
      "Ġmodels": 3841,
      "Ġreduces": 3842,
      "Ġcreated": 3843,
      "æ¸ħæ¥ļ": 3844,
      "Ġobserved": 3845,
      "æĻ¶ä½ĵ": 3846,
      "Ġseparate": 3847,
      "Ġinvol": 3848,
      "å°½ç®¡": 3849,
      "å®ıè§Ĥ": 3850,
      "30": 3851,
      "AI": 3852,
      "mosp": 3853,
      "ner": 3854,
      "pot": 3855,
      "Ġä»İ": 3856,
      "åľ¨ä¸įåĲĮ": 3857,
      "Ġang": 3858,
      "ä¼¸": 3859,
      "ä¸ªä½ĵ": 3860,
      "Ġred": 3861,
      "ently": 3862,
      "æ°¸": 3863,
      "ĠThey": 3864,
      "åįķçĭ¬": 3865,
      "éľĢæ±Ĥ": 3866,
      "å¤©ä½ĵ": 3867,
      "çĥŃåĬĽåŃ¦": 3868,
      "ç«ĭåĪ»": 3869,
      "æ»´": 3870,
      "åı¦ä¸Ģç§į": 3871,
      "ç¨³å®ļçļĦ": 3872,
      "Ġremo": 3873,
      "å²Ľ": 3874,
      "Ġweak": 3875,
      "èģļåĲĪ": 3876,
      "Ġcomplex": 3877,
      "è¶ĭåĬ¿": 3878,
      "Ġabsor": 3879,
      "Ġinclud": 3880,
      "Ġsecond": 3881,
      "Ġlittle": 3882,
      "å°¤åħ¶": 3883,
      "çĳ": 3884,
      "é±": 3885,
      "çļĦéĩįè¦ģ": 3886,
      "Ġrepl": 3887,
      "omp": 3888,
      "ä¼ļæĶ¹åıĺ": 3889,
      "ä½ĵç³»": 3890,
      "æ¯Ĵ": 3891,
      "éħµ": 3892,
      "åıįé¦Ī": 3893,
      "pping": 3894,
      "è°ĵ": 3895,
      "åħīåŃ¦": 3896,
      "Ġdifferences": 3897,
      "ĠEx": 3898,
      "ç®¡çĲĨ": 3899,
      "èĩªå·±çļĦ": 3900,
      "Ġobjects": 3901,
      "Ġconsist": 3902,
      "Ġboundary": 3903,
      "è½¯ä»¶": 3904,
      "Ġearthquakes": 3905,
      "ä¸įç¡®å®ļæĢ§": 3906,
      "èĴ¸åıĳ": 3907,
      "Ġresearch": 3908,
      "can": 3909,
      "gor": 3910,
      "pid": 3911,
      "ura": 3912,
      "çĶ»": 3913,
      "ä¸Ģéĥ¨åĪĨ": 3914,
      "è®²": 3915,
      "ä¼¦": 3916,
      "Ġreac": 3917,
      "åı¯è§ģ": 3918,
      "Ġnon": 3919,
      "å¸Ī": 3920,
      "æīĺ": 3921,
      "æµ®": 3922,
      "Ġoff": 3923,
      "æĢ§çĬ¶": 3924,
      "è¾¨": 3925,
      "Ġstren": 3926,
      "ä¸Ĭä¸ĭ": 3927,
      "ili": 3928,
      "åĲĪçĲĨ": 3929,
      "olution": 3930,
      "que": 3931,
      "osing": 3932,
      "é¡¶": 3933,
      "Ġsee": 3934,
      "æİ¥è§¦": 3935,
      "ç¦»æķ£": 3936,
      "çłĶç©¶èĢħ": 3937,
      "çľŁæł¸": 3938,
      "ç¬¬ä¸Ģæ¬¡": 3939,
      "ç£·éħ¸": 3940,
      "åŃĺåľ¨çļĦ": 3941,
      "åħ¬éĩĮ": 3942,
      "å¤±åİ»": 3943,
      "Ġrapid": 3944,
      "æ¼Ķç®Ĺæ³ķ": 3945,
      "ĠOff": 3946,
      "Ġyet": 3947,
      "Ġdetect": 3948,
      "éĢıè¿ĩ": 3949,
      "åĨ²çªģ": 3950,
      "æĤī": 3951,
      "çŃĶæ¡Ī": 3952,
      "åĿĲæłĩ": 3953,
      "Ġgravity": 3954,
      "Ġdevelop": 3955,
      ").": 3956,
      "af": 3957,
      "cre": 3958,
      "Ġed": 3959,
      "Ġå¯¹": 3960,
      "è¿½": 3961,
      "Ġmic": 3962,
      "Ġopp": 3963,
      "Ġhapp": 3964,
      "å·´": 3965,
      "Ġstorage": 3966,
      "åĬ¨æĢģ": 3967,
      "åĬ¨åĬĽåŃ¦": 3968,
      "Ġgo": 3969,
      "æĽ´é«ĺ": 3970,
      "æľ¬è´¨": 3971,
      "åıįå¤į": 3972,
      "ç»ĨèĬĤ": 3973,
      "è°¢": 3974,
      "è½¬ç§»": 3975,
      "Ġplace": 3976,
      "çģµ": 3977,
      "ĠHe": 3978,
      "ç¬¦åĲĪ": 3979,
      "éĿĻæŃ¢": 3980,
      "Ġdirectly": 3981,
      "å¸¸è§ģçļĦ": 3982,
      "é£Łçī©": 3983,
      "çĨŁæĤī": 3984,
      "åłĨ": 3985,
      "Ġanalysis": 3986,
      "é±¼": 3987,
      "When": 3988,
      "cop": 3989,
      "eared": 3990,
      "åĺ": 3991,
      "Ġtr": 3992,
      "Ġaway": 3993,
      "iny": 3994,
      "hem": 3995,
      "Ġside": 3996,
      "Ġdark": 3997,
      "Ġfil": 3998,
      "Ġfound": 3999,
      "Ġown": 4000,
      "åĽ°": 4001,
      "åį·": 4002,
      "çİ»": 4003,
      "äºĨè§£": 4004,
      "æĽ¾": 4005,
      "éĺ²": 4006,
      "æıĴ": 4007,
      "ument": 4008,
      "æ´Ľ": 4009,
      "å¥ĸ": 4010,
      "Ġatmosp": 4011,
      "æ¯ıå¤©": 4012,
      "å¼ķèµ·": 4013,
      "åħ¬çĲĨ": 4014,
      "æĢ»æĺ¯": 4015,
      "Ġaddit": 4016,
      "Ġelectrical": 4017,
      "èĤ¡": 4018,
      "Ġfeel": 4019,
      "Ġfeature": 4020,
      "Ġyears": 4021,
      "è´Łè´£": 4022,
      "Ġregion": 4023,
      "Ġincrease": 4024,
      "æ³¨æĦıåĬĽ": 4025,
      "Ġknow": 4026,
      "Ġatoms": 4027,
      "èĥĮæĻ¯": 4028,
      "èĹı": 4029,
      "è½¬åĮĸä¸º": 4030,
      "Ġrange": 4031,
      "Ġcapacity": 4032,
      "äºĮæ°§åĮĸç¢³": 4033,
      "ĠOffice": 4034,
      "15": 4035,
      "60": 4036,
      "bed": 4037,
      "ling": 4038,
      "ÃĹ": 4039,
      "ĠK": 4040,
      "çļĦå°ı": 4041,
      "çļĦåİŁåŃĲ": 4042,
      "Ġtri": 4043,
      "Ġsw": 4044,
      "ane": 4045,
      "ä¸Ģæ®µ": 4046,
      "Ġdom": 4047,
      "Ġfar": 4048,
      "æĸľ": 4049,
      "è¯¾": 4050,
      "Ġrest": 4051,
      "åĮĸçļĦ": 4052,
      "Ġhig": 4053,
      "éľ²": 4054,
      "åıĺåĮĸçļĦ": 4055,
      "åħ¨éĥ¨": 4056,
      "æķ´æķ°": 4057,
      "ä¿ĿåŃĺ": 4058,
      "åĽ¾åĥı": 4059,
      "ç¨³å®ļæĢ§": 4060,
      "ĠOn": 4061,
      "åįģåĪĨéĴŁ": 4062,
      "Ġbetter": 4063,
      "æ½ľ": 4064,
      "Ġphysical": 4065,
      "æ¶īåıĬ": 4066,
      "Ġbalance": 4067,
      "Ġplasma": 4068,
      "äºĮåĪĨæŁ¥æī¾": 4069,
      "200": 4070,
      "sh": 4071,
      "çļĦç»ĵæŀĦ": 4072,
      "çĶ²": 4073,
      "ä¸Ģç»Ħ": 4074,
      "Ġpair": 4075,
      "æľīåºı": 4076,
      "è´¥": 4077,
      "è¿Ļç±»": 4078,
      "æĬĳ": 4079,
      "ayed": 4080,
      "åĿ¦": 4081,
      "æŃ£å¸¸": 4082,
      "Ġseism": 4083,
      "ä¼łç»Ł": 4084,
      "Ġshape": 4085,
      "è§Ĵåº¦": 4086,
      "ãĢįãĢĤ": 4087,
      "Ġweight": 4088,
      "Ġmeasured": 4089,
      "Ġassoci": 4090,
      "éĻĨåľ°": 4091,
      "å¯¹åºĶçļĦ": 4092,
      "Ġcommun": 4093,
      "Ġsignal": 4094,
      "çĶµç£ģæ³¢": 4095,
      "Ġearthquake": 4096,
      "Ġmethod": 4097,
      "Ġquestion": 4098,
      "Ġneutron": 4099,
      "Ġresponse": 4100,
      "èĸĦ": 4101,
      "80": 4102,
      "OS": 4103,
      "cular": 4104,
      "ian": 4105,
      "po": 4106,
      "vant": 4107,
      "Ġè¿Ļä¸ª": 4108,
      "erve": 4109,
      "å®³": 4110,
      "ä¸Ģè¯į": 4111,
      "arrow": 4112,
      "Ġfree": 4113,
      "æľīä¸Ģä¸ª": 4114,
      "æĿ¯": 4115,
      "ä¸ŃåĽ½": 4116,
      "åŃ¦çĶŁ": 4117,
      "æĸ¹å·®": 4118,
      "è¦Ĩ": 4119,
      "æīĢè°ĵ": 4120,
      "Ġalways": 4121,
      "Ġdeep": 4122,
      "å±ĤçļĦ": 4123,
      "åĽ¾å½¢": 4124,
      "Ġappear": 4125,
      "Ġtransform": 4126,
      "Ġsmaller": 4127,
      "Ġrare": 4128,
      "Ġload": 4129,
      "Ġmaking": 4130,
      "Ġmeasurements": 4131,
      "Ġreduced": 4132,
      "éĿłè¿ĳ": 4133,
      "é»ĳ": 4134,
      "Ġgenerally": 4135,
      "å¸Įèħ": 4136,
      "èŀį": 4137,
      "Ġlinear": 4138,
      "ĠæŃ¤å¤ĸ": 4139,
      "å³°": 4140,
      "Ġinternal": 4141,
      "å¸ĮèħĬ": 4142,
      "to": 4143,
      "çŀ": 4144,
      "Ġes": 4145,
      "çļ®": 4146,
      "ale": 4147,
      "Ġmon": 4148,
      "Ġpresent": 4149,
      "Ġour": 4150,
      "éĢĢ": 4151,
      "å¯¸": 4152,
      "æĿ¥æºĲ": 4153,
      "å±ħ": 4154,
      "iding": 4155,
      "çĽ¸åºĶ": 4156,
      "ä¹Łèĥ½": 4157,
      "æĭ¿": 4158,
      "èµ«": 4159,
      "æľĢåĪĿ": 4160,
      "Ġproduct": 4161,
      "åıįåĲĳ": 4162,
      "åıįæĺł": 4163,
      "Ġasked": 4164,
      "ç«ŀ": 4165,
      "åħīåĲĪ": 4166,
      "ç¤¾": 4167,
      "åĨ³çŃĸ": 4168,
      "éĽĨä¸Ń": 4169,
      "å·²æľī": 4170,
      "Ġdistin": 4171,
      "Ġclose": 4172,
      "Ġrelated": 4173,
      "Ġadj": 4174,
      "é¡¹çĽ®": 4175,
      "Ġoutput": 4176,
      "Ġproduced": 4177,
      "Ġactive": 4178,
      "Ġnearby": 4179,
      "ä¸ĩæľī": 4180,
      "Ġentire": 4181,
      "åĸĦ": 4182,
      "Ġextre": 4183,
      "Ġamount": 4184,
      "çº¬åº¦": 4185,
      "Ġanswer": 4186,
      "âŁ": 4187,
      "Ġåľ°çĲĥ": 4188,
      "æľ¨": 4189,
      "è¿¹": 4190,
      "çĶŁæĢģ": 4191,
      "çĶŁæ´»": 4192,
      "æĿ¥è¡¨ç¤º": 4193,
      "Ġgas": 4194,
      "å¹¶éĿŀ": 4195,
      "å¾Īéļ¾": 4196,
      "å¹´çļĦ": 4197,
      "æŃ£å¼ı": 4198,
      "ä»ĸçļĦ": 4199,
      "ä½¿çĶ¨çļĦ": 4200,
      "åĵįåºĶ": 4201,
      "å¤±è´¥": 4202,
      "å¡«": 4203,
      "ä¹ĺæ³ķ": 4204,
      "Ġvolcan": 4205,
      "çĮ®": 4206,
      "ç¼ĵåŃĺ": 4207,
      "Ġimprove": 4208,
      "Ġcalled": 4209,
      "Ġperson": 4210,
      "Ġbegin": 4211,
      "Ġbroad": 4212,
      "äºĮåıīæłĳ": 4213,
      "Ġoriginal": 4214,
      "åħ±ä»·éĶ®": 4215,
      "Ġstrength": 4216,
      "æĬĳåĪ¶": 4217,
      "23": 4218,
      "bers": 4219,
      "day": 4220,
      "gest": 4221,
      "Ġä¸įè¿ĩ": 4222,
      "çļĦæĸ¹åĲĳ": 4223,
      "çļĦåŁºæľ¬": 4224,
      "å¤ľ": 4225,
      "åħŃ": 4226,
      "Ġpract": 4227,
      "å°ļ": 4228,
      "ished": 4229,
      "Ġfa": 4230,
      "æĢİ": 4231,
      "Ġinit": 4232,
      "æ°ı": 4233,
      "Ġstand": 4234,
      "Ġstress": 4235,
      "æĸ¹ä¾¿": 4236,
      "å¦Ĥä¸ĭ": 4237,
      "åĢ¾": 4238,
      "å¸¸çĶ¨": 4239,
      "çŃīä»·": 4240,
      "èĩªèº«": 4241,
      "ä»£è°¢": 4242,
      "æ³¢éķ¿": 4243,
      "æĮĩåĩº": 4244,
      "ode": 4245,
      "Ġaccess": 4246,
      "é¢ĦæĬ¥": 4247,
      "çº¿æĢ§åıĺæį¢": 4248,
      "Ġperfect": 4249,
      "çī¹å¾ģåĲĳéĩı": 4250,
      "ĠDOE": 4251,
      "æŁ¥è¯¢": 4252,
      "Ġtechn": 4253,
      "åį«æĺŁ": 4254,
      "iliar": 4255,
      "çŀ¬": 4256,
      "Cl": 4257,
      "eg": 4258,
      "ia": 4259,
      "line": 4260,
      "length": 4261,
      "ç°": 4262,
      "ĠèĻ½çĦ¶": 4263,
      "çļĦä¿¡æģ¯": 4264,
      "çļĦå½¢å¼ı": 4265,
      "åı¸": 4266,
      "äº¡": 4267,
      "orning": 4268,
      "æķĽ": 4269,
      "Ġfall": 4270,
      "åĮ»": 4271,
      "åľ°åĿĢ": 4272,
      "åľ°å£³": 4273,
      "ç³»åĪĹ": 4274,
      "å¿Ĺ": 4275,
      "è½®": 4276,
      "æ°Ķè±¡": 4277,
      "åī²": 4278,
      "Ġorbit": 4279,
      "åĮĸåŃ¦æĢ§è´¨": 4280,
      "Ġcontribut": 4281,
      "å¾®è§Ĥ": 4282,
      "çĿ£": 4283,
      "æŁĲç§į": 4284,
      "ä¿ĿæĬ¤": 4285,
      "åĩºçİ°åľ¨": 4286,
      "æ±Ĥè§£": 4287,
      "Ġimmedi": 4288,
      "Ġspread": 4289,
      "åĲįç§°": 4290,
      "ãĢįï¼Į": 4291,
      "roscop": 4292,
      "Ġamong": 4293,
      "Ġincreases": 4294,
      "çĪ±": 4295,
      "Ġstudy": 4296,
      "å»¶è¿Ł": 4297,
      "æķħéļľ": 4298,
      "åĵĪå¸Į": 4299,
      "ç´¯ç§¯": 4300,
      "Ġpatterns": 4301,
      "Ġthermal": 4302,
      "Ġdetermine": 4303,
      "ä¸Ĭä¸ĭæĸĩ": 4304,
      "ched": 4305,
      "iet": 4306,
      "ned": 4307,
      "part": 4308,
      "é¾": 4309,
      "Ġterm": 4310,
      "è¿ģ": 4311,
      "itting": 4312,
      "Ġbas": 4313,
      "å°Ŀ": 4314,
      "ä¼Ĺ": 4315,
      "è¡£": 4316,
      "åĽłèĢĮ": 4317,
      "æĮ¥": 4318,
      "æĭħ": 4319,
      "è¢«è®¤ä¸º": 4320,
      "ĠThese": 4321,
      "è¾ĥä½İ": 4322,
      "éĿŀçº¿æĢ§": 4323,
      "å§Ĩ": 4324,
      "ibility": 4325,
      "æĺ¾å¾Ĺ": 4326,
      "æ¼ı": 4327,
      "å¹¶ä¸įæĦıåĳ³çĿĢ": 4328,
      "è°ĥæİ§": 4329,
      "æ¡Į": 4330,
      "æĶ¶æķĽ": 4331,
      "æļĹ": 4332,
      "Ġcondition": 4333,
      "æľªçŁ¥": 4334,
      "åģľæŃ¢": 4335,
      "Ġobservations": 4336,
      "åĨ·åį´": 4337,
      "Ġfinal": 4338,
      "Ġsubst": 4339,
      "Ġproblems": 4340,
      "é¦ĸåħĪ": 4341,
      "Ġconstra": 4342,
      "è¯Ħä¼°": 4343,
      "Ġtask": 4344,
      "Ġperiod": 4345,
      "gorith": 4346,
      "è¦ĨçĽĸ": 4347,
      "Ġextreme": 4348,
      ")ãĢĤ": 4349,
      "ox": 4350,
      "Ġä¸İ": 4351,
      "çļĦä¸Ģç§į": 4352,
      "Ġtable": 4353,
      "Ġsens": 4354,
      "Ġbre": 4355,
      "ä¼½": 4356,
      "è¡Ĺ": 4357,
      "åŃ¦çļĦ": 4358,
      "Ġlog": 4359,
      "Ġlaw": 4360,
      "ä¼ļäº§çĶŁ": 4361,
      "è´¨çĤ¹": 4362,
      "ç®±": 4363,
      "æĭĨ": 4364,
      "ified": 4365,
      "çľģ": 4366,
      "Ġmoves": 4367,
      "å°±èĥ½": 4368,
      "ä»£çłģ": 4369,
      "Ġneg": 4370,
      "åıįåºĶçī©": 4371,
      "ĠCh": 4372,
      "Ġplate": 4373,
      "Ġkin": 4374,
      "Ġabove": 4375,
      "æ¡£": 4376,
      "apor": 4377,
      "Ġadded": 4378,
      "é»ĺ": 4379,
      "Ġsolid": 4380,
      "Ġslowly": 4381,
      "Ġvect": 4382,
      "70": 4383,
      "Ġï¼Ī": 4384,
      "çļĨ": 4385,
      "çļĦéĢŁåº¦": 4386,
      "çļĦä¸»è¦ģ": 4387,
      "çļĦæ¦Ĥçİĩ": 4388,
      "ink": 4389,
      "eside": 4390,
      "Ġmap": 4391,
      "Ġbene": 4392,
      "åı¯çĶ¨": 4393,
      "urning": 4394,
      "ç»ĵæĿŁ": 4395,
      "çŃ¾": 4396,
      "amp": 4397,
      "Ġprop": 4398,
      "ä¹ĭå¤ĸ": 4399,
      "å°ıäºİ": 4400,
      "å¾Īå°ĳ": 4401,
      "ç¡«": 4402,
      "åįķä¸ª": 4403,
      "åĩ½æķ°f": 4404,
      "å½ĵæĹ¶": 4405,
      "acter": 4406,
      "æĮĩæķ°": 4407,
      "æĸĩä»¶": 4408,
      "ä¹łæĥ¯": 4409,
      "åĿĩåĮĢ": 4410,
      "Ġdisapp": 4411,
      "çģ¯": 4412,
      "æľªæĿ¥": 4413,
      "èĭ±åĽ½": 4414,
      "æľĪçĲĥ": 4415,
      "é»İ": 4416,
      "Ġstructures": 4417,
      "Ġfields": 4418,
      "ology": 4419,
      "Ġrequired": 4420,
      "Ġindivid": 4421,
      "æĳ©æĵ¦": 4422,
      "Ġtoken": 4423,
      "22": 4424,
      "AC": 4425,
      "Windows": 4426,
      "tic": 4427,
      "âĨĴ": 4428,
      "Ġæł¹æį®": 4429,
      "ä¸²": 4430,
      "çļĦå®ļä¹ī": 4431,
      "oring": 4432,
      "Ġmorning": 4433,
      "ä¹±": 4434,
      "Ġwal": 4435,
      "Ġinstr": 4436,
      "ä»¥ä¸Ĭ": 4437,
      "Ġnarrow": 4438,
      "Ġbegan": 4439,
      "å¯¹æĸ¹": 4440,
      "åľ°æĸ¹": 4441,
      "é¢Ĺ": 4442,
      "åı¯ä»¥è¢«": 4443,
      "åİŁå§ĭ": 4444,
      "åĬłéĢŁ": 4445,
      "èĥĢ": 4446,
      "è·Ł": 4447,
      "åįķåħĥ": 4448,
      "æľŁæľĽ": 4449,
      "æ¨¡åŀĭçļĦ": 4450,
      "æ±ł": 4451,
      "ç»´æĬ¤": 4452,
      "åĽŀå½Ĵ": 4453,
      "çĭŃ": 4454,
      "veloc": 4455,
      "ĠFor": 4456,
      "ç»ĦæĪĲçļĦ": 4457,
      "è§Ĩè§ī": 4458,
      "æ£Ģæµĭ": 4459,
      "Ġcontains": 4460,
      "Ġreaction": 4461,
      "plication": 4462,
      "ternal": 4463,
      "ĠEnergy": 4464,
      "çļĦçī©è´¨": 4465,
      "ert": 4466,
      "Ġsat": 4467,
      "åŃĶ": 4468,
      "oratory": 4469,
      "åº§": 4470,
      "Ġdensity": 4471,
      "arks": 4472,
      "Ġold": 4473,
      "Ġlength": 4474,
      "ä¼ļå½±åĵį": 4475,
      "çĶŁäº§": 4476,
      "åŁĥ": 4477,
      "è¿ĩæĭŁåĲĪ": 4478,
      "çĶµåİĭ": 4479,
      "ilities": 4480,
      "æ²Ļ": 4481,
      "éĩįéĩı": 4482,
      "åĵ²": 4483,
      "ç»ıéªĮ": 4484,
      "æķ°æį®åºĵ": 4485,
      "æ¯ıä¸Ģä¸ª": 4486,
      "ĠIts": 4487,
      "æĹłåħ³": 4488,
      "å®¹éĩı": 4489,
      "Ġcontext": 4490,
      "éĺµåĪĹ": 4491,
      "å£¤": 4492,
      "âĪĪ": 4493,
      "ä¸»åĬ¨": 4494,
      "å¤ĦçļĦ": 4495,
      "æĮĩåĲĳ": 4496,
      "ĠCom": 4497,
      "Ġdiss": 4498,
      "æ··åĲĪ": 4499,
      "Ġprovides": 4500,
      "Ġattention": 4501,
      "Ġknown": 4502,
      "Ġstopped": 4503,
      "Ġparameters": 4504,
      "éº¦": 4505,
      "Ġgeometry": 4506,
      "Ġavailable": 4507,
      "åĽ°éļ¾": 4508,
      "Ġåħ¶": 4509,
      "ĤçĽ´": 4510,
      "ä¸¾": 4511,
      "çļĦçĶµåŃĲ": 4512,
      "Ġpie": 4513,
      "æĹ¦": 4514,
      "è¡Ģ": 4515,
      "æ°ĳ": 4516,
      "æ¯Ľ": 4517,
      "æĭĵ": 4518,
      "åŀĤçĽ´": 4519,
      "æ¨ª": 4520,
      "romagn": 4521,
      "aced": 4522,
      "ĠShe": 4523,
      "Ġshared": 4524,
      "è¿Ĳè¾ĵ": 4525,
      "èµ·æºĲ": 4526,
      "Ġresour": 4527,
      "å¼ķåħ¥": 4528,
      "æ®ĭ": 4529,
      "åĲĳéĩıç©ºéĹ´": 4530,
      "Ġacid": 4531,
      "Ġdispl": 4532,
      "ĠNe": 4533,
      "ĠNational": 4534,
      "éĺ³åħī": 4535,
      "èĽĭçĻ½è´¨çļĦ": 4536,
      "Ġweather": 4537,
      "ä¹ĭéĹ´çļĦåħ³ç³»": 4538,
      "Ġassign": 4539,
      "çĨµ": 4540,
      "Ġteam": 4541,
      "Ġoccurs": 4542,
      "æĬĺå°Ħ": 4543,
      "æĽ¿ä»£": 4544,
      "çĽĳçĿ£": 4545,
      "Ġfluid": 4546,
      "è¯·æ±Ĥ": 4547,
      "åĳ¼åĲ¸": 4548,
      "ä½ľä¸ļç³»ç»Ł": 4549,
      "ä¸ĩæľīå¼ķåĬĽ": 4550,
      ")(": 4551,
      "14": 4552,
      "cher": 4553,
      "gine": 4554,
      "Ġice": 4555,
      "Ġä¸ĢèĪ¬": 4556,
      "Ġveloc": 4557,
      "åħ´": 4558,
      "Ġmess": 4559,
      "Ġpossible": 4560,
      "Ġdr": 4561,
      "Ġder": 4562,
      "Ġbeside": 4563,
      "æľīçļĦ": 4564,
      "åĩ¸": 4565,
      "ä»¥åīį": 4566,
      "åŃĲçļĦ": 4567,
      "åº¦çļĦ": 4568,
      "åŁİ": 4569,
      "æĽ´åĬł": 4570,
      "iffer": 4571,
      "æľĢæĹ©": 4572,
      "umul": 4573,
      "æ¸¡": 4574,
      "åħīçº¿": 4575,
      "ç²Ĺ": 4576,
      "åĩłå¤©": 4577,
      "åĮĸåŃ¦å®¶": 4578,
      "çĶŁçī©ä½ĵ": 4579,
      "åľºæĻ¯": 4580,
      "æĸ¯åĿ¦": 4581,
      "æŁĲä¸Ģ": 4582,
      "æĸĩåŃĹ": 4583,
      "Ġlocation": 4584,
      "Ġparticular": 4585,
      "hesis": 4586,
      "Ġdetail": 4587,
      "Ġvariation": 4588,
      "Ġkey": 4589,
      "ä¹ĺç§¯": 4590,
      "cules": 4591,
      "åľŁå£¤": 4592,
      "Ġuniverse": 4593,
      "âĢ¦ï¼Į": 4594,
      "Ġmomentum": 4595,
      "scill": 4596,
      "Ġsampling": 4597,
      "Ġguarantee": 4598,
      "Ġweek": 4599,
      "aneous": 4600,
      "å°Ŀè¯ķ": 4601,
      "é»İæĽ¼": 4602,
      "bal": 4603,
      "âĮ": 4604,
      "éĨĴ": 4605,
      "Ġ3": 4606,
      "ery": 4607,
      "Ġtheory": 4608,
      "ä¸ĢæĹ¦": 4609,
      "ality": 4610,
      "ingu": 4611,
      "isions": 4612,
      "è¾ħ": 4613,
      "åħ¶å®ŀ": 4614,
      "åĢĴ": 4615,
      "Ġisol": 4616,
      "Ġexchan": 4617,
      "ç±»åĪ«": 4618,
      "Ġwho": 4619,
      "Ġalter": 4620,
      "Ġalgorith": 4621,
      "Ġsuitable": 4622,
      "Ġcop": 4623,
      "ples": 4624,
      "çİ¯æµģ": 4625,
      "çĶŁçī©çļĦ": 4626,
      "Ġquiet": 4627,
      "å¸¦æĿ¥": 4628,
      "Ġresults": 4629,
      "ä¿Ŀå®Ī": 4630,
      "å¸ĥå°¼": 4631,
      "äº¤äºĴ": 4632,
      "éĩįè¦ģçļĦ": 4633,
      "ĠPh": 4634,
      "èĩªçĦ¶çķĮ": 4635,
      "iction": 4636,
      "Ġnearly": 4637,
      "éĢĲæŃ¥": 4638,
      "èĨ¨": 4639,
      "ynt": 4640,
      "Ġboundaries": 4641,
      "èİ±å¸ĥå°¼": 4642,
      "Ġideal": 4643,
      "åĩĿç»ĵ": 4644,
      "Ġcomponents": 4645,
      "Ġaddress": 4646,
      "Ġlabel": 4647,
      "éģĩåĪ°": 4648,
      "back": 4649,
      "most": 4650,
      "oid": 4651,
      "por": 4652,
      "Ġä½Ĩæĺ¯": 4653,
      "çļĦè´¨éĩı": 4654,
      "ering": 4655,
      "ited": 4656,
      "Ġmark": 4657,
      "æĪª": 4658,
      "ä¸įéľĢè¦ģ": 4659,
      "ä¸įè¶³": 4660,
      "å¹Ĥ": 4661,
      "èĢ³": 4662,
      "Ġnat": 4663,
      "ä¼ļåĩºçİ°": 4664,
      "Ġhum": 4665,
      "Ġstation": 4666,
      "ç§įç±»": 4667,
      "èµ¤": 4668,
      "éĥ½åı¯ä»¥": 4669,
      "rix": 4670,
      "åĪĹå¼ı": 4671,
      "åİŁåŃĲåºı": 4672,
      "å±Ĥæ¬¡": 4673,
      "ived": 4674,
      "éĢļå¸¸æĺ¯": 4675,
      "è·¯çº¿": 4676,
      "èį¡": 4677,
      "éĤ£äºĽ": 4678,
      "ĠOne": 4679,
      "æ¶Īæģ¯": 4680,
      "Ġ18": 4681,
      "Ġproduces": 4682,
      "Ġothers": 4683,
      "çķĻä¸ĭ": 4684,
      "Ġgeneral": 4685,
      "æ¶²ä½ĵ": 4686,
      "Ġmeans": 4687,
      "æī©å±ķ": 4688,
      "Ġcomputers": 4689,
      "angu": 4690,
      "Ġprovide": 4691,
      "çģ«å±±": 4692,
      "æĪ¿éĹ´": 4693,
      "Ġelements": 4694,
      "Ġradiation": 4695,
      "Ġhigher": 4696,
      "roscopic": 4697,
      "CO": 4698,
      "Re": 4699,
      "Th": 4700,
      "side": 4701,
      "çļĦéĥ¨åĪĨ": 4702,
      "æľĿ": 4703,
      "åĲĥ": 4704,
      "åĬ³": 4705,
      "åĩĢ": 4706,
      "å¼¯": 4707,
      "æµİ": 4708,
      "çĶµéĺ»": 4709,
      "ild": 4710,
      "Ġgal": 4711,
      "Ġgives": 4712,
      "ä¿ĥ": 4713,
      "çŃīä½į": 4714,
      "è·ĥ": 4715,
      "ä½Ĩåľ¨": 4716,
      "ç«ł": 4717,
      "Ġcoun": 4718,
      "åħīéĢŁ": 4719,
      "ä½ľçĶ¨åĬĽ": 4720,
      "éļıæĹ¶éĹ´": 4721,
      "éĻįéĽ¨": 4722,
      "æ°§æ°Ķ": 4723,
      "Ġdifferently": 4724,
      "ĠMo": 4725,
      "æĥħå½¢": 4726,
      "èĩ³å°ĳ": 4727,
      "å¼Ĥå¸¸": 4728,
      "Ġsurround": 4729,
      "èĻļ": 4730,
      "è¡¡éĩı": 4731,
      "æ¶ĪèĢĹ": 4732,
      "Ġfeed": 4733,
      "æħ¢æħ¢": 4734,
      "Ġparticle": 4735,
      "èıľ": 4736,
      "åĵªéĩĮ": 4737,
      "Ġeffects": 4738,
      "Ġjust": 4739,
      "Ġblack": 4740,
      "Ġmovement": 4741,
      "ç¼ĵæħ¢": 4742,
      "Ġcryst": 4743,
      "Ġscale": 4744,
      "Ġparameter": 4745,
      "Ġtyp": 4746,
      "åħīåĲĪä½ľçĶ¨": 4747,
      "Ġindividual": 4748,
      "Ġvelocity": 4749,
      "èĨ¨èĥĢ": 4750,
      "less": 4751,
      "ination": 4752,
      "Ġwindow": 4753,
      "Ġfusion": 4754,
      "Ġoscill": 4755,
      "ental": 4756,
      "çĽĬ": 4757,
      "çİ°å®ŀ": 4758,
      "æ²»": 4759,
      "è¡ĮåĪĹå¼ı": 4760,
      "æĻ¨": 4761,
      "Ġnecess": 4762,
      "å¤ĸåĬĽ": 4763,
      "ĠSun": 4764,
      "æ¯ıä¸Ģ": 4765,
      "è¿ĺè¦ģ": 4766,
      "èī¯": 4767,
      "åıįåºĶéĢŁçİĩ": 4768,
      "çĽ®çļĦ": 4769,
      "rying": 4770,
      "æīĭæľº": 4771,
      "ç¼ĸè¯ĳ": 4772,
      "Ġdescribe": 4773,
      "Ġcharacter": 4774,
      "åĤ¬åĮĸåīĤ": 4775,
      "æīĵå¼Ģ": 4776,
      "Ġreactions": 4777,
      "Ġinteractions": 4778,
      "Ġwavelength": 4779,
      "ä¸´æĹ¶": 4780,
      "çĵ¦": 4781,
      "æļĤæĹ¶": 4782,
      "Ġmissing": 4783,
      "Ġexactly": 4784,
      "ä»ªåĻ¨": 4785,
      "Ġcycle": 4786,
      "chers": 4787,
      "ging": 4788,
      "lier": 4789,
      "mic": 4790,
      "oot": 4791,
      "é¸": 4792,
      "Ġi": 4793,
      "Ġions": 4794,
      "ators": 4795,
      "Ġcat": 4796,
      "enc": 4797,
      "Ġwind": 4798,
      "å°¾": 4799,
      "åĮ¹": 4800,
      "å¯Ĵ": 4801,
      "Ġlat": 4802,
      "Ġtook": 4803,
      "ä¼ļè¢«": 4804,
      "å¯¹è§Ĵ": 4805,
      "imes": 4806,
      "è¿ĩæ¸¡": 4807,
      "ules": 4808,
      "ä¸İåħ¶": 4809,
      "è¡¨æĺİ": 4810,
      "ç»ĵçĤ¹": 4811,
      "åī¯": 4812,
      "ump": 4813,
      "æµģä½ĵ": 4814,
      "è°ģ": 4815,
      "plan": 4816,
      "ç»ĵæŀĦçļĦ": 4817,
      "é£ŀ": 4818,
      "å¾®å°ı": 4819,
      "æĸ¯çī¹": 4820,
      "aving": 4821,
      "å¹¶ä¸įèĥ½": 4822,
      "dings": 4823,
      "Ġrain": 4824,
      "çĹĩ": 4825,
      "Ġwhereas": 4826,
      "Ġeru": 4827,
      "åħ¸åŀĭ": 4828,
      "Ġdirections": 4829,
      "Ġsuperconductors": 4830,
      "Ġplanet": 4831,
      "æĻļä¸Ĭ": 4832,
      "åĪĽéĢł": 4833,
      "Ġconnected": 4834,
      "Ġidentical": 4835,
      "Ġwrit": 4836,
      "Ġearly": 4837,
      "Ġconcentration": 4838,
      "âī¤": 4839,
      ")+": 4840,
      "St": 4841,
      "efore": 4842,
      "mRNA": 4843,
      "åĦ": 4844,
      "Ġver": 4845,
      "Ġè®¸å¤ļ": 4846,
      "ĠçīĽé¡¿": 4847,
      "ï¼ĮâĢ¦ï¼Į": 4848,
      "çļĦçİ°è±¡": 4849,
      "Ġten": 4850,
      "Ġtiny": 4851,
      "inu": 4852,
      "Ġsk": 4853,
      "alf": 4854,
      "Ġpri": 4855,
      "åºĬ": 4856,
      "ars": 4857,
      "Ġtop": 4858,
      "åİļ": 4859,
      "ï¼īï¼ļ": 4860,
      "åºĶåĬĽ": 4861,
      "å¾Īä¹ħ": 4862,
      "Ġforces": 4863,
      "éĥ¨ä»½": 4864,
      "Ġchain": 4865,
      "æ´Ĺ": 4866,
      "æŃ£åĪĻ": 4867,
      "Ġnever": 4868,
      "ĠSome": 4869,
      "å¤©çĦ¶": 4870,
      "Ġsoil": 4871,
      "æĶ¾å¤§": 4872,
      "æŀģç«¯": 4873,
      "æķ£åĪĹ": 4874,
      "è®Ńç»ĥéĽĨ": 4875,
      "å¤ĦçĲĨåĻ¨": 4876,
      "Ġtemperatures": 4877,
      "Ġefficient": 4878,
      "Ġdecision": 4879,
      "æıĲåĩºäºĨ": 4880,
      "ification": 4881,
      "Ġkept": 4882,
      "Ġeffective": 4883,
      "éĩĩæł·": 4884,
      "çĪĨ": 4885,
      "åıłåĬł": 4886,
      "çļĦåľ°æĸ¹": 4887,
      "éļĶç¦»": 4888,
      "âĭ¯": 4889,
      "åı¥è¯Ŀ": 4890,
      "Ġrelationships": 4891,
      "Ġmolecules": 4892,
      "é©±åĬ¨": 4893,
      "Ġswit": 4894,
      "Ġadjust": 4895,
      "åŁİå¸Ĥ": 4896,
      "90": 4897,
      "hy": 4898,
      "lation": 4899,
      "¡çĮ®": 4900,
      "Ġä¸ª": 4901,
      "ä¸¢": 4902,
      "åĪł": 4903,
      "Ġtheore": 4904,
      "åĬŀ": 4905,
      "Ġpage": 4906,
      "arget": 4907,
      "Ġreach": 4908,
      "åĪĨéĩı": 4909,
      "åĨ»": 4910,
      "è´¡çĮ®": 4911,
      "used": 4912,
      "Ġhour": 4913,
      "å¯¹æµģ": 4914,
      "Ġconve": 4915,
      "æįķ": 4916,
      "é«ĺæķĪ": 4917,
      "å°±åı¯ä»¥": 4918,
      "æµģç¨ĭ": 4919,
      "åĩłåĪĨéĴŁ": 4920,
      "çĽ´çº¿": 4921,
      "å£ģ": 4922,
      "èĲ¨": 4923,
      "éħįå¯¹": 4924,
      "Ġactually": 4925,
      "å¤§æ°Ķå±Ĥ": 4926,
      "Ġvariables": 4927,
      "å¡ĳ": 4928,
      "Ġsetting": 4929,
      "Ġnumbers": 4930,
      "Ġconsum": 4931,
      "Ġlimits": 4932,
      "Ġlayer": 4933,
      "Ġoptimization": 4934,
      "Ġearlier": 4935,
      "anguage": 4936,
      ")=": 4937,
      "ATP": 4938,
      "ground": 4939,
      "jor": 4940,
      "ns": 4941,
      "pro": 4942,
      "è¸": 4943,
      "Ġtem": 4944,
      "Ġsl": 4945,
      "Ġserv": 4946,
      "Ġcause": 4947,
      "è¿Ķ": 4948,
      "åŃ©": 4949,
      "ordin": 4950,
      "ither": 4951,
      "Ġdem": 4952,
      "rogen": 4953,
      "Ġreason": 4954,
      "çĶŁéķ¿": 4955,
      "Ġstored": 4956,
      "éĻ·": 4957,
      "æ³ķåĪĻ": 4958,
      "åºĶçĶ¨äºİ": 4959,
      "å¾Ĺå¾Ī": 4960,
      "ember": 4961,
      "åıªè¦ģ": 4962,
      "Ġalmost": 4963,
      "ç»ıæµİ": 4964,
      "Ġru": 4965,
      "ç³»ç»Łä¸Ń": 4966,
      "ç§°ä½ľ": 4967,
      "ä¼łè¾ĵ": 4968,
      "ç¦»å¼Ģ": 4969,
      "äº§åĵģ": 4970,
      "æĦıè¯Ĩ": 4971,
      "åĮĸåŃ¦éĶ®": 4972,
      "Ġmeet": 4973,
      "å°Ķæĸĩ": 4974,
      "è¶Ĭå¤§": 4975,
      "éĴ¥": 4976,
      "åĩĨå¤ĩ": 4977,
      "åĽŀåĪ°": 4978,
      "Ġreli": 4979,
      "Ġelectro": 4980,
      "æĦŁè§ī": 4981,
      "osite": 4982,
      "ç²¾åº¦": 4983,
      "æĲ¬": 4984,
      "çĽ¸åħ³çļĦ": 4985,
      "Ġregions": 4986,
      "Ġmatters": 4987,
      "Ġjo": 4988,
      "Ġsuperconductivity": 4989,
      "æİ¢ç´¢": 4990,
      "ä¸´çķĮ": 4991,
      "ç©¿è¿ĩ": 4992,
      "æ²īç§¯": 4993,
      "ç«ŀäºī": 4994,
      "æĢİæł·": 4995,
      "Ġimmediately": 4996,
      "romagnetic": 4997,
      "åĮ¹éħį": 4998,
      "io": 4999,
      "¤Ĳ": 5000,
      "çļĦæµ·": 5001,
      "çļĦåİŁåĽł": 5002,
      "Ġcer": 5003,
      "è¿«": 5004,
      "æķı": 5005,
      "ä¼ª": 5006,
      "Ġrev": 5007,
      "Ġreference": 5008,
      "æµħ": 5009,
      "ä¼ļæľī": 5010,
      "å±ı": 5011,
      "çĽ¸ä½į": 5012,
      "çŁ¢": 5013,
      "åıªåľ¨": 5014,
      "ection": 5015,
      "Ġwhole": 5016,
      "é«ĺæ¸©": 5017,
      "ĠAc": 5018,
      "Ġrun": 5019,
      "akes": 5020,
      "çĲĨè®ºçļĦ": 5021,
      "çĬ¶åĨµ": 5022,
      "éļıåĲİ": 5023,
      "Ġheav": 5024,
      "å¢ŀå¼º": 5025,
      "ĠCo": 5026,
      "å¼ºè°ĥ": 5027,
      "åħĪéªĮ": 5028,
      "è´¨éĩıçļĦ": 5029,
      "ç®Ĺæ³ķçļĦ": 5030,
      "åħ¬åħĥ": 5031,
      "å®ļä¹īçļĦ": 5032,
      "Ġobs": 5033,
      "åĽŀçŃĶ": 5034,
      "ĠRes": 5035,
      "æĢ»ä½ĵ": 5036,
      "è°ĥèĬĤ": 5037,
      "åĽ½å®¶": 5038,
      "åĲ¦åĪĻ": 5039,
      "å£°æ³¢": 5040,
      "åĲĦèĩª": 5041,
      "åĽºä½ĵ": 5042,
      "Ġcold": 5043,
      "æĻ®éģį": 5044,
      "Ġactivity": 5045,
      "å°ºå¯¸": 5046,
      "è¡¨çİ°åĩº": 5047,
      "çĭ¬ç«ĭçļĦ": 5048,
      "é¥°": 5049,
      "çĮľ": 5050,
      "çŃĸçķ¥": 5051,
      "çıŃ": 5052,
      "Ġestimate": 5053,
      "Ġmajor": 5054,
      "Ġpopulation": 5055,
      "Ġseemed": 5056,
      "Ġadditional": 5057,
      "ä¼½åĪ©": 5058,
      "ifferent": 5059,
      "åĦ¿": 5060,
      "ll": 5061,
      "of": 5062,
      "Ġæľī": 5063,
      "ĠãĢģ": 5064,
      "Ġser": 5065,
      "ä¸Ģç³»åĪĹ": 5066,
      "itational": 5067,
      "Ġmix": 5068,
      "Ġfull": 5069,
      "æ°®": 5070,
      "åĨ¬": 5071,
      "çº¤": 5072,
      "Ġhis": 5073,
      "Ġbel": 5074,
      "å¯¹æķ°": 5075,
      "Ġglo": 5076,
      "å¹¶åľ¨": 5077,
      "åıªçľĭ": 5078,
      "åĬłä¸Ĭ": 5079,
      "æŃ£æ¯Ķ": 5080,
      "ĠAs": 5081,
      "ĠAfter": 5082,
      "Ġrates": 5083,
      "resh": 5084,
      "Ġenc": 5085,
      "å¯¼ä½ĵ": 5086,
      "ighb": 5087,
      "åĮºåĪ«": 5088,
      "å¸¦æľī": 5089,
      "çķĮéĿ¢": 5090,
      "Ġdoor": 5091,
      "ç»´åº¦": 5092,
      "è¡¨ç¤ºä¸º": 5093,
      "Ġclim": 5094,
      "è§ĴåĬ¨éĩı": 5095,
      "èĮ¨": 5096,
      "Ġremember": 5097,
      "ĠWe": 5098,
      "Ġvalidation": 5099,
      "å¾·å°Ķ": 5100,
      "æĮ¯èį¡": 5101,
      "æıĲä¾ĽäºĨ": 5102,
      "å¹²æ¶ī": 5103,
      "Ġvariable": 5104,
      "Ġtext": 5105,
      "æ¢¯åº¦ä¸ĭéĻį": 5106,
      "Ġsignals": 5107,
      "ä¸¥éĩį": 5108,
      "æ·±åº¦åŃ¦ä¹ł": 5109,
      "culation": 5110,
      "Ġallowing": 5111,
      "æĸ½åĬł": 5112,
      "ç»ıåħ¸åĬĽåŃ¦": 5113,
      "Ġlayers": 5114,
      "Ġcomponent": 5115,
      "Ġarrived": 5116,
      "Ġprevent": 5117,
      "Ġpreserv": 5118,
      "Ġmultiple": 5119,
      "Ġfloor": 5120,
      "Ġcommunic": 5121,
      "Ġbreak": 5122,
      "ever": 5123,
      "èļ": 5124,
      "çļĦè®¡ç®Ĺ": 5125,
      "Ġtw": 5126,
      "Ġtarget": 5127,
      "Ġsum": 5128,
      "oriz": 5129,
      "ä¹Ŀ": 5130,
      "ä¸įçŁ¥éģĵ": 5131,
      "æĹ¶æľŁ": 5132,
      "Ġlif": 5133,
      "ä½ĵéªĮ": 5134,
      "çĶµç¦»": 5135,
      "old": 5136,
      "å¹¶åıĳ": 5137,
      "åİŁæĿ¥çļĦ": 5138,
      "ä½įçĤ¹": 5139,
      "è§£æŀĲ": 5140,
      "Ġaltern": 5141,
      "Ġview": 5142,
      "Ġneighb": 5143,
      "æģ°": 5144,
      "acing": 5145,
      "å¤©æĸĩ": 5146,
      "izer": 5147,
      "å°ĳéĩı": 5148,
      "NAD": 5149,
      "Ġleaves": 5150,
      "Ġdisturb": 5151,
      "æ´»åĮĸ": 5152,
      "æ¡Ĩ": 5153,
      "ä¸īç§į": 5154,
      "Ġeveryone": 5155,
      "çº§æķ°": 5156,
      "åĲ¸å¼ķ": 5157,
      "é»ı": 5158,
      "éĢĴå½Ĵ": 5159,
      "Ġincreasing": 5160,
      "Ġspecies": 5161,
      "æī©æķ£": 5162,
      "Ġextra": 5163,
      "Ġexperiment": 5164,
      "Ġcenter": 5165,
      "Ġcircu": 5166,
      "Ġmethods": 5167,
      "æļ´éľ²": 5168,
      "åı«åģļ": 5169,
      "æī°åĬ¨": 5170,
      "Ġreached": 5171,
      "Ġderiv": 5172,
      "èµ¤éģĵ": 5173,
      "25": 5174,
      "28": 5175,
      "lim": 5176,
      "éĨ": 5177,
      "é¤Ĳ": 5178,
      "ħéĢŁ": 5179,
      "ä¸Ŀ": 5180,
      "çļĦéģĹä¼ł": 5181,
      "Ġsem": 5182,
      "Ġcos": 5183,
      "è¿ħéĢŁ": 5184,
      "ä¸Ģå¼Ģå§ĭ": 5185,
      "Ġmere": 5186,
      "Ġfut": 5187,
      "Ġfast": 5188,
      "è¯ī": 5189,
      "å¯Į": 5190,
      "åŃ¦èĢħ": 5191,
      "çºµ": 5192,
      "Ġhist": 5193,
      "Ġhalf": 5194,
      "Ġproject": 5195,
      "èĩªè½¬": 5196,
      "ement": 5197,
      "åĢ¼å¾Ĺ": 5198,
      "è¿Ľç¨ĭ": 5199,
      "åıĬåħ¶": 5200,
      "Ġend": 5201,
      "Ġshar": 5202,
      "pth": 5203,
      "Ġunit": 5204,
      "ç»Ĩèĥŀä¸Ń": 5205,
      "âĪĳ": 5206,
      "Ġintrodu": 5207,
      "åıĳçĶŁåıĺåĮĸ": 5208,
      "çªĦ": 5209,
      "Ġdistingu": 5210,
      "çº¿æĢ§ä»£æķ°": 5211,
      "Ġperm": 5212,
      "å¿ħè¦ģ": 5213,
      "ĠDNA": 5214,
      "åŃĹæ¯į": 5215,
      "èĤĮ": 5216,
      "ysics": 5217,
      "åģıç¦»": 5218,
      "æĹ¥å¸¸": 5219,
      "å®īéĿĻ": 5220,
      "Ġmechanical": 5221,
      "Ġcrit": 5222,
      "Ġexamples": 5223,
      "Ġnuclei": 5224,
      "Ġrecords": 5225,
      "ä¼¯çī¹": 5226,
      "Ġquestions": 5227,
      "Ġmaxim": 5228,
      "like": 5229,
      "pecially": 5230,
      "Ġinterpret": 5231,
      "Ġhappen": 5232,
      "Ġespecially": 5233,
      "encies": 5234,
      "åŃ©åŃĲ": 5235,
      ")âĪĴ": 5236,
      "body": 5237,
      "ton": 5238,
      "xy": 5239,
      "èĵ": 5240,
      "ä¸Ļ": 5241,
      "ï¼ĮâĢľ": 5242,
      "çļĦç®Ĺæ³ķ": 5243,
      "çļĦæĥħåĨµä¸ĭ": 5244,
      "Ġsit": 5245,
      "Ġsed": 5246,
      "itive": 5247,
      "Ġbar": 5248,
      "arning": 5249,
      "ä¹Ĳ": 5250,
      "Ġfram": 5251,
      "èĥ½çº§": 5252,
      "æīĳ": 5253,
      "Ġlin": 5254,
      "âĢĵ": 5255,
      "äºİæĺ¯": 5256,
      "Ġstop": 5257,
      "åľ°è´¨": 5258,
      "Ġconserv": 5259,
      "çĶµåĬ¿": 5260,
      "æĬµ": 5261,
      "å¦ĤæŃ¤": 5262,
      "ä¹Łä¸į": 5263,
      "äººåĳĺ": 5264,
      "ä¸ĭä¸Ģ": 5265,
      "ä¸ĭåįĪ": 5266,
      "éĩįåıł": 5267,
      "éľį": 5268,
      "åīª": 5269,
      "å½ĵæĪĲ": 5270,
      "Ġcount": 5271,
      "Ġcoordin": 5272,
      "è½¬åıĺ": 5273,
      "è¿ĺèĥ½": 5274,
      "ç»Ĩèĥŀè´¨": 5275,
      "å®¹åĻ¨": 5276,
      "å¢ŀå¤§": 5277,
      "èĪį": 5278,
      "è®°ä½ı": 5279,
      "åĩºçİ°çļĦ": 5280,
      "è¯¯åĮº": 5281,
      "Ġparts": 5282,
      "è¿ĲåĬ¨çļĦ": 5283,
      "Ġapplic": 5284,
      "è¾¹ç¼ĺ": 5285,
      "æİ¨åĬ¨": 5286,
      "Ġsmo": 5287,
      "æĸ¹ç¨ĭå¼ı": 5288,
      "çģŃ": 5289,
      "Ġcolor": 5290,
      "Ġampl": 5291,
      "Ġremained": 5292,
      "Ġocc": 5293,
      "æĹıç¾¤": 5294,
      "æº¶æ¶²": 5295,
      "æŀ¶æŀĦ": 5296,
      "ä¸Ģèĩ´æĢ§": 5297,
      "Ġgrowth": 5298,
      "Ġworld": 5299,
      "Ġwrong": 5300,
      "Ġprogram": 5301,
      "Ġprecise": 5302,
      "Ġexpected": 5303,
      "åį°åº¦": 5304,
      "Ġfamiliar": 5305,
      "Ġmerely": 5306,
      "bo": 5307,
      "for": 5308,
      "oplan": 5309,
      "çļĦä¸įåĲĮ": 5310,
      "erical": 5311,
      "Ġsent": 5312,
      "Ġcame": 5313,
      "å¤ı": 5314,
      "åħ«": 5315,
      "ä¸Ģå¼ł": 5316,
      "Ġmedi": 5317,
      "Ġpack": 5318,
      "Ġdimens": 5319,
      "ä¹³": 5320,
      "Ġfav": 5321,
      "ä¸įç¨³å®ļ": 5322,
      "åĪĨåī²": 5323,
      "åĨľ": 5324,
      "Ġlist": 5325,
      "åĲĮæŃ¥": 5326,
      "åĽłæĸ¯åĿ¦": 5327,
      "Ġbelow": 5328,
      "èĢĮä¸į": 5329,
      "Ġstra": 5330,
      "Ġconvers": 5331,
      "æĽ´å¤§": 5332,
      "æ²Ł": 5333,
      "æŃ¤æĹ¶": 5334,
      "Ġexec": 5335,
      "Ġforms": 5336,
      "åı¯èĥ½æĺ¯": 5337,
      "ç»ıåİĨ": 5338,
      "åĬłçĥŃ": 5339,
      "Ġdeg": 5340,
      "Ġdepth": 5341,
      "æģ©": 5342,
      "çĽ´è§Ĥ": 5343,
      "ä½¿çĶ¨èĢħ": 5344,
      "äºĮåħĥ": 5345,
      "éĢļå¸¸éľĢè¦ģ": 5346,
      "ç©ºéĹ´ä¸Ń": 5347,
      "Ġroute": 5348,
      "è®©äºº": 5349,
      "æĸĩæľ¬": 5350,
      "æĺŁç³»": 5351,
      "ĠMe": 5352,
      "Ġtrain": 5353,
      "å»ºæ¨¡": 5354,
      "Ġgraph": 5355,
      "è¯ķéªĮ": 5356,
      "Ġoutside": 5357,
      "Ġpoor": 5358,
      "Ġpoints": 5359,
      "Ġactiv": 5360,
      "å¼ķåĬĽåľº": 5361,
      "æıĲåĩºçļĦ": 5362,
      "çī¹å®ļçļĦ": 5363,
      "è¡°åĩı": 5364,
      "Ġsuperconducting": 5365,
      "é¦ĸæ¬¡": 5366,
      "Ġmechanisms": 5367,
      "Ġaccumul": 5368,
      "âĢ²(": 5369,
      "çĹħæ¯Ĵ": 5370,
      "Ġoperations": 5371,
      "Ġstatistical": 5372,
      "Ġremoved": 5373,
      "ç¤¾ä¼ļ": 5374,
      "çĪ±åĽłæĸ¯åĿ¦": 5375,
      "Ġfuture": 5376,
      "apt": 5377,
      "lated": 5378,
      "sive": 5379,
      "water": 5380,
      "ware": 5381,
      "ï¼Ł": 5382,
      "çļĦè¿ĲåĬ¨": 5383,
      "ata": 5384,
      "Ġsa": 5385,
      "ç»¼": 5386,
      "å®ľ": 5387,
      "any": 5388,
      "ä¸Ģå¤©": 5389,
      "Ġmach": 5390,
      "Ġposition": 5391,
      "Ġdro": 5392,
      "Ġwall": 5393,
      "åľ¨ä¸Ģä¸ª": 5394,
      "åľ¨åĲĮä¸Ģ": 5395,
      "èĥ½åĲ¦": 5396,
      "åĴĮåħ¶ä»ĸ": 5397,
      "å¼ĥ": 5398,
      "Ġlanguage": 5399,
      "è¿ĻéĩĮ": 5400,
      "æĿ¥æııè¿°": 5401,
      "åľ°ä¸ĭ": 5402,
      "åĩºäºĨ": 5403,
      "idden": 5404,
      "åıĳèĤ²": 5405,
      "çŁ¿": 5406,
      "å¾Ĺä»¥": 5407,
      "éļĻ": 5408,
      "æ°´æ±½": 5409,
      "åĬłå¿«": 5410,
      "è¿ĽèĢĮ": 5411,
      "ç¬Ķ": 5412,
      "æłĩè®°": 5413,
      "æłĩçŃ¾": 5414,
      "è¿ĺä¼ļ": 5415,
      "Ġcomposition": 5416,
      "éĿŀéĽ¶": 5417,
      "èĦļ": 5418,
      "éĵĢ": 5419,
      "å¸¦çĶµ": 5420,
      "èģĬ": 5421,
      "å¼ºçĥĪ": 5422,
      "æ´ĭæµģ": 5423,
      "ĠPro": 5424,
      "èĤ½": 5425,
      "èĳĹåĲį": 5426,
      "ĠLab": 5427,
      "åįĬçĲĥ": 5428,
      "éĩĳå±ŀéĶ®": 5429,
      "astic": 5430,
      "Ġarrange": 5431,
      "Ġmetal": 5432,
      "Ġsolution": 5433,
      "çĨĶ": 5434,
      "Ġstronger": 5435,
      "Ġsomeone": 5436,
      "æ¶²æĢģ": 5437,
      "Ġpaths": 5438,
      "Ġproperty": 5439,
      "æĬ¥åĳĬ": 5440,
      "çī¹åĪ«æĺ¯": 5441,
      "Ġbook": 5442,
      "Ġcentral": 5443,
      "æĹłç©·å°ı": 5444,
      "Ġphotograph": 5445,
      "Ġtype": 5446,
      "Ġsteps": 5447,
      "çĩĥ": 5448,
      "Ġrapidly": 5449,
      "çĭŃä¹ī": 5450,
      "Ġgalax": 5451,
      "Ġcertain": 5452,
      "æ¡Ĩæŀ¶": 5453,
      "24": 5454,
      "AT": 5455,
      "ci": 5456,
      "ccess": 5457,
      "ffer": 5458,
      "pr": 5459,
      "yond": 5460,
      "æ¾": 5461,
      "é½": 5462,
      "Ġ\"": 5463,
      "Ġion": 5464,
      "ĠéĢļè¿ĩ": 5465,
      "Ġä¸ĢäºĽ": 5466,
      "ä¸ģ": 5467,
      "çļĦå¤§": 5468,
      "çļĦç³»ç»Ł": 5469,
      "çļĦæ¨¡åŀĭ": 5470,
      "çļĦåıįåºĶ": 5471,
      "çļĦçī©çĲĨ": 5472,
      "çļĦèĥ½åĬĽ": 5473,
      "ern": 5474,
      "ont": 5475,
      "ones": 5476,
      "Ġsym": 5477,
      "ä»ĺ": 5478,
      "Ġmist": 5479,
      "Ġdays": 5480,
      "Ġbus": 5481,
      "Ġbest": 5482,
      "æĹģ": 5483,
      "ä¸Ńæľī": 5484,
      "åŃ¦åĴĮ": 5485,
      "åŃ¦è¯´": 5486,
      "ä»¥ä¸º": 5487,
      "ä¼ļè®®": 5488,
      "Ġhoriz": 5489,
      "åľ°å½¢": 5490,
      "åĲİç»Ń": 5491,
      "åıĳæĮ¥": 5492,
      "éĺ´": 5493,
      "term": 5494,
      "çŃīå¼ı": 5495,
      "æľ¬æĿ¥": 5496,
      "æ°Ķæ¸©": 5497,
      "éĥ½èĥ½": 5498,
      "éĥ½åı¯èĥ½": 5499,
      "Ġnotice": 5500,
      "éĿ¢å¯¹": 5501,
      "ç»ıçĶ±": 5502,
      "æ²¡äºº": 5503,
      "éª¨": 5504,
      "Ġsearch": 5505,
      "anted": 5506,
      "æİ¥æĶ¶": 5507,
      "Ġengine": 5508,
      "è°·": 5509,
      "åĩłåįģ": 5510,
      "éĢļå¸¸ä¼ļ": 5511,
      "éļıèĳĹ": 5512,
      "ä¸»ä¹ī": 5513,
      "ibr": 5514,
      "ibration": 5515,
      "odynam": 5516,
      "æĸŃè£Ĥ": 5517,
      "äºĭæĥħ": 5518,
      "Ġinterval": 5519,
      "æİ¨å¹¿": 5520,
      "rents": 5521,
      "ä¾Ŀæį®": 5522,
      "ä»·æł¼": 5523,
      "ĠPl": 5524,
      "åĨ³å®ļäºĨ": 5525,
      "å®Įåħ¨ä¸įåĲĮ": 5526,
      "èĤī": 5527,
      "Ġproducing": 5528,
      "èĬĤçĤ¹çļĦ": 5529,
      "Ġdecre": 5530,
      "çĹķ": 5531,
      "Ġexplan": 5532,
      "èģĶåĲĪ": 5533,
      "å®īæİĴ": 5534,
      "æº¶è§£": 5535,
      "Ġbackground": 5536,
      "Ġrecord": 5537,
      "å·¦åı³": 5538,
      "Ġbright": 5539,
      "Ġdraw": 5540,
      "Ġrotation": 5541,
      "Ġhyd": 5542,
      "Ġwaiting": 5543,
      "å°ģéĹŃ": 5544,
      "Ġpaper": 5545,
      "Ġoutcome": 5546,
      "Ġvector": 5547,
      "æĭĵæīĳ": 5548,
      "ç¼ĸè¯ĳåĻ¨": 5549,
      "æķıæĦŁ": 5550,
      "ä¼½åĪ©çķ¥": 5551,
      "21": 5552,
      "CP": 5553,
      "II": 5554,
      "SA": 5555,
      "Two": 5556,
      "aus": 5557,
      "bs": 5558,
      "ble": 5559,
      "based": 5560,
      "eep": 5561,
      "ying": 5562,
      "çļĦåĬĽ": 5563,
      "çļĦåŁºåĽł": 5564,
      "çļĦæķ°åŃ¦": 5565,
      "çļĦèĽĭçĻ½è´¨": 5566,
      "Ġsqu": 5567,
      "å®ĺ": 5568,
      "Ġpict": 5569,
      "è¾Ĩ": 5570,
      "è¿Ļæĺ¯": 5571,
      "å¤ļæł·": 5572,
      "åıĳæĺİ": 5573,
      "åħ¶ä¸ŃçļĦ": 5574,
      "å¿ĺ": 5575,
      "æĽ´å¼º": 5576,
      "èµĽ": 5577,
      "ift": 5578,
      "ifies": 5579,
      "æ²¹": 5580,
      "å¾Īå°ı": 5581,
      "duction": 5582,
      "è·³": 5583,
      "åį´åı¯èĥ½": 5584,
      "Ġunus": 5585,
      "äºĮåįģ": 5586,
      "ç¬¬ä¸ī": 5587,
      "Ġinteg": 5588,
      "ç©ºéĹ´çļĦ": 5589,
      "åħ¬åı¸": 5590,
      "åľ°çĲĥä¸Ĭ": 5591,
      "èº«ä½ĵ": 5592,
      "éĢĤçĶ¨äºİ": 5593,
      "åĲĦä¸ª": 5594,
      "æĸ¹ç¨ĭç»Ħ": 5595,
      "ãĢįï¼Ī": 5596,
      "èĲ¥": 5597,
      "éļ¾ä»¥": 5598,
      "æł¸ç³ĸä½ĵ": 5599,
      "æľ¯è¯Ń": 5600,
      "é»Ħ": 5601,
      "ä¿®å¤į": 5602,
      "åįĩé«ĺ": 5603,
      "ç¼ĸç¨ĭ": 5604,
      "åķ¶": 5605,
      "çĸ¾": 5606,
      "çĸı": 5607,
      "æ°¨éħ¸": 5608,
      "è´¨åŃĲæķ°": 5609,
      "Ġcooling": 5610,
      "ä»Ĭå¤©": 5611,
      "Ġgravitational": 5612,
      "ä¹Łå°±æĺ¯è¯´": 5613,
      "ropy": 5614,
      "Ġlevels": 5615,
      "Ġtasks": 5616,
      "Ġconcentr": 5617,
      "Ġdiscovered": 5618,
      "Ġdevice": 5619,
      "Ġagainst": 5620,
      "Ġsomething": 5621,
      "Ġfilter": 5622,
      "æıĴåħ¥": 5623,
      "åıįåĲĳä¼łæĴŃ": 5624,
      "Ġinitial": 5625,
      "Ġnegative": 5626,
      "Ġtempor": 5627,
      "èļĢ": 5628,
      "Ġsmooth": 5629,
      "After": 5630,
      "flow": 5631,
      "faces": 5632,
      "iel": 5633,
      "time": 5634,
      "§åķ¶": 5635,
      "Ġä»ĸ": 5636,
      "Ġä¸ºäºĨ": 5637,
      "çļĦåĪĨåŃĲ": 5638,
      "Ġaction": 5639,
      "Ġsort": 5640,
      "å¤¹": 5641,
      "ison": 5642,
      "æĸ¥": 5643,
      "ä¸įåŃĺåľ¨": 5644,
      "ä¼Ĭ": 5645,
      "åĪĨæĪĲ": 5646,
      "ä»¥å¤ĸ": 5647,
      "çºł": 5648,
      "è¿ĩåº¦": 5649,
      "åĲİæľŁ": 5650,
      "çĶµæ±ł": 5651,
      "ols": 5652,
      "çŃĳ": 5653,
      "æĮ¡": 5654,
      "éħ®": 5655,
      "æĽ´ä¸º": 5656,
      "æľĢé«ĺ": 5657,
      "ading": 5658,
      "æ²ĥ": 5659,
      "Ġnotic": 5660,
      "æ¨¡æĿ¿": 5661,
      "ecton": 5662,
      "æ´ŀ": 5663,
      "ĠTheir": 5664,
      "âĢĿï¼Ī": 5665,
      "å¹³è¡Į": 5666,
      "å¢Ļ": 5667,
      "éĶĢ": 5668,
      "å½ĵä¸Ń": 5669,
      "ĠSe": 5670,
      "åħīåŃĲ": 5671,
      "aken": 5672,
      "çľĭä¼¼": 5673,
      "æ±¡": 5674,
      "è¿ĺéľĢè¦ģ": 5675,
      "æĶ¹åĸĦ": 5676,
      "è¯ģå®ŀ": 5677,
      "Ġquarks": 5678,
      "ç¢į": 5679,
      "è¯Ńä¹ī": 5680,
      "äºĭåĬ¡": 5681,
      "ientists": 5682,
      "Ġspect": 5683,
      "ç®ĢåĮĸ": 5684,
      "Ġclos": 5685,
      "æİ¨æĸŃ": 5686,
      "çº¦ç¿": 5687,
      "åŃ¦ä¹łçİĩ": 5688,
      "èĩªçĦ¶éĢīæĭ©": 5689,
      "Ġdatas": 5690,
      "Ġprobab": 5691,
      "Ġworked": 5692,
      "Ġcreates": 5693,
      "çħ§çīĩ": 5694,
      "æĲº": 5695,
      "Ġcapt": 5696,
      "Ġmagnitude": 5697,
      "ç¬¬äºĮå¤©": 5698,
      "Ġspecific": 5699,
      "èħº": 5700,
      "è´Ŀå°Ķ": 5701,
      "atching": 5702,
      "åįıè°ĥ": 5703,
      "Ġdeli": 5704,
      "Ġidea": 5705,
      "éģįåİĨ": 5706,
      "Ġshowed": 5707,
      "ç¿»è¯ĳ": 5708,
      "Ġgradients": 5709,
      "éĢĶå¾Ħ": 5710,
      "Ġstatistics": 5711,
      "Ġharder": 5712,
      "æł¡åĩĨ": 5713,
      "ansion": 5714,
      "æŃ»äº¡": 5715,
      "åĺ§åķ¶": 5716,
      "Ġatmosphere": 5717,
      "Ġseismic": 5718,
      "Ġpractical": 5719,
      "Ġextremely": 5720,
      "Ġpropag": 5721,
      "çŃīä½įåŁºåĽł": 5722,
      "ĠLaboratory": 5723,
      "çº¦ç¿°": 5724,
      "ai": 5725,
      "az": 5726,
      "ares": 5727,
      "lied": 5728,
      "mer": 5729,
      "oy": 5730,
      "vent": 5731,
      "èŃ": 5732,
      "Ġ,": 5733,
      "çļĦåĮĸåŃ¦": 5734,
      "çļĦçĶŁçī©": 5735,
      "çļĦæĢ»": 5736,
      "çļĦå¹³åĿĩ": 5737,
      "Ġslight": 5738,
      "ended": 5739,
      "åŃŁ": 5740,
      "ä¸Ģåı¥": 5741,
      "æĺ¯ä»İ": 5742,
      "itation": 5743,
      "Ġdynam": 5744,
      "ä¹Ļ": 5745,
      "Ġfore": 5746,
      "Ġfoc": 5747,
      "ä¼¤": 5748,
      "ä¼ĳ": 5749,
      "ä¸ºä¸Ģ": 5750,
      "åı¯ç§¯": 5751,
      "åı¯éĢĨ": 5752,
      "æĢ¥": 5753,
      "åĪĨè¾¨": 5754,
      "ash": 5755,
      "åĲĮä¸Ģç§į": 5756,
      "ä¼ļä½¿": 5757,
      "ä¼ļåıĳçĶŁ": 5758,
      "èĢĮæĪĲ": 5759,
      "iments": 5760,
      "Ġgiv": 5761,
      "å¹¶è¡Į": 5762,
      "éĩįç»Ħ": 5763,
      "èĩªåıĳ": 5764,
      "å¾Ĺå¤ļ": 5765,
      "Ġexternal": 5766,
      "rie": 5767,
      "Ġwhose": 5768,
      "å¼ĢæĶ¾": 5769,
      "å¯¼çĶµ": 5770,
      "æĹ¶éĹ´åĨħ": 5771,
      "æłĩéĩı": 5772,
      "è½¬åĬ¨": 5773,
      "å·®åĪ«": 5774,
      "æĦıæĢĿ": 5775,
      "pty": 5776,
      "è¾ĥé«ĺ": 5777,
      "ocks": 5778,
      "å¤Ħäºİ": 5779,
      "èĦĤ": 5780,
      "æĶ¹åıĺäºĨ": 5781,
      "å¹¶ä¸įä¸Ģå®ļ": 5782,
      "äºĴè¡¥": 5783,
      "Ġtransm": 5784,
      "æİ¨å¯¼": 5785,
      "èį¯": 5786,
      "èįī": 5787,
      "ä¸īç»´": 5788,
      "Ġelectromagnetic": 5789,
      "Ġoverall": 5790,
      "Ġrequest": 5791,
      "Ġactual": 5792,
      "äººå·¥ç¥ŀç»ıç½ĳç»ľ": 5793,
      "ä¿®æŃ£": 5794,
      "Ġkeys": 5795,
      "Ġmeaning": 5796,
      "é¥±": 5797,
      "Ġfinite": 5798,
      "ç¼ºéĻ·": 5799,
      "Ġminim": 5800,
      "è£ħç½®": 5801,
      "å»¶ä¼¸": 5802,
      "ä¸ĵéĹ¨": 5803,
      "Ġscientific": 5804,
      "æİ¢æµĭ": 5805,
      "Ġatomic": 5806,
      "Ġrepeatedly": 5807,
      "èĹ»": 5808,
      "æ¬§æ´²": 5809,
      "æľºæ¢°èĥ½": 5810,
      "å®¢æĪ·": 5811,
      "Ġstreet": 5812,
      "rupt": 5813,
      "Ġpositive": 5814,
      "ĠQu": 5815,
      "æ°¸è¿ľ": 5816,
      "point": 5817,
      "äº¤äºĴä½ľçĶ¨": 5818,
      "é¸Ł": 5819,
      "Ġrule": 5820,
      "Ġsediment": 5821,
      "Ġoccup": 5822,
      "é½Ĳ": 5823,
      "bits": 5824,
      "pH": 5825,
      "rid": 5826,
      "uper": 5827,
      "âĨ": 5828,
      "å´": 5829,
      "ĠæľĢ": 5830,
      "ĠâĢĶ": 5831,
      "ä¸°": 5832,
      "çļĦåĲĳéĩı": 5833,
      "çļĦåħ³ç³»": 5834,
      "çļĦçī¹å¾ģ": 5835,
      "çļĦéĽĨåĲĪ": 5836,
      "Ġapart": 5837,
      "åĲ¹": 5838,
      "orre": 5839,
      "alle": 5840,
      "Ġmag": 5841,
      "Ġdam": 5842,
      "æĹħ": 5843,
      "Ġfund": 5844,
      "ici": 5845,
      "å¼¦": 5846,
      "åĪĨæķ£": 5847,
      "è¡į": 5848,
      "Ġnam": 5849,
      "è´Ń": 5850,
      "Ġhidden": 5851,
      "çĲĨåŃ¦": 5852,
      "éĻ¢": 5853,
      "Ġones": 5854,
      "çĽ¸éĤ»": 5855,
      "éĢļéģĵ": 5856,
      "æĽ´æľī": 5857,
      "ching": 5858,
      "éĥ½åľ¨": 5859,
      "åĬłæ³ķ": 5860,
      "åĨħæł¸": 5861,
      "æµ·å²¸": 5862,
      "ä»¶äºĭ": 5863,
      "ç¦ı": 5864,
      "Ġsug": 5865,
      "éķ¿æĹ¶éĹ´": 5866,
      "åį´èĥ½": 5867,
      "æķ°æį®éĽĨ": 5868,
      "æ±ĩ": 5869,
      "è¾ĥå¤§": 5870,
      "Ġunits": 5871,
      "ç»ĨèĥŀçļĦ": 5872,
      "å®¶éĩĮ": 5873,
      "éĿŀéĩĳå±ŀ": 5874,
      "å½¢æĪĲäºĨ": 5875,
      "action": 5876,
      "âĪĩ": 5877,
      "Ġheating": 5878,
      "èĦĬ": 5879,
      "å¼ķåıĳ": 5880,
      "Ġacco": 5881,
      "åıĳçİ°çļĦ": 5882,
      "è§Ħå®ļ": 5883,
      "oking": 5884,
      "Ġappeared": 5885,
      "Ġpercent": 5886,
      "äº¤åıī": 5887,
      "ä»įåı¯èĥ½": 5888,
      "ĠDifferent": 5889,
      "å»ºçŃĳ": 5890,
      "èĢĮæĺ¯åľ¨": 5891,
      "è¥¿æ´ĭ": 5892,
      "Ġrepair": 5893,
      "é¦Ļ": 5894,
      "çĲĨè§£æĪĲ": 5895,
      "é©¬åħĭ": 5896,
      "æĻ¶æł¼": 5897,
      "Ġcontrolled": 5898,
      "Ġstudies": 5899,
      "Ġerrors": 5900,
      "Ġmainly": 5901,
      "Ġcausal": 5902,
      "èĴ¸æ°Ķ": 5903,
      "Ġscales": 5904,
      "ĠCont": 5905,
      "Ġrocks": 5906,
      "çĵ¶": 5907,
      "ecause": 5908,
      "Ġprecision": 5909,
      "Ġmathem": 5910,
      "Ġflux": 5911,
      "éļĲèĹı": 5912,
      "Ġsometimes": 5913,
      "Ġangular": 5914,
      "è¯¾ç¨ĭ": 5915,
      "åĢ¾åĲĳ": 5916,
      "Ġbeneath": 5917,
      "åİŁåŃĲåºıæķ°": 5918,
      "Ġsurrounding": 5919,
      "Ġglobal": 5920,
      "Ġhorizon": 5921,
      "æĲºå¸¦": 5922,
      "Ġslightly": 5923,
      "åŃŁå¾·å°Ķ": 5924,
      ":=": 5925,
      "Before": 5926,
      "now": 5927,
      "xi": 5928,
      "¡èĲ": 5929,
      "çĴ": 5930,
      "ĮçĶŁ": 5931,
      "çļĦç§ĳåŃ¦": 5932,
      "çļĦæīĢæľī": 5933,
      "çļĦåıĳå±ķ": 5934,
      "eral": 5935,
      "æĺ¯çłĶç©¶": 5936,
      "Ġdest": 5937,
      "Ġfood": 5938,
      "åĩī": 5939,
      "å¹Ķ": 5940,
      "åįļ": 5941,
      "èĢ¦": 5942,
      "æĪĲåĳĺ": 5943,
      "æĪĲæŃ£æ¯Ķ": 5944,
      "æ³¡": 5945,
      "ceed": 5946,
      "Ġstability": 5947,
      "ç¨į": 5948,
      "Ġconcer": 5949,
      "æ¯«": 5950,
      "rap": 5951,
      "ä¾µ": 5952,
      "åı¯ä»¥æĺ¯": 5953,
      "æ²¸": 5954,
      "è¶£": 5955,
      "åħ³èģĶ": 5956,
      "çī¹çĤ¹": 5957,
      "æ°´åĪĨ": 5958,
      "Ġcomes": 5959,
      "æŃ£åľ¨": 5960,
      "ĠAd": 5961,
      "resp": 5962,
      "æµ·åºķ": 5963,
      "åħĥç´łåĳ¨æľŁè¡¨": 5964,
      "ç»ĵæŀĦåĴĮ": 5965,
      "çľĭä¸į": 5966,
      "Ġcompared": 5967,
      "å°ĳæķ°": 5968,
      "Ġresid": 5969,
      "åıĸå¾Ĺ": 5970,
      "ç£ģéĢļ": 5971,
      "åħ±æĮ¯": 5972,
      "å¹¶ä¸įä¼ļ": 5973,
      "ç½ĳè·¯": 5974,
      "è§ĦåĪĴ": 5975,
      "å¤±æķĪ": 5976,
      "ĠRNA": 5977,
      "Ġadding": 5978,
      "è§Ĵèī²": 5979,
      "Ġsurv": 5980,
      "åĨĻæĪĲ": 5981,
      "ä¼ĺåħĪ": 5982,
      "æħ§": 5983,
      "Ġreport": 5984,
      "èµĦè®¯": 5985,
      "Ġyou": 5986,
      "å¼ķåĬĽè´¨éĩı": 5987,
      "æĮ¯å¹ħ": 5988,
      "ä¿®é¥°": 5989,
      "Ġè¿Ļä¸Ģ": 5990,
      "Ġè¿Ļæł·": 5991,
      "æĻºæħ§": 5992,
      "ĠThat": 5993,
      "Ġregular": 5994,
      "åĬ©äºİ": 5995,
      "é©¬ä¸Ĭ": 5996,
      "ission": 5997,
      "çĪ¶": 5998,
      "Ġeasy": 5999,
      "Ġmechanism": 6000,
      "æ¿Ģæ´»": 6001,
      "åĸľ": 6002,
      "è¶ĭåĲĳ": 6003,
      "Ġoperating": 6004,
      "åįłæį®": 6005,
      "Ġfailure": 6006,
      "Ġdiag": 6007,
      "Ġprotons": 6008,
      "é¡µéĿ¢": 6009,
      "Ġrelatively": 6010,
      "Ġresear": 6011,
      "...": 6012,
      "Ġstream": 6013,
      "é²ģ": 6014,
      "Ġunderstanding": 6015,
      "Ġselection": 6016,
      "çİ»çĴ": 6017,
      "Ġmonth": 6018,
      "Ġstandard": 6019,
      "Ġterms": 6020,
      "Ġdetails": 6021,
      "Ġnatural": 6022,
      "åĪłéĻ¤": 6023,
      "åħ¬åħĥåīį": 6024,
      "çº¤ç»´": 6025,
      "çİ»çĴĥ": 6026,
      "94": 6027,
      "PAC": 6028,
      "com": 6029,
      "dt": 6030,
      "hood": 6031,
      "ler": 6032,
      "met": 6033,
      "mall": 6034,
      "off": 6035,
      "tical": 6036,
      "uation": 6037,
      "µĮ": 6038,
      "åµĮ": 6039,
      "ç¯": 6040,
      "éŀ": 6041,
      "Ġè¯¥": 6042,
      "Ġçİ°ä»£": 6043,
      "ĠÂ°": 6044,
      "Ġå°½ç®¡": 6045,
      "çļĦå®ŀéªĮ": 6046,
      "Ġsal": 6047,
      "Ġmis": 6048,
      "Ġbatter": 6049,
      "ä¸įçŃīäºİ": 6050,
      "ä¸ªäºº": 6051,
      "åŃ¦ä¸Ń": 6052,
      "æ°¦": 6053,
      "æ°¯": 6054,
      "æī«": 6055,
      "Ġlast": 6056,
      "åıĺå½¢": 6057,
      "åıĺå¼Ĥ": 6058,
      "å¤§è¥¿æ´ĭ": 6059,
      "Ġhome": 6060,
      "Ġbeyond": 6061,
      "èĢĮåľ¨": 6062,
      "Ġstayed": 6063,
      "åĲİéĿ¢": 6064,
      "urther": 6065,
      "çĶµè·¯": 6066,
      "è¡¨è¿°": 6067,
      "æĶ¿": 6068,
      "ç§įç¾¤": 6069,
      "åĲĳå¤ĸ": 6070,
      "oses": 6071,
      "æ°ĶæĹĭ": 6072,
      "æŀĦå»º": 6073,
      "Ġcomplic": 6074,
      "åĿļ": 6075,
      "çº¿ç´¢": 6076,
      "åı¯èĥ½æĢ§": 6077,
      "éķ§": 6078,
      "antum": 6079,
      "Ġsufficient": 6080,
      "ĠSh": 6081,
      "çľĭä½ľ": 6082,
      "izing": 6083,
      "çľŁçļĦ": 6084,
      "è±Ĩ": 6085,
      "æķ´çĲĨ": 6086,
      "æĮĩçļĦæĺ¯": 6087,
      "åĪ«äºº": 6088,
      "Ġrough": 6089,
      "æŀģåľ°": 6090,
      "æŀģå°ı": 6091,
      "Ġspin": 6092,
      "Ġdistant": 6093,
      "è¿ĲåĬ¨å®ļå¾ĭ": 6094,
      "Ġapplying": 6095,
      "æºĲäºİ": 6096,
      "Ġrelation": 6097,
      "æĴĳ": 6098,
      "èĳ¡èĲ": 6099,
      "åģıå¾®åĪĨæĸ¹ç¨ĭ": 6100,
      "Ġsimpl": 6101,
      "åĪĨå¸ĥå¼ı": 6102,
      "Ġexpansion": 6103,
      "Ġreco": 6104,
      "Ġbehind": 6105,
      "Ġvisit": 6106,
      "è¡¨è¾¾å¼ı": 6107,
      "éªĮè¯ģéĽĨ": 6108,
      "Ġcomputer": 6109,
      "æ²¿çĿĢ": 6110,
      "Ġinstant": 6111,
      "Ġmaintain": 6112,
      "Ġindex": 6113,
      "ç¡¬ä»¶": 6114,
      "Ġbuild": 6115,
      "åģ¶çĦ¶": 6116,
      "Ġmolecular": 6117,
      "è®°å¿Ĩä½ĵ": 6118,
      "Ġfactor": 6119,
      "åĳĬè¯ī": 6120,
      "ç¹ģæ®ĸ": 6121,
      "åĳĪçİ°": 6122,
      "èģļåĲĪéħ¶": 6123,
      "crete": 6124,
      "Ġrarely": 6125,
      "Ġfault": 6126,
      "é»ĺè®¤": 6127,
      "Ġhistory": 6128,
      "Ġbarri": 6129,
      "iciency": 6130,
      "èĳ¡èĲĦ": 6131,
      "),": 6132,
      "99": 6133,
      "ouse": 6134,
      "Ġ6": 6135,
      "Ġign": 6136,
      "Ġtecton": 6137,
      "inite": 6138,
      "hemical": 6139,
      "Ġcac": 6140,
      "æĺ¯ä»¥": 6141,
      "æĺ¯æľĢ": 6142,
      "æĺ¯è¯¯åĮº": 6143,
      "Ġbin": 6144,
      "Ġfr": 6145,
      "Ġfit": 6146,
      "æľīçĶ¨": 6147,
      "icon": 6148,
      "ä»¥ä¸ĭçļĦ": 6149,
      "çĽĴ": 6150,
      "æµĨ": 6151,
      "ä¼ļåĦ¿": 6152,
      "unts": 6153,
      "å¤§èĩ´": 6154,
      "çĶŁåŃĺ": 6155,
      "ä¸Ĭæľī": 6156,
      "å¤ļå±Ĥ": 6157,
      "åĲİèĢħ": 6158,
      "åĩºåıĳ": 6159,
      "stron": 6160,
      "åıĳå°Ħ": 6161,
      "åıĳå¸ĥ": 6162,
      "ç´«": 6163,
      "ä¹Łåı¯": 6164,
      "Ġgl": 6165,
      "eli": 6166,
      "éĽ¾": 6167,
      "å½¢æĢģ": 6168,
      "å®ĥæĺ¯": 6169,
      "ume": 6170,
      "æ¸Ĺ": 6171,
      "Ġchild": 6172,
      "æ´¾": 6173,
      "Ġvapor": 6174,
      "resents": 6175,
      "æ¬¢": 6176,
      "å¹³æ´ĭ": 6177,
      "Ġshaking": 6178,
      "æķ°æį®ç»ĵæŀĦ": 6179,
      "çľĭè§ģ": 6180,
      "å·¥ä¸ļ": 6181,
      "è¾ĥå°ı": 6182,
      "æ³¢çļĦ": 6183,
      "äºĮç»´": 6184,
      "ä½İæ¸©": 6185,
      "å»ī": 6186,
      "è®¤è¯Ĩ": 6187,
      "Ġevents": 6188,
      "é¢ĦæľŁ": 6189,
      "åľ°çĲĥè¡¨éĿ¢": 6190,
      "å¤ªç©º": 6191,
      "å¤ªå¹³æ´ĭ": 6192,
      "åĬŁçİĩ": 6193,
      "åĿĩåĢ¼": 6194,
      "æ¡¥": 6195,
      "çº¦ä¸º": 6196,
      "å®ŀéªĮå®¤": 6197,
      "æķ£å°Ħ": 6198,
      "Ġgradu": 6199,
      "åıĪç§°": 6200,
      "Ġrepresents": 6201,
      "Ġpost": 6202,
      "å¤ªéĺ³ç³»": 6203,
      "Ġreducing": 6204,
      "éļıæľºåıĺéĩı": 6205,
      "Ġcurrents": 6206,
      "Ġcorresp": 6207,
      "æ¹¾": 6208,
      "éĢłæĪĲçļĦ": 6209,
      "åıĮèŀºæĹĭ": 6210,
      "Ġnumerical": 6211,
      "åķ¸": 6212,
      "çīĩæ®µ": 6213,
      "Ġslower": 6214,
      "æ¹¿åº¦": 6215,
      "Ġprediction": 6216,
      "äºīè®º": 6217,
      "Ġcirculation": 6218,
      "çĻ¾ä¸ĩ": 6219,
      "è®¯æģ¯": 6220,
      "éĴĪå¯¹": 6221,
      "èģĶç³»èµ·æĿ¥": 6222,
      "Ġupdates": 6223,
      "Ġinputs": 6224,
      "å¹¿ä¹īçĽ¸å¯¹è®º": 6225,
      "Ġshift": 6226,
      "Ġbias": 6227,
      "Ġsunlight": 6228,
      "Ġfeatures": 6229,
      "Ġdomin": 6230,
      "Ġassociated": 6231,
      "Ġvolcanic": 6232,
      "å°ļæľª": 6233,
      "è¢«è®¤ä¸ºæĺ¯": 6234,
      "oxide": 6235,
      "ĠPhysics": 6236,
      "èĻļæĭŁ": 6237,
      "Ġfeedback": 6238,
      "Ġcatal": 6239,
      "è¿ĶåĽŀ": 6240,
      "çŁ¢éĩı": 6241,
      "çĭŃä¹īçĽ¸å¯¹è®º": 6242,
      "é¥±åĴĮ": 6243,
      "allel": 6244,
      "Ġsuggest": 6245,
      "35": 6246,
      "FS": 6247,
      "IC": 6248,
      "NS": 6249,
      "efficient": 6250,
      "oud": 6251,
      "Ġ5": 6252,
      "ĠçĶ±": 6253,
      "ĠéĢļå¸¸": 6254,
      "çļĦåĢ¼": 6255,
      "çļĦé«ĺ": 6256,
      "çļĦåĬŁèĥ½": 6257,
      "Ġsil": 6258,
      "å®¡": 6259,
      "ä¸ĢåįĬ": 6260,
      "orter": 6261,
      "Ġpast": 6262,
      "Ġpub": 6263,
      "arge": 6264,
      "ising": 6265,
      "Ġfill": 6266,
      "ä¼´": 6267,
      "åį±": 6268,
      "è´§": 6269,
      "èĢĮéĿŀ": 6270,
      "rack": 6271,
      "çĽ¸å¯¹äºİ": 6272,
      "å¸¸çĶ¨çļĦ": 6273,
      "å¤įæķ°": 6274,
      "ä½Ĩå®ĥ": 6275,
      "æĬĬä¸Ģä¸ª": 6276,
      "å¥ı": 6277,
      "ç§¯ç´¯": 6278,
      "æİ¥åı£": 6279,
      "ä¼łæĦŁ": 6280,
      "æıĲéĨĴ": 6281,
      "æ±Ĳ": 6282,
      "èī¾": 6283,
      "äº§çĶŁäºĨ": 6284,
      "å°Ħçº¿": 6285,
      "è¶Ĭå¤ļ": 6286,
      "ired": 6287,
      "åıĳçĶŁçļĦ": 6288,
      "Ġleave": 6289,
      "è®°ä¸º": 6290,
      "å®ļä¹īåŁŁ": 6291,
      "ogn": 6292,
      "åĽ¾çģµ": 6293,
      "aps": 6294,
      "ustom": 6295,
      "äº¤æµģ": 6296,
      "èİ«": 6297,
      "éĤ£æł·": 6298,
      "æ¸©åº¦åĴĮ": 6299,
      "å±ķå¼Ģ": 6300,
      "Ġincom": 6301,
      "å®Įåħ¨ä¸įåĲĮçļĦ": 6302,
      "çº§ç»ĵæŀĦ": 6303,
      "è¯ķåĽ¾": 6304,
      "ĠInst": 6305,
      "æŁĵèī²è´¨": 6306,
      "Ġafterno": 6307,
      "Ġdescribed": 6308,
      "Ġobservation": 6309,
      "èĴĻ": 6310,
      "ç¬¬äºĮå®ļå¾ĭ": 6311,
      "ledge": 6312,
      "Ġallows": 6313,
      "è¿Ļæł·çļĦ": 6314,
      "Ġorganisms": 6315,
      "Ġexplains": 6316,
      "æ½®æ±Ĳ": 6317,
      "èĢģå¸Ī": 6318,
      "åŃ£èĬĤ": 6319,
      "Ġprogress": 6320,
      "Ġturned": 6321,
      "Ġrisk": 6322,
      "Ġupdate": 6323,
      "åĢŁçĶ±": 6324,
      "cosity": 6325,
      "åĲ¯åĬ¨": 6326,
      "Ġelse": 6327,
      "Ġpolar": 6328,
      "Ġedge": 6329,
      "Ġperfectly": 6330,
      "Ġinstrument": 6331,
      "ä¸Ļéħ®": 6332,
      "Ġresearchers": 6333,
      "AB": 6334,
      "On": 6335,
      "arent": 6336,
      "ope": 6337,
      "where": 6338,
      "Ġåı¦å¤ĸ": 6339,
      "çļĦçĽ®æłĩ": 6340,
      "reg": 6341,
      "Ġsin": 6342,
      "åĲī": 6343,
      "Ġcases": 6344,
      "Ġdiv": 6345,
      "Ġfraction": 6346,
      "Ġfurther": 6347,
      "åĩŃ": 6348,
      "ä¸ªæķ°": 6349,
      "å¯¿": 6350,
      "æĹ¶ä»£": 6351,
      "çİĭ": 6352,
      "Ġnow": 6353,
      "Ġname": 6354,
      "Ġland": 6355,
      "åĮĸåĴĮ": 6356,
      "çº²": 6357,
      "è¿Ļä¸¤ä¸ª": 6358,
      "éĻĮçĶŁ": 6359,
      "è¿ĩçļĦ": 6360,
      "rams": 6361,
      "çĽ¸æ¯Ķ": 6362,
      "ä½ľåĬŁ": 6363,
      "ä¸ĭä¸Ģä¸ª": 6364,
      "æĽ´ä½İ": 6365,
      "Ġmoist": 6366,
      "åİŁæł¸": 6367,
      "çĤ¸": 6368,
      "abl": 6369,
      "éģµ": 6370,
      "æ°´çļĦ": 6371,
      "å¤ĸå±Ĥ": 6372,
      "Ġsuccess": 6373,
      "è°¨": 6374,
      "Ġcontact": 6375,
      "æĮĩå®ļ": 6376,
      "èĦī": 6377,
      "ä½İäºİ": 6378,
      "Ġintended": 6379,
      "Ġusual": 6380,
      "Ġscience": 6381,
      "Ġdisc": 6382,
      "Ġtransition": 6383,
      "åĲįåŃĹ": 6384,
      "æĶ¶éĽĨ": 6385,
      "åįģåĪĨ": 6386,
      "ĠWith": 6387,
      "åĳ¨æľŁæĢ§": 6388,
      "Ġpoly": 6389,
      "Ġcreating": 6390,
      "Ġcare": 6391,
      "æ°¢ç¦»åŃĲ": 6392,
      "Ġparallel": 6393,
      "Ġconsider": 6394,
      "åı¶ç»¿": 6395,
      "requency": 6396,
      "æ¿Ģåıĳ": 6397,
      "åįĹæŀģ": 6398,
      "Ġreading": 6399,
      "Ġsupports": 6400,
      "Ġavoid": 6401,
      "Ġrelease": 6402,
      "Ġrelevant": 6403,
      "Ġchoice": 6404,
      "Ġchoices": 6405,
      "Ġtokens": 6406,
      "Ġsamples": 6407,
      "Ġreturned": 6408,
      "Ġincluding": 6409,
      "Ġdistinction": 6410,
      "âŁ©": 6411,
      "Ġconstraints": 6412,
      "Ġresources": 6413,
      "ynthesis": 6414,
      "This": 6415,
      "èĵĿ": 6416,
      "Ġsaid": 6417,
      "Ġfundam": 6418,
      "ä¼łæĦŁåĻ¨": 6419,
      "100": 6420,
      "Ar": 6421,
      "BM": 6422,
      "Elect": 6423,
      "One": 6424,
      "SO": 6425,
      "Sc": 6426,
      "dden": 6427,
      "lies": 6428,
      "mv": 6429,
      "sion": 6430,
      "wise": 6431,
      "æ§": 6432,
      "ĠX": 6433,
      "Ġä»¥": 6434,
      "ĠâĨĴ": 6435,
      "çļĦåŃĲ": 6436,
      "çļĦè§£": 6437,
      "çļĦæĢ§è´¨": 6438,
      "enced": 6439,
      "ä½ł": 6440,
      "åĬª": 6441,
      "Ġpump": 6442,
      "Ġwarning": 6443,
      "ä¸įåıªæĺ¯": 6444,
      "rote": 6445,
      "æľīè®¸å¤ļ": 6446,
      "lex": 6447,
      "å¹ķ": 6448,
      "åı¯å¯¼": 6449,
      "åŃ¦æľ¯": 6450,
      "Ġnight": 6451,
      "ush": 6452,
      "ä¼ļæĬĬ": 6453,
      "å·§": 6454,
      "å¤ļæ¬¡": 6455,
      "åľ°åĽ¾": 6456,
      "idge": 6457,
      "çİ°ä»Ĭ": 6458,
      "olved": 6459,
      "äººéĥ½": 6460,
      "Ġgood": 6461,
      "æĮ¤": 6462,
      "heric": 6463,
      "éĢļçĶ¨": 6464,
      "æľĢå¤ļ": 6465,
      "Ġprote": 6466,
      "Ġproced": 6467,
      "ä¹ĭä¸Ń": 6468,
      "è¡Įç¨ĭ": 6469,
      "Ġexpen": 6470,
      "Ġexten": 6471,
      "æ°Ķæµģ": 6472,
      "æ°Ķåİĭ": 6473,
      "ription": 6474,
      "Ġnote": 6475,
      "Ġforward": 6476,
      "é«ĺäºİ": 6477,
      "çĦ¦": 6478,
      "Ġsudden": 6479,
      "æĹ¶éĹ´å¤įæĿĤåº¦": 6480,
      "åİŁåŃĲéĩı": 6481,
      "åĩłç§į": 6482,
      "Ġcompares": 6483,
      "æ¶¡": 6484,
      "ä½ľçĶ¨çļĦ": 6485,
      "äºĮéĺ¶": 6486,
      "è®¾ç½®": 6487,
      "æĺ¾å¾®": 6488,
      "ĠTo": 6489,
      "çī©çĲĨéĩı": 6490,
      "Ġintermedi": 6491,
      "though": 6492,
      "ä¸īè§Ĵ": 6493,
      "éĢĤçĶ¨": 6494,
      "æĥ³æ³ķ": 6495,
      "Ġsurfaces": 6496,
      "èĭ¥å¹²": 6497,
      "Ġlost": 6498,
      "è¶³ä»¥": 6499,
      "æĹ©æĻ¨": 6500,
      "ä¼ĺåĬ¿": 6501,
      "æĭīæĸ¯": 6502,
      "ä¸ļåĬ¡": 6503,
      "Ġmagnet": 6504,
      "æĳĦ": 6505,
      "è¯»åıĸ": 6506,
      "Ġcontinue": 6507,
      "èĴĤ": 6508,
      "ç¼ºå°ĳ": 6509,
      "Ġdistributed": 6510,
      "Ġapproach": 6511,
      "Ġaccura": 6512,
      "Ġoperation": 6513,
      "è¶ħå¯¼ä½ĵ": 6514,
      "Ġcaused": 6515,
      "Ġexperience": 6516,
      "Ġclean": 6517,
      "Ġopened": 6518,
      "å¼¹æĢ§": 6519,
      "å¼¹ç°": 6520,
      "äº¿å¹´åīį": 6521,
      "Ġcalcul": 6522,
      "Ġeventually": 6523,
      "æĶ¾å°ĦæĢ§åĲĮä½įç´ł": 6524,
      "Ġchecked": 6525,
      "Ġaffects": 6526,
      "æĦŁçŁ¥æľº": 6527,
      "Ġopposite": 6528,
      "Ġdomain": 6529,
      "Ġpairs": 6530,
      "è¿ģç§»": 6531,
      "è¡£æľį": 6532,
      "Ġpieces": 6533,
      "å¼¯æĽ²": 6534,
      "Ġnecessarily": 6535,
      "Ġpicture": 6536,
      "Ġdataset": 6537,
      "Ġmagma": 6538,
      "èĢ¦åĲĪ": 6539,
      "Ġgradually": 6540,
      "Ġafternoon": 6541,
      "Ġaccuracy": 6542,
      "å¼¹ç°§": 6543,
      "equ": 6544,
      "fort": 6545,
      "position": 6546,
      "vari": 6547,
      "Ġri": 6548,
      "Ġä¸įåĲĮ": 6549,
      "Ġè¡¨ç¤º": 6550,
      "Ġvers": 6551,
      "ĠæľīäºĽ": 6552,
      "çļĦåºĶçĶ¨": 6553,
      "çļĦå¤§å°ı": 6554,
      "çļĦå·¥ä½ľ": 6555,
      "ä½³": 6556,
      "ä¸Ģå°ı": 6557,
      "æĺ¯å°Ĩ": 6558,
      "æĪı": 6559,
      "æľīå¤ļ": 6560,
      "æľīåĬ©äºİ": 6561,
      "åı¯åľ¨": 6562,
      "åı¯åĪĨä¸º": 6563,
      "åįİ": 6564,
      "æĹ¶åĪ»": 6565,
      "æĪĲçĨŁ": 6566,
      "çī©ä»¶": 6567,
      "è´¦": 6568,
      "ä¼ļå½¢æĪĲ": 6569,
      "ä¼ļå¢ŀåĬł": 6570,
      "unch": 6571,
      "å¤§åŃ¦": 6572,
      "çĶŁæ®ĸ": 6573,
      "Ġconcept": 6574,
      "Ġgases": 6575,
      "æĽ´å¤§çļĦ": 6576,
      "æľĢè¿ĳ": 6577,
      "ä½¿åħ¶": 6578,
      "ä¹ĭåĴĮ": 6579,
      "è¢«è§Ĩä¸º": 6580,
      "ä½įæķ°": 6581,
      "åĵ¥": 6582,
      "æ°´æ»´": 6583,
      "å¹´åĲİ": 6584,
      "èĥ¶": 6585,
      "Ġrules": 6586,
      "éĶħ": 6587,
      "æıĲåįĩ": 6588,
      "åıĺåĮĸçİĩ": 6589,
      "è¾ĥä¸º": 6590,
      "sequ": 6591,
      "Ġsoft": 6592,
      "odes": 6593,
      "ç«ĭæĸ¹": 6594,
      "åŃĺåľ¨äºİ": 6595,
      "Ġplant": 6596,
      "åıĸä»£": 6597,
      "åıĳçİ°äºĨ": 6598,
      "å±ŀæĢ§": 6599,
      "Ġspent": 6600,
      "Ġclosed": 6601,
      "æ¢ħ": 6602,
      "åģıæĮ¯": 6603,
      "èĳĹä½ľ": 6604,
      "é¢ĳç¹ģ": 6605,
      "æ·±æµ·": 6606,
      "earch": 6607,
      "èģļéĽĨ": 6608,
      "Ġefficiency": 6609,
      "æĻ®åĭĴ": 6610,
      "è§Ĥå¯ŁèĢħ": 6611,
      "å¹²æī°": 6612,
      "Ġevening": 6613,
      "å¡Ķ": 6614,
      "å¸ĮæľĽ": 6615,
      "å½Ĵçº³": 6616,
      "åı¤ä»£": 6617,
      "éĿĻçĶµ": 6618,
      "Ġcontained": 6619,
      "Ġempty": 6620,
      "éĢıæĺİ": 6621,
      "Ġblock": 6622,
      "Ġconfidence": 6623,
      "åı¶æĸ¯": 6624,
      "éĻĦè¿ĳçļĦ": 6625,
      "è´Ŀåı¶æĸ¯": 6626,
      "äºīè®®": 6627,
      "Ġdefined": 6628,
      "Ġdioxide": 6629,
      "Ġunivers": 6630,
      "Ġlimited": 6631,
      "Ġreflects": 6632,
      "è½¬æį¢ä¸º": 6633,
      "å¸Ĥåľº": 6634,
      "Ġelement": 6635,
      "Ġmatrix": 6636,
      "Ġapproximately": 6637,
      "Ġrises": 6638,
      "Ġnetworks": 6639,
      "Ġcomparison": 6640,
      "Ġpositions": 6641,
      "Ġtrue": 6642,
      "ĠOnce": 6643,
      "çĶ²åŁº": 6644,
      "Ġdistinct": 6645,
      "Ġmessage": 6646,
      "Ġexchange": 6647,
      "ä¿Ŀå®ĪåĬĽ": 6648,
      "èİ±å¸ĥå°¼èĮ¨": 6649,
      "Ġtheorem": 6650,
      "Ġcommunication": 6651,
      "Ġdistinguish": 6652,
      "Ġarrangement": 6653,
      "æĹģè¾¹": 6654,
      "çĸ¾çĹħ": 6655,
      "èĳ¡èĲĦç³ĸ": 6656,
      "32": 6657,
      "dy": 6658,
      "mar": 6659,
      "sp": 6660,
      "æĩ": 6661,
      "Ġir": 6662,
      "Ġill": 6663,
      "çļĦæķ°éĩı": 6664,
      "ä»ĳ": 6665,
      "è¿ª": 6666,
      "ancy": 6667,
      "ories": 6668,
      "alse": 6669,
      "Ġmel": 6670,
      "Ġmill": 6671,
      "Ġdense": 6672,
      "Ġbon": 6673,
      "Ġfile": 6674,
      "éĢĥ": 6675,
      "Ġrefer": 6676,
      "Ġrevers": 6677,
      "åĪĨæķ°": 6678,
      "Ġeither": 6679,
      "ä»¥æĿ¥": 6680,
      "çĶ¨åĪ°": 6681,
      "æĪĲæŀľ": 6682,
      "Ġthin": 6683,
      "ä¼ļå¯¼èĩ´": 6684,
      "çº¹": 6685,
      "éĹ´éļĶ": 6686,
      "Ġstead": 6687,
      "åľ°å¹Ķ": 6688,
      "æ³ķåĽ½": 6689,
      "åı¯ä»¥ä»İ": 6690,
      "åı¯ä»¥ä½¿çĶ¨": 6691,
      "åı¯ä»¥å°Ĩ": 6692,
      "éĺĪ": 6693,
      "åıªéľĢè¦ģ": 6694,
      "æŁ¯": 6695,
      "Ġalign": 6696,
      "æ´ģ": 6697,
      "çº¿ç¨ĭ": 6698,
      "åĪĻç§°": 6699,
      "Ġrat": 6700,
      "è·ĳ": 6701,
      "æĬĬå®ĥ": 6702,
      "æµ·åķ¸": 6703,
      "è°Ī": 6704,
      "acility": 6705,
      "åħīçļĦ": 6706,
      "çľŁç©º": 6707,
      "è®¾æĸ½": 6708,
      "çĻ½å¤©": 6709,
      "ç¢İ": 6710,
      "è®¤çŁ¥": 6711,
      "Ġeval": 6712,
      "ç§ĳåŃ¦çĲĨè®º": 6713,
      "èĬĤå¥ı": 6714,
      "195": 6715,
      "æ±Ĥå¯¼": 6716,
      "å¹¶ä¸įçŃīäºİ": 6717,
      "æ»¤": 6718,
      "ustain": 6719,
      "åĩıå°ı": 6720,
      "Ġadv": 6721,
      "ä¾ĿéĿł": 6722,
      "Ġphone": 6723,
      "çģ°": 6724,
      "åįĬè¡°": 6725,
      "åįĬå°ıæĹ¶": 6726,
      "æľªå¿ħ": 6727,
      "ç»ĪæŃ¢": 6728,
      "å¤ªéĺ³çļĦ": 6729,
      "çĽ®æłĩåĢ¼": 6730,
      "ä»ħå½ĵ": 6731,
      "Ġdecay": 6732,
      "éĩıåŃĲæĢģ": 6733,
      "çŁŃæļĤ": 6734,
      "èĮĥåĽ´åĨħ": 6735,
      "Ġsolar": 6736,
      "ificant": 6737,
      "Ġinspect": 6738,
      "anging": 6739,
      "éĺŁåĪĹ": 6740,
      "Ġcrust": 6741,
      "Ġallowed": 6742,
      "Ġlikely": 6743,
      "Ġinteraction": 6744,
      "Ġestabl": 6745,
      "Ġexperiments": 6746,
      "Ġcombine": 6747,
      "Ġdelay": 6748,
      "Ġbuilding": 6749,
      "Ġunique": 6750,
      "Ġnuclear": 6751,
      "Ġwords": 6752,
      "ä¸ŃåŃĲæķ°": 6753,
      "Ġconverg": 6754,
      "åģ¶å°Ķ": 6755,
      "çıł": 6756,
      "æ½®æ¹¿": 6757,
      "æī¿æĭħ": 6758,
      "Ġprin": 6759,
      "Ġclassical": 6760,
      "å¨ģå»ī": 6761,
      "Ġfactors": 6762,
      "ĠUnder": 6763,
      "å·¨å¤§": 6764,
      "imensional": 6765,
      "æīĢéľĢçļĦ": 6766,
      "Ġoutcomes": 6767,
      "Ġmicroscopic": 6768,
      "Ġproducts": 6769,
      "Ġkinetic": 6770,
      "Ġdisappeared": 6771,
      "èĩªçĦ¶çķĮä¸Ń": 6772,
      "Ġframe": 6773,
      "Ġfavor": 6774,
      "æī«æıı": 6775,
      "åįĬè¡°æľŁ": 6776,
      "Al": 6777,
      "As": 6778,
      "Ax": 6779,
      "During": 6780,
      "En": 6781,
      "ST": 6782,
      "cal": 6783,
      "cape": 6784,
      "iol": 6785,
      "oun": 6786,
      "oper": 6787,
      "ĠY": 6788,
      "Ġä¸Ń": 6789,
      "Ġç»Ĩèĥŀ": 6790,
      "Ġæµ·æ´ĭ": 6791,
      "ä¸ĥ": 6792,
      "çļĦçĬ¶æĢģ": 6793,
      "çļĦæĥħåĨµ": 6794,
      "çļĦæķ°åĢ¼": 6795,
      "Ġtree": 6796,
      "ats": 6797,
      "Ġcustom": 6798,
      "åħ¼": 6799,
      "ç»ĺ": 6800,
      "ä¸Ģç²Ĵ": 6801,
      "itor": 6802,
      "Ġmi": 6803,
      "Ġbase": 6804,
      "Ġbody": 6805,
      "ä¸įçŃīå¼ı": 6806,
      "æ³°": 6807,
      "ç®Ń": 6808,
      "ray": 6809,
      "uration": 6810,
      "ä¹Łåľ¨": 6811,
      "ters": 6812,
      "è½Ń": 6813,
      "æĽ´éļ¾": 6814,
      "æĽ´æİ¥è¿ĳ": 6815,
      "iform": 6816,
      "Ġprove": 6817,
      "ä¹ĭä¸Ĭ": 6818,
      "åī§": 6819,
      "å¾Īé«ĺ": 6820,
      "å¾Īå¤§çļĦ": 6821,
      "æ¸Ķ": 6822,
      "è¿Ľåİ»": 6823,
      "å¤įåĲĪ": 6824,
      "å¤ĸçķĮ": 6825,
      "åħ¥åı£": 6826,
      "éķ¿çļĦ": 6827,
      "å¤©ç©º": 6828,
      "Ġareas": 6829,
      "å®Įç¾İ": 6830,
      "çĻ»": 6831,
      "è¾ĥå°ĳ": 6832,
      "åĮĸåŃ¦åħĥç´ł": 6833,
      "Ġcontent": 6834,
      "ä¸»é¢ĺ": 6835,
      "éĵľ": 6836,
      "acement": 6837,
      "Ġlet": 6838,
      "Ġlead": 6839,
      "Ġleaving": 6840,
      "èĥ½éĩıå®ĪæģĴ": 6841,
      "æ±Ĥåĩº": 6842,
      "Ġtiming": 6843,
      "Ġcloud": 6844,
      "Ġtrack": 6845,
      "thing": 6846,
      "è§ģçļĦ": 6847,
      "ç¥ĸ": 6848,
      "åĽ´ç»ķ": 6849,
      "å±ķç¤º": 6850,
      "å®Įåħ¨çĽ¸åĲĮ": 6851,
      "ĠBy": 6852,
      "ĠBecause": 6853,
      "çľŁæŃ£çļĦ": 6854,
      "Ġunderlying": 6855,
      "ellar": 6856,
      "èģļåıĺ": 6857,
      "Ġreprodu": 6858,
      "Ġexpand": 6859,
      "å¹³è¡¡ä½įç½®": 6860,
      "è§Ĥå¯ŁåĪ°": 6861,
      "ç¾¤ä½ĵ": 6862,
      "èı²": 6863,
      "Ġequal": 6864,
      "Ġvariance": 6865,
      "Ġremaining": 6866,
      "çī©çĲĨåŃ¦èĢħ": 6867,
      "æĳĨ": 6868,
      "åıĹåĪ°çļĦ": 6869,
      "è¯ģæĺİäºĨ": 6870,
      "Ġhighly": 6871,
      "Ġflows": 6872,
      "æī©å¤§": 6873,
      "Ġeasily": 6874,
      "Ġcomputation": 6875,
      "ç±»åŀĭçļĦ": 6876,
      "è¯Ħä»·": 6877,
      "çļĦæľĢå°ı": 6878,
      "åħħåĪĨ": 6879,
      "Ġnucleus": 6880,
      "ĠRepe": 6881,
      "æĳ©å°Ķ": 6882,
      "Ġdrive": 6883,
      "æĺłå°ĦåĪ°": 6884,
      "å¼ĹéĩĮ": 6885,
      "Ġcells": 6886,
      "å¯ĨçłģåŃĲ": 6887,
      "Ġhypot": 6888,
      "Ġcomplexity": 6889,
      "çĳŁ": 6890,
      "é¾Ļ": 6891,
      "åħ´è¶£": 6892,
      "çĪĨçĤ¸": 6893,
      "è¸ª": 6894,
      "ĠAcceler": 6895,
      "Ġclimate": 6896,
      "Ġcircuit": 6897,
      "Ġderivative": 6898,
      "Ġcritical": 6899,
      "Ġconservation": 6900,
      "Ġconversation": 6901,
      "Ġdrople": 6902,
      "Ġnoticed": 6903,
      "æ±¡æŁĵ": 6904,
      "Ġprobabilities": 6905,
      "Ġbarrier": 6906,
      "ä¸Ļéħ®éħ¸": 6907,
      "Ġfundamental": 6908,
      "Un": 6909,
      "We": 6910,
      "ob": 6911,
      "pri": 6912,
      "son": 6913,
      "Ġ|": 6914,
      "ĠçĽ®åīį": 6915,
      "çļĦä¾ĭåŃĲ": 6916,
      "ativity": 6917,
      "atives": 6918,
      "Ġsection": 6919,
      "Ġsustain": 6920,
      "Ġcut": 6921,
      "ener": 6922,
      "itions": 6923,
      "Ġbot": 6924,
      "Ġbased": 6925,
      "ä¹ı": 6926,
      "Ġways": 6927,
      "Ġwrote": 6928,
      "åľ¨æ°´": 6929,
      "isible": 6930,
      "Ġfalse": 6931,
      "ä¸įåı¯èĥ½": 6932,
      "çīĮ": 6933,
      "è¯¦": 6934,
      "Ġreverse": 6935,
      "Ġreplication": 6936,
      "åĪĨå¼Ģ": 6937,
      "çĽĨ": 6938,
      "æīĩ": 6939,
      "Ġla": 6940,
      "çī©åĵģ": 6941,
      "æ³Ħ": 6942,
      "utri": 6943,
      "ç³Ĭ": 6944,
      "idity": 6945,
      "ulations": 6946,
      "è¡¨å±Ĥ": 6947,
      "oll": 6948,
      "éĺħ": 6949,
      "Ġglu": 6950,
      "æĮĳ": 6951,
      "éĢļä¿¡": 6952,
      "æĭį": 6953,
      "iff": 6954,
      "æľĢå®¹æĺĵ": 6955,
      "è¢ĭ": 6956,
      "æīĢåıĹ": 6957,
      "osen": 6958,
      "è¢«çĶ¨äºİ": 6959,
      "å®ŀæĹ¶": 6960,
      "è¡ĮçļĦ": 6961,
      "è¡ĮåĬ¨": 6962,
      "è®ºæĸĩ": 6963,
      "çĤ¹åĴĮ": 6964,
      "å¾Īå¥½": 6965,
      "Ġdead": 6966,
      "Ġdeformation": 6967,
      "æŃ£æĺ¯": 6968,
      "æµ·æµª": 6969,
      "ploy": 6970,
      "Ġshop": 6971,
      "è¿ĲçĶ¨": 6972,
      "æĦıå¤ĸ": 6973,
      "è¿ĺåĮħæĭ¬": 6974,
      "è¾ĥå¤§çļĦ": 6975,
      "è¾ĥå°ıçļĦ": 6976,
      "Ġcompet": 6977,
      "Ġcompression": 6978,
      "Ġunre": 6979,
      "è¯´æ³ķ": 6980,
      "orth": 6981,
      "çĿ¡": 6982,
      "NASA": 6983,
      "éĵ¶": 6984,
      "çŁ©éĺµA": 6985,
      "Ġrout": 6986,
      "æ·¡": 6987,
      "Ġplaced": 6988,
      "Ġaccept": 6989,
      "æŀģæĢ§": 6990,
      "èĥ½éĩıçļĦ": 6991,
      "éĴ±": 6992,
      "è¾¾å°Ķæĸĩ": 6993,
      "åħ±è½Ń": 6994,
      "ressed": 6995,
      "åĲ«ä¹ī": 6996,
      "åĽŀæĿ¥": 6997,
      "ĠMore": 6998,
      "Ġsched": 6999,
      "æİ¨åĩº": 7000,
      "æİ¨è®º": 7001,
      "åħĭæĸ¯": 7002,
      "ĠHigh": 7003,
      "Ġloop": 7004,
      "éģĹä¼łåŃ¦": 7005,
      "æĹ¥å¿Ĺ": 7006,
      "Ġdatab": 7007,
      "æŁĵèī²ä½ĵçļĦ": 7008,
      "åĪĩçº¿": 7009,
      "Ġneeds": 7010,
      "æ¹ĸ": 7011,
      "åĪĴåĪĨ": 7012,
      "Ġpathways": 7013,
      "ç¼ºä¹ı": 7014,
      "Ġdistributions": 7015,
      "æĢĿèĢĥ": 7016,
      "Ġmechanics": 7017,
      "åı¯ä»¥çĶ¨æĿ¥": 7018,
      "åĪĽå»º": 7019,
      "çļĦæľĢå¤§": 7020,
      "Ġattract": 7021,
      "Ġresulting": 7022,
      "Ġcombines": 7023,
      "Ġidentify": 7024,
      "è´¹ç±³": 7025,
      "æĹ©æľŁçļĦ": 7026,
      "Ġprim": 7027,
      "Ġinclude": 7028,
      "åĩĿèģļ": 7029,
      "é²ľ": 7030,
      "Ġgroups": 7031,
      "Ġexisting": 7032,
      "éĺ²æŃ¢": 7033,
      "æĸľçİĩ": 7034,
      "Ġneutrons": 7035,
      "çŀ¬éĹ´": 7036,
      "é¾Ħ": 7037,
      "inux": 7038,
      "Ġconvex": 7039,
      "Ġremembered": 7040,
      "Ġmaximum": 7041,
      "xygen": 7042,
      "çģŃç»Ŀ": 7043,
      "Ġhydrogen": 7044,
      "åĸľæ¬¢": 7045,
      "å¯¿åĳ½": 7046,
      "Ġexpensive": 7047,
      "Ġintermediate": 7048,
      "éĺĪåĢ¼": 7049,
      "95": 7050,
      "Ch": 7051,
      "Con": 7052,
      "Ne": 7053,
      "bran": 7054,
      "oes": 7055,
      "rin": 7056,
      "ring": 7057,
      "rast": 7058,
      "sing": 7059,
      "ze": 7060,
      "Ġå¦Ĥ": 7061,
      "ĠåİŁåŃĲ": 7062,
      "Ĺä½Ļ": 7063,
      "ï¼Įâĭ¯": 7064,
      "çļĦæĸ°": 7065,
      "çļĦå½¢æĪĲ": 7066,
      "çļĦçī©ä½ĵ": 7067,
      "çļĦä¸ľè¥¿": 7068,
      "Ġtren": 7069,
      "Ġsyn": 7070,
      "ä»¿": 7071,
      "energy": 7072,
      "anced": 7073,
      "order": 7074,
      "Ġdig": 7075,
      "Ġdry": 7076,
      "Ġbag": 7077,
      "Ġwanted": 7078,
      "å°ĺ": 7079,
      "Ġfri": 7080,
      "Ġfart": 7081,
      "roph": 7082,
      "è¯¸": 7083,
      "æĿ°": 7084,
      "æĿĨ": 7085,
      "åŃ¦ä¼ļ": 7086,
      "åŃĲéĽĨ": 7087,
      "åĨĹä½Ļ": 7088,
      "Ġthick": 7089,
      "omen": 7090,
      "å®ļéĩı": 7091,
      "å®ļä½į": 7092,
      "å¤§èĦĳ": 7093,
      "å¤§è§Ħæ¨¡": 7094,
      "Ġhab": 7095,
      "Ġstore": 7096,
      "Ġconcur": 7097,
      "åĩºæĿ¥çļĦ": 7098,
      "åı¯ä»¥çĶ±": 7099,
      "å¿Ļ": 7100,
      "Ġgain": 7101,
      "æĽ´å¥½": 7102,
      "æľĢå¤§çļĦ": 7103,
      "åİŁåĪĻ": 7104,
      "è®¡æķ°": 7105,
      "ä¹ĭä¸º": 7106,
      "èĩªæĹĭ": 7107,
      "å¾Ĺåĩº": 7108,
      "åŀĴ": 7109,
      "éļ§": 7110,
      "Ġnothing": 7111,
      "Ġorient": 7112,
      "æŀĦè±¡": 7113,
      "Ġcome": 7114,
      "åı¯èĥ½åľ¨": 7115,
      "å¤įåĲĪçī©": 7116,
      "ä¸¤æĿ¡": 7117,
      "åīįæıĲ": 7118,
      "å¤ĸçº¿": 7119,
      "è°Ĳ": 7120,
      "Ġcore": 7121,
      "Ġcour": 7122,
      "ĠSmall": 7123,
      "åĪĹè¡¨": 7124,
      "æıĲç¤º": 7125,
      "mentation": 7126,
      "Ġshap": 7127,
      "Ġshorter": 7128,
      "çłĶç©¶çļĦ": 7129,
      "æ¯ıå¹´": 7130,
      "çĽ´è§ī": 7131,
      "åħ·å¤ĩ": 7132,
      "ival": 7133,
      "çĲĨè®ºä¸Ĭ": 7134,
      "å°Ĩåħ¶": 7135,
      "æĮĩéĴĪ": 7136,
      "è¶Ĭé«ĺ": 7137,
      "é£İéĢŁ": 7138,
      "Ġinterface": 7139,
      "ç¾§": 7140,
      "ç®Ģç§°": 7141,
      "åħ¶ä»ĸçļĦ": 7142,
      "Ġtrade": 7143,
      "Ġremove": 7144,
      "çģ¾": 7145,
      "ä¸įèĥ½åıª": 7146,
      "çİ¯å¢ĥä¸Ń": 7147,
      "Ġeffort": 7148,
      "èĭ±éĩĮ": 7149,
      "Ġrecogn": 7150,
      "æĶ¯æĴĳ": 7151,
      "å¹²çĩ": 7152,
      "ä¸ĸçºªçļĦ": 7153,
      "äººç±»çļĦ": 7154,
      "çī©çĲĨåŃ¦å®¶": 7155,
      "è¡¨çİ°ä¸º": 7156,
      "Ġcharged": 7157,
      "å¾Ģå¾Ģæ¯Ķ": 7158,
      "çĸĳ": 7159,
      "çĸĹ": 7160,
      "Ġspecial": 7161,
      "Ġspecified": 7162,
      "Ġseparated": 7163,
      "åĪĨåĪ«æĺ¯": 7164,
      "Ġlosses": 7165,
      "Ġbox": 7166,
      "Ġphysics": 7167,
      "Ġreflected": 7168,
      "bitr": 7169,
      "Ġstores": 7170,
      "äº®åº¦": 7171,
      "åĽłæŀľåħ³ç³»": 7172,
      "Ġfluct": 7173,
      "éº»": 7174,
      "Ġcarried": 7175,
      "Ġgreat": 7176,
      "æ¼Ĥç§»": 7177,
      "Ġholes": 7178,
      "Ġinvolves": 7179,
      "çľŁæł¸çĶŁçī©": 7180,
      "Ġatmospheric": 7181,
      "æ¡£æ¡Ī": 7182,
      "åĵ²åŃ¦å®¶": 7183,
      "çĽĳçĿ£åŃ¦ä¹ł": 7184,
      "âĮĬ": 7185,
      "è¾ħåĬ©": 7186,
      "Ġprior": 7187,
      "æĦıè¯ĨåĪ°": 7188,
      "Ġexecution": 7189,
      "ciple": 7190,
      "æ¾³": 7191,
      "Ġexplanation": 7192,
      "Ġaccount": 7193,
      "Ġcomplicated": 7194,
      "Ġsteady": 7195,
      "å¹²çĩ¥": 7196,
      "Im": 7197,
      "NI": 7198,
      "To": 7199,
      "hat": 7200,
      "tes": 7201,
      "temperature": 7202,
      "xn": 7203,
      "Ġ4": 7204,
      "Ġess": 7205,
      "çļĦç©ºéĹ´": 7206,
      "çļĦéħ¶": 7207,
      "çļĦè§£éĩĬ": 7208,
      "çļĦåĮºåŁŁ": 7209,
      "çļĦä»·åĢ¼": 7210,
      "åĪº": 7211,
      "ä¸Ģå±Ĥ": 7212,
      "ä¸Ģä¼ļåĦ¿": 7213,
      "ards": 7214,
      "ä¸įåĪ°": 7215,
      "åĪĨåĮĸ": 7216,
      "éĩıçº²": 7217,
      "ä»¥ä¸ĬçļĦ": 7218,
      "Ġlines": 7219,
      "Ġhaz": 7220,
      "ä¸Ĭæĸ¹": 7221,
      "äºĨå¾Īå¤ļ": 7222,
      "è´¨å¿ĥ": 7223,
      "ided": 7224,
      "çĶµè´Ł": 7225,
      "iling": 7226,
      "æį·": 7227,
      "çĽ¸è¿ŀ": 7228,
      "åĲĪå¹¶": 7229,
      "åı¯ä»¥æĬĬ": 7230,
      "els": 7231,
      "eles": 7232,
      "ç®ĹåŃĲ": 7233,
      "éĽħ": 7234,
      "çŃīåĲĮ": 7235,
      "å¾ĹæĽ´": 7236,
      "æł¸ç§į": 7237,
      "å®ĥåľ¨": 7238,
      "Ġnotes": 7239,
      "uments": 7240,
      "å¹´é¾Ħ": 7241,
      "é«ĺæĸ¯": 7242,
      "Ġright": 7243,
      "Ġrise": 7244,
      "æĻ°": 7245,
      "éĩĮéĿ¢": 7246,
      "ä¸¤ä¾§": 7247,
      "åīįåĲİ": 7248,
      "ä¼łå¯¼": 7249,
      "ĠSuper": 7250,
      "çĥ¦": 7251,
      "ç²ī": 7252,
      "æķ°æį®çļĦ": 7253,
      "Ġuniform": 7254,
      "ç»ĨèĥŀåĪĨè£Ĥ": 7255,
      "çĥŃå®¹": 7256,
      "æĮĩä»¤": 7257,
      "Ġrole": 7258,
      "Ġroot": 7259,
      "çĶµåŃĲçļĦ": 7260,
      "è´¨éĩıåĴĮ": 7261,
      "æĸ¹æ³ķæĺ¯": 7262,
      "Ġinterv": 7263,
      "åĨįæ¬¡": 7264,
      "è§ĦèĮĥ": 7265,
      "Ġimage": 7266,
      "å¯ĨåĪĩ": 7267,
      "å¿ħçĦ¶": 7268,
      "æĥ³èµ·": 7269,
      "ĠBut": 7270,
      "æłĳçļĦ": 7271,
      "æĭīæł¼": 7272,
      "æģĴå®ļ": 7273,
      "Ġarbitr": 7274,
      "è¿ľç¦»": 7275,
      "éĹ¨åı£": 7276,
      "Ġcarry": 7277,
      "changed": 7278,
      "èİ·åıĸ": 7279,
      "Ġbehave": 7280,
      "Ġchem": 7281,
      "æ¸ħæĻ°": 7282,
      "åģľçķĻ": 7283,
      "åĨ°ç®±": 7284,
      "ä¹ĺä»¥": 7285,
      "Ġgenerate": 7286,
      "Ġsupply": 7287,
      "Ġsets": 7288,
      "åı¤å¸ĮèħĬ": 7289,
      "ç½Ĺé©¬": 7290,
      "Ġenter": 7291,
      "æĬ½æł·": 7292,
      "ç»ĻåĩºäºĨ": 7293,
      "ĠScientists": 7294,
      "ä¸ĵä¸ļ": 7295,
      "èĩªçĶ±èĥ½": 7296,
      "Ġtests": 7297,
      "Ġcauses": 7298,
      "æµĭè¯ķéĽĨ": 7299,
      "Ġfailed": 7300,
      "æĬĺåıł": 7301,
      "Ġfrequencies": 7302,
      "Ġbuilt": 7303,
      "è½»æĿ¾": 7304,
      "Ġprotect": 7305,
      "Ġconverts": 7306,
      "Ġordered": 7307,
      "Ġsources": 7308,
      "Ġfollows": 7309,
      "Ġtreated": 7310,
      "æ²³æµģ": 7311,
      "Ġexpectation": 7312,
      "Ġprevious": 7313,
      "Ġamounts": 7314,
      "çĽ¸å½ĵäºİ": 7315,
      "Ġpreserve": 7316,
      "Ġdevices": 7317,
      "Ġshifts": 7318,
      "Ġcontinuously": 7319,
      "æ°¸ä¹ħ": 7320,
      "Ġabsorb": 7321,
      "è¾¨è¯Ĩ": 7322,
      "Ġdevelopment": 7323,
      "Ġknowledge": 7324,
      "çĶŁæĢģç³»ç»Ł": 7325,
      "çŀ¬æĹ¶": 7326,
      "åĮ»åŃ¦": 7327,
      "æ®ĭå·®": 7328,
      "âĮĭ": 7329,
      "Ġalgorithms": 7330,
      "è¿ĩæ¸¡éĩĳå±ŀ": 7331,
      "Ġservice": 7332,
      "Ġbelong": 7333,
      "æģ°å¥½": 7334,
      "Ġmachine": 7335,
      "å¸¦çĶµç²ĴåŃĲ": 7336,
      "Ġgiven": 7337,
      "Ġmathemat": 7338,
      "Ġsufficiently": 7339,
      "Ġfriction": 7340,
      "iconduct": 7341,
      "ĠInstead": 7342,
      "Ġmoisture": 7343,
      "ĠAccelerator": 7344,
      "Ġdroplets": 7345,
      "Ġfarther": 7346,
      "01": 7347,
      "33": 7348,
      "Ep": 7349,
      "dimensional": 7350,
      "frequency": 7351,
      "vious": 7352,
      "èĶ": 7353,
      "ĠZ": 7354,
      "ĠçłĶç©¶": 7355,
      "ĠæīĢæľī": 7356,
      "Ġä»£è¡¨": 7357,
      "ĠéļıçĿĢ": 7358,
      "ĠéĻ¤äºĨ": 7359,
      "çļĦç»Łè®¡": 7360,
      "çļĦè§ĤçĤ¹": 7361,
      "çļĦæĥħå½¢": 7362,
      "Ġtakes": 7363,
      "Ġax": 7364,
      "Ġsays": 7365,
      "Ġcrack": 7366,
      "Ġmac": 7367,
      "Ġphen": 7368,
      "è®¢": 7369,
      "ä¹Į": 7370,
      "Ġwin": 7371,
      "Ġfract": 7372,
      "ä¸įçĶ¨": 7373,
      "ä¼ŀ": 7374,
      "éĢ¸": 7375,
      "åı¯çĶ¨äºİ": 7376,
      "Ġinstruct": 7377,
      "çĶ¨éĢĶ": 7378,
      "æ³Ĭ": 7379,
      "Ġoffer": 7380,
      "ä¼ļéļı": 7381,
      "Ġstellar": 7382,
      "etwork": 7383,
      "é¢Ī": 7384,
      "åĬ¨åĬĽ": 7385,
      "åĩºéĹ¨": 7386,
      "ä¹Łç§°ä¸º": 7387,
      "äººä½ĵ": 7388,
      "ä¸ĭæĸ¹": 7389,
      "ä¸ĭéĿ¢": 7390,
      "Ġgap": 7391,
      "They": 7392,
      "æĽ´æ·±": 7393,
      "Ġprom": 7394,
      "ç®Ĺæľ¯": 7395,
      "æıŃ": 7396,
      "Ġexoplan": 7397,
      "istry": 7398,
      "ï¼ļâĢľ": 7399,
      "æľºä¼ļ": 7400,
      "æ¨¡ç³Ĭ": 7401,
      "é«ĺéĢŁ": 7402,
      "åĿ¡": 7403,
      "èĥ¡": 7404,
      "ä¸¤ç±»": 7405,
      "å¯¼èĪª": 7406,
      "Ġcover": 7407,
      "Ġcoast": 7408,
      "ç¼Ŀ": 7409,
      "çĥ§": 7410,
      "è¿ĺåı¯ä»¥": 7411,
      "èĭı": 7412,
      "Ġunne": 7413,
      "Ġunchanged": 7414,
      "Ġchance": 7415,
      "ĠIm": 7416,
      "åħ¨å±Ģ": 7417,
      "çĲĨè®ºä¸Ń": 7418,
      "aging": 7419,
      "Ġheight": 7420,
      "Ġqubits": 7421,
      "éĻįè§£": 7422,
      "éĵħ": 7423,
      "å¸¦æĿ¥çļĦ": 7424,
      "èģĮ": 7425,
      "å¦Ĥæŀľåıª": 7426,
      "åıĳçĶŁäºĨ": 7427,
      "åĪ©äºļ": 7428,
      "ava": 7429,
      "èĪĴ": 7430,
      "ĠElect": 7431,
      "ĠEach": 7432,
      "Ġinterest": 7433,
      "190": 7434,
      "ransform": 7435,
      "Ġspaces": 7436,
      "Ġclock": 7437,
      "Ġappears": 7438,
      "çº¿æĢ§ç»ĦåĲĪ": 7439,
      "èĥ½å¤Łåľ¨": 7440,
      "è°ĥçĶ¨": 7441,
      "èĩ³ä»Ĭ": 7442,
      "Ġadapt": 7443,
      "éĢĤå½ĵ": 7444,
      "ä¾Ŀçħ§": 7445,
      "æĦŁåºĶ": 7446,
      "å»ºè®®": 7447,
      "çľŁæŃ£éľĢè¦ģ": 7448,
      "ĠFacility": 7449,
      "éĢīæĭ©æĢ§": 7450,
      "æ¶ĪéĻ¤": 7451,
      "Ġ10": 7452,
      "Ġarise": 7453,
      "èĭ±å°º": 7454,
      "ä»ħä»ħ": 7455,
      "Ġdecisions": 7456,
      "versity": 7457,
      "æķ°åĢ¼åĪĨæŀĲ": 7458,
      "Ġobjective": 7459,
      "ä¼łæĴŃéĢŁåº¦": 7460,
      "è¯»èĢħ": 7461,
      "Ġvolume": 7462,
      "ç¾İæ´²": 7463,
      "å²©æµĨ": 7464,
      "ç¬¬äºĮä¸ª": 7465,
      "Ġapproac": 7466,
      "Ġappropri": 7467,
      "åĪļå¼Ģå§ĭ": 7468,
      "åį¡å°Ķ": 7469,
      "ç±»ä¼¼äºİ": 7470,
      "è´Ŀæł¼": 7471,
      "æŀĦæĪĲçļĦ": 7472,
      "Ġstudents": 7473,
      "çľĭèµ·æĿ¥åĥı": 7474,
      "Ġlearned": 7475,
      "Ġcontinued": 7476,
      "åĭĴè´Ŀæł¼": 7477,
      "Ġnormally": 7478,
      "Ġelectricity": 7479,
      "logn": 7480,
      "Ġbegins": 7481,
      "Ġconductivity": 7482,
      "å¯¹ç§°æĢ§": 7483,
      "Ġreceived": 7484,
      "Ġcompletely": 7485,
      "å°¤åħ¶æĺ¯": 7486,
      "Ġconsistency": 7487,
      "èĤ¡èĦ±æ°§æł¸ç³ĸæł¸éħ¸": 7488,
      "çĽ¸åºĶçļĦ": 7489,
      "å¡«åħħ": 7490,
      "Ġsubstant": 7491,
      "é¢Ĺç²Ĵ": 7492,
      "Ġisolated": 7493,
      "ĠMoon": 7494,
      "Ġcrystal": 7495,
      "Ġreliable": 7496,
      "Ġobser": 7497,
      "Ġapplications": 7498,
      "èĲ¥åħ»": 7499,
      "Ġfocus": 7500,
      "Ġminimum": 7501,
      "Ġdamage": 7502,
      "æ¯«ç±³": 7503,
      "Ġbattery": 7504,
      "stronom": 7505,
      "æĩĤ": 7506,
      "Ġprinciple": 7507,
      "brane": 7508,
      "Ġphenomen": 7509,
      "Ġunnecess": 7510,
      "83": 7511,
      "Pl": 7512,
      "aim": 7513,
      "des": 7514,
      "eper": 7515,
      "fitting": 7516,
      "ov": 7517,
      "rit": 7518,
      "ruct": 7519,
      "the": 7520,
      "åª": 7521,
      "éī": 7522,
      "ĠçŁ©éĺµ": 7523,
      "ĠNASA": 7524,
      "çļĦæł¸å¿ĥ": 7525,
      "Ġtake": 7526,
      "åıĭ": 7527,
      "onstr": 7528,
      "reen": 7529,
      "ends": 7530,
      "ording": 7531,
      "itted": 7532,
      "Ġmid": 7533,
      "åº·": 7534,
      "Ġband": 7535,
      "arg": 7536,
      "Ġflex": 7537,
      "æľīä»·åĢ¼": 7538,
      "Ġoxygen": 7539,
      "icle": 7540,
      "èĥ½åľ¨": 7541,
      "åĴĮæ°´": 7542,
      "æłĸ": 7543,
      "Ġnutri": 7544,
      "è´µ": 7545,
      "æĸ¹éĺµ": 7546,
      "ety": 7547,
      "åĲİæŀľ": 7548,
      "rag": 7549,
      "stood": 7550,
      "çĽ¸è¿ĳ": 7551,
      "olute": 7552,
      "æĪĸåħ¶ä»ĸ": 7553,
      "æĭĸ": 7554,
      "æľĢå¥½": 7555,
      "åģ¥": 7556,
      "osynthesis": 7557,
      "æŃ¤ç±»": 7558,
      "èĩªæĪĳ": 7559,
      "Ġitem": 7560,
      "ably": 7561,
      "å¾Īå°ıçļĦ": 7562,
      "éĥ½éľĢè¦ģ": 7563,
      "ç±»çļĦ": 7564,
      "ç½²": 7565,
      "Ġchair": 7566,
      "Ġchosen": 7567,
      "Ġvary": 7568,
      "åĬłæĿĥ": 7569,
      "ird": 7570,
      "å°±åı¯èĥ½": 7571,
      "ĠAr": 7572,
      "ä»İä¸Ģä¸ª": 7573,
      "æµģéĩı": 7574,
      "æĹ¶éĹ´åĴĮ": 7575,
      "Ġcoefficient": 7576,
      "åĪĹå¤«": 7577,
      "Ġshare": 7578,
      "è½¬è¯ĳ": 7579,
      "æķ°æį®åĪĨå¸ĥ": 7580,
      "æ²¡æľīä»»ä½ķ": 7581,
      "æĹłæľº": 7582,
      "ä½ľçĶ¨åľ¨": 7583,
      "äºĮèĢħ": 7584,
      "çĶŁçī©ä½ĵçļĦ": 7585,
      "å·²è¢«": 7586,
      "Ġque": 7587,
      "éģĵè·¯": 7588,
      "Ġrow": 7589,
      "irect": 7590,
      "Ġplants": 7591,
      "Ġleak": 7592,
      "æŀģå¤§": 7593,
      "åħ¬åħ±": 7594,
      "197": 7595,
      "åĲ«éĩı": 7596,
      "éĶ®ç»ĵ": 7597,
      "Ġapplied": 7598,
      "Ġrelates": 7599,
      "åĩıå¼±": 7600,
      "æł¹æľ¬": 7601,
      "ĠDe": 7602,
      "åħ¶ä¸Ńä¸Ģä¸ª": 7603,
      "çĭĹ": 7604,
      "è®Ńç»ĥæķ°æį®": 7605,
      "éģĹä¼łçī©è´¨": 7606,
      "éģĹä¼łä¿¡æģ¯": 7607,
      "åĽºæĢģ": 7608,
      "Ġrecur": 7609,
      "Ġnobody": 7610,
      "è´Łè½½": 7611,
      "Ġprocessing": 7612,
      "çĲĨè§£ä¸º": 7613,
      "æ¤ħ": 7614,
      "Ġequation": 7615,
      "Ġmattered": 7616,
      "èĦ±æ°§æł¸ç³ĸæł¸éħ¸åºıåĪĹ": 7617,
      "ometers": 7618,
      "ç¼©å°ı": 7619,
      "åĽºå®ļçļĦ": 7620,
      "Ġcharges": 7621,
      "Ġentropy": 7622,
      "æľīæĹ¶ä¼ļ": 7623,
      "Ġembed": 7624,
      "è½¨è¿¹": 7625,
      "éĺ»åĬĽ": 7626,
      "Ġshel": 7627,
      "cell": 7628,
      "åĽĽä¸ª": 7629,
      "åĽĽç§į": 7630,
      "æ³ĽåĮĸ": 7631,
      "ä¿ĿæĮģä¸įåıĺ": 7632,
      "åĸ·": 7633,
      "ç¡¬ä½ĵ": 7634,
      "éĻįæ°´éĩı": 7635,
      "Ġgrows": 7636,
      "Ġthermodynam": 7637,
      "Ġcalibration": 7638,
      "Ġpersist": 7639,
      "osphere": 7640,
      "ç´§å¯Ĩ": 7641,
      "è¯ºè´Ŀå°Ķ": 7642,
      "Ġseconds": 7643,
      "Ġdiscover": 7644,
      "Ġapproximation": 7645,
      "æĥ¯æĢ§åıĤèĢĥç³»": 7646,
      "æ´»æĢ§ä½įçĤ¹": 7647,
      "å£«å¨ģ": 7648,
      "æľĹæĹ¥": 7649,
      "Ġfamily": 7650,
      "äºĭå®ŀä¸Ĭ": 7651,
      "Ġangle": 7652,
      "Ġmicro": 7653,
      "âŁ¨": 7654,
      "Ġalgorithm": 7655,
      "Ġhuman": 7656,
      "Ġdemonstr": 7657,
      "Ġmeeting": 7658,
      "åĨ¬å¤©": 7659,
      "æ´»åĮĸèĥ½": 7660,
      "Ġinterpretation": 7661,
      "Ġstrain": 7662,
      "ĠMeas": 7663,
      "ç»¼åĲĪ": 7664,
      "orrect": 7665,
      "Ġnames": 7666,
      "é©¬åħĭå£«å¨ģ": 7667,
      "Ġcareful": 7668,
      "æ³Ħæ¼ı": 7669,
      "ï¼Įâĭ¯ï¼Į": 7670,
      "æĭīæł¼æľĹæĹ¥": 7671,
      "æıŃç¤º": 7672,
      ")ãĢģ": 7673,
      "26": 7674,
      "64": 7675,
      "Com": 7676,
      "Linux": 7677,
      "OH": 7678,
      "PI": 7679,
      "dle": 7680,
      "mas": 7681,
      "âĬ": 7682,
      "å¦": 7683,
      "ĠÌ": 7684,
      "ĠæĪĸ": 7685,
      "ĠåĪĨåŃĲ": 7686,
      "ĠåŁºåĽł": 7687,
      "Ġåģĩè®¾": 7688,
      "Ġæ¯Ķå¦Ĥ": 7689,
      "çļĦåŃĺåľ¨": 7690,
      "Ġtend": 7691,
      "rees": 7692,
      "ream": 7693,
      "heck": 7694,
      "ç»³": 7695,
      "ä¸Ģä¸ĭ": 7696,
      "orque": 7697,
      "æĺ¯ä¸į": 7698,
      "Ġpull": 7699,
      "Ġdoc": 7700,
      "Ġdrop": 7701,
      "Ġbed": 7702,
      "Ġbos": 7703,
      "åľ¨æŃ¤": 7704,
      "ised": 7705,
      "Ġfron": 7706,
      "æľīçĿĢ": 7707,
      "ä¼ı": 7708,
      "let": 7709,
      "ä¸ŃæľĢ": 7710,
      "ä¸Ńè¢«": 7711,
      "æĹ¶ç©º": 7712,
      "æĹ¶æīį": 7713,
      "åıĺæķ°": 7714,
      "unction": 7715,
      "å¤§å¤ļ": 7716,
      "è¿ĻæĹ¶": 7717,
      "ä¸Ĭçº¿": 7718,
      "å¤ļçļĦ": 7719,
      "å¤ļå¹´": 7720,
      "åŁ¹": 7721,
      "æĿ¥çľĭ": 7722,
      "åľ°éĵģ": 7723,
      "è¿ĩäºİ": 7724,
      "Ġconcl": 7725,
      "åĩºçīĪ": 7726,
      "idth": 7727,
      "strap": 7728,
      "åħ¶ä½Ļ": 7729,
      "ä½ľèĢħ": 7730,
      "ç§įåŃĲ": 7731,
      "å¸¸çĶ¨äºİ": 7732,
      "åı¯ä»¥åĪ©çĶ¨": 7733,
      "æĪĸå¤ļä¸ª": 7734,
      "æĽ´èĥ½": 7735,
      "éģ¥": 7736,
      "éģŃ": 7737,
      "æ°´èĴ¸æ°Ķ": 7738,
      "Ġalthough": 7739,
      "ä»£ä»·": 7740,
      "å¤įçİ°": 7741,
      "åįķæ¬¡": 7742,
      "æĬĬæīĢæľī": 7743,
      "ç§°ä¹ĭä¸º": 7744,
      "éĩĮåħĭ": 7745,
      "Ġcou": 7746,
      "Ġcode": 7747,
      "ç¼ļ": 7748,
      "éķ¿éĵ¾": 7749,
      "ä¸ŃçļĦä¸Ģä¸ª": 7750,
      "çĽ´å¾Ħ": 7751,
      "æ¶¨": 7752,
      "æ¶Į": 7753,
      "iving": 7754,
      "âĪŀ": 7755,
      "Ġhead": 7756,
      "Ġplaces": 7757,
      "è¿ŀéĢļ": 7758,
      "è®°ä½ľ": 7759,
      "è®°åı·": 7760,
      "ä¼¼çĦ¶": 7761,
      "Ġobvious": 7762,
      "å¹¶ä¸įèĩªåĬ¨": 7763,
      "cessive": 7764,
      "æĸ¹åĲĳçļĦ": 7765,
      "ĠRel": 7766,
      "Ġapparent": 7767,
      "Ġdiscrete": 7768,
      "è°ĥæŁ¥": 7769,
      "ä»įæľī": 7770,
      "å¿ĥçĲĨ": 7771,
      "ä¾ĿçĦ¶": 7772,
      "ç¥¨": 7773,
      "åĲįè¯į": 7774,
      "æķ£çĥŃ": 7775,
      "æ¶Īè´¹": 7776,
      "Ġlocations": 7777,
      "ç¡®å®ļçļĦ": 7778,
      "Ġexpression": 7779,
      "éļ¾åº¦": 7780,
      "æĺİæĺ¾çļĦ": 7781,
      "Ġdecomp": 7782,
      "Ġequations": 7783,
      "è½¦è¾Ĩ": 7784,
      "æĿĥéĻĲ": 7785,
      "Ġviscosity": 7786,
      "Ġhelped": 7787,
      "ç»Ŀç¼ĺ": 7788,
      "æĿŁç¼ļ": 7789,
      "Ġbuffer": 7790,
      "æ³¨æĦıåĪ°": 7791,
      "åĲĮæł·çļĦ": 7792,
      "çļĦåľ°åĮº": 7793,
      "Ġplanets": 7794,
      "åħ³éĶ®åŃĹ": 7795,
      "çľĭåĪ°çļĦ": 7796,
      "åħħçĶµ": 7797,
      "çĽĲåº¦": 7798,
      "åįıè®®": 7799,
      "ä¼ĺåĮĸåĻ¨": 7800,
      "Ġdefect": 7801,
      "åľ°åĮºçļĦ": 7802,
      "ĠReal": 7803,
      "Ġrepresentations": 7804,
      "Ġshows": 7805,
      "Ġcosts": 7806,
      "Ġfollowing": 7807,
      "Ġdependence": 7808,
      "Ġestimates": 7809,
      "Ġtrees": 7810,
      "æ¸¸æĪı": 7811,
      "Ġrevealed": 7812,
      "Ġpopulations": 7813,
      "æĬķåħ¥": 7814,
      "è¿ĽåĮĸè®º": 7815,
      "Ġincludes": 7816,
      "éħµç´ł": 7817,
      "Ġreaches": 7818,
      "è¿½æ±Ĥ": 7819,
      "èŀįåĮĸ": 7820,
      "ç°ĩ": 7821,
      "Ġperiodic": 7822,
      "Ġwalk": 7823,
      "Ġdrift": 7824,
      "Ġwavelengths": 7825,
      "Ġeruption": 7826,
      "æ²īç§¯çī©": 7827,
      "Ġreview": 7828,
      "å±ıå¹ķ": 7829,
      "æ¢¯åº¦ä¸ĭéĻįæ³ķ": 7830,
      "åĪĨè¾¨çİĩ": 7831,
      "è´Ńä¹°": 7832,
      "Ġpublic": 7833,
      "åį±éĻ©": 7834,
      "Ġdiscus": 7835,
      "æĺ¾å¾®éķľ": 7836,
      "Ġessential": 7837,
      "Ġappropriate": 7838,
      "åªĴ": 7839,
      ")]": 7840,
      "65": 7841,
      "87": 7842,
      "gers": 7843,
      "iation": 7844,
      "iences": 7845,
      "keli": 7846,
      "posit": 7847,
      "set": 7848,
      "©¹": 7849,
      "è©¹": 7850,
      "Ġåı¯ä»¥": 7851,
      "çļĦæ³¢": 7852,
      "çļĦçİ¯å¢ĥ": 7853,
      "rec": 7854,
      "Ġcase": 7855,
      "ending": 7856,
      "è¿Ī": 7857,
      "è¿Ŀ": 7858,
      "å®£": 7859,
      "orph": 7860,
      "ital": 7861,
      "Ġpages": 7862,
      "Ġbur": 7863,
      "Ġball": 7864,
      "åľ¨ä¸Ģ": 7865,
      "Ġfour": 7866,
      "ä¸įå¿ħ": 7867,
      "æľīåĪ©": 7868,
      "éĢ¼": 7869,
      "åĽ½æķ°": 7870,
      "icit": 7871,
      "ä¸ŃæĢ§": 7872,
      "Ġlands": 7873,
      "æ³¥": 7874,
      "utions": 7875,
      "uster": 7876,
      "å¤§èĩªçĦ¶": 7877,
      "å¤§å¹ħ": 7878,
      "otic": 7879,
      "æĿ¥è§£éĩĬ": 7880,
      "åĲİæīį": 7881,
      "åĲİåĨį": 7882,
      "å±ī": 7883,
      "åıĳéħµ": 7884,
      "iles": 7885,
      "ä½ľåĵģ": 7886,
      "åĬĽéĩı": 7887,
      "olve": 7888,
      "ä¹ŁéľĢè¦ģ": 7889,
      "ä¸ĭéĽ¨": 7890,
      "æĪĸç§°": 7891,
      "æľĢåħĪ": 7892,
      "adow": 7893,
      "éĩįè¯ķ": 7894,
      "ä¹ĭæ¯Ķ": 7895,
      "ä¹ĭæīĢä»¥": 7896,
      "ateg": 7897,
      "éĥ½å¾Ī": 7898,
      "éļĨ": 7899,
      "éģ®": 7900,
      "åıªåī©": 7901,
      "æ°´å¾ªçİ¯": 7902,
      "æĦ¿": 7903,
      "è¿Ľå±ķ": 7904,
      "æŃ£çĶµèį·": 7905,
      "ĠAl": 7906,
      "éĶĭ": 7907,
      "ä¸¤ç²Ĵ": 7908,
      "Ġseason": 7909,
      "æµģåĲĳ": 7910,
      "å½ĵä¸Ķ": 7911,
      "Ġcovered": 7912,
      "ively": 7913,
      "åĩłåĳ¨": 7914,
      "åį´åĽłä¸º": 7915,
      "åį´è®©": 7916,
      "èµ·çĤ¹": 7917,
      "å±Ĥäºĳ": 7918,
      "æ±¤": 7919,
      "allen": 7920,
      "éĹ®é¢ĺæĹ¶": 7921,
      "Ġunf": 7922,
      "ç»ĨèĥŀåĨħ": 7923,
      "è¯´è¯Ŀ": 7924,
      "ç§ĳæĬĢ": 7925,
      "éĢļå¸¸æ¯Ķ": 7926,
      "acts": 7927,
      "åĽłä¸ºå®ĥ": 7928,
      "åıįåºĶçļĦ": 7929,
      "æĮĩç¤º": 7930,
      "éĻįæ¸©": 7931,
      "æ¦Ĥæĭ¬": 7932,
      "ideo": 7933,
      "æ·Ģ": 7934,
      "å§ĭç»Ī": 7935,
      "è¯ŃéŁ³": 7936,
      "æĸĩç«ł": 7937,
      "ç®Ĺæ³ķåľ¨": 7938,
      "è®°æ³ķ": 7939,
      "åĩºçİ°äºĨ": 7940,
      "å¹¶ä¸įä¿Ŀè¯ģ": 7941,
      "æ»ļ": 7942,
      "åģļåĩº": 7943,
      "ĠMod": 7944,
      "ĠRep": 7945,
      "ĠRandom": 7946,
      "è¿Ľè¡ĮçļĦ": 7947,
      "ĠPer": 7948,
      "æ£µ": 7949,
      "å¢ŀåĬłäºĨ": 7950,
      "Ġdepending": 7951,
      "èĻ«": 7952,
      "ĠOS": 7953,
      "ĠOcean": 7954,
      "ä¸»è¦ģçļĦ": 7955,
      "åģıå¯¼æķ°": 7956,
      "è§£éĩĬäºĨ": 7957,
      "Ġimply": 7958,
      "Ġvalu": 7959,
      "Ġworks": 7960,
      "å¾ĹåĪ°çļĦ": 7961,
      "èĭ±æĸĩ": 7962,
      "éĻ¤ä»¥": 7963,
      "æ¯ıä¸ªäºº": 7964,
      "Ġgenetic": 7965,
      "Ġparticip": 7966,
      "Ġstructural": 7967,
      "ç»Łè®¡åŃ¦": 7968,
      "å¹³åĿĩåĢ¼": 7969,
      "åºķå±Ĥ": 7970,
      "Ġexplos": 7971,
      "è¿ŀç»ŃçļĦ": 7972,
      "ç¢³éħ¸": 7973,
      "æķ°éĩıçļĦ": 7974,
      "loor": 7975,
      "Ġregul": 7976,
      "Ġsuperposition": 7977,
      "Ġsolve": 7978,
      "Ġupward": 7979,
      "éĩįå¤įæĢ§": 7980,
      "Ġformation": 7981,
      "ä¾Ŀèµĸäºİ": 7982,
      "åĳ³éģĵ": 7983,
      "åĲĮä½įç´łçļĦ": 7984,
      "ä¾¿å®ľ": 7985,
      "Ġincreased": 7986,
      "åľ°éľĩæ³¢": 7987,
      "æ³¨æĦıçļĦæĺ¯": 7988,
      "åĩłä¹İæ²¡æľī": 7989,
      "çĶµç£ģåľº": 7990,
      "å¤©æ°Ķé¢ĦæĬ¥": 7991,
      "æĬ½å±ī": 7992,
      "Ġmembrane": 7993,
      "è´¨åŃĲåĴĮ": 7994,
      "ç²¾ç¡®çļĦ": 7995,
      "è½½æµģ": 7996,
      "Ġpowerful": 7997,
      "Ġoceanic": 7998,
      "gener": 7999,
      "æĴŀåĩ»": 8000,
      "Ġopening": 8001,
      "æįŁå¤±åĩ½æķ°": 8002,
      "çªĹåı£": 8003,
      "Ġchecking": 8004,
      "Ġfollowed": 8005,
      "scale": 8006,
      "æľīæľºçī©": 8007,
      "åľĨåĳ¨": 8008,
      "Ġcarries": 8009,
      "å·¨å¤§çļĦ": 8010,
      "Ġsounded": 8011,
      "åĲĪéĢĤçļĦ": 8012,
      "åį·ç§¯": 8013,
      "Ġmaps": 8014,
      "Ġpiece": 8015,
      "Ġresource": 8016,
      "aneously": 8017,
      "é»İæĽ¼ç§¯åĪĨ": 8018,
      "èİ±å¸ĥå°¼åħ¹": 8019,
      "Ġmarked": 8020,
      "Ġstationary": 8021,
      "Ġtypes": 8022,
      "åī¯æľ¬": 8023,
      "Ġwritten": 8024,
      "Ġneighbor": 8025,
      "èĤĮèĤī": 8026,
      "book": 8027,
      "Ġgalaxies": 8028,
      "Ġengineering": 8029,
      "Ġsquare": 8030,
      "ä¸°å¯Į": 8031,
      "æĹħè¡Į": 8032,
      "Ġconcerns": 8033,
      "ä¾µèļĢ": 8034,
      "åµĮåħ¥": 8035,
      "ç¯ĩ": 8036,
      "Ġratio": 8037,
      "ĠRepeated": 8038,
      "Ġgluons": 8039,
      "Ġfluctu": 8040,
      "å½ĵä¸Ķä»ħå½ĵ": 8041,
      ".âĢĿ": 8042,
      "97": 8043,
      "Ad": 8044,
      "UPAC": 8045,
      "Why": 8046,
      "got": 8047,
      "lations": 8048,
      "rig": 8049,
      "uction": 8050,
      "yf": 8051,
      "¬å¦Ĥ": 8052,
      "Ġ&": 8053,
      "Ġæµ·": 8054,
      "Ġå°Ĩ": 8055,
      "Įåĳ": 8056,
      "çļĦåıį": 8057,
      "çļĦä¸įæĺ¯": 8058,
      "Ġtables": 8059,
      "Ġtorque": 8060,
      "eries": 8061,
      "inations": 8062,
      "reement": 8063,
      "head": 8064,
      "Ġsense": 8065,
      "Ġcrow": 8066,
      "å¤¸": 8067,
      "ord": 8068,
      "itc": 8069,
      "Ġput": 8070,
      "Ġpur": 8071,
      "Ġpul": 8072,
      "Ġdin": 8073,
      "Ġdram": 8074,
      "Ġbad": 8075,
      "Ġbran": 8076,
      "Ġwet": 8077,
      "åľ¨åħ¶": 8078,
      "å°¿": 8079,
      "ises": 8080,
      "ister": 8081,
      "ä¸įå°ĳ": 8082,
      "æķ°çĽ®": 8083,
      "ctions": 8084,
      "åĴĮä¸Ģä¸ª": 8085,
      "Ġretain": 8086,
      "Ġrestr": 8087,
      "Ġinert": 8088,
      "çĽĽ": 8089,
      "åŃĲèĬĤçĤ¹": 8090,
      "æĪĲäºĨ": 8091,
      "ä¼ļæĺ¾èĳĹ": 8092,
      "å¤§æ´ĭ": 8093,
      "ä½ĵåĨħ": 8094,
      "è¿Ļå°±æĺ¯": 8095,
      "èĢĮäº§çĶŁ": 8096,
      "Ġstri": 8097,
      "ä¸Ģä¸ªäºº": 8098,
      "ä¸Ģä¸ªåĩ½æķ°": 8099,
      "èĩĤ": 8100,
      "åĲİéªĮ": 8101,
      "åıĳçĶµ": 8102,
      "åıĳéĢģ": 8103,
      "ula": 8104,
      "ully": 8105,
      "å¸¸ä¼ļ": 8106,
      "å¸¸è¢«": 8107,
      "åı¯ä»¥å¸®åĬ©": 8108,
      "æĽ´éĩįè¦ģ": 8109,
      "Ġproport": 8110,
      "åŁºåĩĨ": 8111,
      "åŁºåºķ": 8112,
      "çŃīäºº": 8113,
      "istribut": 8114,
      "æł¸èģļåıĺ": 8115,
      "éĥ½è¢«": 8116,
      "ries": 8117,
      "é«ĺåİĭ": 8118,
      "Ġdeeper": 8119,
      "å°±æľī": 8120,
      "Ġasks": 8121,
      "ä»£æĽ¿": 8122,
      "åįķçº¯": 8123,
      "æ¬¾": 8124,
      "Ġsea": 8125,
      "åīįèĢħ": 8126,
      "ç¼ł": 8127,
      "ĠSp": 8128,
      "éħ¸ç¢±": 8129,
      "åĩłç§Ĵ": 8130,
      "è¿ĺæ²¡": 8131,
      "è¯ģä¼ª": 8132,
      "éĿŀè´Ł": 8133,
      "æ¸©å®¤": 8134,
      "Ġquery": 8135,
      "Ġquality": 8136,
      "iber": 8137,
      "ç½®ä¿¡": 8138,
      "Ġroad": 8139,
      "Ġplates": 8140,
      "è®¤åı¯": 8141,
      "åį³ä¸º": 8142,
      "plete": 8143,
      "åıĸåĢ¼": 8144,
      "ç»´æķ°": 8145,
      "ĠEm": 8146,
      "ĠEven": 8147,
      "æĸĩæ¡£": 8148,
      "åħ¬è½¬": 8149,
      "åĽ¾ä¸Ń": 8150,
      "åħ³ç³»çļĦ": 8151,
      "åĽŀå®¶": 8152,
      "Ġmodes": 8153,
      "è°ĥåº¦": 8154,
      "æİ¨æµĭ": 8155,
      "ä»įèĥ½": 8156,
      "å®ŀéªĮä¸Ń": 8157,
      "Ġunderg": 8158,
      "rons": 8159,
      "æĶ¶çĽĬ": 8160,
      "Ġunderstood": 8161,
      "ĠHow": 8162,
      "éĵ¾æİ¥": 8163,
      "æĹ¥æľ¬": 8164,
      "ä»Ģä¹ĪæĹ¶åĢĻ": 8165,
      "Ġrepet": 8166,
      "å¾·åĽ½": 8167,
      "é¦Ĩ": 8168,
      "Ġexpon": 8169,
      "Ġexposed": 8170,
      "ä¸ĢèĪ¬çļĦ": 8171,
      "Ġprefer": 8172,
      "è§Ĩé¢ĳ": 8173,
      "é¢ĨåŁŁä¸Ń": 8174,
      "æ¤Ń": 8175,
      "ç»Łè®¡éĩı": 8176,
      "çŁŃæľŁ": 8177,
      "Ġheld": 8178,
      "Ġquantity": 8179,
      "Ġformed": 8180,
      "æĬĢå·§": 8181,
      "æĳĬ": 8182,
      "æ¼ĶåĮĸè®º": 8183,
      "Ġsignificant": 8184,
      "Ġfinished": 8185,
      "Ġ)=": 8186,
      "angle": 8187,
      "åºĵä»ĳ": 8188,
      "uclear": 8189,
      "åĩłä¸ªæľĪ": 8190,
      "æŃ£ç¡®çļĦ": 8191,
      "ä¸ĵæ³¨": 8192,
      "åĬ¨çī©çļĦ": 8193,
      "ĠStand": 8194,
      "éĥ½ä¼ļå½±åĵį": 8195,
      "Ġcooler": 8196,
      "Ġabsolute": 8197,
      "Ġdefin": 8198,
      "Ġdiffusion": 8199,
      "åı¦ä¸Ģæĸ¹éĿ¢": 8200,
      "Ġideas": 8201,
      "Ġassumed": 8202,
      "Ġinfluences": 8203,
      "çļĦæķ°æį®ç»ĵæŀĦ": 8204,
      "Ġexplained": 8205,
      "Ġindic": 8206,
      "Ġdetermines": 8207,
      "åŃ£é£İ": 8208,
      "æ°¨åŁºéħ¸åºıåĪĹ": 8209,
      "Ġenvironmental": 8210,
      "Ġflat": 8211,
      "Ġgroundwater": 8212,
      "Ġcollection": 8213,
      "æ±½è½¦": 8214,
      "cule": 8215,
      "Ġacceleration": 8216,
      "cosystem": 8217,
      "Ġhold": 8218,
      "Ġhappens": 8219,
      "åĺĮåĳ": 8220,
      "Ġtrip": 8221,
      "Ġfaults": 8222,
      "å§Ĩæĸ¯": 8223,
      "Ġdissolved": 8224,
      "æ¨ªåĲĳ": 8225,
      "Ġlabels": 8226,
      "ä¿ĥè¿Ľ": 8227,
      "éĻįéĽ¨éĩı": 8228,
      "Ġswitching": 8229,
      "ä¸¢å¤±": 8230,
      "NADH": 8231,
      "Ġsemiconduct": 8232,
      "Ġcosmic": 8233,
      "Ġdegrees": 8234,
      "Ġunusual": 8235,
      "ield": 8236,
      "Ġcloser": 8237,
      "èŃ¬å¦Ĥ": 8238,
      "çĵ¶é¢Ī": 8239,
      "æŀģå°ıåĢ¼": 8240,
      "æ¸ĹéĢı": 8241,
      "Ġcorrespon": 8242,
      "åĽ¾çģµæľº": 8243,
      "çİĭæĺŁ": 8244,
      "Ġmelting": 8245,
      "ĠSuperconduct": 8246,
      "Ġmacroscopic": 8247,
      "Ġvaluable": 8248,
      "åĺĮåĳ¤": 8249,
      "27": 8250,
      "38": 8251,
      "45": 8252,
      "98": 8253,
      "DOS": 8254,
      "HT": 8255,
      "He": 8256,
      "Res": 8257,
      "be": 8258,
      "cles": 8259,
      "cast": 8260,
      "dens": 8261,
      "ipe": 8262,
      "mat": 8263,
      "man": 8264,
      "mal": 8265,
      "®æ¼Ķ": 8266,
      "Ġ[": 8267,
      "Ġåı¯": 8268,
      "Ġåıį": 8269,
      "Ġç§ĳåŃ¦": 8270,
      "Ġåħ¶ä»ĸ": 8271,
      "ĠãĢĮ": 8272,
      "ĠæīĢä»¥": 8273,
      "Ġåį³ä½¿": 8274,
      "Ġåı¦ä¸Ģç§į": 8275,
      "çļĦæĿ¡ä»¶": 8276,
      "çļĦæ¸©åº¦": 8277,
      "çļĦéĢīæĭ©": 8278,
      "çļĦèĮĥåĽ´": 8279,
      "çļĦè·Ŀç¦»": 8280,
      "çļĦDNA": 8281,
      "çļĦä¹ĺç§¯": 8282,
      "ret": 8283,
      "äºĪ": 8284,
      "æľĭ": 8285,
      "Ġspl": 8286,
      "Ġsizes": 8287,
      "Ġcup": 8288,
      "ank": 8289,
      "ä¸Ģä»¶": 8290,
      "ä¸Ģé¡¹": 8291,
      "ä¸Ģå¥Ĺ": 8292,
      "éĩİ": 8293,
      "Ġmight": 8294,
      "Ġpen": 8295,
      "æĹ±": 8296,
      "Ġfully": 8297,
      "ä¸įåľ¨": 8298,
      "èĥ½å¸¦": 8299,
      "åĴĮæ¨¡åŀĭ": 8300,
      "Ġrecon": 8301,
      "åı¯ä¿¡": 8302,
      "Ġnature": 8303,
      "åĨĮ": 8304,
      "å½©": 8305,
      "æī®æ¼Ķ": 8306,
      "Ġlies": 8307,
      "å®ļç§¯åĪĨ": 8308,
      "Ġtoday": 8309,
      "âĢĸ": 8310,
      "untain": 8311,
      "ote": 8312,
      "Ġstorm": 8313,
      "å¯¹æ¯Ķ": 8314,
      "å¯¹çħ§": 8315,
      "imin": 8316,
      "imal": 8317,
      "æİĪ": 8318,
      "åľ°çĤ¹": 8319,
      "Ġconstruct": 8320,
      "Ġcondens": 8321,
      "åĲİä¼ļ": 8322,
      "raining": 8323,
      "è¦ģä¹Ī": 8324,
      "urface": 8325,
      "ils": 8326,
      "åĬĽä¸İ": 8327,
      "olar": 8328,
      "éħĴ": 8329,
      "æĭĶ": 8330,
      "åĲĳä¸Ĭ": 8331,
      "æīĢäº§çĶŁçļĦ": 8332,
      "å½¢åıĺ": 8333,
      "æı¡": 8334,
      "Ġexceed": 8335,
      "abol": 8336,
      "å®ĥèĥ½": 8337,
      "éĥ½ä¸į": 8338,
      "Ġforgot": 8339,
      "éĥ¨ç½²": 8340,
      "Ġchrom": 8341,
      "Ġchallen": 8342,
      "Ġwhite": 8343,
      "çº¿åľĪ": 8344,
      "irm": 8345,
      "dule": 8346,
      "åĪĻä¸º": 8347,
      "åĪĻä¼ļ": 8348,
      "Ġasking": 8349,
      "åŃĺåıĸ": 8350,
      "çķ´": 8351,
      "ç»ĦåĪĨ": 8352,
      "éĶķ": 8353,
      "ä¾ĭå¤ĸ": 8354,
      "æľŁéĹ´": 8355,
      "Ġenco": 8356,
      "å¼ĢéĶĢ": 8357,
      "å½ĵåľ°": 8358,
      "æĹ¶éĹ´å°ºåº¦": 8359,
      "éľĢè¦ģçļĦ": 8360,
      "æłĩé¢ĺ": 8361,
      "èµ·å§ĭ": 8362,
      "çľĭæĪĲ": 8363,
      "å±Ĥçº§": 8364,
      "æ±ī": 8365,
      "è¿ĺåľ¨": 8366,
      "è¿ĺæ²¡æľī": 8367,
      "Ġcompact": 8368,
      "ocation": 8369,
      "å®¶åħ·": 8370,
      "å¾®æ³¢": 8371,
      "èĦĨ": 8372,
      "ffic": 8373,
      "æĶ¾åĪ°": 8374,
      "éĢŁåº¦åĴĮ": 8375,
      "å¼ºçļĦ": 8376,
      "å¼ºéħ¸": 8377,
      "çĶµåŃĲå¯¹": 8378,
      "éĴ»": 8379,
      "äºĭçī©": 8380,
      "æ¼ł": 8381,
      "Ġpartly": 8382,
      "åĽŀæĶ¶": 8383,
      "Ġscatter": 8384,
      "åı·åħĥç´ł": 8385,
      "Ġdisag": 8386,
      "Ġmodul": 8387,
      "åİĭå¼º": 8388,
      "èº«ä»½": 8389,
      "æİĴéĻ¤": 8390,
      "ç»ĥä¹ł": 8391,
      "Ġphases": 8392,
      "æĦŁåıĹ": 8393,
      "Ġsurpr": 8394,
      "ĠBe": 8395,
      "åĮħæĭ¬äºĨ": 8396,
      "ä¸»è¦ģçĶ±": 8397,
      "Ġoverl": 8398,
      "Ġworking": 8399,
      "æ¦ĤçİĩåĪĨå¸ĥ": 8400,
      "éĩįæĸ°åĪĨéħį": 8401,
      "çķĻä¸ĭçļĦ": 8402,
      "Ġyear": 8403,
      "éŁ¦": 8404,
      "è¿ľå¤Ħ": 8405,
      "äººå·¥æĻºæħ§": 8406,
      "æł·æľ¬éĩı": 8407,
      "Ġexplicit": 8408,
      "å¤§æ°Ķä¸Ń": 8409,
      "åĵªä¸ª": 8410,
      "åĪĩæį¢": 8411,
      "æīĭæ®µ": 8412,
      "åıªæľīåľ¨": 8413,
      "åĮħåĲ«äºĨ": 8414,
      "èµ°åĪ°": 8415,
      "åıĮæĸ¹": 8416,
      "æ°¢éĶ®": 8417,
      "æĥ¯éĩı": 8418,
      "apping": 8419,
      "ç±»ä¼¼çļĦ": 8420,
      "Ġsuperconductor": 8421,
      "ä¸¥è°¨": 8422,
      "Ġfunctions": 8423,
      "è¾¾åĪ°å¹³è¡¡": 8424,
      "Ġaccident": 8425,
      "Ġconnection": 8426,
      "Ġcooled": 8427,
      "Ġpredictions": 8428,
      "è¡¥åħħ": 8429,
      "Ġanaly": 8430,
      "Ġprotoc": 8431,
      "Ġstopping": 8432,
      "Ġreleased": 8433,
      "Ġtreat": 8434,
      "å¥ĩå¼Ĥ": 8435,
      "Ġturns": 8436,
      "Ġgreater": 8437,
      "Ġstarted": 8438,
      "Ġguarante": 8439,
      "Ġkeeps": 8440,
      "Ġconsistently": 8441,
      "åı¯è§ģåħī": 8442,
      "Ġassociation": 8443,
      "æīĢè°ĵçļĦ": 8444,
      "Ġbeginning": 8445,
      "Ġbroader": 8446,
      "æĭĨæĪĲ": 8447,
      "Ġbenef": 8448,
      "Ġefficiently": 8449,
      "åĨ»ç»ĵ": 8450,
      "Ġobserve": 8451,
      "Ġseries": 8452,
      "Ġlife": 8453,
      "Ġdisturbances": 8454,
      "Ġsharp": 8455,
      "Ġintroduce": 8456,
      "Ġperman": 8457,
      "Ġmedium": 8458,
      "æ²ŁéĢļ": 8459,
      "Ġpoorly": 8460,
      "Ġhorizontal": 8461,
      "Ġmisle": 8462,
      "Ġroughly": 8463,
      "Ġcache": 8464,
      "Ġglass": 8465,
      "variance": 8466,
      "Ġconvergence": 8467,
      "ç¥ĸåħĪ": 8468,
      "Ġroutine": 8469,
      "Ġdatabase": 8470,
      "Ġhabit": 8471,
      "éº»çĥ¦": 8472,
      "Ġdocument": 8473,
      "Ġfront": 8474,
      "kelihood": 8475,
      ")âĮĭ": 8476,
      "86": 8477,
      "BS": 8478,
      "ER": 8479,
      "Em": 8480,
      "GP": 8481,
      "hib": 8482,
      "lor": 8483,
      "rate": 8484,
      "rong": 8485,
      "sin": 8486,
      "é¼": 8487,
      "Ġç»´": 8488,
      "Ġå®ĥä»¬": 8489,
      "ä¸¹": 8490,
      "çļĦçĤ¹": 8491,
      "çļĦçŁ©éĺµ": 8492,
      "çļĦè¾ĵåħ¥": 8493,
      "çļĦç©ºæ°Ķ": 8494,
      "çļĦæłĩåĩĨ": 8495,
      "çļĦçī¹å¾ģåĢ¼": 8496,
      "çļĦéĿ¢ç§¯": 8497,
      "Ġtens": 8498,
      "Ġtaking": 8499,
      "atches": 8500,
      "Ġsaf": 8501,
      "åŃ¤": 8502,
      "ä¸Ģéģĵ": 8503,
      "æĺ¯å¯¹": 8504,
      "itud": 8505,
      "ĠpH": 8506,
      "Ġdamp": 8507,
      "åľ¨æķ°åŃ¦": 8508,
      "æľīæīĢ": 8509,
      "åĮĻ": 8510,
      "åĴĮçİ¯å¢ĥ": 8511,
      "åĪĨå±Ĥ": 8512,
      "Ġinform": 8513,
      "enter": 8514,
      "æĹ¶ä¼ļ": 8515,
      "åŃĲæłĳ": 8516,
      "Ġthous": 8517,
      "Ġthread": 8518,
      "Ġthresh": 8519,
      "Ġhund": 8520,
      "Ġhole": 8521,
      "åİħ": 8522,
      "çĶŁçĲĨ": 8523,
      "è¿Ļä¹Łæĺ¯": 8524,
      "Ġstory": 8525,
      "ç³Ļ": 8526,
      "å±ĭ": 8527,
      "çĶµæŀģ": 8528,
      "çĽ¸å®¹": 8529,
      "åı¯ä»¥åĩıå°ĳ": 8530,
      "éĺĲ": 8531,
      "ä¸ĭä¸ĢæŃ¥": 8532,
      "å¹¶å°Ĩ": 8533,
      "èµ¶": 8534,
      "æľĢä½³": 8535,
      "ades": 8536,
      "çĤİ": 8537,
      "ä¹ĭä¸ĭ": 8538,
      "emb": 8539,
      "umin": 8540,
      "Ġviol": 8541,
      "é«ĺç»´": 8542,
      "çº¿ç²Ĵ": 8543,
      "åı¯èĥ½åĩºçİ°": 8544,
      "irt": 8545,
      "è¿ĽæŃ¥": 8546,
      "æµĭåº¦": 8547,
      "æµĭå®ļ": 8548,
      "ä»£çĲĨ": 8549,
      "çķħ": 8550,
      "æĥł": 8551,
      "Ġseen": 8552,
      "Ġseed": 8553,
      "antic": 8554,
      "ç§¯äºĳ": 8555,
      "å¯¼åĩ½æķ°": 8556,
      "ĠSim": 8557,
      "éľĢè¦ģæĽ´": 8558,
      "éľĢè¦ģåĲĮæĹ¶": 8559,
      "åħīçħ§": 8560,
      "æıĲåıĸ": 8561,
      "Ġshall": 8562,
      "è¾ĥé«ĺçļĦ": 8563,
      "Ġcompound": 8564,
      "ĠIs": 8565,
      "ç»ĨèĥŀèĨľ": 8566,
      "è®¡ç®Ĺåĩº": 8567,
      "åĮħè£ħ": 8568,
      "ä¸»è§Ĥ": 8569,
      "åıįåºĶä¸Ń": 8570,
      "å¸¦èµ°": 8571,
      "æĶ¾è¿Ľ": 8572,
      "Ġresolution": 8573,
      "å°Ķæĸ¯": 8574,
      "è·¯éĿ¢": 8575,
      "æ·»": 8576,
      "è¿ĩç¨ĭçļĦ": 8577,
      "é£İåĬĽ": 8578,
      "èĪ°": 8579,
      "Ġevapor": 8580,
      "Ġuser": 8581,
      "èĽĭçĻ½éħ¶": 8582,
      "çī©çĲĨæĢ§è´¨": 8583,
      "Ġkm": 8584,
      "Ġkind": 8585,
      "çī©ä½ĵåľ¨": 8586,
      "åľ°çĲĥä¸ĬçļĦ": 8587,
      "åıĤè§ģ": 8588,
      "åıĤçħ§": 8589,
      "æīįä¼ļ": 8590,
      "Ġimages": 8591,
      "Ġdistances": 8592,
      "ç¨³æĢģ": 8593,
      "Ġclaim": 8594,
      "æºĲèĩª": 8595,
      "Ġtraffic": 8596,
      "äº¤éĢļ": 8597,
      "åģĩå®ļ": 8598,
      "å¤įæĿĤæĢ§": 8599,
      "æī¾åĩº": 8600,
      "ĠNetwork": 8601,
      "ĠBro": 8602,
      "ä¸įèĥ½çĽ´æİ¥": 8603,
      "ĠFrom": 8604,
      "Ġsystematic": 8605,
      "ĠLear": 8606,
      "åĨĻåħ¥": 8607,
      "Ġgrain": 8608,
      "æ¶ĪåĮĸ": 8609,
      "åįģä¹Ŀ": 8610,
      "æľªæĿ¥çļĦ": 8611,
      "Ġimpossible": 8612,
      "ç²ĴåŃĲçļĦ": 8613,
      "å¤ªéĺ³é£İ": 8614,
      "æ¦Ĥçİĩè®º": 8615,
      "Ġcurve": 8616,
      "å¹³è¡¡å¸¸æķ°": 8617,
      "éĺ¶å¯¼æķ°": 8618,
      "æĿĲæĸĻçļĦ": 8619,
      "ç©ºæ°Ķä¸ŃçļĦ": 8620,
      "ç¢³åİŁåŃĲ": 8621,
      "çĽ¸åħ³æĢ§": 8622,
      "Ġhash": 8623,
      "åĩıå°ĳäºĨ": 8624,
      "çīĽé¡¿è¿ĲåĬ¨å®ļå¾ĭ": 8625,
      "åıĳå±ķåĩº": 8626,
      "æ°§åĮĸè¿ĺåİŁ": 8627,
      "å¯¼èĩ´äºĨ": 8628,
      "é¥®": 8629,
      "Ġ)ï¼Į": 8630,
      "å±±èĦī": 8631,
      "Ġconfirm": 8632,
      "å»ºç«ĭåľ¨": 8633,
      "Ġaccording": 8634,
      "æĤĸ": 8635,
      "Ġcausing": 8636,
      "Ġlearn": 8637,
      "Ġcombination": 8638,
      "Ġzone": 8639,
      "åĢįä½ĵ": 8640,
      "å·¥ç¨ĭåŃ¦": 8641,
      "Ġguide": 8642,
      "Ġorganic": 8643,
      "Ġrepresentation": 8644,
      "Ġconvert": 8645,
      "standing": 8646,
      "Ġthought": 8647,
      "Ġpassed": 8648,
      "åĩĨç¡®çļĦ": 8649,
      "åķĨä¸ļ": 8650,
      "Ġexisted": 8651,
      "Ġplasmas": 8652,
      "å²©çŁ³åľĪ": 8653,
      "Ġcomparable": 8654,
      "æľĢå°ıåĢ¼": 8655,
      "æĬķå½±": 8656,
      "Ġweeks": 8657,
      "äº²åĴĮ": 8658,
      "åī©ä½Ļ": 8659,
      "æĽ¾ç»ı": 8660,
      "å±ħæ°ĳ": 8661,
      "çº¬åº¦åľ°åĮº": 8662,
      "Ġsensitive": 8663,
      "ä¸¾ä¾ĭ": 8664,
      "ç²Ĺç³Ļ": 8665,
      "å¹ĤçŃī": 8666,
      "Ġcharacteristic": 8667,
      "Ġhours": 8668,
      "éĴ¥åĮĻ": 8669,
      "è¿«ä½¿": 8670,
      "Ġheavy": 8671,
      "Ġsummar": 8672,
      "Ġhappened": 8673,
      "åľ°ä¸ĭæ°´": 8674,
      "éª¨æŀ¶": 8675,
      "çĹķè¿¹": 8676,
      "å¤ļæł·æĢ§": 8677,
      "äºĮåįģä¸ĸçºª": 8678,
      "ä¼ĳæģ¯": 8679,
      "rief": 8680,
      "ĠQuantum": 8681,
      "å´©": 8682,
      "Ġdiagram": 8683,
      "Ġfilled": 8684,
      "Ġuniversal": 8685,
      "Ġmixt": 8686,
      "Ġbott": 8687,
      "çŃīåĲĮäºİ": 8688,
      "Ġaxis": 8689,
      "Ġinstructions": 8690,
      "Ġapproaches": 8691,
      "æľĭåıĭ": 8692,
      ",âĢĿ": 8693,
      "2000": 8694,
      "AN": 8695,
      "IBM": 8696,
      "MS": 8697,
      "Rn": 8698,
      "Te": 8699,
      "bust": 8700,
      "min": 8701,
      "mass": 8702,
      "run": 8703,
      "yl": 8704,
      "Ġ8": 8705,
      "ĠâĢĿ": 8706,
      "Ġæ¬¡": 8707,
      "Ġä¸ĬçļĦ": 8708,
      "Ġä»ĸä»¬": 8709,
      "ĠéļıåĲİ": 8710,
      "Ġ:=": 8711,
      "çļĦä¸ĢäºĽ": 8712,
      "çļĦå¯¼æķ°": 8713,
      "çļĦå·®å¼Ĥ": 8714,
      "Ġturning": 8715,
      "erior": 8716,
      "inity": 8717,
      "atial": 8718,
      "Ġcity": 8719,
      "eness": 8720,
      "ä½©": 8721,
      "åĬ±": 8722,
      "Ġpe": 8723,
      "Ġdivid": 8724,
      "Ġbatch": 8725,
      "Ġbond": 8726,
      "Ġbrief": 8727,
      "Ġwide": 8728,
      "Ġwider": 8729,
      "åľ¨æŁĲäºĽ": 8730,
      "Ġfive": 8731,
      "Ġfind": 8732,
      "Ġfrag": 8733,
      "ä¸įå¤Ł": 8734,
      "room": 8735,
      "è¯±": 8736,
      "åĪĨéļĶ": 8737,
      "æłĪ": 8738,
      "Ġecosystem": 8739,
      "ä¸ŃæīĢ": 8740,
      "çĶ¨äºĨ": 8741,
      "å½»": 8742,
      "å¸Ŀ": 8743,
      "Ġlamp": 8744,
      "æŃ§": 8745,
      "æŃĮ": 8746,
      "åĮĸçŁ³": 8747,
      "omial": 8748,
      "uth": 8749,
      "using": 8750,
      "åİĤ": 8751,
      "Ġstiff": 8752,
      "ï¼īï¼Ľ": 8753,
      "ï¼īâĢĶ": 8754,
      "Ġconsequ": 8755,
      "åĲİç»§": 8756,
      "idges": 8757,
      "stream": 8758,
      "urally": 8759,
      "ä¸İåħ¶ä»ĸ": 8760,
      "å¦ĤåĲĮ": 8761,
      "åĲĪåĬĽ": 8762,
      "åı¯ä»¥å¾ĹåĪ°": 8763,
      "ä¹Łè¢«": 8764,
      "ä¹Łä¸įä¼ļ": 8765,
      "Ġget": 8766,
      "å¹¶éĢļè¿ĩ": 8767,
      "igen": 8768,
      "Ġmountain": 8769,
      "æľĢå¿«": 8770,
      "åŁºåĽ¢": 8771,
      "chit": 8772,
      "chron": 8773,
      "éĽ¹": 8774,
      "osity": 8775,
      "å¼ıåŃ¦ä¹ł": 8776,
      "å®ŀä¾ĭ": 8777,
      "èĩªåıĺéĩı": 8778,
      "å¾Ĺå¤ª": 8779,
      "Ġexists": 8780,
      "abul": 8781,
      "æŁĶ": 8782,
      "iring": 8783,
      "èĥ°": 8784,
      "ç©ºçĻ½": 8785,
      "åĪĻæľī": 8786,
      "æŃ£äº¤": 8787,
      "å¤įä¹ł": 8788,
      "åŃĺæ´»": 8789,
      "æµ·åºĬ": 8790,
      "Ġseaf": 8791,
      "åīįéĿ¢": 8792,
      "å¤ĸè§Ĥ": 8793,
      "ä»ĸåľ¨": 8794,
      "Ġshadow": 8795,
      "åĩłæ¬¡": 8796,
      "åį´æ²¡æľī": 8797,
      "æķ°æį®åĴĮ": 8798,
      "æ¯ıä¸ĢæŃ¥": 8799,
      "çľĭåĩº": 8800,
      "æĶ¹è¿Ľ": 8801,
      "ä½ľçĶ¨äºİ": 8802,
      "å¾®çĶŁçī©": 8803,
      "åĻ¨å®ĺ": 8804,
      "éļıä¹ĭ": 8805,
      "çĿĽ": 8806,
      "ä¹ĭéĹ´åŃĺåľ¨": 8807,
      "æº¯": 8808,
      "éĵº": 8809,
      "å¢ŀéĩı": 8810,
      "ç«ĭåį³": 8811,
      "ĠTemperature": 8812,
      "èī²ç´ł": 8813,
      "ĠCal": 8814,
      "å¦Ĥæŀľæ²¡æľī": 8815,
      "è·¯åı£": 8816,
      "åŃĺåľ¨ä¸Ģä¸ª": 8817,
      "Ġplaus": 8818,
      "Ġlets": 8819,
      "åį³åı¯": 8820,
      "çĶµåŃĲä¼łéĢĴ": 8821,
      "éĴł": 8822,
      "Ġevolution": 8823,
      "Ġusers": 8824,
      "åħ¬çº¦": 8825,
      "åħ¬äº¤": 8826,
      "Ġimper": 8827,
      "æķ°åŃ¦çļĦ": 8828,
      "æııè¿°äºĨ": 8829,
      "ĠMost": 8830,
      "ĠMany": 8831,
      "Ġclou": 8832,
      "çº¿æĢ§æĸ¹ç¨ĭç»Ħ": 8833,
      "Ġperme": 8834,
      "Ġadvant": 8835,
      "opes": 8836,
      "è¿Ļç§įçİ°è±¡": 8837,
      "éĤ£éĩĮ": 8838,
      "è§ĴéĢŁåº¦": 8839,
      "æ¸©åº¦åıĺåĮĸ": 8840,
      "èĤ¤": 8841,
      "åĥıæĺ¯": 8842,
      "èĩªçĦ¶çİ°è±¡": 8843,
      "ermions": 8844,
      "Ġ17": 8845,
      "æĭīä¸ģ": 8846,
      "Ġexpress": 8847,
      "Ġotherwise": 8848,
      "å½¢å¼ıåĮĸ": 8849,
      "èĦ±ç¦»": 8850,
      "éĹ¨æį·": 8851,
      "Ġequally": 8852,
      "Ġequival": 8853,
      "Ġè¿Ļç±»": 8854,
      "Ġexplo": 8855,
      "ç»§æī¿": 8856,
      "æĿĥè¡¡": 8857,
      "åıªæľīä¸Ģä¸ª": 8858,
      "åĬŁèĥ½çļĦ": 8859,
      "ä¼°ç®Ĺ": 8860,
      "é©¬æĸ¯": 8861,
      "cope": 8862,
      "è§£åĨ³æĸ¹æ¡Ī": 8863,
      "èĲ½ä¸ĭ": 8864,
      "ç¼©çŁŃ": 8865,
      "å®ĮæĪĲçļĦ": 8866,
      "åı¤åħ¸": 8867,
      "ä»ĭéĿ¢": 8868,
      "æ°§åĮĸçī©": 8869,
      "æ··åĲĪçī©": 8870,
      "è¾ĵåĩºåĢ¼": 8871,
      "ç¼ºçĤ¹": 8872,
      "ĠGood": 8873,
      "Ġsheet": 8874,
      "Ġcontrols": 8875,
      "ãĢĭï¼Ī": 8876,
      "è½¯ä½ĵ": 8877,
      "Ġoptical": 8878,
      "åĮĹåįĬçĲĥ": 8879,
      "Ġproviding": 8880,
      "Ġrespons": 8881,
      "è¶ĭäºİ": 8882,
      "æĤ¬": 8883,
      "å°½éĩı": 8884,
      "è½½ä½ĵ": 8885,
      "Ġtesting": 8886,
      "è¡ĮæĺŁçļĦ": 8887,
      "Ġcombined": 8888,
      "Ġcombinations": 8889,
      "ä¸įç¡®å®ļåº¦": 8890,
      "Ġdeliber": 8891,
      "Ġbuildings": 8892,
      "Ġwrite": 8893,
      "äº¿å¹´": 8894,
      "åģ¶æŀģ": 8895,
      "Ġmolecule": 8896,
      "æī¿è®¤": 8897,
      "Ġprograms": 8898,
      "ĠUni": 8899,
      "æļĸæµģ": 8900,
      "Ġrotating": 8901,
      "äºĶåĪĨéĴŁ": 8902,
      "çľ¼çĿĽ": 8903,
      "æ¼Ĥåıĺ": 8904,
      "Ġstarting": 8905,
      "Ġbiological": 8906,
      "åħ»æ®ĸ": 8907,
      "çĳŀ": 8908,
      "çĨŁæĤīçļĦ": 8909,
      "Ġtried": 8910,
      "Ġclosely": 8911,
      "Ġorbital": 8912,
      "ä¼Ĺå¤ļ": 8913,
      "æ²Ļæ¼ł": 8914,
      "Ġisolation": 8915,
      "ootstrap": 8916,
      "Ġlatency": 8917,
      "å¯¹è§Ĵçº¿": 8918,
      "Ġeruptions": 8919,
      "æŃ£åĪĻé¡¹": 8920,
      "çĪĨåıĳ": 8921,
      "çĮľæĥ³": 8922,
      "é»ıåº¦": 8923,
      "çŁ¿çī©": 8924,
      "èĳĹåĲįçļĦ": 8925,
      "Ġdrawing": 8926,
      "ç¼ĸç¨ĭè¯Ńè¨Ģ": 8927,
      "ä¹ĻéĨ": 8928,
      "è½¬åĬ¨æĥ¯éĩı": 8929,
      "Ġmonths": 8930,
      "Ġconsidered": 8931,
      "Ġversion": 8932,
      "åħ¼å®¹": 8933,
      "éĺħè¯»": 8934,
      "Ġorientation": 8935,
      "Ġchemistry": 8936,
      "Ġmathematical": 8937,
      "è©¹å§Ĩæĸ¯": 8938,
      "è½½æµģåŃĲ": 8939,
      "Ġdinner": 8940,
      "ĠStandard": 8941,
      "HTTP": 8942,
      "Ġmisleading": 8943,
      "æ·»åĬł": 8944,
      "Ġseafloor": 8945,
      "Ġplausible": 8946,
      "Ġclouds": 8947,
      "éĹ¨æį·åĪĹå¤«": 8948,
      "%ãĢĤ": 8949,
      "DP": 8950,
      "If": 8951,
      "IUPAC": 8952,
      "Pro": 8953,
      "Qu": 8954,
      "Se": 8955,
      "Some": 8956,
      "TA": 8957,
      "Water": 8958,
      "bra": 8959,
      "hav": 8960,
      "kn": 8961,
      "land": 8962,
      "mm": 8963,
      "oving": 8964,
      "tention": 8965,
      "vin": 8966,
      "¹æŀľ": 8967,
      "Ġur": 8968,
      "Ġå®ŀéªĮ": 8969,
      "ĠéĻ¤": 8970,
      "ĠæĪĳä»¬": 8971,
      "Ġå¾®ç§¯åĪĨ": 8972,
      "ĥåľ": 8973,
      "çļĦåĨħ": 8974,
      "çļĦéķ¿åº¦": 8975,
      "çļĦå·¥åħ·": 8976,
      "çļĦçī¹æĢ§": 8977,
      "Ġtrying": 8978,
      "Ġtaken": 8979,
      "Ġaqu": 8980,
      "erc": 8981,
      "ino": 8982,
      "äº¨": 8983,
      "åĪĢ": 8984,
      "atched": 8985,
      "Ġsand": 8986,
      "Ġsess": 8987,
      "Ġsix": 8988,
      "åĲŀ": 8989,
      "ç»ª": 8990,
      "æĺĤ": 8991,
      "å®Ĺ": 8992,
      "ä¸Ģå®¶": 8993,
      "ä¸Ģéĺ¶": 8994,
      "ä¸Ģä»½": 8995,
      "æĺ¯ä»Ģä¹Ī": 8996,
      "Ġmatch": 8997,
      "Ġmarg": 8998,
      "Ġpip": 8999,
      "Ġbare": 9000,
      "æĪ´": 9001,
      "Ġfac": 9002,
      "ä¸įèµ·": 9003,
      "level": 9004,
      "åı¯å°Ĩ": 9005,
      "èĢĲ": 9006,
      "åĨĽ": 9007,
      "å¸ķ": 9008,
      "Ġlens": 9009,
      "Ġthings": 9010,
      "è´ª": 9011,
      "è´´": 9012,
      "åĲĮäºĭ": 9013,
      "omic": 9014,
      "ä¼ļéĢłæĪĲ": 9015,
      "Ġhouse": 9016,
      "Ġbeam": 9017,
      "ä½ĵçİ°": 9018,
      "ä¸Ģä¸ªå°ı": 9019,
      "ä¸ĬéĻĲ": 9020,
      "éĿ©": 9021,
      "æİĮ": 9022,
      "åľ°ä¸Ń": 9023,
      "åľ°çĲĨ": 9024,
      "åľ°æł¸": 9025,
      "è¿ĩå¤ļ": 9026,
      "è¿ĩæĿ¥": 9027,
      "çĶµèĥ½": 9028,
      "çĶµæ¢¯": 9029,
      "çĽ¸åıĺ": 9030,
      "ä½ľçļĦ": 9031,
      "ç§įåħĥç´ł": 9032,
      "å¸¸å¾®åĪĨæĸ¹ç¨ĭ": 9033,
      "åı¯ä»¥è¡¨ç¤º": 9034,
      "äººä¸º": 9035,
      "ä¸ĭä¸Ģæ¬¡": 9036,
      "ä¸ĭéĿ¢çļĦ": 9037,
      "Ġgive": 9038,
      "These": 9039,
      "å¹¶ä»¥": 9040,
      "æĽ´å¥½çļĦ": 9041,
      "amiliar": 9042,
      "æľĢä½İ": 9043,
      "åģ¿": 9044,
      "æīĢå¾Ĺ": 9045,
      "å®ŀä½ĵ": 9046,
      "æŃ¤å¤ĸ": 9047,
      "çĤ¹çĶµèį·": 9048,
      "Ġexcessive": 9049,
      "æ°Ķåĳ³": 9050,
      "ï¼ļâĪ«": 9051,
      "abil": 9052,
      "åŀĥåľ": 9053,
      "å¾Īéĩįè¦ģ": 9054,
      "éĥ½è¦ģ": 9055,
      "ayer": 9056,
      "aying": 9057,
      "ç½ķ": 9058,
      "æ°´éĿ¢": 9059,
      "çº¿æ®µ": 9060,
      "åı¯èĥ½çļĦ": 9061,
      "åı¯èĥ½è¢«": 9062,
      "åĬłå¯Ĩ": 9063,
      "åĪĻåľ¨": 9064,
      "åĪĻç§°ä¸º": 9065,
      "ä½Ĩä¸įèĥ½": 9066,
      "å¢¨": 9067,
      "åīįè¿Ľ": 9068,
      "Ġenorm": 9069,
      "Ġended": 9070,
      "å¼ĢæĻ®åĭĴ": 9071,
      "acher": 9072,
      "ĠSystem": 9073,
      "ç¡®å®ŀ": 9074,
      "åį´ä¸į": 9075,
      "æ±ŀ": 9076,
      "æĶ¹æĪĲ": 9077,
      "èĭ·": 9078,
      "èĭ¹æŀľ": 9079,
      "æĹłè®º": 9080,
      "lection": 9081,
      "ocabul": 9082,
      "å¾®ç²Ĵ": 9083,
      "èīº": 9084,
      "ortun": 9085,
      "æ¸©å¸¦": 9086,
      "çŁ©å½¢": 9087,
      "å§Ķ": 9088,
      "ä½İé¢ĳ": 9089,
      "æĶ¾å¼ĥ": 9090,
      "å°Ķä¼¯çī¹": 9091,
      "èī²çļĦ": 9092,
      "åĲĳéĩıv": 9093,
      "ç©ºéĹ´å¤įæĿĤåº¦": 9094,
      "Ġround": 9095,
      "æį¢æĪĲ": 9096,
      "åħĪæĬĬ": 9097,
      "plex": 9098,
      "éĴį": 9099,
      "éĴĻ": 9100,
      "ç£ģæĢ§": 9101,
      "Ġkitc": 9102,
      "åħ±çĶ¨": 9103,
      "1980": 9104,
      "é¢Ħè¨Ģ": 9105,
      "ients": 9106,
      "æ±Ĥå¾Ĺ": 9107,
      "å¹¶ä¸įä»£è¡¨": 9108,
      "åģļçļĦ": 9109,
      "Ġsche": 9110,
      "Ġmodify": 9111,
      "Ġtransformation": 9112,
      "Ġrelativity": 9113,
      "ç¨³å®ļåĲĮä½įç´ł": 9114,
      "ä¸¤ä¸ªçī©ä½ĵ": 9115,
[...]
