{
  "version": "1.0",
  "truncation": null,
  "padding": null,
  "added_tokens": [
    {
      "id": 0,
      "content": "<|pad|>",
      "single_word": false,
      "lstrip": false,
      "rstrip": false,
      "normalized": false,
      "special": true
    },
    {
      "id": 1,
      "content": "<|unk|>",
      "single_word": false,
      "lstrip": false,
      "rstrip": false,
      "normalized": false,
      "special": true
    },
    {
      "id": 2,
      "content": "<|bos|>",
      "single_word": false,
      "lstrip": false,
      "rstrip": false,
      "normalized": false,
      "special": true
    },
    {
      "id": 3,
      "content": "<|eos|>",
      "single_word": false,
      "lstrip": false,
      "rstrip": false,
      "normalized": false,
      "special": true
    }
  ],
  "normalizer": {
    "type": "Sequence",
    "normalizers": [
      {
        "type": "Replace",
        "pattern": {
          "String": "，"
        },
        "content": ""
      },
      {
        "type": "Replace",
        "pattern": {
          "String": "："
        },
        "content": ""
      },
      {
        "type": "Replace",
        "pattern": {
          "String": "；"
        },
        "content": ""
      },
      {
        "type": "Replace",
        "pattern": {
          "String": "！"
        },
        "content": ""
      },
      {
        "type": "Replace",
        "pattern": {
          "String": "？"
        },
        "content": ""
      },
      {
        "type": "Replace",
        "pattern": {
          "String": "（"
        },
        "content": ""
      },
      {
        "type": "Replace",
        "pattern": {
          "String": "）"
        },
        "content": ""
      },
      {
        "type": "Replace",
        "pattern": {
          "String": "％"
        },
        "content": ""
      },
      {
        "type": "Replace",
        "pattern": {
          "String": "＃"
        },
        "content": ""
      },
      {
        "type": "Replace",
        "pattern": {
          "String": "＠"
        },
        "content": ""
      },
      {
        "type": "Replace",
        "pattern": {
          "String": "｛"
        },
        "content": ""
      },
      {
        "type": "Replace",
        "pattern": {
          "String": "｝"
        },
        "content": ""
      },
      {
        "type": "Replace",
        "pattern": {
          "String": "［"
        },
        "content": ""
      },
      {
        "type": "Replace",
        "pattern": {
          "String": "］"
        },
        "content": ""
      },
      {
        "type": "Replace",
        "pattern": {
          "String": "…"
        },
        "content": ""
      },
      {
        "type": "Replace",
        "pattern": {
          "String": "　"
        },
        "content": ""
      },
      {
        "type": "NFKC"
      },
      {
        "type": "Replace",
        "pattern": {
          "String": ""
        },
        "content": "，"
      },
      {
        "type": "Replace",
        "pattern": {
          "String": ""
        },
        "content": "："
      },
      {
        "type": "Replace",
        "pattern": {
          "String": ""
        },
        "content": "；"
      },
      {
        "type": "Replace",
        "pattern": {
          "String": ""
        },
        "content": "！"
      },
      {
        "type": "Replace",
        "pattern": {
          "String": ""
        },
        "content": "？"
      },
      {
        "type": "Replace",
        "pattern": {
          "String": ""
        },
        "content": "（"
      },
      {
        "type": "Replace",
        "pattern": {
          "String": ""
        },
        "content": "）"
      },
      {
        "type": "Replace",
        "pattern": {
          "String": ""
        },
        "content": "％"
      },
      {
        "type": "Replace",
        "pattern": {
          "String": ""
        },
        "content": "＃"
      },
      {
        "type": "Replace",
        "pattern": {
          "String": ""
        },
        "content": "＠"
      },
      {
        "type": "Replace",
        "pattern": {
          "String": ""
        },
        "content": "｛"
      },
      {
        "type": "Replace",
        "pattern": {
          "String": ""
        },
        "content": "｝"
      },
      {
        "type": "Replace",
        "pattern": {
          "String": ""
        },
        "content": "［"
      },
      {
        "type": "Replace",
        "pattern": {
          "String": ""
        },
        "content": "］"
      },
      {
        "type": "Replace",
        "pattern": {
          "String": ""
        },
        "content": "…"
      },
      {
        "type": "Replace",
        "pattern": {
          "String": ""
        },
        "content": "　"
      }
    ]
  },
  "pre_tokenizer": {
    "type": "ByteLevel",
    "add_prefix_space": false,
    "trim_offsets": true,
    "use_regex": true
  },
  "post_processor": {
    "type": "TemplateProcessing",
    "single": [
      {
        "SpecialToken": {
          "id": "<|bos|>",
          "type_id": 0
        }
      },
      {
        "Sequence": {
          "id": "A",
          "type_id": 0
        }
      },
      {
        "SpecialToken": {
          "id": "<|eos|>",
          "type_id": 0
        }
      }
    ],
    "pair": [
      {
        "Sequence": {
          "id": "A",
          "type_id": 0
        }
      },
      {
        "Sequence": {
          "id": "B",
          "type_id": 1
        }
      }
    ],
    "special_tokens": {
      "<|bos|>": {
        "id": "<|bos|>",
        "ids": [
          2
        ],
        "tokens": [
          "<|bos|>"
        ]
      },
      "<|eos|>": {
        "id": "<|eos|>",
        "ids": [
          3
        ],
        "tokens": [
          "<|eos|>"
        ]
      }
    }
  },
  "decoder": {
    "type": "ByteLevel",
    "add_prefix_space": true,
    "trim_offsets": true,
    "use_regex": true
  },
  "model": {
    "type": "BPE",
    "dropout": null,
    "unk_token": "<|unk|>",
    "continuing_subword_prefix": null,
    "end_of_word_suffix": null,
    "fuse_unk": false,
    "byte_fallback": false,
    "ignore_merges": false,
    "vocab": {
      "<|pad|>": 0,
      "<|unk|>": 1,
      "<|bos|>": 2,
      "<|eos|>": 3,
      "!": 4,
      "\"": 5,
      "#": 6,
      "$": 7,
      "%": 8,
      "&": 9,
      "'": 10,
      "(": 11,
      ")": 12,
      "*": 13,
      "+": 14,
      ",": 15,
      "-": 16,
      ".": 17,
      "/": 18,
      "0": 19,
      "1": 20,
      "2": 21,
      "3": 22,
      "4": 23,
      "5": 24,
      "6": 25,
      "7": 26,
      "8": 27,
      "9": 28,
      ":": 29,
      ";": 30,
      "<": 31,
      "=": 32,
      ">": 33,
      "?": 34,
      "@": 35,
      "A": 36,
      "B": 37,
      "C": 38,
      "D": 39,
      "E": 40,
      "F": 41,
      "G": 42,
      "H": 43,
      "I": 44,
      "J": 45,
      "K": 46,
      "L": 47,
      "M": 48,
      "N": 49,
      "O": 50,
      "P": 51,
      "Q": 52,
      "R": 53,
      "S": 54,
      "T": 55,
      "U": 56,
      "V": 57,
      "W": 58,
      "X": 59,
      "Y": 60,
      "Z": 61,
      "[": 62,
      "\\": 63,
      "]": 64,
      "^": 65,
      "_": 66,
      "`": 67,
      "a": 68,
      "b": 69,
      "c": 70,
      "d": 71,
      "e": 72,
      "f": 73,
      "g": 74,
      "h": 75,
      "i": 76,
      "j": 77,
      "k": 78,
      "l": 79,
      "m": 80,
      "n": 81,
      "o": 82,
      "p": 83,
      "q": 84,
      "r": 85,
      "s": 86,
      "t": 87,
      "u": 88,
      "v": 89,
      "w": 90,
      "x": 91,
      "y": 92,
      "z": 93,
      "{": 94,
      "|": 95,
      "}": 96,
      "~": 97,
      "¡": 98,
      "¢": 99,
      "£": 100,
      "¤": 101,
      "¥": 102,
      "¦": 103,
      "§": 104,
      "¨": 105,
      "©": 106,
      "ª": 107,
      "«": 108,
      "¬": 109,
      "®": 110,
      "¯": 111,
      "°": 112,
      "±": 113,
      "²": 114,
      "³": 115,
      "´": 116,
      "µ": 117,
      "¶": 118,
      "·": 119,
      "¸": 120,
      "¹": 121,
      "º": 122,
      "»": 123,
      "¼": 124,
      "½": 125,
      "¾": 126,
      "¿": 127,
      "À": 128,
      "Á": 129,
      "Â": 130,
      "Ã": 131,
      "Ä": 132,
      "Å": 133,
      "Æ": 134,
      "Ç": 135,
      "È": 136,
      "É": 137,
      "Ê": 138,
      "Ë": 139,
      "Ì": 140,
      "Í": 141,
      "Î": 142,
      "Ï": 143,
      "Ð": 144,
      "Ñ": 145,
      "Ò": 146,
      "Ó": 147,
      "Ô": 148,
      "Õ": 149,
      "Ö": 150,
      "×": 151,
      "Ø": 152,
      "Ù": 153,
      "Ú": 154,
      "Û": 155,
      "Ü": 156,
      "Ý": 157,
      "Þ": 158,
      "ß": 159,
      "à": 160,
      "á": 161,
      "â": 162,
      "ã": 163,
      "ä": 164,
      "å": 165,
      "æ": 166,
      "ç": 167,
      "è": 168,
      "é": 169,
      "ê": 170,
      "ë": 171,
      "ì": 172,
      "í": 173,
      "î": 174,
      "ï": 175,
      "ð": 176,
      "ñ": 177,
      "ò": 178,
      "ó": 179,
      "ô": 180,
      "õ": 181,
      "ö": 182,
      "÷": 183,
      "ø": 184,
      "ù": 185,
      "ú": 186,
      "û": 187,
      "ü": 188,
      "ý": 189,
      "þ": 190,
      "ÿ": 191,
      "Ā": 192,
      "ā": 193,
      "Ă": 194,
      "ă": 195,
      "Ą": 196,
      "ą": 197,
      "Ć": 198,
      "ć": 199,
      "Ĉ": 200,
      "ĉ": 201,
      "Ċ": 202,
      "ċ": 203,
      "Č": 204,
      "č": 205,
      "Ď": 206,
      "ď": 207,
      "Đ": 208,
      "đ": 209,
      "Ē": 210,
      "ē": 211,
      "Ĕ": 212,
      "ĕ": 213,
      "Ė": 214,
      "ė": 215,
      "Ę": 216,
      "ę": 217,
      "Ě": 218,
      "ě": 219,
      "Ĝ": 220,
      "ĝ": 221,
      "Ğ": 222,
      "ğ": 223,
      "Ġ": 224,
      "ġ": 225,
      "Ģ": 226,
      "ģ": 227,
      "Ĥ": 228,
      "ĥ": 229,
      "Ħ": 230,
      "ħ": 231,
      "Ĩ": 232,
      "ĩ": 233,
      "Ī": 234,
      "ī": 235,
      "Ĭ": 236,
      "ĭ": 237,
      "Į": 238,
      "į": 239,
      "İ": 240,
      "ı": 241,
      "Ĳ": 242,
      "ĳ": 243,
      "Ĵ": 244,
      "ĵ": 245,
      "Ķ": 246,
      "ķ": 247,
      "ĸ": 248,
      "Ĺ": 249,
      "ĺ": 250,
      "Ļ": 251,
      "ļ": 252,
      "Ľ": 253,
      "ľ": 254,
      "Ŀ": 255,
      "ŀ": 256,
      "Ł": 257,
      "ł": 258,
      "Ń": 259,
      "ä¸": 260,
      "ï¼": 261,
      "çļ": 262,
      "çļĦ": 263,
      "ï¼Į": 264,
      "ãĢ": 265,
      "åı": 266,
      "ãĢĤ": 267,
      "Ġt": 268,
      "Ġa": 269,
      "er": 270,
      "in": 271,
      "on": 272,
      "äº": 273,
      "åĪ": 274,
      "æľ": 275,
      "re": 276,
      "ä»": 277,
      "åĲ": 278,
      "at": 279,
      "åħ": 280,
      "è¿": 281,
      "çĶ": 282,
      "Ġs": 283,
      "å¤": 284,
      "he": 285,
      "ä½": 286,
      "ç»": 287,
      "åŃ": 288,
      "Ġc": 289,
      "æĺ": 290,
      "åľ": 291,
      "en": 292,
      "å®": 293,
      "éĩ": 294,
      "ä¸Ģ": 295,
      "es": 296,
      "an": 297,
      "æķ": 298,
      "æĺ¯": 299,
      "or": 300,
      "åĬ": 301,
      "Ġthe": 302,
      "åº": 303,
      "al": 304,
      "è®": 305,
      "ion": 306,
      "åľ¨": 307,
      "ĥ½": 308,
      "Ġm": 309,
      "ä¹": 310,
      "it": 311,
      "Ġp": 312,
      "æĪ": 313,
      "å°": 314,
      "ed": 315,
      "ar": 316,
      "æĹ": 317,
      "ing": 318,
      "Ġd": 319,
      "ç§": 320,
      "æĸ": 321,
      "Ġb": 322,
      "æķ°": 323,
      "æľī": 324,
      "å¾": 325,
      "çī": 326,
      "ä¸į": 327,
      "ä¼": 328,
      "éĢ": 329,
      "is": 330,
      "åĮ": 331,
      "åĽ": 332,
      "Ġw": 333,
      "Ġf": 334,
      "ro": 335,
      "åĩ": 336,
      "èĥ½": 337,
      "Ġo": 338,
      "ä¸ª": 339,
      "å¹": 340,
      "ä¸º": 341,
      "ic": 342,
      "Ġan": 343,
      "åĴ": 344,
      "åĴĮ": 345,
      "è¯": 346,
      "å¯": 347,
      "ãĢģ": 348,
      "åı¯": 349,
      "æĢ": 350,
      "le": 351,
      "éĩı": 352,
      "åĪĨ": 353,
      "å¼": 354,
      "æł": 355,
      "ä¸Ń": 356,
      "æĿ": 357,
      "è¡": 358,
      "ct": 359,
      "åŃ¦": 360,
      "åŃĲ": 361,
      "ä»¥": 362,
      "èĢ": 363,
      "Ġre": 364,
      "è§": 365,
      "æ°": 366,
      "Ġin": 367,
      "åį": 368,
      "ent": 369,
      "çĽ": 370,
      "æŀ": 371,
      "çİ": 372,
      "çĶ¨": 373,
      "éĹ": 374,
      "Ġe": 375,
      "å½": 376,
      "å¸": 377,
      "Ġand": 378,
      "æĹ¶": 379,
      "åĨ": 380,
      "æµ": 381,
      "çĲ": 382,
      "çī©": 383,
      "æ³": 384,
      "æĪĲ": 385,
      "åĮĸ": 386,
      "æī": 387,
      "è´": 388,
      "åº¦": 389,
      "æŃ": 390,
      "Ġn": 391,
      "äºİ": 392,
      "å®ļ": 393,
      "as": 394,
      "ly": 395,
      "æĢ§": 396,
      "åĲĮ": 397,
      "Ġl": 398,
      "çº": 399,
      "âĢ": 400,
      "Ġth": 401,
      "ation": 402,
      "åĽł": 403,
      "Ġof": 404,
      "om": 405,
      "ut": 406,
      "åıĺ": 407,
      "å¤§": 408,
      "çĶŁ": 409,
      "ä½ĵ": 410,
      "ï¼Ī": 411,
      "ce": 412,
      "ï¼ī": 413,
      "ä¼ļ": 414,
      "è¿Ļ": 415,
      "å¯¹": 416,
      "¦Ĥ": 417,
      "è¾": 418,
      "Ġto": 419,
      "åİ": 420,
      "us": 421,
      "çĲĨ": 422,
      "èĢĮ": 423,
      "å·": 424,
      "éĹ´": 425,
      "ç³": 426,
      "åŁ": 427,
      "è´¨": 428,
      "éĻ": 429,
      "æĸ¹": 430,
      "et": 431,
      "un": 432,
      "ä¸Ĭ": 433,
      "ä¸Ģä¸ª": 434,
      "ç®": 435,
      "Ġh": 436,
      "åľ°": 437,
      "åĪ°": 438,
      "éĿ": 439,
      "Ġst": 440,
      "æİ": 441,
      "ç¨": 442,
      "å¤ļ": 443,
      "è¿ĩ": 444,
      "ve": 445,
      "ot": 446,
      "èĩ": 447,
      "äºĨ": 448,
      "ä¸İ": 449,
      "é¢": 450,
      "å±": 451,
      "åĬ¨": 452,
      "çĶµ": 453,
      "ç©": 454,
      "im": 455,
      "æĿ¥": 456,
      "ç³»": 457,
      "åĩº": 458,
      "è¦": 459,
      "Ġbe": 460,
      "åħ¶": 461,
      "æį": 462,
      "æ¯": 463,
      "çĽ¸": 464,
      "è¡¨": 465,
      "è¦ģ": 466,
      "å¦Ĥ": 467,
      "åĲĪ": 468,
      "åıĳ": 469,
      "ç´": 470,
      "ç§į": 471,
      "åĢ": 472,
      "åĬĽ": 473,
      "æ³ķ": 474,
      "ä¾": 475,
      "ç»ĵ": 476,
      "çİ°": 477,
      "Ġcon": 478,
      "æĽ": 479,
      "st": 480,
      "åı¯ä»¥": 481,
      "ä½ľ": 482,
      "å¸¸": 483,
      "ra": 484,
      "æĬ": 485,
      "æĪĸ": 486,
      "æĶ": 487,
      "éĺ": 488,
      "åºĶ": 489,
      "éħ": 490,
      "çŃ": 491,
      "il": 492,
      "åĲİ": 493,
      "ul": 494,
      "id": 495,
      "ur": 496,
      "ä¹Ł": 497,
      "æĮ": 498,
      "çŁ": 499,
      "å¹¶": 500,
      "éĢļ": 501,
      "Ġon": 502,
      "åĲĳ": 503,
      "ver": 504,
      "ä¸ĭ": 505,
      "ç¨ĭ": 506,
      "ow": 507,
      "å¿": 508,
      "qu": 509,
      "åŁº": 510,
      "æĭ": 511,
      "è½": 512,
      "åİŁ": 513,
      "ç®Ĺ": 514,
      "Ġg": 515,
      "ç±": 516,
      "Ġis": 517,
      "ol": 518,
      "Ġcan": 519,
      "ter": 520,
      "äºº": 521,
      "æľĢ": 522,
      "è®¡": 523,
      "æīĢ": 524,
      "äºĽ": 525,
      "ä¹ĭ": 526,
      "ä½¿": 527,
      "çŃī": 528,
      "å¼ı": 529,
      "æŃ¤": 530,
      "ç»Ł": 531,
      "çĤ": 532,
      "æĽ´": 533,
      "ch": 534,
      "å½¢": 535,
      "è®º": 536,
      "æł¸": 537,
      "éĽ": 538,
      "èµ": 539,
      "Ġpro": 540,
      "el": 541,
      "ç´ł": 542,
      "ig": 543,
      "if": 544,
      "ï¼ļ": 545,
      "ä¿": 546,
      "è¡Į": 547,
      "ä½į": 548,
      "am": 549,
      "å®ŀ": 550,
      "Ġmo": 551,
      "æı": 552,
      "åŀ": 553,
      "è¶": 554,
      "è¢": 555,
      "çĤ¹": 556,
      "åıį": 557,
      "ç±»": 558,
      "éĩį": 559,
      "æľº": 560,
      "è¢«": 561,
      "åģ": 562,
      "è§£": 563,
      "æ°Ķ": 564,
      "her": 565,
      "æ¨": 566,
      "å®ĥ": 567,
      "æ²": 568,
      "éľ": 569,
      "èĩª": 570,
      "çī¹": 571,
      "åħĥ": 572,
      "ĠT": 573,
      "ç»ĵæŀ": 574,
      "os": 575,
      "æľ¬": 576,
      "å¾Ĺ": 577,
      "æ¨¡": 578,
      "åŀĭ": 579,
      "åħ³": 580,
      "å¹´": 581,
      "åĢ¼": 582,
      "ure": 583,
      "çľ": 584,
      "çł": 585,
      "ç½": 586,
      "ad": 587,
      "æŁ": 588,
      "åĳ": 589,
      "æį®": 590,
      "çĶ±": 591,
      "éļ": 592,
      "å°ı": 593,
      "Ġex": 594,
      "ist": 595,
      "åī": 596,
      "ity": 597,
      "ç¡": 598,
      "éĥ½": 599,
      "ate": 600,
      "ab": 601,
      "æ´": 602,
      "ä¸įåĲĮ": 603,
      "æ°´": 604,
      "ge": 605,
      "éģ": 606,
      "éĥ": 607,
      "æ¸": 608,
      "éĥ¨": 609,
      "åĵ": 610,
      "çº¿": 611,
      "é«": 612,
      "é«ĺ": 613,
      "é¡": 614,
      "åĿ": 615,
      "Ġthat": 616,
      "em": 617,
      "éĿ¢": 618,
      "åı¯èĥ½": 619,
      "um": 620,
      "èĥ": 621,
      "åĪĻ": 622,
      "æµĭ": 623,
      "ri": 624,
      "åĬł": 625,
      "ä»£": 626,
      "Ġfor": 627,
      "ç»ı": 628,
      "ç»Ħ": 629,
      "Ġor": 630,
      "çĦ": 631,
      "Ġit": 632,
      "è¿Ľ": 633,
      "åŃĺ": 634,
      "éĢŁ": 635,
      "ç³»ç»Ł": 636,
      "ä½Ĩ": 637,
      "ç§°": 638,
      "åıª": 639,
      "å°±": 640,
      "æĦ": 641,
      "çİĩ": 642,
      "æ¯Ķ": 643,
      "per": 644,
      "Ġv": 645,
      "åįķ": 646,
      "çĦ¶": 647,
      "Ġma": 648,
      "ç»Ĩ": 649,
      "âĢľ": 650,
      "½æķ°": 651,
      "Ġch": 652,
      "ith": 653,
      "ect": 654,
      "âĢĿ": 655,
      "ç©º": 656,
      "åĨħ": 657,
      "æµ·": 658,
      "Ġde": 659,
      "å¤į": 660,
      "Ġcom": 661,
      "åıĬ": 662,
      "å¾Ī": 663,
      "Ġal": 664,
      "åĩ½æķ°": 665,
      "Ġnot": 666,
      "du": 667,
      "éķ": 668,
      "å¹³": 669,
      "und": 670,
      "ä¾ĭ": 671,
      "çķ": 672,
      "ç§¯": 673,
      "è·": 674,
      "Ġwh": 675,
      "éĶ": 676,
      "éľĢ": 677,
      "éª": 678,
      "æŃ£": 679,
      "æĻ": 680,
      "ä¸¤": 681,
      "åħĥç´ł": 682,
      "æ¬": 683,
      "ä»İ": 684,
      "å¯¼": 685,
      "Ġr": 686,
      "ions": 687,
      "ç«": 688,
      "å¢": 689,
      "res": 690,
      "Ġas": 691,
      "å¤ĸ": 692,
      "fer": 693,
      "ces": 694,
      "ç¦": 695,
      "æĥ": 696,
      "ir": 697,
      "æģ": 698,
      "å½ĵ": 699,
      "æµģ": 700,
      "Ġwith": 701,
      "æľŁ": 702,
      "ä¼ł": 703,
      "ĠA": 704,
      "åĪĹ": 705,
      "æİ¥": 706,
      "ical": 707,
      "æĬĬ": 708,
      "ä¹ī": 709,
      "Ġne": 710,
      "pl": 711,
      "ç©¶": 712,
      "åĪ¶": 713,
      "åīį": 714,
      "çłĶ": 715,
      "è°": 716,
      "ä»¶": 717,
      "æł·": 718,
      "ç¦»": 719,
      "éħ¸": 720,
      "ä»ĸ": 721,
      "åħī": 722,
      "äº§": 723,
      "çĲĥ": 724,
      "ç¬": 725,
      "art": 726,
      "rom": 727,
      "éĹ®": 728,
      "çłĶç©¶": 729,
      "åħ¥": 730,
      "ant": 731,
      "æĢģ": 732,
      "ç¤": 733,
      "ç²": 734,
      "åİŁåŃĲ": 735,
      "åºı": 736,
      "ç¼": 737,
      "èĥŀ": 738,
      "éĩĮ": 739,
      "è¿Ĳ": 740,
      "é¢ĺ": 741,
      "è½¬": 742,
      "æ¨¡åŀĭ": 743,
      "ç¡®": 744,
      "ç»ĵæŀĦ": 745,
      "éªĮ": 746,
      "pe": 747,
      "åĽłæŃ¤": 748,
      "èĭ": 749,
      "æķ°æį®": 750,
      "æłĩ": 751,
      "Ġat": 752,
      "ĠThe": 753,
      "ive": 754,
      "éķ¿": 755,
      "Ġse": 756,
      "æĹ¶éĹ´": 757,
      "ay": 758,
      "å¥": 759,
      "æĺİ": 760,
      "èĢħ": 761,
      "Ġsu": 762,
      "ain": 763,
      "åĮº": 764,
      "ç»Ĩèĥŀ": 765,
      "Ļ½": 766,
      "use": 767,
      "æıĲ": 768,
      "éľĢè¦ģ": 769,
      "æŀľ": 770,
      "æ¬¡": 771,
      "Â·": 772,
      "ä¸ŃçļĦ": 773,
      "Ġen": 774,
      "å¼Ģ": 775,
      "è¾ĥ": 776,
      "å·®": 777,
      "å±Ĥ": 778,
      "çĥ": 779,
      "æ³¢": 780,
      "ç¤º": 781,
      "åĻ": 782,
      "è®¡ç®Ĺ": 783,
      "Ġco": 784,
      "åĮĸåŃ¦": 785,
      "ĠS": 786,
      "æĸ°": 787,
      "ä»¬": 788,
      "è¿ĳ": 789,
      "Ġare": 790,
      "æĹł": 791,
      "igh": 792,
      "åıĺåĮĸ": 793,
      "æ²¡": 794,
      "è§Ĥ": 795,
      "ac": 796,
      "æ±": 797,
      "éĽĨ": 798,
      "iz": 799,
      "åħ·": 800,
      "ï¼Ľ": 801,
      "ence": 802,
      "Ġfrom": 803,
      "ç§ĳ": 804,
      "å¾®": 805,
      "ä½ľçĶ¨": 806,
      "ers": 807,
      "³å®ļ": 808,
      "è¿ĺ": 809,
      "å·¥": 810,
      "æĦı": 811,
      "éĹ®é¢ĺ": 812,
      "çĲĨè®º": 813,
      "éĢļå¸¸": 814,
      "éĺµ": 815,
      "pt": 816,
      "Ġbec": 817,
      "æ¯ı": 818,
      "éĿŀ": 819,
      "çŁ©": 820,
      "ds": 821,
      "âĪ": 822,
      "èī": 823,
      "ment": 824,
      "Ġdif": 825,
      "ies": 826,
      "ä½¿çĶ¨": 827,
      "æ¶": 828,
      "åŁŁ": 829,
      "æĶ¹": 830,
      "oc": 831,
      "çĶŁçī©": 832,
      "è¯ģ": 833,
      "åĻ¨": 834,
      "çĽ´": 835,
      "lect": 836,
      "è±": 837,
      "èµ·": 838,
      "åħ¨": 839,
      "å°Ĩ": 840,
      "é£": 841,
      "è¯´": 842,
      "åĵį": 843,
      "NA": 844,
      "ial": 845,
      "Ġåľ¨": 846,
      "orm": 847,
      "äºĮ": 848,
      "çĬ": 849,
      "å½¢æĪĲ": 850,
      "åıįåºĶ": 851,
      "å®Į": 852,
      "çĻ½": 853,
      "se": 854,
      "å½±": 855,
      "ä¹ĭéĹ´": 856,
      "æ¸©": 857,
      "Ġun": 858,
      "Ġcomp": 859,
      "çĬ¶": 860,
      "åĮħ": 861,
      "éļı": 862,
      "Ġsh": 863,
      "ke": 864,
      "ä¾ĭå¦Ĥ": 865,
      "ç£": 866,
      "å£": 867,
      "è¿°": 868,
      "è®¾": 869,
      "çİ¯": 870,
      "å¤©": 871,
      "æĸ¯": 872,
      "ä¸įæĺ¯": 873,
      "éĢļè¿ĩ": 874,
      "æĮĩ": 875,
      "æĿ¡": 876,
      "iv": 877,
      "est": 878,
      "æº": 879,
      "äº§çĶŁ": 880,
      "åĪĨåŃĲ": 881,
      "ĠI": 882,
      "è¿ĻäºĽ": 883,
      "ç§°ä¸º": 884,
      "è±¡": 885,
      "ä¸»": 886,
      "å°Ħ": 887,
      "pp": 888,
      "ated": 889,
      "å¤Ħ": 890,
      "åŁºåĽł": 891,
      "ore": 892,
      "éĵ": 893,
      "çĥŃ": 894,
      "å°ĳ": 895,
      "æ¦Ĥ": 896,
      "ater": 897,
      "å°Ķ": 898,
      "èĦ": 899,
      "åĽłä¸º": 900,
      "çŁ©éĺµ": 901,
      "Ġbut": 902,
      "Ġchan": 903,
      "æ²¡æľī": 904,
      "åĲĳéĩı": 905,
      "ron": 906,
      "å®¹": 907,
      "all": 908,
      "Ġcont": 909,
      "èĬ": 910,
      "å®¶": 911,
      "éĻį": 912,
      "Ġso": 913,
      "åľº": 914,
      "å½±åĵį": 915,
      "æ°§": 916,
      "ä¿¡": 917,
      "å¼ķ": 918,
      "çľĭ": 919,
      "åĩł": 920,
      "å§": 921,
      "éĻĲ": 922,
      "Ġme": 923,
      "Ġdiffer": 924,
      "çľŁ": 925,
      "Ġqu": 926,
      "ç¢": 927,
      "å¸¦": 928,
      "ations": 929,
      "act": 930,
      "ug": 931,
      "ort": 932,
      "hen": 933,
      "ran": 934,
      "çĿ": 935,
      "èī²": 936,
      "ä¸Ģç§į": 937,
      "éĢŁåº¦": 938,
      "æŁĲ": 939,
      "æķĪ": 940,
      "è¾ĵ": 941,
      "å¢ŀ": 942,
      "åĪ«": 943,
      "èģ": 944,
      "èĽ": 945,
      "åĪ©": 946,
      "çĶµåŃĲ": 947,
      "åŃĺåľ¨": 948,
      "å·²": 949,
      "ä½İ": 950,
      "æŀģ": 951,
      "å¸ĥ": 952,
      "ç¬¬": 953,
      "Ġone": 954,
      "å¤Ł": 955,
      "ff": 956,
      "å¼º": 957,
      "Ġthan": 958,
      "èĥ½éĩı": 959,
      "è´¨éĩı": 960,
      "åį³": 961,
      "ç«ĭ": 962,
      "æķ´": 963,
      "æĸ¹æ³ķ": 964,
      "çŁ¥": 965,
      "èĽĭ": 966,
      "è¿ĩç¨ĭ": 967,
      "ç§ĳåŃ¦": 968,
      "æ·": 969,
      "åıĹ": 970,
      "è¡¨ç¤º": 971,
      "çķĮ": 972,
      "èĽĭçĻ½": 973,
      "å¦Ĥæŀľ": 974,
      "æ®": 975,
      "ç©ºéĹ´": 976,
      "ç£ģ": 977,
      "è®¸": 978,
      "çī©çĲĨ": 979,
      "Ġby": 980,
      "æĶ¾": 981,
      "ç½®": 982,
      "è¯Ń": 983,
      "ç®Ĺæ³ķ": 984,
      "erg": 985,
      "ä¿Ŀ": 986,
      "00": 987,
      "åıĸ": 988,
      "åıĳçĶŁ": 989,
      "ç»Ń": 990,
      "ç»´": 991,
      "pen": 992,
      "è®¤": 993,
      "èĪ": 994,
      "ĠC": 995,
      "19": 996,
      "able": 997,
      "ugh": 998,
      "low": 999,
      "od": 1000,
      "å»": 1001,
      "and": 1002,
      "å®ļä¹ī": 1003,
      "Ġint": 1004,
      "æĶ¹åıĺ": 1005,
      "è¾¾": 1006,
      "æį¢": 1007,
      "ib": 1008,
      "éħ¶": 1009,
      "çĽ®": 1010,
      "ile": 1011,
      "ä¼¼": 1012,
      "æĺ¾": 1013,
      "Ġhe": 1014,
      "The": 1015,
      "Ġ(": 1016,
      "ame": 1017,
      "è¶Ĭ": 1018,
      "æĺŁ": 1019,
      "åľ°çĲĥ": 1020,
      "éģĵ": 1021,
      "ç²Ĵ": 1022,
      "æ¼": 1023,
      "çī©ä½ĵ": 1024,
      "æıı": 1025,
      "ç»ĵæŀľ": 1026,
      "é£İ": 1027,
      "ä¸Ķ": 1028,
      "æīĢæľī": 1029,
      "éĥ¨åĪĨ": 1030,
      "å§ĭ": 1031,
      "å±ŀ": 1032,
      "ight": 1033,
      "Ġus": 1034,
      "Ġres": 1035,
      "æĮģ": 1036,
      "av": 1037,
      "form": 1038,
      "ĠE": 1039,
      "ä»»": 1040,
      "æķ°åŃ¦": 1041,
      "ç½ĳ": 1042,
      "è¿ŀ": 1043,
      "ient": 1044,
      "æĸŃ": 1045,
      "çĿĢ": 1046,
      "åĽ¾": 1047,
      "ire": 1048,
      "æĸĩ": 1049,
      "è·¯": 1050,
      "åıĤ": 1051,
      "åħĪ": 1052,
      "åį´": 1053,
      "é¢Ħ": 1054,
      "out": 1055,
      "ï¼īï¼Į": 1056,
      "ause": 1057,
      "Ġac": 1058,
      "éĶ®": 1059,
      "èĬĤ": 1060,
      "åĲ«": 1061,
      "åħ±": 1062,
      "ergy": 1063,
      "Ġmore": 1064,
      "åħ¬": 1065,
      "ç§»": 1066,
      "Ġle": 1067,
      "åĳ¨": 1068,
      "æııè¿°": 1069,
      "ä¸ĬçļĦ": 1070,
      "ç¾": 1071,
      "éĢł": 1072,
      "æĿĤ": 1073,
      "å¾ĭ": 1074,
      "çī©è´¨": 1075,
      "éĤ": 1076,
      "Ġpl": 1077,
      "age": 1078,
      "äºĭ": 1079,
      "å¤ª": 1080,
      "è§Ħ": 1081,
      "ï¼īãĢĤ": 1082,
      "ally": 1083,
      "ction": 1084,
      "åĩºçİ°": 1085,
      "æ´ĭ": 1086,
      "ç®Ģ": 1087,
      "æ±Ĥ": 1088,
      "è¯¯": 1089,
      "ide": 1090,
      "og": 1091,
      "op": 1092,
      "ä½ķ": 1093,
      "ace": 1094,
      "Ġro": 1095,
      "Ġev": 1096,
      "ine": 1097,
      "åĿĩ": 1098,
      "ave": 1099,
      "è¿ĲåĬ¨": 1100,
      "éĩĬ": 1101,
      "è®©": 1102,
      "å¹¶ä¸į": 1103,
      "ance": 1104,
      "çº¿æĢ§": 1105,
      "æģ¯": 1106,
      "Ġdo": 1107,
      "è®°": 1108,
      "ä¹ł": 1109,
      "è¿Ļä¸ª": 1110,
      "æĸ¹åĲĳ": 1111,
      "åħ·æľī": 1112,
      "éĴ": 1113,
      "åħ³ç³»": 1114,
      "ress": 1115,
      "éĩĳ": 1116,
      "åĽ½": 1117,
      "èĥ½å¤Ł": 1118,
      "ä¹Ī": 1119,
      "æŀĦ": 1120,
      "è¿Ľè¡Į": 1121,
      "åı·": 1122,
      "äºĴ": 1123,
      "åĬŁ": 1124,
      "æŀĲ": 1125,
      "ult": 1126,
      "æ»": 1127,
      "imp": 1128,
      "Ġwhile": 1129,
      "yst": 1130,
      "å¾ģ": 1131,
      "èĩ³": 1132,
      "ru": 1133,
      "è¯¥": 1134,
      "åħ¶ä»ĸ": 1135,
      "very": 1136,
      "è¶ħ": 1137,
      "åĩĨ": 1138,
      "æ´»": 1139,
      "Ġdifferent": 1140,
      "rans": 1141,
      "Ġinter": 1142,
      "ill": 1143,
      "åİĭ": 1144,
      "Ġsc": 1145,
      "çª": 1146,
      "åıĳçİ°": 1147,
      "Ġsp": 1148,
      "rib": 1149,
      "æºĲ": 1150,
      "çº¦": 1151,
      "ç§¯åĪĨ": 1152,
      "ates": 1153,
      "å¾Ģ": 1154,
      "åĨį": 1155,
      "èį": 1156,
      "ĠR": 1157,
      "cess": 1158,
      "ä»¥åıĬ": 1159,
      "è®¸å¤ļ": 1160,
      "èĩ´": 1161,
      "åģĩ": 1162,
      "æİ¨": 1163,
      "Ġmod": 1164,
      "ks": 1165,
      "æĵ": 1166,
      "Ġtim": 1167,
      "å¯¹äºİ": 1168,
      "ess": 1169,
      "çī¹å¾ģ": 1170,
      "æĥħ": 1171,
      "Ġwhen": 1172,
      "æŃ¥": 1173,
      "ome": 1174,
      "ä¸ĸ": 1175,
      "ature": 1176,
      "æĺĵ": 1177,
      "ary": 1178,
      "å®ŀéªĮ": 1179,
      "Ġab": 1180,
      "æĿ¡ä»¶": 1181,
      "ere": 1182,
      "red": 1183,
      "ges": 1184,
      "å¯Ĩ": 1185,
      "æĸ¹ç¨ĭ": 1186,
      "è°ĥ": 1187,
      "ç¨³å®ļ": 1188,
      "ä¸ĢäºĽ": 1189,
      "æł¹": 1190,
      "Ġob": 1191,
      "ç»Ļ": 1192,
      "éĢī": 1193,
      "è¿Ļç§į": 1194,
      "ç³ĸ": 1195,
      "ud": 1196,
      "ĠM": 1197,
      "èĳ": 1198,
      "Ńç»": 1199,
      "åĤ": 1200,
      "èİ": 1201,
      "åı¦": 1202,
      "æĭ¬": 1203,
      "å¤įæĿĤ": 1204,
      "Ġbecause": 1205,
      "åĽŀ": 1206,
      "Ġwas": 1207,
      "ãĢĮ": 1208,
      "åĲĦ": 1209,
      "Ġdist": 1210,
      "åĨ³": 1211,
      "èĮ": 1212,
      "å¤±": 1213,
      "è§Ĵ": 1214,
      "åĢĻ": 1215,
      "Ġrel": 1216,
      "ip": 1217,
      "åŃ¦ä¹ł": 1218,
      "Ġenergy": 1219,
      "åĲ¦": 1220,
      "æĸĻ": 1221,
      "ä¸¤ä¸ª": 1222,
      "Ġhad": 1223,
      "å£°": 1224,
      "Ġelect": 1225,
      "ä¸ī": 1226,
      "åħ¶ä¸Ń": 1227,
      "ç¥": 1228,
      "Ġtra": 1229,
      "Ġper": 1230,
      "åĪĨæŀĲ": 1231,
      "æĢ»": 1232,
      "up": 1233,
      "ãĢį": 1234,
      "Ġpart": 1235,
      "éĢĤ": 1236,
      "æĴ": 1237,
      "ä¾Ŀ": 1238,
      "åģļ": 1239,
      "æ¢": 1240,
      "åħĭ": 1241,
      "ä½įç½®": 1242,
      "äº¤": 1243,
      "å¿ĥ": 1244,
      "ak": 1245,
      "çĭ": 1246,
      "èº": 1247,
      "ç»ľ": 1248,
      "åĩı": 1249,
      "æ¸©åº¦": 1250,
      "ong": 1251,
      "åĲį": 1252,
      "æİĴ": 1253,
      "æ£": 1254,
      "ĠP": 1255,
      "å¼Ĥ": 1256,
      "æīį": 1257,
      "å¿«": 1258,
      "éģĹ": 1259,
      "éĤ£": 1260,
      "å²": 1261,
      "è®Ńç»": 1262,
      "Ġwor": 1263,
      "éĩįè¦ģ": 1264,
      "èĽĭçĻ½è´¨": 1265,
      "è®Ńç»ĥ": 1266,
      "åĮħæĭ¬": 1267,
      "å±ķ": 1268,
      "å¿ħ": 1269,
      "èº«": 1270,
      "ding": 1271,
      "Ġtrans": 1272,
      "å°±æĺ¯": 1273,
      "ç½ĳç»ľ": 1274,
      "ens": 1275,
      "è§ģ": 1276,
      "è¾¹": 1277,
      "ign": 1278,
      "ap": 1279,
      "èĤ": 1280,
      "Ġdis": 1281,
      "è£": 1282,
      "åĬ¿": 1283,
      "ĠD": 1284,
      "ä»į": 1285,
      "Ġcl": 1286,
      "åĽ´": 1287,
      "ther": 1288,
      "èĭ¥": 1289,
      "å»º": 1290,
      "ility": 1291,
      "ystem": 1292,
      "è¡¡": 1293,
      "Ġad": 1294,
      "çĶ¨äºİ": 1295,
      "ard": 1296,
      "å®ĥä»¬": 1297,
      "ren": 1298,
      "ass": 1299,
      "æ¼Ķ": 1300,
      "éĺ³": 1301,
      "ä¸»è¦ģ": 1302,
      "con": 1303,
      "å¾Ħ": 1304,
      "ten": 1305,
      "æł¼": 1306,
      "ust": 1307,
      "åĨµ": 1308,
      "çĽ¸åĲĮ": 1309,
      "éģĹä¼ł": 1310,
      "th": 1311,
      "ĠN": 1312,
      "åŃĹ": 1313,
      "èĳĹ": 1314,
      "atter": 1315,
      "åĬĽåŃ¦": 1316,
      "éĻħ": 1317,
      "å¿µ": 1318,
      "ok": 1319,
      "éĵ¾": 1320,
      "fore": 1321,
      "æķ£": 1322,
      "æī¾": 1323,
      "Ġinto": 1324,
      "æ¡": 1325,
      "ĠB": 1326,
      "Ġï¼Į": 1327,
      "çĬ¶æĢģ": 1328,
      "æĶ¶": 1329,
      "çģ": 1330,
      "ç¥ŀ": 1331,
      "æĭ©": 1332,
      "ä¿¡æģ¯": 1333,
      "ition": 1334,
      "é¡¹": 1335,
      "Ġsame": 1336,
      "å¥½": 1337,
      "ä¹ĭéĹ´çļĦ": 1338,
      "é©": 1339,
      "ä¸įèĥ½": 1340,
      "uld": 1341,
      "åģı": 1342,
      "æŁ¥": 1343,
      "æłĳ": 1344,
      "Ġits": 1345,
      "å¤ĦçĲĨ": 1346,
      "æĵį": 1347,
      "åĲĮæĹ¶": 1348,
      "âĢĶ": 1349,
      "æĸ¹å¼ı": 1350,
      "duct": 1351,
      "éĩĳå±ŀ": 1352,
      "Ġdes": 1353,
      "ts": 1354,
      "æĦŁ": 1355,
      "ä»·": 1356,
      "æĥ³": 1357,
      "Ġdat": 1358,
      "åĨ³å®ļ": 1359,
      "20": 1360,
      "çº§": 1361,
      "æĢ§è´¨": 1362,
      "èĮĥ": 1363,
      "ys": 1364,
      "åĪĨå¸ĥ": 1365,
      "å¢ŀåĬł": 1366,
      "ep": 1367,
      "ç´¢": 1368,
      "ĠçļĦ": 1369,
      "Ġund": 1370,
      "ors": 1371,
      "Ġhow": 1372,
      "æµĭéĩı": 1373,
      "Ġ1": 1374,
      "è¶³": 1375,
      "ari": 1376,
      "èĩªçĦ¶": 1377,
      "ĠL": 1378,
      "ĠF": 1379,
      "è¯Ĩ": 1380,
      "Ġtime": 1381,
      "åĥ": 1382,
      "çĽ¸å¯¹": 1383,
      "å¼Ģå§ĭ": 1384,
      "æİ§": 1385,
      "Ġph": 1386,
      "ä¼ĺ": 1387,
      "å¢ĥ": 1388,
      "éĽĨåĲĪ": 1389,
      "è®¤ä¸º": 1390,
      "Ġsm": 1391,
      "etw": 1392,
      "æ¦Ĥå¿µ": 1393,
      "ç®Ģåįķ": 1394,
      "èĲ": 1395,
      "æģĴ": 1396,
      "Ġsystem": 1397,
      "è§£éĩĬ": 1398,
      "å®Įåħ¨": 1399,
      "å®¹æĺĵ": 1400,
      "ruct": 1401,
      "çªģ": 1402,
      "éĢīæĭ©": 1403,
      "erv": 1404,
      "åĳ¨æľŁ": 1405,
      "åĥı": 1406,
      "Ġinc": 1407,
      "èģļ": 1408,
      "cy": 1409,
      "¨Ģ": 1410,
      "è¨Ģ": 1411,
      "ĠO": 1412,
      "åĪ©çĶ¨": 1413,
      "æĵįä½ľ": 1414,
      "é¢ĳ": 1415,
      "ĠH": 1416,
      "ice": 1417,
      "Ġtem": 1418,
      "å®ļå¾ĭ": 1419,
      "åİ»": 1420,
      "ory": 1421,
      "RNA": 1422,
      "æĭī": 1423,
      "æ®µ": 1424,
      "ç²ĴåŃĲ": 1425,
      "å¾·": 1426,
      "vel": 1427,
      "ating": 1428,
      "é¢Ĩ": 1429,
      "perature": 1430,
      "Ġra": 1431,
      "ç»ĦæĪĲ": 1432,
      "æ·±": 1433,
      "Ġmodel": 1434,
      "æĥħåĨµ": 1435,
      "les": 1436,
      "æļ": 1437,
      "ag": 1438,
      "¥¿": 1439,
      "è¯ķ": 1440,
      "èĭ±": 1441,
      "Ġdoes": 1442,
      "Ġk": 1443,
      "Ġdepen": 1444,
      "ous": 1445,
      "è¥¿": 1446,
      "rough": 1447,
      "ning": 1448,
      "åĬ¡": 1449,
      "Ġman": 1450,
      "çºª": 1451,
      "æŁĵ": 1452,
      "Ġunder": 1453,
      "æľª": 1454,
      "æĹ¥": 1455,
      "Ġgra": 1456,
      "Ġprob": 1457,
      "å¾ĹåĪ°": 1458,
      "Ġrem": 1459,
      "çİ°è±¡": 1460,
      "æł¸ç³ĸ": 1461,
      "é¡¿": 1462,
      "çİ¯å¢ĥ": 1463,
      "åĽº": 1464,
      "åįĬ": 1465,
      "ack": 1466,
      "ç¥ŀç»ı": 1467,
      "Ġ=": 1468,
      "èĪ¬": 1469,
      "Ġimp": 1470,
      "Ġover": 1471,
      "æĺ¯åĲ¦": 1472,
      "Ġthrough": 1473,
      "ä¸ĢèĪ¬": 1474,
      "åĨĻ": 1475,
      "æ¦Ĥçİĩ": 1476,
      "Ġval": 1477,
      "æĻ®": 1478,
      "ä¾Ľ": 1479,
      "Ġuse": 1480,
      "ä¸įåĲĮçļĦ": 1481,
      "arth": 1482,
      "'s": 1483,
      "ms": 1484,
      "èĢĥ": 1485,
      "å¤ªéĺ³": 1486,
      "ather": 1487,
      "éĻ¤": 1488,
      "ics": 1489,
      "éħį": 1490,
      "ell": 1491,
      "ç¡®å®ļ": 1492,
      "ase": 1493,
      "å½¢å¼ı": 1494,
      "éĽ¶": 1495,
      "çĶ±äºİ": 1496,
      "èĬĤçĤ¹": 1497,
      "åıĪ": 1498,
      "åĿĹ": 1499,
      "éļıæľº": 1500,
      "å¹¿": 1501,
      "åĳ½": 1502,
      "é¢ĨåŁŁ": 1503,
      "ç»Ī": 1504,
      "å¯Ł": 1505,
      "ros": 1506,
      "èĦ±": 1507,
      "è¾ĵåħ¥": 1508,
      "çĭ¬": 1509,
      "çļĦæĺ¯": 1510,
      "one": 1511,
      "æµ·æ´ĭ": 1512,
      "æ¶Ī": 1513,
      "çĽ´æİ¥": 1514,
      "å¼ķåĬĽ": 1515,
      "å½ķ": 1516,
      "æ³¨": 1517,
      "ich": 1518,
      "ast": 1519,
      "ç»ĵåĲĪ": 1520,
      "formation": 1521,
      "arge": 1522,
      "here": 1523,
      "å¹³è¡¡": 1524,
      "fter": 1525,
      "é¦": 1526,
      "æĮ¯": 1527,
      "é¢Ħæµĭ": 1528,
      "æĹĭ": 1529,
      "åįķä½į": 1530,
      "Ġwe": 1531,
      "Ġeff": 1532,
      "éĶĻ": 1533,
      "ach": 1534,
      "æĹ©": 1535,
      "Ġhave": 1536,
      "çłģ": 1537,
      "ä»ħ": 1538,
      "Ġsmall": 1539,
      "åĲ¸": 1540,
      "Ġout": 1541,
      "æ¯ıä¸ª": 1542,
      "Ġfi": 1543,
      "äººå·¥": 1544,
      "è·Ŀ": 1545,
      "Ġtemperature": 1546,
      "éľĩ": 1547,
      "Ġdata": 1548,
      "æľ¯": 1549,
      "åŁºæľ¬": 1550,
      "ĠW": 1551,
      "Ġspe": 1552,
      "Ġloc": 1553,
      "Ġprodu": 1554,
      "å®ŀéĻħ": 1555,
      "èį·": 1556,
      "æħ": 1557,
      "Ġy": 1558,
      "äºĳ": 1559,
      "Ġevery": 1560,
      "è´Ł": 1561,
      "çĽ®æłĩ": 1562,
      "ound": 1563,
      "ative": 1564,
      "åºĶçĶ¨": 1565,
      "ind": 1566,
      "Ġredu": 1567,
      "Ġrep": 1568,
      "Ġoften": 1569,
      "Ġexp": 1570,
      "ç»Łè®¡": 1571,
      "æł¸éħ¸": 1572,
      "éĩıåŃĲ": 1573,
      "ents": 1574,
      "Ġè¿Ļ": 1575,
      "Ġsur": 1576,
      "Ġthey": 1577,
      "Ġonly": 1578,
      "Ġdire": 1579,
      "æĿĲ": 1580,
      "Ġlo": 1581,
      "èĢĮæĺ¯": 1582,
      "Ġgen": 1583,
      "æĻº": 1584,
      "ç¬¦": 1585,
      "ç²¾": 1586,
      "Ġcre": 1587,
      "æł·æľ¬": 1588,
      "è§Ĩ": 1589,
      "Ġmay": 1590,
      "å·²ç»ı": 1591,
      "Ġfe": 1592,
      "èµĦ": 1593,
      "è®¡ç®Ĺæľº": 1594,
      "ject": 1595,
      "rong": 1596,
      "Ġact": 1597,
      "round": 1598,
      "éĺ¶": 1599,
      "åºıåĪĹ": 1600,
      "ric": 1601,
      "Ġcol": 1602,
      "è§Ĥå¯Ł": 1603,
      "ible": 1604,
      "ä¸ĸçºª": 1605,
      "ail": 1606,
      "ex": 1607,
      "éĢĴ": 1608,
      "åģĩè®¾": 1609,
      "æŁĵèī²": 1610,
      "åĪĿ": 1611,
      "Ġpo": 1612,
      "å±Ģ": 1613,
      "Ġcond": 1614,
      "æıĲä¾Ľ": 1615,
      "Ġmeas": 1616,
      "çľŁæŃ£": 1617,
      "é»": 1618,
      "ä»Ģ": 1619,
      "äººç±»": 1620,
      "å¾Īå¤ļ": 1621,
      "çĹ": 1622,
      "ä¸Ģå®ļ": 1623,
      "ution": 1624,
      "ose": 1625,
      "è¿ľ": 1626,
      "éļ¾": 1627,
      "Ġrec": 1628,
      "é¡»": 1629,
      "å¯¼æķ°": 1630,
      "ç¢³": 1631,
      "Ġrequ": 1632,
      "æĶ¯": 1633,
      "ç¾¤": 1634,
      "ability": 1635,
      "ization": 1636,
      "æ¤": 1637,
      "åºķ": 1638,
      "å¹³åĿĩ": 1639,
      "so": 1640,
      "éŁ": 1641,
      "åįģ": 1642,
      "å¤§æ°Ķ": 1643,
      "æıĲåĩº": 1644,
      "æł¹æį®": 1645,
      "lu": 1646,
      "Ġpre": 1647,
      "å°º": 1648,
      "éĩıçļĦ": 1649,
      "æ¯Ķè¾ĥ": 1650,
      "æł¸ç³ĸæł¸éħ¸": 1651,
      "tain": 1652,
      "ä¸ļ": 1653,
      "erm": 1654,
      "çīĽ": 1655,
      "èĥ½åĬĽ": 1656,
      "etic": 1657,
      "åĪ¤": 1658,
      "Ġdec": 1659,
      "Ġwhich": 1660,
      "å¿ħé¡»": 1661,
      "ä»Ģä¹Ī": 1662,
      "Ġar": 1663,
      "çĽ¸åħ³": 1664,
      "ced": 1665,
      "äºļ": 1666,
      "æľĪ": 1667,
      "å¤ļä¸ª": 1668,
      "å¾®åĪĨ": 1669,
      "Ġwork": 1670,
      "èĮĥåĽ´": 1671,
      "Ġmany": 1672,
      "çħ": 1673,
      "æŃ¢": 1674,
      "åĲĮä¸Ģ": 1675,
      "èİ·": 1676,
      "èı": 1677,
      "èģĶ": 1678,
      "æ»¡": 1679,
      "DNA": 1680,
      "èµ·æĿ¥": 1681,
      "ual": 1682,
      "è¯į": 1683,
      "æĿ¿": 1684,
      "åıªæĺ¯": 1685,
      "Ġmeasure": 1686,
      "ry": 1687,
      "æĲ": 1688,
      "éĢĲ": 1689,
      "Ġlong": 1690,
      "éĿł": 1691,
      "âĪĴ": 1692,
      "çļĦä¸Ģ": 1693,
      "Ġother": 1694,
      "æľ¬èº«": 1695,
      "Ġmag": 1696,
      "ä½ľä¸º": 1697,
      "çī¹å®ļ": 1698,
      "Ġalso": 1699,
      "Ġass": 1700,
      "æ£Ģ": 1701,
      "èĦ±æ°§": 1702,
      "è·Ŀç¦»": 1703,
      "itions": 1704,
      "ise": 1705,
      "ç¼ĸ": 1706,
      "æŁĲäºĽ": 1707,
      "çīĽé¡¿": 1708,
      "Ġno": 1709,
      "Ġpartic": 1710,
      "åįĩ": 1711,
      "éĻĨ": 1712,
      "aterial": 1713,
      "æĿĲæĸĻ": 1714,
      "ful": 1715,
      "ould": 1716,
      "Ġ2": 1717,
      "Ġstruct": 1718,
      "ular": 1719,
      "ä¿®": 1720,
      "oss": 1721,
      "ç®¡": 1722,
      "è®¾è®¡": 1723,
      "çī©çĲĨåŃ¦": 1724,
      "èĻ": 1725,
      "çĶµèį·": 1726,
      "Ġquant": 1727,
      "æ¢¯": 1728,
      "èĦ±æ°§æł¸ç³ĸæł¸éħ¸": 1729,
      "der": 1730,
      "een": 1731,
      "åĲĪæĪĲ": 1732,
      "æĭŁ": 1733,
      "ically": 1734,
      "ä½ĵçļĦ": 1735,
      "æĮī": 1736,
      "ç«¯": 1737,
      "Ġapp": 1738,
      "ars": 1739,
      "è§ī": 1740,
      "èµĸ": 1741,
      "çħ§": 1742,
      "hes": 1743,
      "Ġcur": 1744,
      "Ġind": 1745,
      "Ġprocess": 1746,
      "Ġrather": 1747,
      "èĨ": 1748,
      "åĪĩ": 1749,
      "å¹²": 1750,
      "Ġli": 1751,
      "ged": 1752,
      "è¡¨éĿ¢": 1753,
      "çķĻ": 1754,
      "ç¦»åŃĲ": 1755,
      "Ġsuper": 1756,
      "ä¼°": 1757,
      "æĿĥ": 1758,
      "å¯¹åºĶ": 1759,
      "åıĳå±ķ": 1760,
      "ower": 1761,
      "ç±³": 1762,
      "ific": 1763,
      "åĨħéĥ¨": 1764,
      "æłĩåĩĨ": 1765,
      "ually": 1766,
      "ree": 1767,
      "Ġmaterial": 1768,
      "çĲĨè§£": 1769,
      "æķ°åĢ¼": 1770,
      "æ°ĶåĢĻ": 1771,
      "ency": 1772,
      "è¿ŀç»Ń": 1773,
      "æħ¢": 1774,
      "ä¸Ģæ¬¡": 1775,
      "å¤§å°ı": 1776,
      "Ġdesc": 1777,
      "æİ§åĪ¶": 1778,
      "å®Ī": 1779,
      "å¸Į": 1780,
      "éĩįæĸ°": 1781,
      "cur": 1782,
      "åĬ©": 1783,
      "arch": 1784,
      "åıĹåĪ°": 1785,
      "å¡": 1786,
      "Ġä¾ĭå¦Ĥ": 1787,
      "Ġbetw": 1788,
      "ä¸įä¼ļ": 1789,
      "ĠIn": 1790,
      "Ġchanges": 1791,
      "é©¬": 1792,
      "Ġbetween": 1793,
      "ä¹ĺ": 1794,
      "æĴŃ": 1795,
      "ross": 1796,
      "serv": 1797,
      "wo": 1798,
      "Ġinformation": 1799,
      "å¤§çļĦ": 1800,
      "çĽ¸äºĴ": 1801,
      "Ġvari": 1802,
      "ä»»ä½ķ": 1803,
      "Ġequ": 1804,
      "æĢ§çļĦ": 1805,
      "ç©ºæ°Ķ": 1806,
      "æĻºèĥ½": 1807,
      "cle": 1808,
      "åħ¸": 1809,
      "éĢłæĪĲ": 1810,
      "æ¼ĶåĮĸ": 1811,
      "éŁ³": 1812,
      "row": 1813,
      "Ġreg": 1814,
      "çŁŃ": 1815,
      "éĽ¨": 1816,
      "ä½įç´ł": 1817,
      "Ġwithout": 1818,
      "è£Ĥ": 1819,
      "ue": 1820,
      "Ġmet": 1821,
      "åĲĮä½įç´ł": 1822,
      "åıĺéĩı": 1823,
      "Ġhas": 1824,
      "åıĤæķ°": 1825,
      "é¢ĳçİĩ": 1826,
      "lo": 1827,
      "Ġap": 1828,
      "åĨ°": 1829,
      "te": 1830,
      "uch": 1831,
      "æĬĢ": 1832,
      "åŁºç¡": 1833,
      "Ġnear": 1834,
      "æĹłæ³ķ": 1835,
      "åŁºç¡Ģ": 1836,
      "ph": 1837,
      "its": 1838,
      "ĠIt": 1839,
      "åĪ¤æĸŃ": 1840,
      "ough": 1841,
      "æ°¢": 1842,
      "éĹ¨": 1843,
      "ä¼łæĴŃ": 1844,
      "åĮħåĲ«": 1845,
      "18": 1846,
      "æľºåĻ¨": 1847,
      "Ġeven": 1848,
      "åĤ¨": 1849,
      "Ġstructure": 1850,
      "åı¤": 1851,
      "æĪĳ": 1852,
      "å¤§éĩı": 1853,
      "Ġbeh": 1854,
      "è¯ģæĺİ": 1855,
      "ved": 1856,
      "Ġer": 1857,
      "å½Ĵ": 1858,
      "Ġstrong": 1859,
      "è¡¨çİ°": 1860,
      "çŁ³": 1861,
      "ĠTh": 1862,
      "æ°§åĮĸ": 1863,
      "Ġabout": 1864,
      "Ġafter": 1865,
      "å¯¼èĩ´": 1866,
      "æ¶²": 1867,
      "ä¾Ŀèµĸ": 1868,
      "ting": 1869,
      "ite": 1870,
      "Ġexpl": 1871,
      "åĮºåŁŁ": 1872,
      "ons": 1873,
      "Ġwater": 1874,
      "chan": 1875,
      "åıªæľī": 1876,
      "ments": 1877,
      "10": 1878,
      "ck": 1879,
      "åĪĨç±»": 1880,
      "åľ°éľĩ": 1881,
      "vers": 1882,
      "çķ¥": 1883,
      "ç½Ĺ": 1884,
      "Ġchange": 1885,
      "è¯Ńè¨Ģ": 1886,
      "Ġgener": 1887,
      "Ġmagn": 1888,
      "ä»ĭ": 1889,
      "å¾ª": 1890,
      "Ġbefore": 1891,
      "é¡º": 1892,
      "Ġnew": 1893,
      "æ¤į": 1894,
      "æ¢¯åº¦": 1895,
      "åıĮ": 1896,
      "Ġca": 1897,
      "Ġthere": 1898,
      "èĢĮä¸įæĺ¯": 1899,
      "éĩįå¤į": 1900,
      "è°±": 1901,
      "face": 1902,
      "ple": 1903,
      "ath": 1904,
      "çŃīäºİ": 1905,
      "rent": 1906,
      "çĭ¬ç«ĭ": 1907,
      "æĳ": 1908,
      "ĠèĢĮ": 1909,
      "Ġup": 1910,
      "Ġdet": 1911,
      "æĺİæĺ¾": 1912,
      "è¯¯å·®": 1913,
      "åĬŁèĥ½": 1914,
      "ç»§": 1915,
      "æĺ¯åľ¨": 1916,
      "uring": 1917,
      "ists": 1918,
      "åħĥç´łçļĦ": 1919,
      "ivity": 1920,
      "æ¹": 1921,
      "æĹı": 1922,
      "æķ°éĩı": 1923,
      "æīĢä»¥": 1924,
      "Ġform": 1925,
      "Ġhel": 1926,
      "Ġdepends": 1927,
      "çĨ": 1928,
      "ä¸ĩ": 1929,
      "è§£åĨ³": 1930,
      "Ġå¦Ĥæŀľ": 1931,
      "int": 1932,
      "hem": 1933,
      "Ġmatter": 1934,
      "éĿŀå¸¸": 1935,
      "èĴ": 1936,
      "Ġam": 1937,
      "è¿ĳä¼¼": 1938,
      "è¾ĵåĩº": 1939,
      "Ġ)": 1940,
      "Ġsol": 1941,
      "Ġcor": 1942,
      "Ġcar": 1943,
      "å®ī": 1944,
      "çĶŁæĪĲ": 1945,
      "æĽ²": 1946,
      "ç¼©": 1947,
      "ier": 1948,
      "å·®å¼Ĥ": 1949,
      "èĦĳ": 1950,
      "æĺ¯ä¸Ģä¸ª": 1951,
      "arg": 1952,
      "åĳ³": 1953,
      "ays": 1954,
      "èĲ½": 1955,
      "Ġke": 1956,
      "éĩĩ": 1957,
      "è¡¨è¾¾": 1958,
      "ç¾İ": 1959,
      "Ġmuch": 1960,
      "äºĭä»¶": 1961,
      "Ġfiel": 1962,
      "ty": 1963,
      "Ġwhere": 1964,
      "Ġlarge": 1965,
      "æįŁ": 1966,
      "æĪĸèĢħ": 1967,
      "ç§»åĬ¨": 1968,
      "omet": 1969,
      "éĻĦ": 1970,
      "Ġå½ĵ": 1971,
      "ining": 1972,
      "Ġhigh": 1973,
      "å¹¶ä¸Ķ": 1974,
      "æľĢç»Ī": 1975,
      "åĩıå°ĳ": 1976,
      "æľīåħ³": 1977,
      "ases": 1978,
      "ade": 1979,
      "Ġdescrib": 1980,
      "Ġ19": 1981,
      "è¡°": 1982,
      "oth": 1983,
      "ä»£è¡¨": 1984,
      "âĢĿï¼Į": 1985,
      "æĻ¶": 1986,
      "åĤ¬": 1987,
      "å²©": 1988,
      "å±Ģéĥ¨": 1989,
      "ience": 1990,
      "éĥ½æĺ¯": 1991,
      "æ¸Ĳ": 1992,
      "æİ¥è¿ĳ": 1993,
      "éĻįä½İ": 1994,
      "Ġincre": 1995,
      "æŁĵèī²ä½ĵ": 1996,
      "put": 1997,
      "åİĨ": 1998,
      "other": 1999,
      "ä¾¿": 2000,
      "è½¨": 2001,
      "çľŁå®ŀ": 2002,
      "æľºåĪ¶": 2003,
      "Ġcomm": 2004,
      "éªĮè¯ģ": 2005,
      "è·¯å¾Ħ": 2006,
      "co": 2007,
      "æĪĲä¸º": 2008,
      "è¿Ļä¸Ģ": 2009,
      "Ġstill": 2010,
      "çĶµç£ģ": 2011,
      "åħ±åĲĮ": 2012,
      "å¾Ģå¾Ģ": 2013,
      "åĤ¬åĮĸ": 2014,
      "12": 2015,
      "our": 2016,
      "åĪĴ": 2017,
      "åĨ·": 2018,
      "ç¨ĭåº¦": 2019,
      "å¾ªçİ¯": 2020,
      "yn": 2021,
      "æ½": 2022,
      "Ġpar": 2023,
      "éĢı": 2024,
      "æī§": 2025,
      "Ġmean": 2026,
      "éĤ£ä¹Ī": 2027,
      "Ġadd": 2028,
      "èİ·å¾Ĺ": 2029,
      "çĸ": 2030,
      "çļĦçłĶç©¶": 2031,
      "ism": 2032,
      "éĿĻ": 2033,
      "æī§è¡Į": 2034,
      "inu": 2035,
      "ential": 2036,
      "Ġneed": 2037,
      "Ġeffect": 2038,
      "Ġconditions": 2039,
      "èıĮ": 2040,
      "hed": 2041,
      "als": 2042,
      "ä¸ĭçļĦ": 2043,
      "Ġall": 2044,
      "plic": 2045,
      "conduct": 2046,
      "åĽºå®ļ": 2047,
      "æľīéĻĲ": 2048,
      "Ġnum": 2049,
      "éĺ»": 2050,
      "ize": 2051,
      "æº¶": 2052,
      "æ··": 2053,
      "now": 2054,
      "ving": 2055,
      "å±±": 2056,
      "çİ°ä»£": 2057,
      "ä¸ĭéĻį": 2058,
      "åĵª": 2059,
      "irst": 2060,
      "ç»Ŀ": 2061,
      "ï¼īãĢģ": 2062,
      "æĿ¥èĩª": 2063,
      "Ġconst": 2064,
      "å®ĥçļĦ": 2065,
      "ä½Ĩæĺ¯": 2066,
      "è§Ĥæµĭ": 2067,
      "çĪ": 2068,
      "ĠU": 2069,
      "å¼±": 2070,
      "æĿŁ": 2071,
      "ational": 2072,
      "åĬ¨éĩı": 2073,
      "æ¸ħ": 2074,
      "æķĪåºĶ": 2075,
      "Ġobject": 2076,
      "Ġquantum": 2077,
      "èħ": 2078,
      "Ġwere": 2079,
      "ict": 2080,
      "Ġthis": 2081,
      "ç¢±": 2082,
      "æ¡Ī": 2083,
      "ç¥ŀç»ıç½ĳç»ľ": 2084,
      "éĶĻè¯¯": 2085,
      "åķ": 2086,
      "Ġoc": 2087,
      "Ġinst": 2088,
      "ä¹Łæĺ¯": 2089,
      "ç±»ä¼¼": 2090,
      "ä»İèĢĮ": 2091,
      "ç¼º": 2092,
      "Ġdistrib": 2093,
      "èĨľ": 2094,
      "åı£": 2095,
      "æľīæĹ¶": 2096,
      "æĿ¥çļĦ": 2097,
      "æĸ°çļĦ": 2098,
      "Ġcomput": 2099,
      "Ġtwo": 2100,
      "ä¹Łä¼ļ": 2101,
      "æ¤įçī©": 2102,
      "Ġ+": 2103,
      "ĠG": 2104,
      "ãĢĬ": 2105,
      "æĺ¯çĶ±": 2106,
      "ç¨ĭåºı": 2107,
      "ä½¿å¾Ĺ": 2108,
      "è¢«ç§°ä¸º": 2109,
      "Ġvis": 2110,
      "ãĢĭ": 2111,
      "Ġbu": 2112,
      "rol": 2113,
      "olog": 2114,
      "Ġelectron": 2115,
      "ior": 2116,
      "king": 2117,
      "çļĦåħĥç´ł": 2118,
      "Ġsign": 2119,
      "Ġmade": 2120,
      "Ġfirst": 2121,
      "æ°¨": 2122,
      "éĢŁçİĩ": 2123,
      "çĮ": 2124,
      "çļĦå½±åĵį": 2125,
      "å¤ĩ": 2126,
      "å°¼": 2127,
      "æīĭ": 2128,
      "ä¹Łåı¯èĥ½": 2129,
      "resent": 2130,
      "Ġsub": 2131,
      "Ġremain": 2132,
      "å°ºåº¦": 2133,
      "æĪĳä»¬": 2134,
      "gan": 2135,
      "Ġset": 2136,
      "Ġmem": 2137,
      "æľīäºĽ": 2138,
      "è¯»": 2139,
      "ä»¥åĲİ": 2140,
      "Ġconf": 2141,
      "ber": 2142,
      "åĽĽ": 2143,
      "æ³Ľ": 2144,
      "æī©": 2145,
      "cean": 2146,
      "ç±»åŀĭ": 2147,
      "æ²¿": 2148,
      "Ġhelp": 2149,
      "Ġsome": 2150,
      "è´Ŀ": 2151,
      "æĬ½": 2152,
      "è¿Ľåħ¥": 2153,
      "éķ¿åº¦": 2154,
      "Ġresult": 2155,
      "é¦ĸ": 2156,
      "ared": 2157,
      "èŀ": 2158,
      "åıł": 2159,
      "çĶµåľº": 2160,
      "åĲĪçī©": 2161,
      "èĩªå·": 2162,
      "çī©ä½ĵçļĦ": 2163,
      "Ġsurface": 2164,
      "·éħ¸": 2165,
      "Ġobserv": 2166,
      "Ġbehav": 2167,
      "ie": 2168,
      "ä¸ĢæŃ¥": 2169,
      "ä¹İ": 2170,
      "æĢĿ": 2171,
      "çī©ç§į": 2172,
      "ç»ĦåĲĪ": 2173,
      "è¿ŀæİ¥": 2174,
      "æŀĦæĪĲ": 2175,
      "æĿ¿åĿĹ": 2176,
      "æľį": 2177,
      "Ġtheir": 2178,
      "åĮĹ": 2179,
      "å®ĮæĪĲ": 2180,
      "ä¿ĿæĮģ": 2181,
      "æĬĢæľ¯": 2182,
      "Ġä¸º": 2183,
      "åı¶": 2184,
      "Ġanother": 2185,
      "Ġsuch": 2186,
      "åıĸåĨ³": 2187,
      "åıĸåĨ³äºİ": 2188,
      "Ġmot": 2189,
      "urn": 2190,
      "æĥ¯": 2191,
      "Ġproble": 2192,
      "Ġdirect": 2193,
      "Ġappro": 2194,
      "ma": 2195,
      "ĠãĢĤ": 2196,
      "read": 2197,
      "ences": 2198,
      "åºĵ": 2199,
      "ract": 2200,
      "åģľ": 2201,
      "Ġvol": 2202,
      "æĮģç»Ń": 2203,
      "arthqu": 2204,
      "ood": 2205,
      "Ġæĺ¯": 2206,
      "æľīæķĪ": 2207,
      "è¯ĳ": 2208,
      "åįĹ": 2209,
      "çº³": 2210,
      "åı¯ä»¥çĶ¨": 2211,
      "å¸¸è§ģ": 2212,
      "æ°Ķä½ĵ": 2213,
      "æŁĲä¸ª": 2214,
      "ä»»åĬ¡": 2215,
      "å»ºç«ĭ": 2216,
      "ves": 2217,
      "¿Ģ": 2218,
      "æ¿Ģ": 2219,
      "requ": 2220,
      "æĺł": 2221,
      "Ġmin": 2222,
      "ä¸įæĸŃ": 2223,
      "cel": 2224,
      "åį³ä½¿": 2225,
      "ç»Ļåĩº": 2226,
      "è¾¹çķĮ": 2227,
      "èĩªå·±": 2228,
      "ne": 2229,
      "ucle": 2230,
      "Ġopt": 2231,
      "è¯Ŀ": 2232,
      "åį¡": 2233,
      "æĪĲæľ¬": 2234,
      "Ġlight": 2235,
      "è´¨åŃĲ": 2236,
      "è¡Įä¸º": 2237,
      "âĢĿãĢĤ": 2238,
      "ç£ģåľº": 2239,
      "Ġspace": 2240,
      "In": 2241,
      "gth": 2242,
      "åĭ": 2243,
      "çļĦåľ°": 2244,
      "Ġcons": 2245,
      "å¹¶ä¸įæĺ¯": 2246,
      "ĠSc": 2247,
      "æ·±åº¦": 2248,
      "äººå·¥æĻºèĥ½": 2249,
      "Ġlocal": 2250,
      "Ġsuperconduct": 2251,
      "ward": 2252,
      "æķ°ç»Ħ": 2253,
      "Ġem": 2254,
      "åıĺæį¢": 2255,
      "Ġheat": 2256,
      "ç¬¦åı·": 2257,
      "ä¸¥": 2258,
      "çīĩ": 2259,
      "Ġeas": 2260,
      "âĢ²": 2261,
      "Ġstate": 2262,
      "åİŁåĽł": 2263,
      "äººä»¬": 2264,
      "æľĢåĲİ": 2265,
      "åĩ½æķ°çļĦ": 2266,
      "å¤©æ°Ķ": 2267,
      "Ġcontain": 2268,
      "ertain": 2269,
      "Ġfin": 2270,
      "å¤ļæķ°": 2271,
      "ç¼ĵ": 2272,
      "çĶŁçī©åŃ¦": 2273,
      "è¾¾åĪ°": 2274,
      "å¯Ĩåº¦": 2275,
      "Ġuseful": 2276,
      "èĻ½": 2277,
      "iss": 2278,
      "è¶ĭ": 2279,
      "å¹´ä»£": 2280,
      "å·¥ä½ľ": 2281,
      "æĦıåĳ³": 2282,
      "è¯´æĺİ": 2283,
      "åĲĦç§į": 2284,
      "æĵįä½ľç³»ç»Ł": 2285,
      "æĥħåĨµä¸ĭ": 2286,
      "çĹħ": 2287,
      "å®ĪæģĴ": 2288,
      "é¥": 2289,
      "åıī": 2290,
      "ç»ıè¿ĩ": 2291,
      "åı¦ä¸Ģä¸ª": 2292,
      "é¡ºåºı": 2293,
      "éĻĦè¿ĳ": 2294,
      "ub": 2295,
      "Ġj": 2296,
      "Ġent": 2297,
      "Ġim": 2298,
      "ĠåĽłæŃ¤": 2299,
      "Ġsimp": 2300,
      "Ġpred": 2301,
      "åĨ²": 2302,
      "âĢĻ": 2303,
      "éļĶ": 2304,
      "ä¼łéĢĴ": 2305,
      "åİŁåŃĲæł¸": 2306,
      "ç¬¬äºĮ": 2307,
      "000": 2308,
      "ressure": 2309,
      "è¶ħå¯¼": 2310,
      "æĲľ": 2311,
      "Ġfun": 2312,
      "èĩªçĶ±": 2313,
      "ized": 2314,
      "çŁ¥éģĵ": 2315,
      ")ï¼Į": 2316,
      "Ġè¿ĻäºĽ": 2317,
      "ä¹ħ": 2318,
      "ities": 2319,
      "éĿ¢çļĦ": 2320,
      "Ġmake": 2321,
      "æŃ£ç¡®": 2322,
      "Ġcontrol": 2323,
      "Ġplan": 2324,
      "Ġscient": 2325,
      "åĬ¿èĥ½": 2326,
      "æ³¨æĦı": 2327,
      "ç²¾ç¡®": 2328,
      "ĠThis": 2329,
      "ç»§ç»Ń": 2330,
      "åı³": 2331,
      "Ġbound": 2332,
      "æµĵ": 2333,
      "éĻĲåĪ¶": 2334,
      "Ġlim": 2335,
      "æĽ´å¤ļ": 2336,
      "å¾®åĪĨæĸ¹ç¨ĭ": 2337,
      "âĭ": 2338,
      "ä¸ľ": 2339,
      "ark": 2340,
      "åĪĨä¸º": 2341,
      "åĬ¨çī©": 2342,
      "çĶµèĦĳ": 2343,
      "è½¯": 2344,
      "Ġmost": 2345,
      "éķ¿æľŁ": 2346,
      "æ»¡è¶³": 2347,
      "éĢĲæ¸Ĳ": 2348,
      "hip": 2349,
      "ang": 2350,
      "ampl": 2351,
      "Ġchanged": 2352,
      "å¤įæĿĤåº¦": 2353,
      "ied": 2354,
      "åĪĨåĪ«": 2355,
      "Ġearthqu": 2356,
      "åħ³éĶ®": 2357,
      "par": 2358,
      "ues": 2359,
      "arning": 2360,
      "Ġbl": 2361,
      "Ġins": 2362,
      "ident": 2363,
      "è¡ĮæĺŁ": 2364,
      "æ´²": 2365,
      "Ġwhat": 2366,
      "åĮºéĹ´": 2367,
      "çģ«": 2368,
      "æĦıåĳ³çĿĢ": 2369,
      "ä¸ĵ": 2370,
      "Ġflow": 2371,
      "Ġstud": 2372,
      "æİ¢": 2373,
      "å¸¸æķ°": 2374,
      "æł·çļĦ": 2375,
      "äº§çĶŁçļĦ": 2376,
      "åĶ": 2377,
      "çļĦæľĢ": 2378,
      "åĪĨè§£": 2379,
      "Ġconc": 2380,
      "çł´": 2381,
      "èĻ½çĦ¶": 2382,
      "å®Ļ": 2383,
      "Ġthem": 2384,
      "è½¦": 2385,
      "èĩªåĬ¨": 2386,
      "Ġsupp": 2387,
      "å¾®ç§¯åĪĨ": 2388,
      "Ġcomple": 2389,
      "è¿ĩç¨ĭä¸Ń": 2390,
      "Ġlike": 2391,
      "xim": 2392,
      "Ġslow": 2393,
      "å®ĩ": 2394,
      "çĽĲ": 2395,
      "å¯¹è±¡": 2396,
      "æĭ¥": 2397,
      "èµ°": 2398,
      "åĵģ": 2399,
      "å»¶": 2400,
      "Ġacross": 2401,
      "éĴŁ": 2402,
      "èİ±": 2403,
      "din": 2404,
      "me": 2405,
      "ç¿": 2406,
      "éĢĨ": 2407,
      "çī¹åĪ«": 2408,
      "åĵĪ": 2409,
      "Ġbecame": 2410,
      "andom": 2411,
      "è£ħ": 2412,
      "èĻĳ": 2413,
      "è½¨éģĵ": 2414,
      "Ġte": 2415,
      "å°½": 2416,
      "ä¸įåı¯": 2417,
      "ä¸įè¿ĩ": 2418,
      "ision": 2419,
      "åŃ¦å®¶": 2420,
      "Ġref": 2421,
      "æĹ¶åĢĻ": 2422,
      "Ġbeen": 2423,
      "è½½": 2424,
      "çĤ¹çļĦ": 2425,
      "peated": 2426,
      "Ġused": 2427,
      "èĭ±è¯Ń": 2428,
      "are": 2429,
      "led": 2430,
      "Ġsim": 2431,
      "ä¹ĭåĲİ": 2432,
      "Ġmechan": 2433,
      "aves": 2434,
      "Ġacc": 2435,
      "çĽ¸å¯¹è®º": 2436,
      "Ġerr": 2437,
      "Ġoccur": 2438,
      "Ġmotion": 2439,
      "çĻ": 2440,
      "ĠçĶ±äºİ": 2441,
      "åı²": 2442,
      "ä»½": 2443,
      "ä½Ļ": 2444,
      "ä¸Ģèĩ´": 2445,
      "ä¹¦": 2446,
      "åĳĺ": 2447,
      "åĬłéĢŁåº¦": 2448,
      "è¿Ĳç®Ĺ": 2449,
      "ĠSt": 2450,
      "âĪĤ": 2451,
      "è¯ģæį®": 2452,
      "çļĦéĹ®é¢ĺ": 2453,
      "åĪļ": 2454,
      "å¤«": 2455,
      "ç»ķ": 2456,
      "Ġpath": 2457,
      "Ġpressure": 2458,
      "æŀ¶": 2459,
      "ç©·": 2460,
      "ä¹Łåı¯ä»¥": 2461,
      "åĿı": 2462,
      "Ġallow": 2463,
      "åĩłä¹İ": 2464,
      "æŀģéĻĲ": 2465,
      "çī¹å¾ģåĢ¼": 2466,
      "èĢĥèĻĳ": 2467,
      "Ġcurrent": 2468,
      "ä¼°è®¡": 2469,
      "Ġbehavior": 2470,
      "ft": 2471,
      "ä»Ĭ": 2472,
      "åĽłç´ł": 2473,
      "omes": 2474,
      "åıĺæĪĲ": 2475,
      "Ġext": 2476,
      "çŁ©éĺµçļĦ": 2477,
      "éĻįæ°´": 2478,
      "ä»»æĦı": 2479,
      "è®°å½ķ": 2480,
      "Ġtraining": 2481,
      "Ġspec": 2482,
      "ext": 2483,
      "Ġfield": 2484,
      "åĸ": 2485,
      "çļĦæĸ¹æ³ķ": 2486,
      "ä¸Ģèµ·": 2487,
      "åįł": 2488,
      "ets": 2489,
      "å®ŀçİ°": 2490,
      "Ġmove": 2491,
      "çĦ¶èĢĮ": 2492,
      "åĳ¨æľŁè¡¨": 2493,
      "å®ĩå®Ļ": 2494,
      "Ġpa": 2495,
      "å¼ł": 2496,
      "Ġreact": 2497,
      "å¤§éĻĨ": 2498,
      "æĻ¯": 2499,
      "ä¿¡åı·": 2500,
      "ĠEarth": 2501,
      "ä¼ĺåĮĸ": 2502,
      "æĲľç´¢": 2503,
      "Ġcr": 2504,
      "Ġboth": 2505,
      "Ġoper": 2506,
      "ased": 2507,
      "è¾Ĳ": 2508,
      "çŃĸ": 2509,
      "veral": 2510,
      "Ġprov": 2511,
      "ç¡¬": 2512,
      "éĥ½ä¼ļ": 2513,
      "ç³»ç»ŁçļĦ": 2514,
      "é£Ł": 2515,
      "åĩłä½ķ": 2516,
      "ä¸ĸçķĮ": 2517,
      "åĲ¸æĶ¶": 2518,
      "Ġspeed": 2519,
      "Ġcaus": 2520,
      "åĭĴ": 2521,
      "åľŁ": 2522,
      "edi": 2523,
      "ick": 2524,
      "ute": 2525,
      "åĢį": 2526,
      "amet": 2527,
      "ample": 2528,
      "æµ·æ°´": 2529,
      "å·¥ç¨ĭ": 2530,
      "çľĭåĪ°": 2531,
      "éĩĬæĶ¾": 2532,
      "æģĴæĺŁ": 2533,
      "Ġrequire": 2534,
      "Ġparticles": 2535,
      "ake": 2536,
      "ration": 2537,
      "Ġz": 2538,
      "åĪĽ": 2539,
      "çĶŁåĳ½": 2540,
      "åľ°åĮº": 2541,
      "è¦ģæ±Ĥ": 2542,
      "Ġcontinu": 2543,
      "16": 2544,
      "An": 2545,
      "ĠæŃ¤": 2546,
      "Ġduring": 2547,
      "çīĪ": 2548,
      "Ġinf": 2549,
      "å°ıçļĦ": 2550,
      "ç»ıåħ¸": 2551,
      "æıĲé«ĺ": 2552,
      "Ġcould": 2553,
      "åĲ«æľī": 2554,
      "Ġlook": 2555,
      "val": 2556,
      "Ġwould": 2557,
      "Ġlater": 2558,
      "çº¯": 2559,
      "usion": 2560,
      "æĽ¼": 2561,
      "æĬ¥": 2562,
      "éĥ½æľī": 2563,
      "Ġatom": 2564,
      "æ¶ī": 2565,
      "ä»įçĦ¶": 2566,
      "ead": 2567,
      "çĶļ": 2568,
      "æĺ¯æĮĩ": 2569,
      "icient": 2570,
      "ä¸ŃåŃĲ": 2571,
      "Ġreal": 2572,
      "Ġeach": 2573,
      "å¦Ĥä½ķ": 2574,
      "idence": 2575,
      "åīĤ": 2576,
      "æ¯Ķå¦Ĥ": 2577,
      "æĹłç©·": 2578,
      "Ġtherefore": 2579,
      "Ġest": 2580,
      "åħħ": 2581,
      "æĺ¯ä¸Ģç§į": 2582,
      "ç§©": 2583,
      "ä¸įç¡®å®ļ": 2584,
      "åħ³äºİ": 2585,
      "é«ĺåº¦": 2586,
      "ä¸¤ç§į": 2587,
      "åıĤä¸İ": 2588,
      "åħ¬å¼ı": 2589,
      "è§Ħå¾ĭ": 2590,
      "Ġrelations": 2591,
      "æĴŀ": 2592,
      "æŁ¥æī¾": 2593,
      "âĢĶâĢĶ": 2594,
      "cing": 2595,
      "ç»ĩ": 2596,
      "Ġpower": 2597,
      "ä¼¯": 2598,
      "è¯Ħ": 2599,
      "åįı": 2600,
      "æĬĺ": 2601,
      "osition": 2602,
      "åıªèĥ½": 2603,
      "å¤įåĪ¶": 2604,
      "å®Įæķ´": 2605,
      "è§ĦåĪĻ": 2606,
      "akes": 2607,
      "Ġknow": 2608,
      "atch": 2609,
      "æķ°åŃĹ": 2610,
      "Ġfail": 2611,
      "çĶµæµģ": 2612,
      "ä¹Łå°±æĺ¯": 2613,
      "Ġmain": 2614,
      "æ¬§": 2615,
      "æĺ¾èĳĹ": 2616,
      "èĴ¸": 2617,
      "Ġfunction": 2618,
      "cul": 2619,
      "de": 2620,
      "nal": 2621,
      "çļĦçĲĨè®º": 2622,
      "å¸®": 2623,
      "å·¦": 2624,
      "çĽ¸ä¼¼": 2625,
      "ä¹ĭä¸Ģ": 2626,
      "æ¨¡å¼ı": 2627,
      "ately": 2628,
      "çĽ¸äºĴä½ľçĶ¨": 2629,
      "æ¹¿": 2630,
      "æĭ¥æľī": 2631,
      "not": 2632,
      "çļĦæķ°æį®": 2633,
      "äºī": 2634,
      "æķħ": 2635,
      "æĸ½": 2636,
      "æīĵ": 2637,
      "æĬ¤": 2638,
      "æĪĸæĺ¯": 2639,
      "æµĭè¯ķ": 2640,
      "ä¾ĭåŃĲ": 2641,
      "è½¬åĮĸ": 2642,
      "Ġatt": 2643,
      "æĶ¾å°Ħ": 2644,
      "ä»ĭè´¨": 2645,
      "Ġcorre": 2646,
      "Ġbuil": 2647,
      "æµĵåº¦": 2648,
      "è¾Ĳå°Ħ": 2649,
      "get": 2650,
      "äº¿": 2651,
      "end": 2652,
      "è®®": 2653,
      "åĽ¢": 2654,
      "æĿ¥è¯´": 2655,
      "åŁºäºİ": 2656,
      "è½¬å½ķ": 2657,
      "Ġbecome": 2658,
      "å·²çŁ¥": 2659,
      "åıĤèĢĥ": 2660,
      "çªģåıĺ": 2661,
      "Ġrelationship": 2662,
      "dient": 2663,
      "Ġanal": 2664,
      "Ġnucle": 2665,
      "éĩįåĬĽ": 2666,
      "è½¬æį¢": 2667,
      "Ġuni": 2668,
      "çĽ®åīį": 2669,
      "Ġphys": 2670,
      "Ġpredict": 2671,
      "oun": 2672,
      "å¨": 2673,
      "Ġ-": 2674,
      "Ġaut": 2675,
      "çº¢": 2676,
      "ç´¯": 2677,
      "verse": 2678,
      "æł¸å¿ĥ": 2679,
      "Ġprot": 2680,
      "Ġexper": 2681,
      "ä»£æķ°": 2682,
      "éĩĮçļĦ": 2683,
      "å¼ºåº¦": 2684,
      "æķ´ä¸ª": 2685,
      "æī¾åĪ°": 2686,
      "Ġmagnetic": 2687,
      "Ġoptim": 2688,
      "aw": 2689,
      "nect": 2690,
      "çļĦç»ĵæŀľ": 2691,
      "çļĦæ¦Ĥå¿µ": 2692,
      "åħģ": 2693,
      "è¡¥": 2694,
      "è¾ĳ": 2695,
      "éĺ¿": 2696,
      "ä¹Łæľī": 2697,
      "åİŁçĲĨ": 2698,
      "ç»Ħç»ĩ": 2699,
      "Ġseveral": 2700,
      "ptions": 2701,
      "Ġusually": 2702,
      "Ġscal": 2703,
      "æĹ©æľŁ": 2704,
      "Ġproduce": 2705,
      "ec": 2706,
      "ost": 2707,
      "Ġä¸Ģä¸ª": 2708,
      "å¤´": 2709,
      "Ġmass": 2710,
      "Ġfrequ": 2711,
      "å¼¹": 2712,
      "æĢ§èĥ½": 2713,
      "Ġproper": 2714,
      "ä½įäºİ": 2715,
      "éģį": 2716,
      "Ġrate": 2717,
      "pend": 2718,
      "Ġresp": 2719,
      "è§Ħæ¨¡": 2720,
      "Ġabs": 2721,
      "éĢĤåĲĪ": 2722,
      "æ¢°": 2723,
      "etwor": 2724,
      "å¹¿æ³Ľ": 2725,
      "åħģè®¸": 2726,
      "dx": 2727,
      "Ġx": 2728,
      "Ġvery": 2729,
      "ond": 2730,
      "ator": 2731,
      "Ġocean": 2732,
      "çĶ¨æĿ¥": 2733,
      "Ġlow": 2734,
      "Ġloss": 2735,
      "ä¸Ĭåįĩ": 2736,
      "Ġstat": 2737,
      "æľºæ¢°": 2738,
      "è¿Ĳè¡Į": 2739,
      "ç»Ĩèĥŀæł¸": 2740,
      "è¿ĺæľī": 2741,
      "å·¥åħ·": 2742,
      "æĦıä¹ī": 2743,
      "indow": 2744,
      "ness": 2745,
      "èĹ": 2746,
      "Ġtest": 2747,
      "åľĪ": 2748,
      "ä¸Ģæł·": 2749,
      "ä¸įåıĺ": 2750,
      "rop": 2751,
      "åĪĨéĴŁ": 2752,
      "ention": 2753,
      "å¤§å¤ļæķ°": 2754,
      "otential": 2755,
      "Ġconver": 2756,
      "éĿ¢ç§¯": 2757,
      "âĪ«": 2758,
      "Ġdiff": 2759,
      "search": 2760,
      "æ´»åĬ¨": 2761,
      "æĻ®éĢļ": 2762,
      "Ġdistribution": 2763,
      "å¸®åĬ©": 2764,
      "åı¥": 2765,
      "æķĻ": 2766,
      "æķ°åĪĹ": 2767,
      "Ġrepeated": 2768,
      "çĽĸ": 2769,
      "Ġless": 2770,
      "âĢ¦": 2771,
      "åĿĢ": 2772,
      "éĵ¾è¡¨": 2773,
      "èģļç±»": 2774,
      "Ġunderst": 2775,
      "Ġdirection": 2776,
      "æ°¨åŁº": 2777,
      "çĶļèĩ³": 2778,
      "ix": 2779,
      "Ġair": 2780,
      "æľĽ": 2781,
      "ä¸ĢæĿ¡": 2782,
      "éĢ»": 2783,
      "Ġresearch": 2784,
      "å®ļçĲĨ": 2785,
      "æ¯į": 2786,
      "ä¾§": 2787,
      "ram": 2788,
      "æ³¢åĬ¨": 2789,
      "åĩłä¸ª": 2790,
      "æ®Ĭ": 2791,
      "å£°éŁ³": 2792,
      "Ġparamet": 2793,
      "certain": 2794,
      "Ġpe": 2795,
      "èĢĹ": 2796,
      "çĶ¨çļĦ": 2797,
      "éĹŃ": 2798,
      "å¤ļé¡¹": 2799,
      "elf": 2800,
      "ives": 2801,
      "çŁ¥è¯Ĩ": 2802,
      "è¶³å¤Ł": 2803,
      "éĢ»è¾ĳ": 2804,
      "50": 2805,
      "ines": 2806,
      "å®¤": 2807,
      "Ġinv": 2808,
      "Ġge": 2809,
      "Ġcannot": 2810,
      "çī¹æ®Ĭ": 2811,
      "åĿĲ": 2812,
      "Ġsepar": 2813,
      "ç¬¬ä¸Ģ": 2814,
      "Ġrepresent": 2815,
      "Ġdescribes": 2816,
      "æ½®": 2817,
      "Ġsupport": 2818,
      "å¤ļé¡¹å¼ı": 2819,
      "Ġident": 2820,
      "Ġthese": 2821,
      "Ġmust": 2822,
      "Ġret": 2823,
      "è´¹": 2824,
      "åıĺå¾Ĺ": 2825,
      "æĽ´å®¹æĺĵ": 2826,
      "Ġchar": 2827,
      "åĨħå®¹": 2828,
      "iron": 2829,
      "Ġshould": 2830,
      "å±ŀäºİ": 2831,
      "æĶ¾å°ĦæĢ§": 2832,
      "light": 2833,
      "ven": 2834,
      "ä»¤": 2835,
      "Ġline": 2836,
      "éĻ©": 2837,
      "çŃĶ": 2838,
      "åŃĺåĤ¨": 2839,
      "Ġcomb": 2840,
      "ä¸¤èĢħ": 2841,
      "å£³": 2842,
      "äº¤æį¢": 2843,
      "Ġcreate": 2844,
      "èµĦæºĲ": 2845,
      "Ġassum": 2846,
      "celer": 2847,
      "åĶ¯": 2848,
      "gen": 2849,
      "Ġide": 2850,
      "Ġèĭ¥": 2851,
      "Ġgu": 2852,
      "ä¹ĭåīį": 2853,
      "æ²ī": 2854,
      "ople": 2855,
      "ude": 2856,
      "å²¸": 2857,
      "Ġprobability": 2858,
      "æįŁå¤±": 2859,
      "çļĦèĥ½éĩı": 2860,
      "ins": 2861,
      "ined": 2862,
      "åħį": 2863,
      "åŃ£": 2864,
      "å¹ħ": 2865,
      "æľĢå¤§": 2866,
      "Ġorder": 2867,
      "è¶ħè¿ĩ": 2868,
      "çĽ¸åĲĮçļĦ": 2869,
      "attern": 2870,
      "Ġimpro": 2871,
      "Ġmemory": 2872,
      "å¨ģ": 2873,
      "bit": 2874,
      "ld": 2875,
      "ole": 2876,
      "æĤ": 2877,
      "Ġag": 2878,
      "è®¿": 2879,
      "åı¯ä»¥éĢļè¿ĩ": 2880,
      "åĢ¼çļĦ": 2881,
      "Ġcool": 2882,
      "Ġuncertain": 2883,
      "Ġperform": 2884,
      "æİĴåĪĹ": 2885,
      "Ġdepend": 2886,
      "èµĦæĸĻ": 2887,
      "hemical": 2888,
      "ee": 2889,
      "çļĦæĹ¶éĹ´": 2890,
      "Ġmult": 2891,
      "æĪ·": 2892,
      "Ġback": 2893,
      "Ġwave": 2894,
      "åĪĨè£Ĥ": 2895,
      "ä¸Ńå¿ĥ": 2896,
      "çĽĳ": 2897,
      "æĢ§åĴĮ": 2898,
      "åĽłåŃĲ": 2899,
      "ç©¿": 2900,
      "åĲİæĿ¥": 2901,
      "æĽ´æĸ°": 2902,
      "è¿Ľä¸ĢæŃ¥": 2903,
      "åĨħçļĦ": 2904,
      "Ġrandom": 2905,
      "è¯ĨåĪ«": 2906,
      "éĽĨåĲĪè®º": 2907,
      "Ġlimit": 2908,
      "Ġsize": 2909,
      "Ġpattern": 2910,
      "Ġnorm": 2911,
      "Ġtok": 2912,
      "æĸ¹éĿ¢": 2913,
      "é¢Ŀ": 2914,
      "ural": 2915,
      "åĨħåŃĺ": 2916,
      "Ġdef": 2917,
      "ä»ĸä»¬": 2918,
      "Ġcost": 2919,
      "åĮĸåŃ¦åıįåºĶ": 2920,
      "éļıçĿĢ": 2921,
      "ç¢°": 2922,
      "åİĭåĬĽ": 2923,
      "çªģçĦ¶": 2924,
      "è§Ĩä¸º": 2925,
      "Ġappe": 2926,
      "..": 2927,
      "Ġ20": 2928,
      "ä½ı": 2929,
      "Ġpr": 2930,
      "ä¸ŃéĹ´": 2931,
      "èĥĮ": 2932,
      "åħ·ä½ĵ": 2933,
      "ption": 2934,
      "çľĭèµ·æĿ¥": 2935,
      "ä¿Ŀè¯ģ": 2936,
      "æİĴåºı": 2937,
      "æīįèĥ½": 2938,
      "Ġgradient": 2939,
      "Ġpoint": 2940,
      "way": 2941,
      "âĨ": 2942,
      "çļĦä¸Ģä¸ª": 2943,
      "äº¦": 2944,
      "åħ°": 2945,
      "hether": 2946,
      "Ġpotential": 2947,
      "arm": 2948,
      "Ġdi": 2949,
      "Ġflu": 2950,
      "å¤§çº¦": 2951,
      "è½´": 2952,
      "å°±ä¼ļ": 2953,
      "çĦ¶åĲİ": 2954,
      "æ®ĸ": 2955,
      "æĳ©": 2956,
      "Ġelectrons": 2957,
      "Ġscientists": 2958,
      "æ°¨åŁºéħ¸": 2959,
      "Â°": 2960,
      "ĠåĴĮ": 2961,
      "ä¸´": 2962,
      "æķ°çļĦ": 2963,
      "åĩĿ": 2964,
      "å¯»": 2965,
      "å½¼": 2966,
      "aster": 2967,
      "oment": 2968,
      "åĩºçļĦ": 2969,
      "Ġsequ": 2970,
      "åħ¨çĲĥ": 2971,
      "æŀĦéĢł": 2972,
      "Ġsystems": 2973,
      "æĽ²çº¿": 2974,
      "11": 2975,
      "çĵ": 2976,
      "Ġ0": 2977,
      "Ġif": 2978,
      "åı°": 2979,
      "åĪ»": 2980,
      "ret": 2981,
      "Ġshe": 2982,
      "ä¸ºäºĨ": 2983,
      "è¯º": 2984,
      "åĲĮæł·": 2985,
      "Ġsto": 2986,
      "Ġconnect": 2987,
      "ides": 2988,
      "Ġprog": 2989,
      "å½¢æĪĲçļĦ": 2990,
      "ç§ĳåŃ¦å®¶": 2991,
      "Ġvalue": 2992,
      "Ġnumber": 2993,
      "Ġerror": 2994,
      "TP": 2995,
      "di": 2996,
      "log": 2997,
      "ä¸ĢçĽ´": 2998,
      "itive": 2999,
      "Ġread": 3000,
      "åľ°è¡¨": 3001,
      "ç»ĵè®º": 3002,
      "çİ°åľ¨": 3003,
      "éĺŁ": 3004,
      "éģ¿": 3005,
      "åŁºåĽłçļĦ": 3006,
      "èĬ±": 3007,
      "Ġusing": 3008,
      "Ġinteract": 3009,
      "åı¦ä¸Ģ": 3010,
      "oken": 3011,
      "æĭŁåĲĪ": 3012,
      "èŀº": 3013,
      "Ġproblem": 3014,
      "åĶ¯ä¸Ģ": 3015,
      "hing": 3016,
      "åı«": 3017,
      "Ġaver": 3018,
      "è®¯": 3019,
      "Ġdel": 3020,
      "Ġfact": 3021,
      "æŀĹ": 3022,
      "åĲĮä¸Ģä¸ª": 3023,
      "æĬĹ": 3024,
      "è½»": 3025,
      "åģ¶": 3026,
      "ference": 3027,
      "äº§çī©": 3028,
      "å¥Ĺ": 3029,
      "ç´¢å¼ķ": 3030,
      "ç¼ĸçłģ": 3031,
      "è®¿éĹ®": 3032,
      "åł": 3033,
      "ĠâĢľ": 3034,
      "Ġå¯¹äºİ": 3035,
      "Ġtas": 3036,
      "ont": 3037,
      "Ġcall": 3038,
      "Ġcap": 3039,
      "Ġthen": 3040,
      "roup": 3041,
      "åĮĸåĲĪçī©": 3042,
      "Ġlarg": 3043,
      "åĽłæŀľ": 3044,
      "å¤ļç§į": 3045,
      "åĲİçļĦ": 3046,
      "å½¢çĬ¶": 3047,
      "åİŁåŃĲçļĦ": 3048,
      "æķ´ä½ĵ": 3049,
      "éħ¶çļĦ": 3050,
      "Ġgrav": 3051,
      "Ġreduce": 3052,
      "ç¢±åŁº": 3053,
      "ging": 3054,
      "yp": 3055,
      "Ġaround": 3056,
      "åľĨ": 3057,
      "è®¨": 3058,
      "æľīæľº": 3059,
      "Ġfol": 3060,
      "åį«": 3061,
      "åıįèĢĮ": 3062,
      "Ġcho": 3063,
      "æĺ¾ç¤º": 3064,
      "åĩĨç¡®": 3065,
      "Ġclass": 3066,
      "Ġdesign": 3067,
      "æĮ¯åĬ¨": 3068,
      "çĻ¾": 3069,
      "Ġestim": 3070,
      "40": 3071,
      "Ġav": 3072,
      "è§¦": 3073,
      "Ġele": 3074,
      "Ġtherm": 3075,
      "utes": 3076,
      "çĽ¸å½ĵ": 3077,
      "æĽ¿": 3078,
      "éĽª": 3079,
      "elt": 3080,
      "çī¹æĢ§": 3081,
      "Ġorgan": 3082,
      "ç¬¬ä¸Ģä¸ª": 3083,
      "èĪª": 3084,
      "æ´»æĢ§": 3085,
      "Ġelectric": 3086,
      "å¿«éĢŁ": 3087,
      "å®ĥä»¬çļĦ": 3088,
      "Ġvalues": 3089,
      "Ġmaterials": 3090,
      "æĥ¯æĢ§": 3091,
      "Ġstatist": 3092,
      "port": 3093,
      "Ġcent": 3094,
      "Ġcir": 3095,
      "ength": 3096,
      "å¤§éĥ¨åĪĨ": 3097,
      "åĪ°çļĦ": 3098,
      "åĪĻæĺ¯": 3099,
      "Ġforce": 3100,
      "ĠAn": 3101,
      "çĥŃå¸¦": 3102,
      "Ġrelative": 3103,
      "Ġimport": 3104,
      "éĻ¤äºĨ": 3105,
      "æ¥": 3106,
      "çı": 3107,
      "é²": 3108,
      "atically": 3109,
      "Ġfaster": 3110,
      "ices": 3111,
      "æĹ¶çļĦ": 3112,
      "å¤ļå°ĳ": 3113,
      "åĬĽçļĦ": 3114,
      "Ġmole": 3115,
      "æ²³": 3116,
      "æ¨¡æĭŁ": 3117,
      "æ¯Ķä¾ĭ": 3118,
      "ç»ĨèıĮ": 3119,
      "Ġneut": 3120,
      "ock": 3121,
      "çĽ´åĪ°": 3122,
      "Ġlevel": 3123,
      "Ġplas": 3124,
      "éĴĪ": 3125,
      "Ġmeth": 3126,
      "Ġreflect": 3127,
      "viron": 3128,
      "ĠçĦ¶èĢĮ": 3129,
      "Ġcal": 3130,
      "Ġwhether": 3131,
      "ä¸ºä»Ģä¹Ī": 3132,
      "Ġthough": 3133,
      "ift": 3134,
      "é«ĺçļĦ": 3135,
      "åĩ½æķ°åľ¨": 3136,
      "å¹³æĸ¹": 3137,
      "åľ°çĲĥçļĦ": 3138,
      "çī©è´¨çļĦ": 3139,
      "å¥½çļĦ": 3140,
      "Ġinde": 3141,
      "éĩĩçĶ¨": 3142,
      "åİĨåı²": 3143,
      "Ġcommon": 3144,
      "Ġunderstand": 3145,
      "âī": 3146,
      "ä¸ĢçĤ¹": 3147,
      "arly": 3148,
      "æĪĲåĬŁ": 3149,
      "èĢĮè¨Ģ": 3150,
      "Ġstates": 3151,
      "own": 3152,
      "æ°´å¹³": 3153,
      "å¥ĩ": 3154,
      "ression": 3155,
      "æļ´": 3156,
      "Ġfix": 3157,
      "æĶ¯æĮģ": 3158,
      "æĺłå°Ħ": 3159,
      "Ġpeople": 3160,
      "ç¢°æĴŀ": 3161,
      "Ġche": 3162,
      "Ġmat": 3163,
      "Ġmoment": 3164,
      "Ġpers": 3165,
      "ings": 3166,
      "Ġtoget": 3167,
      "ime": 3168,
      "åħ¶å®ĥ": 3169,
      "å¿Ĩ": 3170,
      "Ġgrow": 3171,
      "osp": 3172,
      "éķľ": 3173,
      "éĶģ": 3174,
      "åĮºåĪĨ": 3175,
      "æĹłéĻĲ": 3176,
      "åĪĨåŃĲçļĦ": 3177,
      "ä¿ĿçķĻ": 3178,
      "ĠRe": 3179,
      "çĨŁ": 3180,
      "Ġtogether": 3181,
      "ym": 3182,
      "ero": 3183,
      "ä»ª": 3184,
      "éĢĶ": 3185,
      "å¼Ĺ": 3186,
      "Ġhard": 3187,
      "åĬ¨èĥ½": 3188,
      "åĩºæĿ¥": 3189,
      "åı¯ä»¥åľ¨": 3190,
      "æł¸èĭ": 3191,
      "Ġexist": 3192,
      "åı¯èĥ½ä¼ļ": 3193,
      "äºĮåıī": 3194,
      "æīĢæľīçļĦ": 3195,
      "Ġuses": 3196,
      "Ġevent": 3197,
      "æĿ¡ä»¶ä¸ĭ": 3198,
      "æ£®": 3199,
      "Ġstrongly": 3200,
      "è¡°åıĺ": 3201,
      "å²©çŁ³": 3202,
      "ĠScience": 3203,
      "Ġinflu": 3204,
      "Token": 3205,
      "ium": 3206,
      "¢å¤į": 3207,
      "Ġå®ĥ": 3208,
      "åĲ¬": 3209,
      "Ġdri": 3210,
      "ä»¥ä¸ĭ": 3211,
      "Ġnetwor": 3212,
      "Ġha": 3213,
      "ilib": 3214,
      "æµģåĬ¨": 3215,
      "åĻª": 3216,
      "Ġdisco": 3217,
      "éĺ¶æ®µ": 3218,
      "åĪĿå§ĭ": 3219,
      "èģĶç³»": 3220,
      "æľºåĻ¨åŃ¦ä¹ł": 3221,
      "æĬ½è±¡": 3222,
      "dinary": 3223,
      "Ġautom": 3224,
      "Ġuncertainty": 3225,
      "å½¼æŃ¤": 3226,
      "èŀºæĹĭ": 3227,
      "kes": 3228,
      "ral": 3229,
      "åĪĨéħį": 3230,
      "æī¿": 3231,
      "ull": 3232,
      "ç¨ĭå¼ı": 3233,
      "ify": 3234,
      "å®ŀæķ°": 3235,
      "éļĲ": 3236,
      "Ġran": 3237,
      "æģ¢å¤į": 3238,
      "æİ¥åıĹ": 3239,
      "åıĳçĶŁåľ¨": 3240,
      "ç»´æĮģ": 3241,
      "åģıå·®": 3242,
      "å¹¿ä¹ī": 3243,
      "Ġrecor": 3244,
      "Ġexplain": 3245,
      "Ġdeterm": 3246,
      "ĠUn": 3247,
      "Ġapproxim": 3248,
      "pendent": 3249,
      "é¢Ŀå¤ĸ": 3250,
      "Ġimportant": 3251,
      "ilibri": 3252,
      "medi": 3253,
      "éĨ": 3254,
      "ľèī²": 3255,
      "å°¤": 3256,
      "åı¯éĿł": 3257,
      "åŃ¦ç§ĳ": 3258,
      "åįĥ": 3259,
      "ä¼ļè®©": 3260,
      "éĹ´çļĦ": 3261,
      "ä¸Ĭè¿°": 3262,
      "é¢ľèī²": 3263,
      "éĽ·": 3264,
      "åħ³æ³¨": 3265,
      "æ¸¸": 3266,
      "åħīè°±": 3267,
      "Ġenviron": 3268,
      "ĠEn": 3269,
      "éĤ»": 3270,
      "å®īåħ¨": 3271,
      "Ġeasier": 3272,
      "Ġcapac": 3273,
      "17": 3274,
      "ires": 3275,
      "Ġ'": 3276,
      "Ġä½Ĩ": 3277,
      "äº®": 3278,
      "ä¸įä»ħ": 3279,
      "Ġlay": 3280,
      "å¯¹ç§°": 3281,
      "Ġgroup": 3282,
      "éª¤": 3283,
      "Ġbecomes": 3284,
      "Ġshow": 3285,
      "å¯Ĩçłģ": 3286,
      "ç®ĢåįķçļĦ": 3287,
      "æļĸ": 3288,
      "Ġye": 3289,
      "Ġprec": 3290,
      "Ġlonger": 3291,
      "Ġupd": 3292,
      "ilibrium": 3293,
      "OE": 3294,
      "ages": 3295,
      "sc": 3296,
      "Ġve": 3297,
      "atory": 3298,
      "æĹ§": 3299,
      "Ġwaves": 3300,
      "å·¨": 3301,
      "idation": 3302,
      "åİŁæľ¬": 3303,
      "æľĢå°ı": 3304,
      "åıįå°Ħ": 3305,
      "ables": 3306,
      "Ġalone": 3307,
      "å¹³éĿ¢": 3308,
      "å¥¹": 3309,
      "å£«": 3310,
      "Ġquest": 3311,
      "æ¼Ĥ": 3312,
      "è°ĥæķ´": 3313,
      "å¤įæĿĤçļĦ": 3314,
      "iple": 3315,
      "ä¸īä¸ª": 3316,
      "Ġitself": 3317,
      "æĹĭè½¬": 3318,
      "è®¡ç®Ĺæľºç§ĳåŃ¦": 3319,
      "æĿĥéĩį": 3320,
      "ç¾İåĽ½": 3321,
      "âĭħ": 3322,
      "Ġaverage": 3323,
      "atic": 3324,
      "Ġsampl": 3325,
      "itt": 3326,
      "æµª": 3327,
      "æī°": 3328,
      "å¤§äºİ": 3329,
      "ä½įç§»": 3330,
      "Ġordinary": 3331,
      "æĹ¶éĹ´çļĦ": 3332,
      "æĺİç¡®": 3333,
      "åħ±ä»·": 3334,
      "Ġroom": 3335,
      "æŃ¥éª¤": 3336,
      "èĤ²": 3337,
      "Ġradi": 3338,
      "æ£ĢæŁ¥": 3339,
      "ynam": 3340,
      "æľįåĬ¡": 3341,
      "éģ¿åħį": 3342,
      "ties": 3343,
      "wer": 3344,
      "Ġaff": 3345,
      "æľĹ": 3346,
      "è¿Ł": 3347,
      "Ġwell": 3348,
      "Ġfelt": 3349,
      "è¯·": 3350,
      "æĪĲç«ĭ": 3351,
      "ä½ĵç§¯": 3352,
      "äºĨä¸Ģ": 3353,
      "åįķä¸Ģ": 3354,
      "Ġmakes": 3355,
      "è·¨": 3356,
      "Ġenough": 3357,
      "pped": 3358,
      "å¢ŀéķ¿": 3359,
      "è®°å¿Ĩ": 3360,
      "Ġtransfer": 3361,
      "åįĬå¾Ħ": 3362,
      "åĳ½åĲį": 3363,
      "Ġcoll": 3364,
      "Ġprev": 3365,
      "æĮīçħ§": 3366,
      "Ġequilibrium": 3367,
      "bon": 3368,
      "Ġè¿Ļç§į": 3369,
      "åħ¹": 3370,
      "Ġsing": 3371,
      "æĺ¯åĽłä¸º": 3372,
      "Ġpass": 3373,
      "Ġbo": 3374,
      "æī¹": 3375,
      "çº¬": 3376,
      "ä¼ļåľ¨": 3377,
      "Ġtoo": 3378,
      "çĽ¸åıį": 3379,
      "éļľ": 3380,
      "è¿ĽåĮĸ": 3381,
      "æ¯ıæ¬¡": 3382,
      "pping": 3383,
      "Ġsour": 3384,
      "Ġlearning": 3385,
      "åģĩè¯´": 3386,
      "agn": 3387,
      "éĩıåŃĲåĬĽåŃ¦": 3388,
      "åºķçī©": 3389,
      "Ġconstant": 3390,
      "indows": 3391,
      "Ġlarger": 3392,
      "aces": 3393,
      "cl": 3394,
      "ily": 3395,
      "¹ģ": 3396,
      "ç¹ģ": 3397,
      "ĠQ": 3398,
      "ĠV": 3399,
      "çļĦäºº": 3400,
      "æĺ¯ä¸Ģ": 3401,
      "Ġpres": 3402,
      "arn": 3403,
      "å¾ħ": 3404,
      "éĢģ": 3405,
      "åĪĨç¦»": 3406,
      "cept": 3407,
      "ç¨Ģ": 3408,
      "å¸¸å¸¸": 3409,
      "æĻļ": 3410,
      "Ġris": 3411,
      "ially": 3412,
      "Ġshort": 3413,
      "å®ļä¹īä¸º": 3414,
      "æİ¨çĲĨ": 3415,
      "ç»Ļå®ļ": 3416,
      "åı¦å¤ĸ": 3417,
      "æĦŁçŁ¥": 3418,
      "ç¥ŀç»ıåħĥ": 3419,
      "æ¶Īå¤±": 3420,
      "é¦Ī": 3421,
      "Ġexpect": 3422,
      "ç»Ŀå¯¹": 3423,
      "ä¸¥æł¼": 3424,
      "Ġanalys": 3425,
      "æł¸èĭ·éħ¸": 3426,
      "13": 3427,
      "ways": 3428,
      "Ġ.": 3429,
      "ĠåĽłä¸º": 3430,
      "Ġcle": 3431,
      "Ġcell": 3432,
      "å®½": 3433,
      "æĪ¿": 3434,
      "ä¸įåĨį": 3435,
      "åį°": 3436,
      "å¤§åŀĭ": 3437,
      "å¹¶æ²¡æľī": 3438,
      "Ġonce": 3439,
      "åĳĬ": 3440,
      "Ġalter": 3441,
      "Ġwhy": 3442,
      "Ġsecon": 3443,
      "äºĮåĪĨ": 3444,
      "Ġcompon": 3445,
      "æķ°åŃ¦å®¶": 3446,
      "åİĭç¼©": 3447,
      "çº¦æĿŁ": 3448,
      "éĢĤåºĶ": 3449,
      "aking": 3450,
      "Ġphase": 3451,
      "æļĤ": 3452,
      "Ġremo": 3453,
      "ä¿®æĶ¹": 3454,
      "Ġconcent": 3455,
      "ç¿»": 3456,
      "åĻªå£°": 3457,
      "ou": 3458,
      "pect": 3459,
      "Ńä»£": 3460,
      "è¿Ńä»£": 3461,
      "å®ı": 3462,
      "åľ¨äºİ": 3463,
      "Ġway": 3464,
      "ä¸ºéĽ¶": 3465,
      "æł¡": 3466,
      "Ġrele": 3467,
      "å¸Ĥ": 3468,
      "è´£": 3469,
      "æŃ»": 3470,
      "lying": 3471,
      "utions": 3472,
      "çĲĨæĥ³": 3473,
      "Ġstor": 3474,
      "ç´§": 3475,
      "å¿½": 3476,
      "Ġground": 3477,
      "å°ıæĹ¶": 3478,
      "é¡µ": 3479,
      "å¥¥": 3480,
      "çĥĪ": 3481,
      "äºĮæ°§åĮĸ": 3482,
      "Ġunt": 3483,
      "åŁºåĽłç»Ħ": 3484,
      "Ġevidence": 3485,
      "é©±": 3486,
      "åĵªäºĽ": 3487,
      "Ġsimply": 3488,
      "Ġfixed": 3489,
      "eg": 3490,
      "ked": 3491,
      "å³": 3492,
      "éº": 3493,
      "Ġåħ¶ä¸Ń": 3494,
      "çļĦåŁºç¡Ģ": 3495,
      "ints": 3496,
      "Ġmiss": 3497,
      "æĪĺ": 3498,
      "Ġopen": 3499,
      "Ġthree": 3500,
      "Ġstep": 3501,
      "iment": 3502,
      "ç³»æķ°": 3503,
      "çĽ¸çŃī": 3504,
      "åıĳè¡¨": 3505,
      "æīĢéľĢ": 3506,
      "çŃīçŃī": 3507,
      "åĳĪ": 3508,
      "è¿ĺåİŁ": 3509,
      "éĹ®é¢ĺçļĦ": 3510,
      "çĥŃéĩı": 3511,
      "æ£ĢéªĮ": 3512,
      "plication": 3513,
      "çł´åĿı": 3514,
      "åıĤèĢĥç³»": 3515,
      "Ġnormal": 3516,
      "Ġaffect": 3517,
      "ax": 3518,
      "ĠJ": 3519,
      "çļĦåĩ½æķ°": 3520,
      "Ġtre": 3521,
      "inal": 3522,
      "ç»¿": 3523,
      "ä¸įä¸Ģå®ļ": 3524,
      "Ġreve": 3525,
      "çĽĺ": 3526,
      "æĪĲåĪĨ": 3527,
      "Ġhot": 3528,
      "Ġstar": 3529,
      "Ġstars": 3530,
      "äºĨä¸Ģä¸ª": 3531,
      "æĮĩæłĩ": 3532,
      "ivid": 3533,
      "ored": 3534,
      "åĲĳéĩıçļĦ": 3535,
      "æķĪæŀľ": 3536,
      "ĠEx": 3537,
      "åĳ¨åĽ´": 3538,
      "Ġrot": 3539,
      "åĽ½éĻħ": 3540,
      "Ġincl": 3541,
      "Ġrequires": 3542,
      "Ġnoise": 3543,
      "æĻ¶ä½ĵ": 3544,
      "æĢĿæĥ³": 3545,
      "Ġproperties": 3546,
      "Ġsingle": 3547,
      "30": 3548,
      "AI": 3549,
      "Ġä»İ": 3550,
      "åħ»": 3551,
      "åĪĨæĶ¯": 3552,
      "Ġinput": 3553,
      "èĢĮä¸Ķ": 3554,
      "Ġstre": 3555,
      "osed": 3556,
      "abor": 3557,
      "åĬłåħ¥": 3558,
      "å¾Īå¿«": 3559,
      "ç¡®è®¤": 3560,
      "å¤©ä½ĵ": 3561,
      "çĥŃåĬĽåŃ¦": 3562,
      "é£İéĻ©": 3563,
      "äºĭå®ŀ": 3564,
      "Ġdistance": 3565,
      "å²Ľ": 3566,
      "Ġcreated": 3567,
      "Ġmeasures": 3568,
      "åĤ¨åŃĺ": 3569,
      "åķĨ": 3570,
      "å°½ç®¡": 3571,
      "çīĪæľ¬": 3572,
      "Ġenvironment": 3573,
      "å®ıè§Ĥ": 3574,
      "çĳ": 3575,
      "çļĦè¿ĩç¨ĭ": 3576,
      "Ġcy": 3577,
      "Ġwill": 3578,
      "è¯¢": 3579,
      "æĿ¥è¶Ĭ": 3580,
      "æ¯Ĵ": 3581,
      "éħµ": 3582,
      "æľĢä¼ĺ": 3583,
      "Ġexact": 3584,
      "å½ĵåīį": 3585,
      "åĪ¶éĢł": 3586,
      "ç¼ĺ": 3587,
      "å¼Ģåıĳ": 3588,
      "fficient": 3589,
      "èĪ¹": 3590,
      "çªĹ": 3591,
      "ç¨³å®ļçļĦ": 3592,
      "ensity": 3593,
      "å®ŀéĻħä¸Ĭ": 3594,
      "å¡ŀ": 3595,
      "Ġearthquakes": 3596,
      "can": 3597,
      "den": 3598,
      "gor": 3599,
      "ura": 3600,
      "çļĦéĩįè¦ģ": 3601,
      "ern": 3602,
      "ans": 3603,
      "itude": 3604,
      "Ġpos": 3605,
      "aries": 3606,
      "ä¼¦": 3607,
      "ä¼¸": 3608,
      "åĩ»": 3609,
      "æīĺ": 3610,
      "æĢ§çĬ¶": 3611,
      "Ġthose": 3612,
      "ä½ĵç³»": 3613,
      "è¾¨": 3614,
      "Ġbeg": 3615,
      "ç»Łä¸Ģ": 3616,
      "åĳ¼": 3617,
      "Ġdev": 3618,
      "åħīåŃ¦": 3619,
      "æ¬¡æķ°": 3620,
      "ç£·éħ¸": 3621,
      "çľŁæł¸": 3622,
      "Ġtimes": 3623,
      "æ¼Ķç®Ĺæ³ķ": 3624,
      "ä»·åĢ¼": 3625,
      "èģļåĲĪ": 3626,
      "ĠOff": 3627,
      "Ġcarbon": 3628,
      "éĢıè¿ĩ": 3629,
      "Ġminutes": 3630,
      "è¶ĭåĬ¿": 3631,
      "Ġzero": 3632,
      "Ġfollow": 3633,
      ").": 3634,
      "For": 3635,
      "ault": 3636,
      "Ġå¯¹": 3637,
      "çļĦæĸ¹å¼ı": 3638,
      "Ġsomet": 3639,
      "ands": 3640,
      "Ġbal": 3641,
      "icult": 3642,
      "Ġrest": 3643,
      "åĪ°äºĨ": 3644,
      "Ġstable": 3645,
      "åĬ¨åĬĽåŃ¦": 3646,
      "ä½ľä¸ļ": 3647,
      "chn": 3648,
      "Ġmoving": 3649,
      "å¤ĸéĥ¨": 3650,
      "çłĶç©¶èĢħ": 3651,
      "Ġcoun": 3652,
      "è§ĤçĤ¹": 3653,
      "æķĪçİĩ": 3654,
      "Ġacceler": 3655,
      "éĿĻæŃ¢": 3656,
      "Ġfrequency": 3657,
      "åĿĲæłĩ": 3658,
      "Ġsequence": 3659,
      "å°¤åħ¶": 3660,
      "iod": 3661,
      "é±": 3662,
      "çļĦä½ľçĶ¨": 3663,
      "çļĦæĹ¶åĢĻ": 3664,
      "Ġchemical": 3665,
      "æĹ¢": 3666,
      "åĮĢ": 3667,
      "ä¸ªä½ĵ": 3668,
      "èĢģ": 3669,
      "Ġlower": 3670,
      "å·´": 3671,
      "åĬ¨æĢģ": 3672,
      "ulation": 3673,
      "æľ¬è´¨": 3674,
      "å¹´åīį": 3675,
      "istic": 3676,
      "æ´Ľ": 3677,
      "ç¦»æķ£": 3678,
      "oci": 3679,
      "lection": 3680,
      "è®¾å¤ĩ": 3681,
      "å¼ķèµ·": 3682,
      "æĶ¾åľ¨": 3683,
      "Ġresist": 3684,
      "åħ¬çĲĨ": 3685,
      "èĤ¡": 3686,
      "è§īå¾Ĺ": 3687,
      "Ġdifficult": 3688,
      "Ġguar": 3689,
      "äºĮæ°§åĮĸç¢³": 3690,
      "ĠOffice": 3691,
      "15": 3692,
      "ape": 3693,
      "fect": 3694,
      "ÃĹ": 3695,
      "Ġturn": 3696,
      "åĲ¯": 3697,
      "ense": 3698,
      "ances": 3699,
      "Ġdown": 3700,
      "Ġbi": 3701,
      "Ġfra": 3702,
      "æµ®": 3703,
      "åº¦çļĦ": 3704,
      "asing": 3705,
      "Ġstart": 3706,
      "éĺ²": 3707,
      "è®¡åĪĴ": 3708,
      "è°¢": 3709,
      "éĵģ": 3710,
      "æķ´æķ°": 3711,
      "è¶ĬæĿ¥è¶Ĭ": 3712,
      "åħ¬éĩĮ": 3713,
      "çģµ": 3714,
      "ossible": 3715,
      "Ġvisible": 3716,
      "å¸¸è§ģçļĦ": 3717,
      "Ġsimple": 3718,
      "Ġcomplex": 3719,
      "æ¶īåıĬ": 3720,
      "è½¬åĮĸä¸º": 3721,
      "Ġperformance": 3722,
      "è®¨è®º": 3723,
      "Ġplasma": 3724,
      "äºĮåĪĨæŁ¥æī¾": 3725,
      "Ġguarant": 3726,
      "200": 3727,
      "60": 3728,
      "wn": 3729,
      "åĺ": 3730,
      "æľ«": 3731,
      "çĶ²": 3732,
      "Ġcross": 3733,
      "æľīåºı": 3734,
      "æ°¸": 3735,
      "åĮĸçļĦ": 3736,
      "Ġnon": 3737,
      "åľ°éĿ¢": 3738,
      "åĪ°è¾¾": 3739,
      "äºĨè§£": 3740,
      "åĢŁ": 3741,
      "æĬĳ": 3742,
      "ilar": 3743,
      "olution": 3744,
      "ures": 3745,
      "åĿ¦": 3746,
      "ç»ıå¸¸": 3747,
      "Ġorig": 3748,
      "Ġcharge": 3749,
      "ä¼łç»Ł": 3750,
      "å¥ĸ": 3751,
      "å±ĤçļĦ": 3752,
      "izes": 3753,
      "æ»ĳ": 3754,
      "ç¨³å®ļæĢ§": 3755,
      "ãĢįãĢĤ": 3756,
      "Ġamoun": 3757,
      "çĶµç£ģæ³¢": 3758,
      "æ½ľ": 3759,
      "ological": 3760,
      "é±¼": 3761,
      "80": 3762,
      "OS": 3763,
      "cos": 3764,
      "cks": 3765,
      "li": 3766,
      "çĩ": 3767,
      "Ġè¿Ļä¸ª": 3768,
      "çļĦåİŁåŃĲ": 3769,
      "äº²": 3770,
      "å®³": 3771,
      "ä¸Ģç»Ħ": 3772,
      "ä¸Ģè¯į": 3773,
      "Ġday": 3774,
      "ä¸ŃåĽ½": 3775,
      "è¿Ļç±»": 3776,
      "è¿Ļæł·": 3777,
      "æĸ¹å·®": 3778,
      "è¿ĩåİ»": 3779,
      "åĲĪéĢĤ": 3780,
      "vered": 3781,
      "Ġgre": 3782,
      "æ±½": 3783,
      "Ġreduces": 3784,
      "ç¬¦åĲĪ": 3785,
      "Ġfeel": 3786,
      "å¯¹åºĶçļĦ": 3787,
      "å¸Įèħ": 3788,
      "ĠæŃ¤å¤ĸ": 3789,
      "å¯»æī¾": 3790,
      "Ġneutron": 3791,
      "Ġindependent": 3792,
      "å¸ĮèħĬ": 3793,
      "ait": 3794,
      "by": 3795,
      "ious": 3796,
      "po": 3797,
      "xt": 3798,
      "çļĦæ°´": 3799,
      "æĸľ": 3800,
      "rodu": 3801,
      "åį·": 3802,
      "çĽ¸åºĶ": 3803,
      "èµ«": 3804,
      "å¾Īå¤§": 3805,
      "åħīåĲĪ": 3806,
      "è½¬ç§»": 3807,
      "åıĺåĮĸçļĦ": 3808,
      "åŃĺåľ¨çļĦ": 3809,
      "åı¦ä¸Ģç§į": 3810,
      "Ġtravel": 3811,
      "Ġarri": 3812,
      "éĻĨåľ°": 3813,
      "ä¸ĩæľī": 3814,
      "iew": 3815,
      "Ġearthquake": 3816,
      "âŁ": 3817,
      "Ġåľ°çĲĥ": 3818,
      "çļĦç»ĵæŀĦ": 3819,
      "Ġsw": 3820,
      "Ġpop": 3821,
      "å°ģ": 3822,
      "æİī": 3823,
      "imens": 3824,
      "æĿ¥è¡¨ç¤º": 3825,
      "æĽ¾": 3826,
      "raph": 3827,
      "ider": 3828,
      "Ġgo": 3829,
      "åıįåĲĳ": 3830,
      "Ġdevel": 3831,
      "pec": 3832,
      "Ġseism": 3833,
      "åĽ¾å½¢": 3834,
      "åĽ¾åĥı": 3835,
      "æ»´": 3836,
      "Ġmodels": 3837,
      "Ġoutc": 3838,
      "Ġfew": 3839,
      "Ġkeep": 3840,
      "Ġobserved": 3841,
      "Ġvolcan": 3842,
      "ç¼ĵåŃĺ": 3843,
      "ä¸įç¡®å®ļæĢ§": 3844,
      "äºĮåıīæłĳ": 3845,
      "åħ±ä»·éĶ®": 3846,
      "æĬĳåĪ¶": 3847,
      "23": 3848,
      "At": 3849,
      "ches": 3850,
      "no": 3851,
      "Ġä¸įè¿ĩ": 3852,
      "çļĦåıĺåĮĸ": 3853,
      "çļĦåŁºæľ¬": 3854,
      "åľ¨ä¸įåĲĮ": 3855,
      "åľ¨ä¸Ģèµ·": 3856,
      "å°ļ": 3857,
      "Ġfam": 3858,
      "æ°ı": 3859,
      "ason": 3860,
      "æĿ¥æºĲ": 3861,
      "å¦Ĥä¸ĭ": 3862,
      "åĲĪçĲĨ": 3863,
      "çŃīä»·": 3864,
      "èĩªèº«": 3865,
      "å¹´çļĦ": 3866,
      "é¡¶": 3867,
      "ä»£è°¢": 3868,
      "ç«ŀ": 3869,
      "è°ĵ": 3870,
      "ä»ĸçļĦ": 3871,
      "æ³¢éķ¿": 3872,
      "ĠIf": 3873,
      "çº¿æĢ§åıĺæį¢": 3874,
      "çī¹å¾ģåĲĳéĩı": 3875,
      "ĠDOE": 3876,
      "itional": 3877,
      "æŁ¥è¯¢": 3878,
      "é»ĳ": 3879,
      "Ġmeasurement": 3880,
      "ä¹ĺæ³ķ": 3881,
      "Ġinside": 3882,
      "Ġassumptions": 3883,
      "åį«æĺŁ": 3884,
      "Ġyears": 3885,
      "Ġanalysis": 3886,
      "Ġstorage": 3887,
      "å¿½çķ¥": 3888,
      "Ġuntil": 3889,
      "bed": 3890,
      "tage": 3891,
      "ĠèĻ½çĦ¶": 3892,
      "äº¡": 3893,
      "äº«": 3894,
      "äºĶ": 3895,
      "ane": 3896,
      "æķĽ": 3897,
      "Ġbet": 3898,
      "æľīäºº": 3899,
      "åĮ»": 3900,
      "Ġany": 3901,
      "å¯¸": 3902,
      "çĶŁæĢģ": 3903,
      "åľ°å£³": 3904,
      "ç³»åĪĹ": 3905,
      "åĢ¾": 3906,
      "åºĶè¯¥": 3907,
      "å¹¶éĿŀ": 3908,
      "que": 3909,
      "æĽ´å¿«": 3910,
      "åıįæĺł": 3911,
      "æ°Ķè±¡": 3912,
      "Ġexample": 3913,
      "åī²": 3914,
      "Ġnext": 3915,
      "åĮĸåŃ¦æĢ§è´¨": 3916,
      "å¾®è§Ĥ": 3917,
      "Ġdifferences": 3918,
      "Ġquick": 3919,
      "çĿ£": 3920,
      "æ±Ĥè§£": 3921,
      "ãĢįï¼Į": 3922,
      "Ġyet": 3923,
      "Ġreduced": 3924,
      "Ġactive": 3925,
      "çĪ±": 3926,
      "çĮ®": 3927,
      "Ġconsist": 3928,
      "ä¸ľè¥¿": 3929,
      "è½¯ä»¶": 3930,
      "åĵĪå¸Į": 3931,
      "Ġcontinuous": 3932,
      "Ġlooked": 3933,
      "åłĨ": 3934,
      "Cl": 3935,
      "cop": 3936,
      "ian": 3937,
      "ods": 3938,
      "rical": 3939,
      "ç°": 3940,
      "èĸ": 3941,
      "é¾": 3942,
      "ĠK": 3943,
      "çļĦå½¢å¼ı": 3944,
      "ene": 3945,
      "ional": 3946,
      "Ġbr": 3947,
      "æľīä¸Ģä¸ª": 3948,
      "Ġans": 3949,
      "çİ»": 3950,
      "åĽłèĢĮ": 3951,
      "Ġtot": 3952,
      "Ġstren": 3953,
      "æİ¥è§¦": 3954,
      "Ġseem": 3955,
      "è¾ĥä½İ": 3956,
      "Ġarea": 3957,
      "è¿ĺæĺ¯": 3958,
      "éĿŀçº¿æĢ§": 3959,
      "æĮĩåĩº": 3960,
      "å§Ĩ": 3961,
      "äºĴçĽ¸": 3962,
      "è°ĥæİ§": 3963,
      "æĶ¶æķĽ": 3964,
      "Ġwee": 3965,
      "Ġcarri": 3966,
      "Ġobjects": 3967,
      "Ġsubst": 3968,
      "Ġatoms": 3969,
      "Ġautomatically": 3970,
      "gorith": 3971,
      ")ãĢĤ": 3972,
      "Ġä¸İ": 3973,
      "çļĦæĸ¹åĲĳ": 3974,
      "çļĦä½įç½®": 3975,
      "Ġsun": 3976,
      "Ġmic": 3977,
      "Ġdid": 3978,
      "ä¼½": 3979,
      "ish": 3980,
      "isms": 3981,
      "Ġour": 3982,
      "åı¯è§ģ": 3983,
      "æĿ¾": 3984,
      "åŃ¦çļĦ": 3985,
      "çĶ¨æĪ·": 3986,
      "è´¨çĤ¹": 3987,
      "åľ°åĿĢ": 3988,
      "æĽ´é«ĺ": 3989,
      "æıĴ": 3990,
      "è¢«è®¤ä¸º": 3991,
      "çľ¼": 3992,
      "Ġdeep": 3993,
      "æŃ£å¸¸": 3994,
      "åıįåºĶçī©": 3995,
      "Ġchanging": 3996,
      "Ġsound": 3997,
      "æŁĲä¸Ģ": 3998,
      "ode": 3999,
      "Ġinterp": 4000,
      "æĵ¦": 4001,
      "Ġrare": 4002,
      "çļĦä¸Ģéĥ¨åĪĨ": 4003,
      "ç®¡çĲĨ": 4004,
      "Ġhelps": 4005,
      "é¦ĸåħĪ": 4006,
      "ready": 4007,
      "åĨ²çªģ": 4008,
      "Ġsimilar": 4009,
      "é£Łçī©": 4010,
      "è¯Ħä¼°": 4011,
      "èĴ¸åıĳ": 4012,
      "Ġvect": 4013,
      "Ġreveal": 4014,
      "70": 4015,
      "çŀ": 4016,
      "Ġï¼Ī": 4017,
      "çļ®": 4018,
      "çļĨ": 4019,
      "çļĦä¸Ģç§į": 4020,
      "erve": 4021,
      "è¿½": 4022,
      "è¿ģ": 4023,
      "Ġfree": 4024,
      "Ġang": 4025,
      "ä»¥ä¸Ĭ": 4026,
      "Ġhol": 4027,
      "quid": 4028,
      "åıįé¦Ī": 4029,
      "å°ıäºİ": 4030,
      "ç¡«": 4031,
      "åįķçĭ¬": 4032,
      "å¾Īå®¹æĺĵ": 4033,
      "Ġalong": 4034,
      "Ġalready": 4035,
      "åĩ½æķ°f": 4036,
      "æĮĩæķ°": 4037,
      "æŁĲç§į": 4038,
      "ĠCom": 4039,
      "æĢ»æĺ¯": 4040,
      "arily": 4041,
      "èĭ±åĽ½": 4042,
      "é»İ": 4043,
      "æľĪçĲĥ": 4044,
      "Ġprocesses": 4045,
      "å¡«": 4046,
      "Ġdetect": 4047,
      "Ġdirectly": 4048,
      "Ġcorrect": 4049,
      "èĹı": 4050,
      "Ġtoken": 4051,
      "Ġdevelop": 4052,
      "22": 4053,
      "AC": 4054,
      "Windows": 4055,
      "af": 4056,
      "cu": 4057,
      "rit": 4058,
      "rate": 4059,
      "Ġæł¹æį®": 4060,
      "çļĦä¸»è¦ģ": 4061,
      "reme": 4062,
      "Ġmon": 4063,
      "Ġpol": 4064,
      "æľīçļĦ": 4065,
      "Ġfar": 4066,
      "Ġrece": 4067,
      "Ġlaw": 4068,
      "ä¼ļæĶ¹åıĺ": 4069,
      "Ġtoward": 4070,
      "ä¸Ĭä¸ĭ": 4071,
      "åİŁå§ĭ": 4072,
      "äººçļĦ": 4073,
      "åıįå¤į": 4074,
      "osing": 4075,
      "åįķä¸ª": 4076,
      "åįķåħĥ": 4077,
      "Ġmaking": 4078,
      "æľŁæľĽ": 4079,
      "æ¨¡åŀĭçļĦ": 4080,
      "ä½¿çĶ¨çļĦ": 4081,
      "Ġdifference": 4082,
      "andard": 4083,
      "åĽŀå½Ĵ": 4084,
      "çĭŃ": 4085,
      "åĲįç§°": 4086,
      "Ġtransform": 4087,
      "ĠNe": 4088,
      "ç»ĦæĪĲçļĦ": 4089,
      "æľªçŁ¥": 4090,
      "Ġweak": 4091,
      "ĠWhen": 4092,
      "Ġproduced": 4093,
      "è´Łè´£": 4094,
      "èŀį": 4095,
      "Ġproblems": 4096,
      "Ġstudy": 4097,
      "âĨĴ": 4098,
      "Ġcapacity": 4099,
      "Ġbetter": 4100,
      "Ġquickly": 4101,
      "tic": 4102,
      "iny": 4103,
      "è¿¹": 4104,
      "Ġdom": 4105,
      "Ġbro": 4106,
      "Ġwarm": 4107,
      "ently": 4108,
      "ä¼ļäº§çĶŁ": 4109,
      "åŁĥ": 4110,
      "è¿ĩæĭŁåĲĪ": 4111,
      "é¢Ĺ": 4112,
      "çĶµåİĭ": 4113,
      "å¸¸çĶ¨": 4114,
      "ilities": 4115,
      "æīĢè°ĵ": 4116,
      "åĵ²": 4117,
      "åĬłéĢŁ": 4118,
      "Ġneg": 4119,
      "éĺµåĪĹ": 4120,
      "âĪĪ": 4121,
      "åĵįåºĶ": 4122,
      "ä¿ĿæĬ¤": 4123,
      "ibility": 4124,
      "è§Ĵåº¦": 4125,
      "Ġfields": 4126,
      "åĨ·åį´": 4127,
      "Ġknown": 4128,
      "ç´¯ç§¯": 4129,
      "ĠEnergy": 4130,
      "çº¬åº¦": 4131,
      "çŀ¬": 4132,
      "air": 4133,
      "ia": 4134,
      "line": 4135,
      "Ġåħ¶": 4136,
      "ery": 4137,
      "åħŃ": 4138,
      "ä¸Ģéĥ¨åĪĨ": 4139,
      "è¡Ģ": 4140,
      "Ġel": 4141,
      "Ġlog": 4142,
      "Ġhig": 4143,
      "Ġconduct": 4144,
      "æĬķ": 4145,
      "iding": 4146,
      "æĭĵ": 4147,
      "Ġproduct": 4148,
      "åī©": 4149,
      "ä»£çłģ": 4150,
      "ç¤¾": 4151,
      "è¿Ĳè¾ĵ": 4152,
      "èµ·æºĲ": 4153,
      "æĮĩåĲĳ": 4154,
      "åĲĳéĩıç©ºéĹ´": 4155,
      "æ®ĭ": 4156,
      "èĽĭçĻ½è´¨çļĦ": 4157,
      "ĠNational": 4158,
      "æļĹ": 4159,
      "æ£Ģæµĭ": 4160,
      "Ġliquid": 4161,
      "çĨµ": 4162,
      "Ġinstead": 4163,
      "æĬĺå°Ħ": 4164,
      "Ġabsor": 4165,
      "Ġparameters": 4166,
      "Ġimprove": 4167,
      "çĽĳçĿ£": 4168,
      "ittle": 4169,
      "è¯·æ±Ĥ": 4170,
      "Ġsource": 4171,
      "éº¦": 4172,
      "ä½ľä¸ļç³»ç»Ł": 4173,
      "ä¸ĩæľīå¼ķåĬĽ": 4174,
      ")(": 4175,
      "14": 4176,
      "When": 4177,
      "ded": 4178,
      "ling": 4179,
      "Ġä¸ĢèĪ¬": 4180,
      "çļĦå®ļä¹ī": 4181,
      "çļĦçī©è´¨": 4182,
      "çļĦæ¦Ĥçİĩ": 4183,
      "æľ¨": 4184,
      "ale": 4185,
      "ä¹°": 4186,
      "itting": 4187,
      "Ġder": 4188,
      "åĩ¸": 4189,
      "åŃĲçļĦ": 4190,
      "Ġrepl": 4191,
      "çĶŁäº§": 4192,
      "æĸ¹æ¡Ī": 4193,
      "ili": 4194,
      "å¿Ĺ": 4195,
      "ä¹ĭå¤ĸ": 4196,
      "Ġwithin": 4197,
      "åĮĸåŃ¦å®¶": 4198,
      "æ±ł": 4199,
      "çĶŁçī©ä½ĵ": 4200,
      "æĸ¯åĿ¦": 4201,
      "å¤ĦçļĦ": 4202,
      "Ġcontext": 4203,
      "é¢ĦæĬ¥": 4204,
      "Ġaccess": 4205,
      "åĩºçİ°åľ¨": 4206,
      "Ġinternal": 4207,
      "Ġrelated": 4208,
      "Ġperiod": 4209,
      "Ġassoci": 4210,
      "ä¹ĺç§¯": 4211,
      "Ġincrease": 4212,
      "æ··åĲĪ": 4213,
      "Ġtechn": 4214,
      "Ġextreme": 4215,
      "æķħéļľ": 4216,
      "âĢ¦ï¼Į": 4217,
      "Ġgeomet": 4218,
      "Ġreturn": 4219,
      "Ġlinear": 4220,
      "Ġavail": 4221,
      "Ġhapp": 4222,
      "Ġtotal": 4223,
      "Ġstrength": 4224,
      "é»İæĽ¼": 4225,
      "bers": 4226,
      "mosp": 4227,
      "âĮ": 4228,
      "Ġ3": 4229,
      "ä¸²": 4230,
      "çļĦéĢŁåº¦": 4231,
      "çļĦçĶµåŃĲ": 4232,
      "Ġsample": 4233,
      "åŃĶ": 4234,
      "Ġtheory": 4235,
      "ç§Ĵ": 4236,
      "ä¼Ĺ": 4237,
      "éĢĢ": 4238,
      "åĽ°": 4239,
      "Ġoff": 4240,
      "åı¯ä»¥è¢«": 4241,
      "urb": 4242,
      "æĮ¥": 4243,
      "ä¸ĭæĿ¥": 4244,
      "æľĢæĹ©": 4245,
      "æĽ´åĬł": 4246,
      "ç±»åĪ«": 4247,
      "èĥĢ": 4248,
      "Ġalgorith": 4249,
      "æķ°æį®åºĵ": 4250,
      "æĹłåħ³": 4251,
      "æ¯ıä¸Ģä¸ª": 4252,
      "çĶŁçī©çļĦ": 4253,
      "çİ¯æµģ": 4254,
      "å¼ķåħ¥": 4255,
      "acter": 4256,
      "å¸ĥå°¼": 4257,
      "ä¿Ŀå®Ī": 4258,
      "åħ±äº«": 4259,
      "Ġleft": 4260,
      "Ġplate": 4261,
      "Ġclose": 4262,
      "ä¹ĭéĹ´çļĦåħ³ç³»": 4263,
      "èĩªçĦ¶çķĮ": 4264,
      "roscop": 4265,
      "loor": 4266,
      "Ġincreases": 4267,
      "Ġcommun": 4268,
      "Ġvoltage": 4269,
      "èİ±å¸ĥå°¼": 4270,
      "Ġuniverse": 4271,
      "Ġrespon": 4272,
      "cular": 4273,
      "pid": 4274,
      "Ġä½Ĩæĺ¯": 4275,
      "ĤçĽ´": 4276,
      "ä¸¾": 4277,
      "Ġtri": 4278,
      "arks": 4279,
      "Ġwait": 4280,
      "Ġfil": 4281,
      "Ġfault": 4282,
      "Ġopp": 4283,
      "å¹Ĥ": 4284,
      "æĢİ": 4285,
      "åįĪ": 4286,
      "ä¼ļåĩºçİ°": 4287,
      "è¾ħ": 4288,
      "æ¯Ľ": 4289,
      "ç§įç±»": 4290,
      "èµ¤": 4291,
      "åŀĤçĽ´": 4292,
      "æ¨ª": 4293,
      "éģĩ": 4294,
      "æ¸¡": 4295,
      "ç»ıéªĮ": 4296,
      "ĠAt": 4297,
      "åĪĹå¼ı": 4298,
      "romagn": 4299,
      "åİŁåŃĲåºı": 4300,
      "ä½ľçĶ¨åĬĽ": 4301,
      "éĢļå¸¸æĺ¯": 4302,
      "Ġlearn": 4303,
      "åĿĩåĮĢ": 4304,
      "åĨ³çŃĸ": 4305,
      "Ġelectrical": 4306,
      "Ġ18": 4307,
      "Ġrapid": 4308,
      "Ġcomputers": 4309,
      "æī©å±ķ": 4310,
      "çģ«å±±": 4311,
      "åĸĦ": 4312,
      "Ġpair": 4313,
      "Ġagain": 4314,
      "Ġgravity": 4315,
      "Ġelements": 4316,
      "å³°": 4317,
      "CO": 4318,
      "ner": 4319,
      "opl": 4320,
      "ps": 4321,
      "yd": 4322,
      "åı¸": 4323,
      "Ġmess": 4324,
      "Ġpract": 4325,
      "isions": 4326,
      "ental": 4327,
      "çĶµéĺ»": 4328,
      "è¦Ĩ": 4329,
      "çŃīä½į": 4330,
      "éĥ½åı¯ä»¥": 4331,
      "rix": 4332,
      "ä½Ĩåľ¨": 4333,
      "åħīçº¿": 4334,
      "åħīéĢŁ": 4335,
      "åħ¨éĥ¨": 4336,
      "æ°§æ°Ķ": 4337,
      "æ¼ı": 4338,
      "å¹¶ä¸įæĦıåĳ³çĿĢ": 4339,
      "èį¡": 4340,
      "æĥħå½¢": 4341,
      "äº¤äºĴ": 4342,
      "Ġtransport": 4343,
      "Ġphot": 4344,
      "æ¶²ä½ĵ": 4345,
      "Ġgenerally": 4346,
      "Ġkey": 4347,
      "Ġsignal": 4348,
      "Ġremains": 4349,
      "Ġboundary": 4350,
      "Ġinvol": 4351,
      "Ġtask": 4352,
      "åĳ¼åĲ¸": 4353,
      "Ġresistance": 4354,
      "Ġoriginal": 4355,
      "åħīåĲĪä½ľçĶ¨": 4356,
      "cent": 4357,
      "ox": 4358,
      "çļĦè´¨éĩı": 4359,
      "çļĦä¿¡æģ¯": 4360,
      "ert": 4361,
      "ink": 4362,
      "Ġfusion": 4363,
      "Ġreac": 4364,
      "è´¥": 4365,
      "è½®": 4366,
      "Ġgal": 4367,
      "è¡ĮåĪĹå¼ı": 4368,
      "æ²»": 4369,
      "ç«Ļ": 4370,
      "å¤ĸåĬĽ": 4371,
      "Ġatmosp": 4372,
      "å±Ĥæ¬¡": 4373,
      "èī¯": 4374,
      "åıįåºĶéĢŁçİĩ": 4375,
      "å£¤": 4376,
      "å·²æľī": 4377,
      "ä¿ĿåŃĺ": 4378,
      "èĩ³å°ĳ": 4379,
      "Ġadj": 4380,
      "Ġkin": 4381,
      "Ġfeature": 4382,
      "éĿłè¿ĳ": 4383,
      "ç¼ĸè¯ĳ": 4384,
      "èĻļ": 4385,
      "åĤ¬åĮĸåīĤ": 4386,
      "Ġconstra": 4387,
      "æ³¨æĦıåĬĽ": 4388,
      "angu": 4389,
      "Ġattention": 4390,
      "Ġphysical": 4391,
      "Ġpatterns": 4392,
      "Ġappear": 4393,
      "çĵ¦": 4394,
      "Ġcheck": 4395,
      "Ġperson": 4396,
      "Ġanswer": 4397,
      "Ġinterpret": 4398,
      "St": 4399,
      "bal": 4400,
      "Ġi": 4401,
      "Ġtyp": 4402,
      "Ġaway": 4403,
      "Ġown": 4404,
      "çĶŁæ´»": 4405,
      "å¯¹è§Ĵ": 4406,
      "æĸ¹ä¾¿": 4407,
      "Ġhand": 4408,
      "Ġbeing": 4409,
      "ç»ĵçĤ¹": 4410,
      "Ġprop": 4411,
      "æ²Ļ": 4412,
      "ç»ĨèĬĤ": 4413,
      "è·ĥ": 4414,
      "æµģä½ĵ": 4415,
      "ç»ĵæŀĦçļĦ": 4416,
      "æĸ¯çī¹": 4417,
      "éĻįéĽ¨": 4418,
      "ĠPh": 4419,
      "è®Ńç»ĥéĽĨ": 4420,
      "Ġdisc": 4421,
      "çĹĩ": 4422,
      "éĢĲæŃ¥": 4423,
      "èĨ¨": 4424,
      "åħ¸åŀĭ": 4425,
      "Ġregion": 4426,
      "Ġamong": 4427,
      "Ġneeded": 4428,
      "ology": 4429,
      "Ġblack": 4430,
      "âī¤": 4431,
      "ä»ªåĻ¨": 4432,
      "Ġinfluence": 4433,
      "Ġsecond": 4434,
      ")+": 4435,
      "Re": 4436,
      "day": 4437,
      "mRNA": 4438,
      "ove": 4439,
      "Ġè®¸å¤ļ": 4440,
      "ĠçīĽé¡¿": 4441,
      "ï¼ĮâĢ¦ï¼Į": 4442,
      "ality": 4443,
      "Ġdensity": 4444,
      "Ġfound": 4445,
      "å¯Ĵ": 4446,
      "åı¯çĶ¨": 4447,
      "æµİ": 4448,
      "ï¼īï¼ļ": 4449,
      "ä¼ļå½±åĵį": 4450,
      "è¿Ļæł·çļĦ": 4451,
      "ä¸İåħ¶": 4452,
      "è¡¨æĺİ": 4453,
      "ä¹Łèĥ½": 4454,
      "ternal": 4455,
      "çŃīå¾ħ": 4456,
      "éĩįéĩı": 4457,
      "éĥ¨ä»½": 4458,
      "è·Ł": 4459,
      "æŃ£åĪĻ": 4460,
      "ants": 4461,
      "ĠThese": 4462,
      "Ġcop": 4463,
      "çĽ®çļĦ": 4464,
      "æķ£åĪĹ": 4465,
      "å¤ĦçĲĨåĻ¨": 4466,
      "ĠOn": 4467,
      "Ġoutput": 4468,
      "æıĲåĩºäºĨ": 4469,
      "Ġgeneral": 4470,
      "éĩĩæł·": 4471,
      "Ġaddress": 4472,
      "çĪĨ": 4473,
      "Ġresults": 4474,
      "èĩªå·±çļĦ": 4475,
      "Ġboundaries": 4476,
      "âĭ¯": 4477,
      "å»¶è¿Ł": 4478,
      "Ġreaction": 4479,
      "åľŁå£¤": 4480,
      "èĥĮæĻ¯": 4481,
      "æĳ©æĵ¦": 4482,
      "Ġcalled": 4483,
      "Ġmethod": 4484,
      "Ġnetwork": 4485,
      "é©±åĬ¨": 4486,
      "aneous": 4487,
      "ä¸Ĭä¸ĭæĸĩ": 4488,
      "iliar": 4489,
      "90": 4490,
      "iet": 4491,
      "ype": 4492,
      "Ġä¸ª": 4493,
      "çļĦçİ°è±¡": 4494,
      "æľĿ": 4495,
      "çĶ»": 4496,
      "Ġsyn": 4497,
      "å®¢": 4498,
      "Ġpri": 4499,
      "å°Ŀ": 4500,
      "Ġbas": 4501,
      "ä¸įè¶³": 4502,
      "åĪĨéĩı": 4503,
      "Ġred": 4504,
      "Ġlittle": 4505,
      "åľ°æĸ¹": 4506,
      "è¿ĩæ¸¡": 4507,
      "çŃ¾": 4508,
      "æľĢåĪĿ": 4509,
      "iffer": 4510,
      "ä¿ĥ": 4511,
      "Ġmoved": 4512,
      "åī¯": 4513,
      "é«ĺæķĪ": 4514,
      "å°±èĥ½": 4515,
      "å°±åı¯ä»¥": 4516,
      "Ġsee": 4517,
      "å¾®å°ı": 4518,
      "æ¯ıä¸Ģ": 4519,
      "éļıæĹ¶éĹ´": 4520,
      "å®¹éĩı": 4521,
      "Ġinteg": 4522,
      "Ġresour": 4523,
      "å¤±è´¥": 4524,
      "Ġperfect": 4525,
      "éĩįè¦ģçļĦ": 4526,
      "dings": 4527,
      "appe": 4528,
      "è¡¡éĩı": 4529,
      "èĲ¨": 4530,
      "veloc": 4531,
      "éħįå¯¹": 4532,
      "Ġproduces": 4533,
      "è§Ĩè§ī": 4534,
      "å¤§æ°Ķå±Ĥ": 4535,
      "hesis": 4536,
      "Ġindivid": 4537,
      "Ġvariables": 4538,
      "Ġeru": 4539,
      "Ġwhereas": 4540,
      "Ġimmedi": 4541,
      "éļĶç¦»": 4542,
      "Ġrequired": 4543,
      "Ġoptimization": 4544,
      "åĩĿç»ĵ": 4545,
      "aboratory": 4546,
      "Ġbegin": 4547,
      "èĸĦ": 4548,
      "Ġderiv": 4549,
      "èĨ¨èĥĢ": 4550,
      ")=": 4551,
      "ATP": 4552,
      "jor": 4553,
      "mic": 4554,
      "por": 4555,
      "sp": 4556,
      "Ġes": 4557,
      "è®²": 4558,
      "æĪª": 4559,
      "å°¾": 4560,
      "Ġbre": 4561,
      "Ġlat": 4562,
      "å¯¹æµģ": 4563,
      "Ġstress": 4564,
      "æįķ": 4565,
      "æ³ķåĪĻ": 4566,
      "åºĶçĶ¨äºİ": 4567,
      "Ġgas": 4568,
      "ified": 4569,
      "éľ²": 4570,
      "umul": 4571,
      "ç³»ç»Łä¸Ń": 4572,
      "ç§°ä½ľ": 4573,
      "å¾Īéļ¾": 4574,
      "Ġalways": 4575,
      "å½ĵæĹ¶": 4576,
      "ä¼łè¾ĵ": 4577,
      "åĮĸåŃ¦éĶ®": 4578,
      "éĽĨä¸Ń": 4579,
      "å°Ķæĸĩ": 4580,
      "æĺ¾å¾Ĺ": 4581,
      "æ¶ĪèĢĹ": 4582,
      "rict": 4583,
      "Ġassign": 4584,
      "Ġstructures": 4585,
      "çĭ¬ç«ĭçļĦ": 4586,
      "Ġmeans": 4587,
      "åıłåĬł": 4588,
      "Ġoccurs": 4589,
      "Ġparameter": 4590,
      "æ²īç§¯": 4591,
      "æ¥ļ": 4592,
      "Ġsampling": 4593,
      "roscopic": 4594,
      "Ġresponse": 4595,
      "è¦ĨçĽĸ": 4596,
      "earch": 4597,
      "rum": 4598,
      "¡çĮ®": 4599,
      "Ġveloc": 4600,
      "orning": 4601,
      "åĬ³": 4602,
      "Ġtheore": 4603,
      "åºĹ": 4604,
      "Ġpossible": 4605,
      "Ġdark": 4606,
      "ä¼ª": 4607,
      "Ġwal": 4608,
      "è¯¾": 4609,
      "Ġinit": 4610,
      "è´¡çĮ®": 4611,
      "Ġnat": 4612,
      "çº¸": 4613,
      "ç¨³": 4614,
      "çĽ¸ä½į": 4615,
      "åºĶåĬĽ": 4616,
      "çŁ¢": 4617,
      "Ġmajor": 4618,
      "çĲĨè®ºçļĦ": 4619,
      "é£ŀ": 4620,
      "çĬ¶åĨµ": 4621,
      "å¤©çĦ¶": 4622,
      "range": 4623,
      "è´¨éĩıçļĦ": 4624,
      "ç®Ĺæ³ķçļĦ": 4625,
      "ç»´æĬ¤": 4626,
      "ĠCh": 4627,
      "å®ļä¹īçļĦ": 4628,
      "è¶Ĭå¤§": 4629,
      "æĸĩä»¶": 4630,
      "åħĪéªĮ": 4631,
      "Ġacid": 4632,
      "åħ¬åħĥ": 4633,
      "åĽ½å®¶": 4634,
      "Ġspread": 4635,
      "è°ĥèĬĤ": 4636,
      "å¤±åİ»": 4637,
      "Ġdisappe": 4638,
      "æ¡£": 4639,
      "åĽºä½ĵ": 4640,
      "æĻ®éģį": 4641,
      "Ġefficient": 4642,
      "Ġsmaller": 4643,
      "Ġcondition": 4644,
      "Ġdecision": 4645,
      "çĽ¸åħ³çļĦ": 4646,
      "æ¸ħæ¥ļ": 4647,
      "Ġsuperconductors": 4648,
      "Ġcomplete": 4649,
      "Ġcharacter": 4650,
      "çŃĶæ¡Ī": 4651,
      "ä¸´çķĮ": 4652,
      "Ġthermal": 4653,
      "Ġmomentum": 4654,
      "Ġguarantee": 4655,
      "ä¼½åĪ©": 4656,
      "anguage": 4657,
      "back": 4658,
      "less": 4659,
      "oid": 4660,
      "Ġæľī": 4661,
      "ĠãĢģ": 4662,
      "çļĦæµ·": 4663,
      "ä¸Ģç³»åĪĹ": 4664,
      "Ġdam": 4665,
      "èĢ³": 4666,
      "æ°®": 4667,
      "Ġearly": 4668,
      "å¯¹æķ°": 4669,
      "éĻ·": 4670,
      "åĬ¨ä½ľ": 4671,
      "imes": 4672,
      "çİ°å®ŀ": 4673,
      "ules": 4674,
      "urning": 4675,
      "å¹¶åľ¨": 4676,
      "å¯¼ä½ĵ": 4677,
      "Ġenc": 4678,
      "Ġshared": 4679,
      "å¢ŀå¼º": 4680,
      "å¼ºè°ĥ": 4681,
      "è¡¨ç¤ºä¸º": 4682,
      "èĮ¨": 4683,
      "åĲ¦åĪĻ": 4684,
      "éĤ£äºĽ": 4685,
      "åŃĹæ¯į": 4686,
      "å¾·å°Ķ": 4687,
      "Ġvalidation": 4688,
      "å¹²æ¶ī": 4689,
      "è¡¨çİ°åĩº": 4690,
      "æ¢¯åº¦ä¸ĭéĻį": 4691,
      "æ·±åº¦åŃ¦ä¹ł": 4692,
      "Ġsuperconductivity": 4693,
      "amples": 4694,
      "ç»ıåħ¸åĬĽåŃ¦": 4695,
      "æĸ½åĬł": 4696,
      "Ġrelationships": 4697,
      "Ġconcentration": 4698,
      "Ġinclud": 4699,
      "Ġamount": 4700,
      "ç«ŀäºī": 4701,
      "gine": 4702,
      "èļ": 4703,
      "erms": 4704,
      "æķı": 4705,
      "åĮ¹": 4706,
      "åĩĢ": 4707,
      "Ġreason": 4708,
      "å¸Ī": 4709,
      "Ġhour": 4710,
      "Ġstation": 4711,
      "çĶµç¦»": 4712,
      "å¹¶åıĳ": 4713,
      "Ġglo": 4714,
      "ä½įçĤ¹": 4715,
      "Ġmoves": 4716,
      "è§£æŀĲ": 4717,
      "ç»ıæµİ": 4718,
      "æŃ£æ¯Ķ": 4719,
      "Ġrun": 4720,
      "ayed": 4721,
      "åĮºåĪ«": 4722,
      "çĽ´çº¿": 4723,
      "NAD": 4724,
      "Ġcompar": 4725,
      "å¸¦æľī": 4726,
      "æŀģç«¯": 4727,
      "ĠCon": 4728,
      "ody": 4729,
      "Ġrock": 4730,
      "è¿ĲåĬ¨çļĦ": 4731,
      "æ´»åĮĸ": 4732,
      "å£°æ³¢": 4733,
      "å¼Ĥå¸¸": 4734,
      "æīįåıĳçİ°": 4735,
      "éĺ³åħī": 4736,
      "çº§æķ°": 4737,
      "æĮ¯èį¡": 4738,
      "Ġweight": 4739,
      "ç²¾åº¦": 4740,
      "Ġfeed": 4741,
      "éĢĴå½Ĵ": 4742,
      "æıĲä¾ĽäºĨ": 4743,
      "Ġparticle": 4744,
      "Ġdirections": 4745,
      "çļĦåľ°æĸ¹": 4746,
      "ç¼ĵæħ¢": 4747,
      "æİ¢ç´¢": 4748,
      "Ġslowly": 4749,
      "åı«åģļ": 4750,
      "Ġrange": 4751,
      "scill": 4752,
      "Ġcomponents": 4753,
      "Ġhigher": 4754,
      "åĽ°éļ¾": 4755,
      "èµ¤éģĵ": 4756,
      "romagnetic": 4757,
      "å°Ŀè¯ķ": 4758,
      "25": 4759,
      "28": 4760,
      "Ġed": 4761,
      "ä¸¢": 4762,
      "çļĦå°ı": 4763,
      "ering": 4764,
      "ators": 4765,
      "Ġserv": 4766,
      "ä¸Ģæ®µ": 4767,
      "ordin": 4768,
      "ited": 4769,
      "arrow": 4770,
      "æĹ¦": 4771,
      "å¼¯": 4772,
      "åĨ»": 4773,
      "æµħ": 4774,
      "çº¤": 4775,
      "ä¼ļæľī": 4776,
      "Ġtop": 4777,
      "èĢĮä¸į": 4778,
      "Ġconve": 4779,
      "èĩªè½¬": 4780,
      "é«ĺæ¸©": 4781,
      "Ġorbit": 4782,
      "è¿Ľç¨ĭ": 4783,
      "åıĬåħ¶": 4784,
      "æŃ£å¼ı": 4785,
      "ĠAc": 4786,
      "ç²Ĺ": 4787,
      "ç»Ĩèĥŀä¸Ń": 4788,
      "izer": 4789,
      "âĪĳ": 4790,
      "å¤©æĸĩ": 4791,
      "Ġcontin": 4792,
      "çº¿æĢ§ä»£æķ°": 4793,
      "æĢ»ä½ĵ": 4794,
      "ĠDNA": 4795,
      "ysics": 4796,
      "æľªæĿ¥": 4797,
      "å°ºå¯¸": 4798,
      "ification": 4799,
      "Ġvariable": 4800,
      "åģľæŃ¢": 4801,
      "Ġentire": 4802,
      "Ġreactions": 4803,
      "çŃĸçķ¥": 4804,
      "ä¼¯çī¹": 4805,
      "cules": 4806,
      "Ġnuclei": 4807,
      "Ġscale": 4808,
      "Ġmultiple": 4809,
      "Ġdetermine": 4810,
      "Ġquestion": 4811,
      "æī°åĬ¨": 4812,
      "oplan": 4813,
      "Ġadjust": 4814,
      "Ġvelocity": 4815,
      ")âĪĴ": 4816,
      "lation": 4817,
      "length": 4818,
      "oot": 4819,
      "to": 4820,
      "èĵ": 4821,
      "Ġver": 4822,
      "ä¸Ļ": 4823,
      "çļĦéģĹä¼ł": 4824,
      "åħ´": 4825,
      "Ġsens": 4826,
      "oring": 4827,
      "Ġmorning": 4828,
      "ä¹±": 4829,
      "Ġpresent": 4830,
      "Ġdr": 4831,
      "Ġfl": 4832,
      "Ġfut": 4833,
      "èĥ½çº§": 4834,
      "åŃ¦èĢħ": 4835,
      "æĹ¶æľŁ": 4836,
      "æīĳ": 4837,
      "çºµ": 4838,
      "âĢĵ": 4839,
      "çĶµåĬ¿": 4840,
      "åĢĴ": 4841,
      "æĭ¿": 4842,
      "Ġgives": 4843,
      "éľį": 4844,
      "åĬłä¸Ĭ": 4845,
      "Ġnever": 4846,
      "ç»Ĩèĥŀè´¨": 4847,
      "éļıåĲİ": 4848,
      "ived": 4849,
      "å¸¦æĿ¥": 4850,
      "å¢ŀå¤§": 4851,
      "ç¬¬ä¸Ģæ¬¡": 4852,
      "ç»´åº¦": 4853,
      "è¯¯åĮº": 4854,
      "ograph": 4855,
      "æĸ¹ç¨ĭå¼ı": 4856,
      "è§ĴåĬ¨éĩı": 4857,
      "ä¸īç§į": 4858,
      "Ġworld": 4859,
      "èĤĮ": 4860,
      "æ¡Ĩ": 4861,
      "ĠHe": 4862,
      "Ġtemperatures": 4863,
      "é»ı": 4864,
      "çī¹å®ļçļĦ": 4865,
      "Ġnearly": 4866,
      "Ġdetail": 4867,
      "æĹıç¾¤": 4868,
      "Ġeffects": 4869,
      "æº¶æ¶²": 4870,
      "çĮľ": 4871,
      "Ġconsum": 4872,
      "Ġcontains": 4873,
      "ä¸Ģèĩ´æĢ§": 4874,
      "æŀ¶æŀĦ": 4875,
      "Ġprovides": 4876,
      "åį°åº¦": 4877,
      "æļĤæĹ¶": 4878,
      "Ġbalance": 4879,
      "Ġweek": 4880,
      "Ġcommunic": 4881,
      "sh": 4882,
      "Ġions": 4883,
      "çļĦéĥ¨åĪĨ": 4884,
      "çļĦæĥħåĨµä¸ĭ": 4885,
      "eries": 4886,
      "è¿Ķ": 4887,
      "Ġsat": 4888,
      "Ġsem": 4889,
      "Ġside": 4890,
      "Ġcat": 4891,
      "Ġcos": 4892,
      "ä¸ĢæĹ¦": 4893,
      "Ġfall": 4894,
      "åĪĨåī²": 4895,
      "æ°ĳ": 4896,
      "åĨľ": 4897,
      "Ġlength": 4898,
      "åĽłæĸ¯åĿ¦": 4899,
      "omp": 4900,
      "çĶŁéķ¿": 4901,
      "ä¼ļè¢«": 4902,
      "åľ°è´¨": 4903,
      "å¦ĤæŃ¤": 4904,
      "æĭĨ": 4905,
      "Ġisol": 4906,
      "Ġexec": 4907,
      "æģ©": 4908,
      "è½¬åıĺ": 4909,
      "æıĲåīį": 4910,
      "éĢļå¸¸éľĢè¦ģ": 4911,
      "Ġquiet": 4912,
      "ç©ºéĹ´ä¸Ń": 4913,
      "æĺŁç³»": 4914,
      "åĩºçİ°çļĦ": 4915,
      "å¹¶ä¸įèĥ½": 4916,
      "Ġreli": 4917,
      "å»ºæ¨¡": 4918,
      "åģıç¦»": 4919,
      "ĠFor": 4920,
      "è¯ķéªĮ": 4921,
      "å¼ķåĬĽåľº": 4922,
      "Ġcollect": 4923,
      "é»ĺ": 4924,
      "æıĲåĩºçļĦ": 4925,
      "çķĻä¸ĭ": 4926,
      "Ġregions": 4927,
      "é¦ĸæ¬¡": 4928,
      "âĢ²(": 4929,
      "çĹħæ¯Ĵ": 4930,
      "Ġallowing": 4931,
      "Ġoperations": 4932,
      "åı¥è¯Ŀ": 4933,
      "çĪ±åĽłæĸ¯åĿ¦": 4934,
      "Ġavailable": 4935,
      "Ġindividual": 4936,
      "åĮ¹éħį": 4937,
      "most": 4938,
      "vant": 4939,
      "ï¼Ł": 4940,
      "çļĦè®¡ç®Ĺ": 4941,
      "ï¼ĮâĢľ": 4942,
      "enc": 4943,
      "Ġmix": 4944,
      "ä¹³": 4945,
      "ä¹Ŀ": 4946,
      "Ġoscill": 4947,
      "åĴĮåħ¶ä»ĸ": 4948,
      "çĽĬ": 4949,
      "uted": 4950,
      "æĿ¥æııè¿°": 4951,
      "Ġbegan": 4952,
      "åıĳèĤ²": 4953,
      "raction": 4954,
      "æĬµ": 4955,
      "çŁ¿": 4956,
      "å¾Ĺä»¥": 4957,
      "Ġexamples": 4958,
      "è¿ĽèĢĮ": 4959,
      "åıªåľ¨": 4960,
      "Ġdeg": 4961,
      "å¾Īå°ĳ": 4962,
      "ä½ľçĶ¨çļĦ": 4963,
      "éĿŀéĽ¶": 4964,
      "çĽ´è§Ĥ": 4965,
      "äºĮåħĥ": 4966,
      "éĵĢ": 4967,
      "å¸¦çĶµ": 4968,
      "ç«ĭåĪ»": 4969,
      "Ġplace": 4970,
      "æ´ĭæµģ": 4971,
      "ĠRes": 4972,
      "Ġdistin": 4973,
      "Ġelectro": 4974,
      "èĤ½": 4975,
      "éĩĳå±ŀéĶ®": 4976,
      "åįĬçĲĥ": 4977,
      "åĲ¸å¼ķ": 4978,
      "Ġvariation": 4979,
      "çĨĶ": 4980,
      "è¡°åĩı": 4981,
      "Ġincreasing": 4982,
      "æī©æķ£": 4983,
      "Ġfinal": 4984,
      "é¥°": 4985,
      "Ġjust": 4986,
      "çī¹åĪ«æĺ¯": 4987,
      "Ġprovide": 4988,
      "æĹłç©·å°ı": 4989,
      "Ġmolecules": 4990,
      "æĪ¿éĹ´": 4991,
      "Ġcycle": 4992,
      "like": 4993,
      "çĩĥ": 4994,
      "çĭŃä¹ī": 4995,
      "ç¤¾ä¼ļ": 4996,
      "æĢİæł·": 4997,
      "Ġfuture": 4998,
      "24": 4999,
      "AT": 5000,
      "Th": 5001,
      "for": 5002,
      "ger": 5003,
      "io": 5004,
      "sive": 5005,
      "é¸": 5006,
      "Ġ\"": 5007,
      "ĠéĢļè¿ĩ": 5008,
      "Ġä¸ĢäºĽ": 5009,
      "Ġice": 5010,
      "ä¸ģ": 5011,
      "çļĦç®Ĺæ³ķ": 5012,
      "Ġtw": 5013,
      "Ġtru": 5014,
      "Ġtiny": 5015,
      "åħ«": 5016,
      "ç»¼": 5017,
      "åºĬ": 5018,
      "itable": 5019,
      "ä¸įç¨³å®ļ": 5020,
      "å¯Į": 5021,
      "ä¸Ńæľī": 5022,
      "åŃ¦åĴĮ": 5023,
      "åŃ¦è¯´": 5024,
      "åĩºäºĨ": 5025,
      "old": 5026,
      "çŃīå¼ı": 5027,
      "æŃ¤æĹ¶": 5028,
      "éĩįåıł": 5029,
      "åīª": 5030,
      "ement": 5031,
      "ç»ıçĶ±": 5032,
      "åıªè¦ģ": 5033,
      "éľĢæ±Ĥ": 5034,
      "ĠAfter": 5035,
      "æłĩè®°": 5036,
      "ĠThey": 5037,
      "ĠSun": 5038,
      "éļıèĳĹ": 5039,
      "ä¸»ä¹ī": 5040,
      "å°ĳéĩı": 5041,
      "åľºæĻ¯": 5042,
      "çķĮéĿ¢": 5043,
      "Ġheav": 5044,
      "æĸĩæľ¬": 5045,
      "æİ¨åĬ¨": 5046,
      "æİ¨å¹¿": 5047,
      "Ġabove": 5048,
      "åĽŀåĪ°": 5049,
      "èĳĹåĲį": 5050,
      "èĬĤçĤ¹çļĦ": 5051,
      "Ġload": 5052,
      "Ġcold": 5053,
      "èģĶåĲĪ": 5054,
      "Ġmeasured": 5055,
      "Ġparticular": 5056,
      "Ġnumbers": 5057,
      "æº¶è§£": 5058,
      "Ġteam": 5059,
      "Ġstopped": 5060,
      "Ġprogram": 5061,
      "Ġinteractions": 5062,
      "Ġestimate": 5063,
      "Ġstatistical": 5064,
      "Ġradiation": 5065,
      "Ġprevent": 5066,
      "Ġswit": 5067,
      "Ġvector": 5068,
      "æĭĵæīĳ": 5069,
      "Ġgalax": 5070,
      "ç¼ĸè¯ĳåĻ¨": 5071,
      "ifferent": 5072,
      "ä¼½åĪ©çķ¥": 5073,
      "21": 5074,
      "CP": 5075,
      "II": 5076,
      "SA": 5077,
      "efore": 5078,
      "hy": 5079,
      "ware": 5080,
      "ying": 5081,
      "åĦ": 5082,
      "è¸": 5083,
      "çļĦä¸įåĲĮ": 5084,
      "çļĦæķ°åŃ¦": 5085,
      "çļĦåİŁåĽł": 5086,
      "Ġtext": 5087,
      "åĪł": 5088,
      "Ġsym": 5089,
      "åº§": 5090,
      "arl": 5091,
      "Ġbene": 5092,
      "rogen": 5093,
      "Ġold": 5094,
      "Ġnarrow": 5095,
      "Ġlanguage": 5096,
      "ä¼ļåıĳçĶŁ": 5097,
      "Ġtook": 5098,
      "åİļ": 5099,
      "used": 5100,
      "Ġhum": 5101,
      "åľ°å½¢": 5102,
      "Ġstored": 5103,
      "åħ¶ä¸ŃçļĦ": 5104,
      "åıĳæĺİ": 5105,
      "Ġconserv": 5106,
      "åı¯èĥ½æĺ¯": 5107,
      "Ġchain": 5108,
      "Ġwho": 5109,
      "éª¨": 5110,
      "Ġru": 5111,
      "Ġcoordin": 5112,
      "è¿ĺä¼ļ": 5113,
      "è¿ĺè¦ģ": 5114,
      "äºĮåįģ": 5115,
      "Ġshape": 5116,
      "Ġcontrib": 5117,
      "Ġmeet": 5118,
      "æĶ¾å¤§": 5119,
      "åľ°çĲĥä¸Ĭ": 5120,
      "æĸŃè£Ĥ": 5121,
      "æĸ¹ç¨ĭç»Ħ": 5122,
      "åĲĦä¸ª": 5123,
      "ãĢįï¼Ī": 5124,
      "éĢĤçĶ¨äºİ": 5125,
      "ä¾Ŀæį®": 5126,
      "ĠPl": 5127,
      "ĠPro": 5128,
      "èĤī": 5129,
      "Ġgraph": 5130,
      "æł¸ç³ĸä½ĵ": 5131,
      "Ġweather": 5132,
      "Ġactivity": 5133,
      "éļ¾ä»¥": 5134,
      "Ġnearby": 5135,
      "æ¶²æĢģ": 5136,
      "Ġdescribe": 5137,
      "çĸ¾": 5138,
      "çĸı": 5139,
      "åķ¶": 5140,
      "æ°¨éħ¸": 5141,
      "Ġobservations": 5142,
      "è´¨åŃĲæķ°": 5143,
      "Ġplanet": 5144,
      "åĪĽéĢł": 5145,
      "æĬ¥åĳĬ": 5146,
      "ä¹Łå°±æĺ¯è¯´": 5147,
      "ropy": 5148,
      "åıįåĲĳä¼łæĴŃ": 5149,
      "Ġseemed": 5150,
      "æıĴåħ¥": 5151,
      "Ġnegative": 5152,
      "çŃīä½įåŁºåĽł": 5153,
      "èļĢ": 5154,
      "æ¡Ĩæŀ¶": 5155,
      "based": 5156,
      "eep": 5157,
      "ll": 5158,
      "pro": 5159,
      "§åķ¶": 5160,
      "Ġä»ĸ": 5161,
      "çļĦå¤§": 5162,
      "çļĦåıįåºĶ": 5163,
      "çļĦåĪĨåŃĲ": 5164,
      "çļĦçī©çĲĨ": 5165,
      "erical": 5166,
      "ata": 5167,
      "Ġcause": 5168,
      "alf": 5169,
      "æĸ¥": 5170,
      "Ġbar": 5171,
      "ä¼Ĭ": 5172,
      "ished": 5173,
      "Ġfast": 5174,
      "å¼ĥ": 5175,
      "ä»¥å¤ĸ": 5176,
      "Ġrev": 5177,
      "ä¼ļä½¿": 5178,
      "å¯¹æĸ¹": 5179,
      "è¿ĩåº¦": 5180,
      "å±ħ": 5181,
      "çĶµæ±ł": 5182,
      "Ġconvers": 5183,
      "éħ®": 5184,
      "åĲİæľŁ": 5185,
      "ä¹Łä¸į": 5186,
      "æĽ´ä¸º": 5187,
      "æ°Ķæ¸©": 5188,
      "æ²ĥ": 5189,
      "emperature": 5190,
      "âĢĿï¼Ī": 5191,
      "Ġrates": 5192,
      "resh": 5193,
      "å½ĵä¸Ń": 5194,
      "ĠAs": 5195,
      "è°·": 5196,
      "åħīåŃĲ": 5197,
      "ç»ĨèĥŀçļĦ": 5198,
      "è¯ģå®ŀ": 5199,
      "ĠIts": 5200,
      "ä¸»åĬ¨": 5201,
      "å®¹åĻ¨": 5202,
      "Ġquarks": 5203,
      "èĪį": 5204,
      "ĠCont": 5205,
      "äºĭåĬ¡": 5206,
      "çº¦ç¿": 5207,
      "åŃ¦ä¹łçİĩ": 5208,
      "apor": 5209,
      "Ġdatas": 5210,
      "èĩªçĦ¶éĢīæĭ©": 5211,
      "ĠLaboratory": 5212,
      "Ġprobab": 5213,
      "Ġactiv": 5214,
      "ç¼ĸç¨ĭ": 5215,
      "åįĩé«ĺ": 5216,
      "å¡ĳ": 5217,
      "Ġadded": 5218,
      "èħº": 5219,
      "Ġsignals": 5220,
      "è´Ŀå°Ķ": 5221,
      "Ġä¸ºäºĨ": 5222,
      "Ġcrit": 5223,
      "å·¦åı³": 5224,
      "éģįåİĨ": 5225,
      "Ġseparate": 5226,
      "Ġmulti": 5227,
      "ç©¿è¿ĩ": 5228,
      "éĢĶå¾Ħ": 5229,
      "Ġpreserv": 5230,
      "æŃ»äº¡": 5231,
      "Ġmissing": 5232,
      "åĺ§åķ¶": 5233,
      "å°ģéĹŃ": 5234,
      "Ġbroad": 5235,
      "æķıæĦŁ": 5236,
      "çº¦ç¿°": 5237,
      "ai": 5238,
      "apt": 5239,
      "bs": 5240,
      "ground": 5241,
      "lated": 5242,
      "man": 5243,
      "±åĴĮ": 5244,
      "Ġ,": 5245,
      "ä¸Ŀ": 5246,
      "çļĦåĬĽ": 5247,
      "çļĦåŁºåĽł": 5248,
      "çļĦè¿ĲåĬ¨": 5249,
      "çļĦå¹³åĿĩ": 5250,
      "Ġtarg": 5251,
      "ination": 5252,
      "Ġsum": 5253,
      "å¤ľ": 5254,
      "åŃŁ": 5255,
      "å®ĺ": 5256,
      "æĺ¯ä»İ": 5257,
      "ä¹Ļ": 5258,
      "itational": 5259,
      "ä¸ºä¸Ģ": 5260,
      "åı¯ç§¯": 5261,
      "åĪĨæĪĲ": 5262,
      "åĪĨè¾¨": 5263,
      "æĿ¯": 5264,
      "ash": 5265,
      "Ġlin": 5266,
      "è¿Ļæĺ¯": 5267,
      "è¿ĻéĩĮ": 5268,
      "èĢĮæĪĲ": 5269,
      "Ġher": 5270,
      "åħ¶å®ŀ": 5271,
      "ç»ĵæĿŁ": 5272,
      "æľĢé«ĺ": 5273,
      "èµĽ": 5274,
      "éĩįç»Ħ": 5275,
      "èĩªåıĳ": 5276,
      "çľģ": 5277,
      "éļĻ": 5278,
      "éĥ½åı¯èĥ½": 5279,
      "Ġmaxim": 5280,
      "å¹³è¡Į": 5281,
      "å¯¼çĶµ": 5282,
      "å½ĵæĪĲ": 5283,
      "æłĩéĩı": 5284,
      "æĹ¶éĹ´åĨħ": 5285,
      "è¾ĥé«ĺ": 5286,
      "éĢļå¸¸ä¼ļ": 5287,
      "Ġshift": 5288,
      "å¤Ħäºİ": 5289,
      "èĦĤ": 5290,
      "è¯Ńä¹ī": 5291,
      "odynam": 5292,
      "æĸĩåŃĹ": 5293,
      "ç®ĢåĮĸ": 5294,
      "äºĴè¡¥": 5295,
      "èį¯": 5296,
      "åĲĦèĩª": 5297,
      "ä¸īç»´": 5298,
      "Ġdiss": 5299,
      "çģ¯": 5300,
      "æĦŁè§ī": 5301,
      "äººå·¥ç¥ŀç»ıç½ĳç»ľ": 5302,
      "é»Ħ": 5303,
      "Ġmeasurements": 5304,
      "æĲº": 5305,
      "Ġmagnitude": 5306,
      "Ġkeys": 5307,
      "Ġeffective": 5308,
      "ubl": 5309,
      "Ġscientific": 5310,
      "æİ¢æµĭ": 5311,
      "Ġcryst": 5312,
      "æ¬§æ´²": 5313,
      "æľºæ¢°èĥ½": 5314,
      "Ġidentical": 5315,
      "Ġideal": 5316,
      "æĤī": 5317,
      "Ġtasks": 5318,
      "æĽ¿ä»£": 5319,
      "ĠQu": 5320,
      "Ġaltern": 5321,
      "Ġexactly": 5322,
      "Ġpositive": 5323,
      "Ġextremely": 5324,
      "Ġimmediately": 5325,
      "bits": 5326,
      "ffer": 5327,
      "pH": 5328,
      "side": 5329,
      "wor": 5330,
      "æ¾": 5331,
      "ĠæľĢ": 5332,
      "ĠâĢĶ": 5333,
      "çļĦæ¨¡åŀĭ": 5334,
      "çļĦåĮĸåŃ¦": 5335,
      "çļĦçī¹å¾ģ": 5336,
      "çļĦèĽĭçĻ½è´¨": 5337,
      "çļĦèĥ½åĬĽ": 5338,
      "Ġtype": 5339,
      "ones": 5340,
      "Ġsl": 5341,
      "åľ¨ä¸Ģä¸ª": 5342,
      "ä¹Ĳ": 5343,
      "ä¸įåŃĺåľ¨": 5344,
      "ä¼¤": 5345,
      "Ġfund": 5346,
      "åı¯éĢĨ": 5347,
      "è¡į": 5348,
      "äºİæĺ¯": 5349,
      "çĲĨåŃ¦": 5350,
      "Ġstop": 5351,
      "åıĳæĮ¥": 5352,
      "å¹¶è¡Į": 5353,
      "æĭħ": 5354,
      "æ¨¡æĿ¿": 5355,
      "æ´ŀ": 5356,
      "åĬłæ³ķ": 5357,
      "Ġmach": 5358,
      "ecton": 5359,
      "åĨħæł¸": 5360,
      "æµ·å²¸": 5361,
      "duction": 5362,
      "ç¦ı": 5363,
      "æģ°": 5364,
      "Ġnecess": 5365,
      "æķ°æį®éĽĨ": 5366,
      "Ġsearch": 5367,
      "è¾ĥå¤§": 5368,
      "è¿ĺéľĢè¦ģ": 5369,
      "éĿŀéĩĳå±ŀ": 5370,
      "âĪĩ": 5371,
      "Ġunit": 5372,
      "å£ģ": 5373,
      "èĦĬ": 5374,
      "å¼ķåıĳ": 5375,
      "ç©ºéĹ´çļĦ": 5376,
      "aving": 5377,
      "ientists": 5378,
      "éĴ¥": 5379,
      "çªĦ": 5380,
      "åĽŀçŃĶ": 5381,
      "äº¤åıī": 5382,
      "å¿ħè¦ģ": 5383,
      "æ¡Į": 5384,
      "åĨ³å®ļäºĨ": 5385,
      "è¥¿æ´ĭ": 5386,
      "æ¶Īæģ¯": 5387,
      "astic": 5388,
      "Ġlocation": 5389,
      "Ġrequest": 5390,
      "é©¬åħĭ": 5391,
      "Ġampl": 5392,
      "æĻ¶æł¼": 5393,
      "ç¼ºéĻ·": 5394,
      "Ġminim": 5395,
      "ä¸¥éĩį": 5396,
      "é¥Ń": 5397,
      "å»¶ä¼¸": 5398,
      "è£ħç½®": 5399,
      "Ġmovement": 5400,
      "èĴ¸æ°Ķ": 5401,
      "Ġexperiment": 5402,
      "ecause": 5403,
      "Ġmethods": 5404,
      "çĨŁæĤī": 5405,
      "Ġharder": 5406,
      "point": 5407,
      "imensional": 5408,
      "Ġseismic": 5409,
      "Ġgeometry": 5410,
      "åİŁåŃĲåºıæķ°": 5411,
      "åĦ¿": 5412,
      "arlier": 5413,
      "åŃŁå¾·å°Ķ": 5414,
      ":=": 5415,
      "time": 5416,
      "uper": 5417,
      "xi": 5418,
      "¡èĲ": 5419,
      "å´": 5420,
      "Ġion": 5421,
      "çļĦçĶŁçī©": 5422,
      "çļĦéĽĨåĲĪ": 5423,
      "çļĦåıĳå±ķ": 5424,
      "Ġten": 5425,
      "Ġcertain": 5426,
      "any": 5427,
      "æĺ¯çłĶç©¶": 5428,
      "oriz": 5429,
      "alle": 5430,
      "Ġmedi": 5431,
      "Ġbest": 5432,
      "ä¸įéľĢè¦ģ": 5433,
      "Ġwrit": 5434,
      "Ġfoc": 5435,
      "å¹Ķ": 5436,
      "Ġreach": 5437,
      "Ġreference": 5438,
      "åĨ¬": 5439,
      "åľ°ä¸ĭ": 5440,
      "Ġstra": 5441,
      "æ¯«": 5442,
      "ä¾µ": 5443,
      "åı¯ä»¥æĺ¯": 5444,
      "ild": 5445,
      "äººåĳĺ": 5446,
      "æ²¹": 5447,
      "çī¹çĤ¹": 5448,
      "åħ³èģĶ": 5449,
      "åĬłå¿«": 5450,
      "æµ·åºķ": 5451,
      "Ġalmost": 5452,
      "åħĥç´łåĳ¨æľŁè¡¨": 5453,
      "æİ¥æĶ¶": 5454,
      "è½¬åĬ¨": 5455,
      "Ġengine": 5456,
      "è¿ĺèĥ½": 5457,
      "ä½¿çĶ¨èĢħ": 5458,
      "ç¢į": 5459,
      "action": 5460,
      "å¼ºçĥĪ": 5461,
      "ç£ģéĢļ": 5462,
      "åıĸå¾Ĺ": 5463,
      "ç½ĳè·¯": 5464,
      "åħ±æĮ¯": 5465,
      "è¿ĲåĬ¨å®ļå¾ĭ": 5466,
      "åıĳçİ°çļĦ": 5467,
      "ĠRNA": 5468,
      "æİ¨å¯¼": 5469,
      "æİ¨æĸŃ": 5470,
      "ĠLe": 5471,
      "èĲ¥": 5472,
      "å¼ķåĬĽè´¨éĩı": 5473,
      "æĮ¯å¹ħ": 5474,
      "æľ¯è¯Ń": 5475,
      "æħ§": 5476,
      "Ġè¿Ļä¸Ģ": 5477,
      "æĻºæħ§": 5478,
      "èµĦè®¯": 5479,
      "Ġpoor": 5480,
      "ä¿®é¥°": 5481,
      "Ġstronger": 5482,
      "Ġadditional": 5483,
      "æ¿Ģæ´»": 5484,
      "Ġfinite": 5485,
      "è¶ĭåĲĳ": 5486,
      "Ġlimits": 5487,
      "Ġscales": 5488,
      "èĹ»": 5489,
      "...": 5490,
      "Ġgradients": 5491,
      "Ġfluid": 5492,
      "é²ģ": 5493,
      "éĨĴ": 5494,
      "Ġprecise": 5495,
      "æł¡åĩĨ": 5496,
      "Ġoutcome": 5497,
      "åĢ¾åĲĳ": 5498,
      "åħ¬åħĥåīį": 5499,
      "Ġglobal": 5500,
      "encies": 5501,
      "æĲºå¸¦": 5502,
      "94": 5503,
      "PAC": 5504,
      "aus": 5505,
      "ever": 5506,
      "gest": 5507,
      "lim": 5508,
      "met": 5509,
      "rig": 5510,
      "Ġè¯¥": 5511,
      "Ġçİ°ä»£": 5512,
      "ĠÂ°": 5513,
      "Ġå°½ç®¡": 5514,
      "çļĦç³»ç»Ł": 5515,
      "çļĦæīĢæľī": 5516,
      "çļĦåħ³ç³»": 5517,
      "çļĦå®ŀéªĮ": 5518,
      "Ġsort": 5519,
      "å¤ı": 5520,
      "æĺ¯ä»¥": 5521,
      "Ġpage": 5522,
      "Ġdra": 5523,
      "Ġdays": 5524,
      "Ġwind": 5525,
      "èĥ½åĲ¦": 5526,
      "åŃ¦ä¸Ń": 5527,
      "èĢ¦": 5528,
      "æ°¦": 5529,
      "æ°¯": 5530,
      "åįļ": 5531,
      "Ġearlier": 5532,
      "æĪĲæŃ£æ¯Ķ": 5533,
      "çºł": 5534,
      "åıĺå¼Ĥ": 5535,
      "å¤§è¥¿æ´ĭ": 5536,
      "Ġhyd": 5537,
      "Ġstandard": 5538,
      "çĶµè·¯": 5539,
      "è¡¨è¿°": 5540,
      "ç§įç¾¤": 5541,
      "æĶ¿": 5542,
      "éĺ´": 5543,
      "idden": 5544,
      "ä¸ĭä¸Ģ": 5545,
      "åİŁæĿ¥çļĦ": 5546,
      "ols": 5547,
      "æĽ´å¤§": 5548,
      "Ġproject": 5549,
      "æ°ĶæĹĭ": 5550,
      "å¾Ĺå¾Ī": 5551,
      "åĢ¼å¾Ĺ": 5552,
      "Ġexchan": 5553,
      "Ġforms": 5554,
      "éķ§": 5555,
      "éĶĢ": 5556,
      "antum": 5557,
      "æķ°æį®ç»ĵæŀĦ": 5558,
      "æłĩçŃ¾": 5559,
      "ighb": 5560,
      "åıĺåĮĸçİĩ": 5561,
      "æ±¡": 5562,
      "æĦıæĢĿ": 5563,
      "å½¢æĪĲäºĨ": 5564,
      "æĮĩçļĦæĺ¯": 5565,
      "æŀģåľ°": 5566,
      "ç¬¬ä¸ī": 5567,
      "åıĳçĶŁåıĺåĮĸ": 5568,
      "Ġintrodu": 5569,
      "Ġresid": 5570,
      "è§Ħå®ļ": 5571,
      "ä¹łæĥ¯": 5572,
      "æŀĦå»º": 5573,
      "æºĲäºİ": 5574,
      "èĳ¡èĲ": 5575,
      "Ġelectromagnetic": 5576,
      "ä¸įèĥ½åıª": 5577,
      "åģıå¾®åĪĨæĸ¹ç¨ĭ": 5578,
      "çº§ç»ĵæŀĦ": 5579,
      "åĪĨå¸ĥå¼ı": 5580,
      "ĠOne": 5581,
      "Ġtempor": 5582,
      "Ġactually": 5583,
      "Ġpoints": 5584,
      "ä¿®æŃ£": 5585,
      "çĲĨè§£æĪĲ": 5586,
      "æħ¢æħ¢": 5587,
      "åĬ©äºİ": 5588,
      "éĢłæĪĲçļĦ": 5589,
      "Ġregular": 5590,
      "Ġsolid": 5591,
      "è¡¨è¾¾å¼ı": 5592,
      "éªĮè¯ģéĽĨ": 5593,
      "Ġocc": 5594,
      "Ġjo": 5595,
      "Ġaccumul": 5596,
      "Ġextra": 5597,
      "Ġatomic": 5598,
      "Ġprotons": 5599,
      "Ġfactor": 5600,
      "Ġstatistics": 5601,
      "æ¥¼": 5602,
      "Ġdiscovered": 5603,
      "è®°å¿Ĩä½ĵ": 5604,
      "ç¹ģæ®ĸ": 5605,
      "Ġremoved": 5606,
      "ç¿»è¯ĳ": 5607,
      "pecially": 5608,
      "Ġhappen": 5609,
      "éģĩåĪ°": 5610,
      "Ġespecially": 5611,
      "èĳ¡èĲĦ": 5612,
      "),": 5613,
      "99": 5614,
      "ble": 5615,
      "ccess": 5616,
      "dt": 5617,
      "iel": 5618,
      "oy": 5619,
      "xy": 5620,
      "µĮ": 5621,
      "åµĮ": 5622,
      "Ġ6": 5623,
      "ħéĢŁ": 5624,
      "çļĦç§ĳåŃ¦": 5625,
      "Ġterms": 5626,
      "inc": 5627,
      "rete": 5628,
      "è¿ħéĢŁ": 5629,
      "Ġcac": 5630,
      "æĺ¯æľĢ": 5631,
      "æĺ¯è¯¯åĮº": 5632,
      "Ġpack": 5633,
      "Ġwrong": 5634,
      "å¼¦": 5635,
      "ä»¥åīį": 5636,
      "ä»¥ä¸ĭçļĦ": 5637,
      "æµĨ": 5638,
      "æĪĲåĳĺ": 5639,
      "æī«": 5640,
      "Ġlab": 5641,
      "çĶŁåŃĺ": 5642,
      "èĢĮåľ¨": 5643,
      "ç®±": 5644,
      "å±ı": 5645,
      "iments": 5646,
      "åıĳå°Ħ": 5647,
      "ç´«": 5648,
      "idge": 5649,
      "ä¹Łåı¯": 5650,
      "term": 5651,
      "å½¢æĢģ": 5652,
      "els": 5653,
      "æ²Ł": 5654,
      "osite": 5655,
      "éĥ½èĥ½": 5656,
      "æ°´æ±½": 5657,
      "ember": 5658,
      "åı¯èĥ½æĢ§": 5659,
      "åĬłçĥŃ": 5660,
      "å¹³æ´ĭ": 5661,
      "Ġneighb": 5662,
      "plied": 5663,
      "ç¦»å¼Ģ": 5664,
      "äº§åĵģ": 5665,
      "è¾ĥå°ı": 5666,
      "æ³¢çļĦ": 5667,
      "acing": 5668,
      "å·¥ä¸ļ": 5669,
      "ocks": 5670,
      "è±Ĩ": 5671,
      "Ġshaking": 5672,
      "å»ī": 5673,
      "åľ°çĲĥè¡¨éĿ¢": 5674,
      "åħ¬åı¸": 5675,
      "å¤ªç©º": 5676,
      "å¤ªå¹³æ´ĭ": 5677,
      "è§ĦåĪĴ": 5678,
      "åĿĩåĢ¼": 5679,
      "å¹¶ä¸įä¸Ģå®ļ": 5680,
      "Ġdifferently": 5681,
      "Ġspin": 5682,
      "çº¦ä¸º": 5683,
      "å®ŀéªĮå®¤": 5684,
      "Ġtrain": 5685,
      "Ġpercent": 5686,
      "ä»įåı¯èĥ½": 5687,
      "å¤ªéĺ³ç³»": 5688,
      "åıĪç§°": 5689,
      "Ġyou": 5690,
      "rying": 5691,
      "Ġothers": 5692,
      "ä¿®å¤į": 5693,
      "Ġapplying": 5694,
      "åıĮèŀºæĹĭ": 5695,
      "æ¹¾": 5696,
      "åķ¸": 5697,
      "Ġcomputer": 5698,
      "Ġsetting": 5699,
      "é¥±åĴĮ": 5700,
      "Ġstudies": 5701,
      "Ġmechanical": 5702,
      "Ġmechanisms": 5703,
      "Ġspecific": 5704,
      "åįłæį®": 5705,
      "ç¡¬ä»¶": 5706,
      "è®¯æģ¯": 5707,
      "çĻ¾ä¸ĩ": 5708,
      "Ġlevels": 5709,
      "éĴĪå¯¹": 5710,
      "Ġunderstanding": 5711,
      "Ġmathem": 5712,
      "èģĶç³»èµ·æĿ¥": 5713,
      "éļĲèĹı": 5714,
      "å¹¿ä¹īçĽ¸å¯¹è®º": 5715,
      "Ġrecords": 5716,
      "Ġlayer": 5717,
      "Ġlayers": 5718,
      "Ġquestions": 5719,
      "uracy": 5720,
      "æ°¸è¿ľ": 5721,
      "Ġpopulation": 5722,
      "Ġvolcanic": 5723,
      "å°ļæľª": 5724,
      "Ġangular": 5725,
      "èĻļæĭŁ": 5726,
      "Ġpropag": 5727,
      "ĠPhysics": 5728,
      "çŁ¢éĩı": 5729,
      "çº¤ç»´": 5730,
      "çĭŃä¹īçĽ¸å¯¹è®º": 5731,
      "Ġtarget": 5732,
      "35": 5733,
      "After": 5734,
      "FS": 5735,
      "IC": 5736,
      "NS": 5737,
      "hood": 5738,
      "miss": 5739,
      "pr": 5740,
      "Ġ5": 5741,
      "ĠçĶ±": 5742,
      "ĠéĢļå¸¸": 5743,
      "ä¸°": 5744,
      "inary": 5745,
      "åĲ¹": 5746,
      "Ġsk": 5747,
      "Ġmere": 5748,
      "ither": 5749,
      "Ġposition": 5750,
      "Ġdest": 5751,
      "Ġdynam": 5752,
      "æķ°éĩıçļĦ": 5753,
      "æľīè®¸å¤ļ": 5754,
      "Ġfull": 5755,
      "lement": 5756,
      "å¤§èĩ´": 5757,
      "èĢĮéĿŀ": 5758,
      "åŁİ": 5759,
      "éĻ¢": 5760,
      "Ġhalf": 5761,
      "å¤ļæł·": 5762,
      "å¤ļå±Ĥ": 5763,
      "çĽ¸å¯¹äºİ": 5764,
      "stra": 5765,
      "åĲİç»Ń": 5766,
      "eli": 5767,
      "å®ĥæĺ¯": 5768,
      "æ²¸": 5769,
      "æ´¾": 5770,
      "æ¸Ĺ": 5771,
      "Ġview": 5772,
      "å¤įæķ°": 5773,
      "ç«ł": 5774,
      "ä¼łæĦŁ": 5775,
      "Ġselect": 5776,
      "å·®åĪ«": 5777,
      "æ±Ĳ": 5778,
      "æĦıè¯Ĩ": 5779,
      "èī¾": 5780,
      "Ġshar": 5781,
      "å°Ħçº¿": 5782,
      "ä½İæ¸©": 5783,
      "æŀģå°ı": 5784,
      "å®ļä¹īåŁŁ": 5785,
      "ibr": 5786,
      "åĽ¾çģµ": 5787,
      "Ġleaves": 5788,
      "è®°ä¸º": 5789,
      "åĬŁçİĩ": 5790,
      "Ġinterval": 5791,
      "Ġdisturb": 5792,
      "rents": 5793,
      "Ġrain": 5794,
      "Ġremember": 5795,
      "Ġproducing": 5796,
      "æŁĵèī²è´¨": 5797,
      "çĹķ": 5798,
      "Ġreco": 5799,
      "Ġindex": 5800,
      "èĴĻ": 5801,
      "Ġmeaning": 5802,
      "Ġinstrum": 5803,
      "æ²¿çĿĢ": 5804,
      "Ġsuperconducting": 5805,
      "çīĩæ®µ": 5806,
      "ç¬¬äºĮå®ļå¾ĭ": 5807,
      "Ġerrors": 5808,
      "Ġfailure": 5809,
      "Ġrepeatedly": 5810,
      "æ½®æ±Ĳ": 5811,
      "Ġidea": 5812,
      "Ġwavelength": 5813,
      "ypot": 5814,
      "Ġupdate": 5815,
      "Ġrisk": 5816,
      "Ġclear": 5817,
      "ansion": 5818,
      "èģļåĲĪéħ¶": 5819,
      "Ġsometimes": 5820,
      "åĢŁçĶ±": 5821,
      "è¢«è®¤ä¸ºæĺ¯": 5822,
      "Ġrapidly": 5823,
      "Ġreached": 5824,
      "ä¸Ļéħ®": 5825,
      "è¿ĶåĽŀ": 5826,
      "allel": 5827,
      "AB": 5828,
      "flow": 5829,
      "èŃ": 5830,
      "Ġåı¦å¤ĸ": 5831,
      "çļĦè§£": 5832,
      "çļĦåĢ¼": 5833,
      "çļĦé«ĺ": 5834,
      "Ġtable": 5835,
      "Ġtecton": 5836,
      "Ġast": 5837,
      "åĲī": 5838,
      "Ġsent": 5839,
      "å¤¹": 5840,
      "Ġpubl": 5841,
      "Ġbus": 5842,
      "ä¸ªæķ°": 5843,
      "ici": 5844,
      "icon": 5845,
      "æĹ¶ä»£": 5846,
      "åĮĸåĴĮ": 5847,
      "çº²": 5848,
      "åıĺéĩıçļĦ": 5849,
      "å¤ļæ¬¡": 5850,
      "Ġbel": 5851,
      "çĽ¸éĤ»": 5852,
      "ä½ľåĬŁ": 5853,
      "åİŁæł¸": 5854,
      "çĤ¸": 5855,
      "ching": 5856,
      "ç»ıåİĨ": 5857,
      "ection": 5858,
      "å¾Īå°ı": 5859,
      "å¹³æĹ¶": 5860,
      "è·³": 5861,
      "Ġwhole": 5862,
      "Ġsufficient": 5863,
      "å¼ĢæĶ¾": 5864,
      "izing": 5865,
      "äºĮç»´": 5866,
      "Ġunus": 5867,
      "Ġcomposition": 5868,
      "äº§çĶŁäºĨ": 5869,
      "èĦī": 5870,
      "çľĭä½ľ": 5871,
      "åĩłåĪĨéĴŁ": 5872,
      "è·¯çº¿": 5873,
      "Ġlead": 5874,
      "Ġroute": 5875,
      "è®°ä½ı": 5876,
      "èįī": 5877,
      "Ġobs": 5878,
      "èİ«": 5879,
      "è§Ĵèī²": 5880,
      "Ġparts": 5881,
      "Ġclim": 5882,
      "æķ£å°Ħ": 5883,
      "åĨĻæĪĲ": 5884,
      "Ġeveryone": 5885,
      "åįģåĪĨ": 5886,
      "Ġdecre": 5887,
      "æ°¢ç¦»åŃĲ": 5888,
      "çĪ¶": 5889,
      "åı¶ç»¿": 5890,
      "åįĹæŀģ": 5891,
      "ä»Ĭå¤©": 5892,
      "Ġmainly": 5893,
      "Ġmaintain": 5894,
      "Ġresearchers": 5895,
      "Ġtokens": 5896,
      "Ġflux": 5897,
      "Ġcentral": 5898,
      "Ġcircu": 5899,
      "Ġprecision": 5900,
      "Ġupdates": 5901,
      "Ġstreet": 5902,
      "Ġsomething": 5903,
      "Ġbias": 5904,
      "âŁ©": 5905,
      "Ġrarely": 5906,
      "èĵĿ": 5907,
      "Ġfundam": 5908,
      "Ġmerely": 5909,
      "ä¼łæĦŁåĻ¨": 5910,
      "100": 5911,
      "Ar": 5912,
      "BM": 5913,
      "Before": 5914,
      "Elect": 5915,
      "SO": 5916,
      "Sc": 5917,
      "Two": 5918,
      "ares": 5919,
      "mv": 5920,
      "mer": 5921,
      "off": 5922,
      "ton": 5923,
      "the": 5924,
      "water": 5925,
      "é½": 5926,
      "ĠX": 5927,
      "Ġä»¥": 5928,
      "ĠâĨĴ": 5929,
      "çļĦåŃĲ": 5930,
      "çļĦåĲĳéĩı": 5931,
      "çļĦæĢ§è´¨": 5932,
      "inite": 5933,
      "Ġsed": 5934,
      "å®ľ": 5935,
      "åľ¨ä¸Ģ": 5936,
      "æľīçĶ¨": 5937,
      "åı¯å¯¼": 5938,
      "åŃ¦æľ¯": 5939,
      "çİĭ": 5940,
      "Ġlif": 5941,
      "åıĺå½¢": 5942,
      "è¿Ļä¸¤ä¸ª": 5943,
      "ä¸Ĭæľī": 5944,
      "Ġhoriz": 5945,
      "Ġbelow": 5946,
      "çĽ¸æ¯Ķ": 5947,
      "çİ°ä»Ĭ": 5948,
      "å¸¸çĶ¨çļĦ": 5949,
      "éĢļçĶ¨": 5950,
      "ä¸ĭä¸Ģä¸ª": 5951,
      "ä¹ĭä¸Ń": 5952,
      "æĽ´å¼º": 5953,
      "Ġprote": 5954,
      "ifies": 5955,
      "éĥ½åľ¨": 5956,
      "éģµ": 5957,
      "rier": 5958,
      "Ġforces": 5959,
      "ä½Ĩå®ĥ": 5960,
      "Ġnotice": 5961,
      "resents": 5962,
      "å¤ĸå±Ĥ": 5963,
      "è°¨": 5964,
      "artment": 5965,
      "åİŁåŃĲéĩı": 5966,
      "ç»ĵæŀĦåĴĮ": 5967,
      "Ġselection": 5968,
      "æĹ¶éĹ´å¤įæĿĤåº¦": 5969,
      "pth": 5970,
      "æ¶¡": 5971,
      "äºĮéĺ¶": 5972,
      "çī©çĲĨéĩı": 5973,
      "æĺ¾å¾®": 5974,
      "åį´åı¯èĥ½": 5975,
      "Ġrocks": 5976,
      "Ġscience": 5977,
      "ä¸īè§Ĵ": 5978,
      "æĴĳ": 5979,
      "èĭ¥å¹²": 5980,
      "é¡¹çĽ®": 5981,
      "åĳ¨æľŁæĢ§": 5982,
      "æĭīæĸ¯": 5983,
      "è¯ķåĽ¾": 5984,
      "æĹ¥å¸¸": 5985,
      "Ġgradu": 5986,
      "Ġoutside": 5987,
      "Ġrepresents": 5988,
      "Ġpost": 5989,
      "Ġworked": 5990,
      "èĴĤ": 5991,
      "Ġparallel": 5992,
      "plications": 5993,
      "æ¿Ģåıĳ": 5994,
      "requency": 5995,
      "è¶ħå¯¼ä½ĵ": 5996,
      "ä¸ĵéĹ¨": 5997,
      "ledge": 5998,
      "Ġaccuracy": 5999,
      "Ġcausal": 6000,
      "æīĵå¼Ģ": 6001,
      "äº¿å¹´åīį": 6002,
      "åĽ¢éĺŁ": 6003,
      "Ġproperty": 6004,
      "æĶ¾å°ĦæĢ§åĲĮä½įç´ł": 6005,
      "Ġbackground": 6006,
      "Ġprogress": 6007,
      "Ġgravitational": 6008,
      "æĦŁçŁ¥æľº": 6009,
      "åĳĪçİ°": 6010,
      "Ġrotation": 6011,
      "Ġfamiliar": 6012,
      "Ġpractical": 6013,
      "äº¤äºĴä½ľçĶ¨": 6014,
      "åĪłéĻ¤": 6015,
      "Ġdataset": 6016,
      "èĢ¦åĲĪ": 6017,
      "iciency": 6018,
      "ob": 6019,
      "of": 6020,
      "tical": 6021,
      "vari": 6022,
      "Ġä¸įåĲĮ": 6023,
      "Ġè¡¨ç¤º": 6024,
      "ĠæľīäºĽ": 6025,
      "çļĦåºĶçĶ¨": 6026,
      "çļĦå¤§å°ı": 6027,
      "Ġaction": 6028,
      "reg": 6029,
      "è¿«": 6030,
      "Ġsin": 6031,
      "Ġslight": 6032,
      "ener": 6033,
      "æĺ¯å°Ĩ": 6034,
      "orre": 6035,
      "Ġmist": 6036,
      "Ġpast": 6037,
      "ä¼´": 6038,
      "Ġwarning": 6039,
      "Ġfore": 6040,
      "Ġfood": 6041,
      "Ġfloor": 6042,
      "å¯¿": 6043,
      "åı¯åĪĨä¸º": 6044,
      "åįİ": 6045,
      "æ³¡": 6046,
      "åĲĮä¸Ģç§į": 6047,
      "åĲĮæŃ¥": 6048,
      "åĲĮæł·çļĦ": 6049,
      "å¤§åŃ¦": 6050,
      "çĶŁæ®ĸ": 6051,
      "ä¼ļå¯¼èĩ´": 6052,
      "å·§": 6053,
      "Ġhidden": 6054,
      "Ġstability": 6055,
      "å¤ļçļĦ": 6056,
      "åĩºåıĳ": 6057,
      "åıĳå¸ĥ": 6058,
      "struct": 6059,
      "åĲİèĢħ": 6060,
      "åĲĳå¤ĸ": 6061,
      "ä¹ĭåĴĮ": 6062,
      "ä½¿åħ¶": 6063,
      "æĽ´æľī": 6064,
      "æĽ´ä½İ": 6065,
      "ä½įæķ°": 6066,
      "æ°Ķåİĭ": 6067,
      "Ġexpen": 6068,
      "Ġexternal": 6069,
      "æ°´åĪĨ": 6070,
      "é«ĺäºİ": 6071,
      "éĿ¢å¯¹": 6072,
      "Ġdepth": 6073,
      "è¾ĥä¸º": 6074,
      "æĮĩå®ļ": 6075,
      "å°ĳæķ°": 6076,
      "ç«ĭæĸ¹": 6077,
      "åıĸä»£": 6078,
      "ĠCo": 6079,
      "anding": 6080,
      "Ġevents": 6081,
      "rupt": 6082,
      "åıĳçİ°äºĨ": 6083,
      "æ¢ħ": 6084,
      "æ¸©åº¦åĴĮ": 6085,
      "ĠDifferent": 6086,
      "èĳĹä½ľ": 6087,
      "åģıæĮ¯": 6088,
      "ä¼ĺåħĪ": 6089,
      "ä¼ĺåĬ¿": 6090,
      "Ġsmo": 6091,
      "æ·±æµ·": 6092,
      "Ġoverall": 6093,
      "æĻ®åĭĴ": 6094,
      "Ġrepair": 6095,
      "Ġexpansion": 6096,
      "Ġcreates": 6097,
      "Ġcreating": 6098,
      "æĲ¬": 6099,
      "å¡Ķ": 6100,
      "åı¤ä»£": 6101,
      "å½Ĵçº³": 6102,
      "Ġcapt": 6103,
      "Ġnumerical": 6104,
      "Ġinstant": 6105,
      "è¯»åıĸ": 6106,
      "è´Ŀåı¶": 6107,
      "éĻĦè¿ĳçļĦ": 6108,
      "åįıè°ĥ": 6109,
      "culation": 6110,
      "è½¬æį¢ä¸º": 6111,
      "å¼¹æĢ§": 6112,
      "å¼¹ç°": 6113,
      "Ġconnected": 6114,
      "Ġchoices": 6115,
      "æļ´éľ²": 6116,
      "Ġexpected": 6117,
      "Ġsteps": 6118,
      "Ġstream": 6119,
      "çĶ²åŁº": 6120,
      "Ġmonth": 6121,
      "èİ±å¸ĥå°¼èĮ¨": 6122,
      "è¯¾ç¨ĭ": 6123,
      "Ġnatural": 6124,
      "Ġdetails": 6125,
      "Ġrule": 6126,
      "çĸ¾çĹħ": 6127,
      "èĳ¡èĲĦç³ĸ": 6128,
      "è´Ŀåı¶æĸ¯": 6129,
      "å¼¹ç°§": 6130,
      "32": 6131,
      "Ne": 6132,
      "com": 6133,
      "efficient": 6134,
      "position": 6135,
      "ted": 6136,
      "yond": 6137,
      "çļĦæĢ»": 6138,
      "çļĦçĽ®æłĩ": 6139,
      "çļĦåĬŁèĥ½": 6140,
      "ä»ĳ": 6141,
      "è¿ª": 6142,
      "Ġsit": 6143,
      "ä½ł": 6144,
      "åŃ©": 6145,
      "åĬª": 6146,
      "åľ¨åĲĮä¸Ģ": 6147,
      "Ġmill": 6148,
      "Ġmark": 6149,
      "ingu": 6150,
      "æľīåĬ©äºİ": 6151,
      "éĢĥ": 6152,
      "Ġwindow": 6153,
      "åĩŃ": 6154,
      "åĪĨæķ£": 6155,
      "ä»¥æĿ¥": 6156,
      "çĶ¨åĪ°": 6157,
      "æĪĲçĨŁ": 6158,
      "Ġnet": 6159,
      "Ġlist": 6160,
      "ä¼ļå¢ŀåĬł": 6161,
      "Ġhome": 6162,
      "åľ°å¹Ķ": 6163,
      "æ³ķåĽ½": 6164,
      "Ġconcept": 6165,
      "åı¯ä»¥ä»İ": 6166,
      "åı¯ä»¥å°Ĩ": 6167,
      "Ġgiv": 6168,
      "ames": 6169,
      "è¢«è§Ĩä¸º": 6170,
      "å¾Ĺå¤ļ": 6171,
      "æŁ¯": 6172,
      "æ°´æ»´": 6173,
      "çº¿ç¨ĭ": 6174,
      "åĪĻç§°": 6175,
      "rie": 6176,
      "Ġmap": 6177,
      "æµ·åķ¸": 6178,
      "Ġnotic": 6179,
      "å¢Ļ": 6180,
      "resp": 6181,
      "ĠAd": 6182,
      "ĠSh": 6183,
      "aced": 6184,
      "acility": 6185,
      "æ±ĩ": 6186,
      "æ¯ıå¤©": 6187,
      "Ġunits": 6188,
      "çľŁç©º": 6189,
      "çĶµåŃĲçļĦ": 6190,
      "ä½İäºİ": 6191,
      "ç§ĳåŃ¦çĲĨè®º": 6192,
      "è®¤çŁ¥": 6193,
      "195": 6194,
      "ibration": 6195,
      "æ±Ĥå¯¼": 6196,
      "æ»¤": 6197,
      "éĢĤçĶ¨": 6198,
      "ä¾ĿéĿł": 6199,
      "åĩıå°ı": 6200,
      "å±ķå¼Ģ": 6201,
      "è¾¹ç¼ĺ": 6202,
      "æĥ³æ³ķ": 6203,
      "èģļéĽĨ": 6204,
      "åįĬè¡°": 6205,
      "å¤ªéĺ³çļĦ": 6206,
      "ä»ħå½ĵ": 6207,
      "ĠWe": 6208,
      "Ġreducing": 6209,
      "éĩıåŃĲæĢģ": 6210,
      "è§Ĥå¯ŁèĢħ": 6211,
      "Ġdecay": 6212,
      "æĳĦ": 6213,
      "Ġmatters": 6214,
      "Ġsolution": 6215,
      "éĿĻçĶµ": 6216,
      "æ¸ħæĻ": 6217,
      "Ġcontrolled": 6218,
      "Ġlikely": 6219,
      "Ġsimpl": 6220,
      "Ġcrust": 6221,
      "Ġcaused": 6222,
      "ä¸ŃåŃĲæķ°": 6223,
      "Ġbuild": 6224,
      "Ġprediction": 6225,
      "Ġconverg": 6226,
      "åŃ£èĬĤ": 6227,
      "å¨ģå»ī": 6228,
      "çĵ¶": 6229,
      "Ġmatrix": 6230,
      "Ġnetworks": 6231,
      "Ġinputs": 6232,
      "cosity": 6233,
      "Ġarrived": 6234,
      "è¿ģç§»": 6235,
      "Ġdomain": 6236,
      "Ġassociated": 6237,
      "ä¿Ŀå®ĪåĬĽ": 6238,
      "èĩªçĦ¶çķĮä¸Ń": 6239,
      "Ġfilter": 6240,
      "Ġmessage": 6241,
      "Ġtheorem": 6242,
      "å¼¯æĽ²": 6243,
      "Ġcommunication": 6244,
      "é¸Ł": 6245,
      "Ġoccup": 6246,
      "æī«æıı": 6247,
      "é½Ĳ": 6248,
      "Ġslightly": 6249,
      "åįĬè¡°æľŁ": 6250,
      "Ax": 6251,
      "En": 6252,
      "ST": 6253,
      "Un": 6254,
      "equ": 6255,
      "mall": 6256,
      "rite": 6257,
      "çĴ": 6258,
      "Ġä¸Ń": 6259,
      "Ġir": 6260,
      "Ġç»Ĩèĥŀ": 6261,
      "Ġæµ·æ´ĭ": 6262,
      "çļĦå·¥ä½ľ": 6263,
      "ä½³": 6264,
      "ç»ĺ": 6265,
      "Ġcame": 6266,
      "ä¸Ģç²Ĵ": 6267,
      "ä¸Ģå¼Ģå§ĭ": 6268,
      "alse": 6269,
      "Ġdem": 6270,
      "Ġdiv": 6271,
      "ä¸įçŃīå¼ı": 6272,
      "Ġfav": 6273,
      "åı¯åľ¨": 6274,
      "lex": 6275,
      "è¡£": 6276,
      "åŃ¦çĶŁ": 6277,
      "åį±": 6278,
      "æ³°": 6279,
      "æĪĲæŀľ": 6280,
      "ceed": 6281,
      "ä¼ļå½¢æĪĲ": 6282,
      "ç®Ń": 6283,
      "Ġhist": 6284,
      "Ġhypot": 6285,
      "åı¯ä»¥ä½¿çĶ¨": 6286,
      "ray": 6287,
      "rams": 6288,
      "æĮ¡": 6289,
      "éĢļéģĵ": 6290,
      "è½Ń": 6291,
      "éĽ¾": 6292,
      "oses": 6293,
      "æ´Ĺ": 6294,
      "æ°´çļĦ": 6295,
      "æ¸Ķ": 6296,
      "åĵ¥": 6297,
      "å¤įåĲĪ": 6298,
      "Ġwhose": 6299,
      "æŃ£åľ¨": 6300,
      "å¤ĸçķĮ": 6301,
      "è°ģ": 6302,
      "åħīçļĦ": 6303,
      "Ġend": 6304,
      "è¾ĥå°ĳ": 6305,
      "åĮĸåŃ¦åħĥç´ł": 6306,
      "éĵľ": 6307,
      "åĩłç§į": 6308,
      "åŃĺåľ¨äºİ": 6309,
      "èĥ½éĩıå®ĪæģĴ": 6310,
      "åıĳçĶŁçļĦ": 6311,
      "è¶Ĭå¤ļ": 6312,
      "æ±Ĥåĩº": 6313,
      "Ġdistant": 6314,
      "Ġrelation": 6315,
      "aps": 6316,
      "åĽ´ç»ķ": 6317,
      "æ¡¥": 6318,
      "ĠBecause": 6319,
      "çģ°": 6320,
      "èģļåıĺ": 6321,
      "å¹³è¡¡ä½įç½®": 6322,
      "Ġsurround": 6323,
      "Ġcolor": 6324,
      "è§Ĥå¯ŁåĪ°": 6325,
      "èı²": 6326,
      "Ġmagma": 6327,
      "çī©çĲĨåŃ¦èĢħ": 6328,
      "å¸ĮæľĽ": 6329,
      "ĠInst": 6330,
      "Ġvariance": 6331,
      "è¯ģæĺİäºĨ": 6332,
      "Ġcorresp": 6333,
      "å®īæİĴ": 6334,
      "Ġcomputation": 6335,
      "Ġconfidence": 6336,
      "Ġeasy": 6337,
      "Ġinspect": 6338,
      "çļĦæľĢå°ı": 6339,
      "Ġslower": 6340,
      "Ġallows": 6341,
      "æ¹¿åº¦": 6342,
      "Ġnuclear": 6343,
      "æ½®æ¹¿": 6344,
      "æĳ©å°Ķ": 6345,
      "Ġclassical": 6346,
      "Ġrelatively": 6347,
      "çıŃ": 6348,
      "å¼ĹéĩĮ": 6349,
      "å¯ĨçłģåŃĲ": 6350,
      "Ġcomponent": 6351,
      "æīĢéľĢçļĦ": 6352,
      "çĳŁ": 6353,
      "é¾Ļ": 6354,
      "çİ»çĴ": 6355,
      "Ġpolar": 6356,
      "çĪĨçĤ¸": 6357,
      "Ġderivative": 6358,
      "Ġbreak": 6359,
      "Ġinitial": 6360,
      "ĠAcceler": 6361,
      "Ġtrue": 6362,
      "Ġprobabilities": 6363,
      "ä¸Ļéħ®éħ¸": 6364,
      "Ġfundamental": 6365,
      "Ġgradually": 6366,
      "çİ»çĴĥ": 6367,
      "ched": 6368,
      "fort": 6369,
      "iol": 6370,
      "ope": 6371,
      "éŀ": 6372,
      "Ġ|": 6373,
      "ĠçĽ®åīį": 6374,
      "rec": 6375,
      "ativity": 6376,
      "Ġsa": 6377,
      "Ġsil": 6378,
      "ä¹ı": 6379,
      "ising": 6380,
      "Ġwant": 6381,
      "è¯ī": 6382,
      "Ġrevers": 6383,
      "Ġreplication": 6384,
      "çī©ä»¶": 6385,
      "æ³Ħ": 6386,
      "éĹ´éļĶ": 6387,
      "ç¨į": 6388,
      "è¡¨å±Ĥ": 6389,
      "éĢļä¿¡": 6390,
      "Ġones": 6391,
      "æľĢè¿ĳ": 6392,
      "æīĢåıĹ": 6393,
      "è®ºæĸĩ": 6394,
      "è¡Įç¨ĭ": 6395,
      "è¢«çĶ¨äºİ": 6396,
      "æ°Ķæµģ": 6397,
      "osen": 6398,
      "çº¿ç´¢": 6399,
      "åĿļ": 6400,
      "å¾Īå¤§çļĦ": 6401,
      "ç§¯ç´¯": 6402,
      "Ġrules": 6403,
      "ploy": 6404,
      "artic": 6405,
      "è¿ĲçĶ¨": 6406,
      "éķ¿çļĦ": 6407,
      "Ġsug": 6408,
      "Ġsuitable": 6409,
      "æıĲåįĩ": 6410,
      "è¾ĥå¤§çļĦ": 6411,
      "è¾ĥå°ıçļĦ": 6412,
      "ĠSe": 6413,
      "ĠSome": 6414,
      "pty": 6415,
      "æĶ¹åĸĦ": 6416,
      "è¯´æ³ķ": 6417,
      "NASA": 6418,
      "Ġcompares": 6419,
      "éĵ¶": 6420,
      "çŁ©éĺµA": 6421,
      "Ġsoil": 6422,
      "çľĭä¼¼": 6423,
      "æŀģæĢ§": 6424,
      "è¾¾å°Ķæĸĩ": 6425,
      "Ġusual": 6426,
      "é¢ĦæľŁ": 6427,
      "åħ±è½Ń": 6428,
      "Ġrough": 6429,
      "å¹¶ä¸įä¼ļ": 6430,
      "Ġintermedi": 6431,
      "Ġsched": 6432,
      "æİ¨è®º": 6433,
      "Ńç»Ŀ": 6434,
      "ç¥ĸ": 6435,
      "åħĭæĸ¯": 6436,
      "Ġclosed": 6437,
      "Ġadding": 6438,
      "éģĹä¼łåŃ¦": 6439,
      "oking": 6440,
      "çģŃç»Ŀ": 6441,
      "ä»·æł¼": 6442,
      "Ġdatab": 6443,
      "ĠHigh": 6444,
      "ç»ĪæŃ¢": 6445,
      "é¦Ļ": 6446,
      "çĽ®æłĩåĢ¼": 6447,
      "Ġsurv": 6448,
      "Ġactual": 6449,
      "æŁĵèī²ä½ĵçļĦ": 6450,
      "Ġpoly": 6451,
      "äººç±»çļĦ": 6452,
      "èĮĥåĽ´åĨħ": 6453,
      "Ġcurrents": 6454,
      "åĪĩçº¿": 6455,
      "å¹²æī°": 6456,
      "æķ°åĢ¼åĪĨæŀĲ": 6457,
      "åĪĴåĪĨ": 6458,
      "inux": 6459,
      "ç¼ºä¹ı": 6460,
      "æīĭæľº": 6461,
      "ç±»åŀĭçļĦ": 6462,
      "çļĦæľĢå¤§": 6463,
      "äºīè®®": 6464,
      "Ġunique": 6465,
      "æĹ©æľŁçļĦ": 6466,
      "Ġsupports": 6467,
      "è´¹ç±³": 6468,
      "Ġprim": 6469,
      "åĩĿèģļ": 6470,
      "Ġdelay": 6471,
      "Ġchoice": 6472,
      "æĺłå°ĦåĪ°": 6473,
      "å·¨å¤§": 6474,
      "éĺ²æŃ¢": 6475,
      "Ġcomplexity": 6476,
      "Ġneutrons": 6477,
      "æĸľçİĩ": 6478,
      "é¾Ħ": 6479,
      "Ġwaiting": 6480,
      "Ġagainst": 6481,
      "Ġatmosphere": 6482,
      "Ġresources": 6483,
      "Ġconvex": 6484,
      "åŁİå¸Ĥ": 6485,
      "95": 6486,
      "Al": 6487,
      "As": 6488,
      "dden": 6489,
      "oper": 6490,
      "Ġå¦Ĥ": 6491,
      "ĠåİŁåŃĲ": 6492,
      "ä¸ĥ": 6493,
      "çļĦå½¢æĪĲ": 6494,
      "çļĦæĥħåĨµ": 6495,
      "çļĦæķ°éĩı": 6496,
      "çļĦä¾ĭåŃĲ": 6497,
      "ï¼Įâĭ¯": 6498,
      "inding": 6499,
      "atives": 6500,
      "åħ¼": 6501,
      "Ġsal": 6502,
      "å®¡": 6503,
      "ä¸Ģå¤©": 6504,
      "ancy": 6505,
      "æĪı": 6506,
      "Ġbatter": 6507,
      "ä¸įçŃīäºİ": 6508,
      "ä¸įçŁ¥éģĵ": 6509,
      "ä¼ĳ": 6510,
      "Ġfalse": 6511,
      "è¯¦": 6512,
      "è¯¸": 6513,
      "æĿ°": 6514,
      "è¡Ĺ": 6515,
      "åŃĲéĽĨ": 6516,
      "çĽĴ": 6517,
      "omers": 6518,
      "å¤§è§Ħæ¨¡": 6519,
      "Ġconcur": 6520,
      "åı¯ä»¥çĶ±": 6521,
      "åı¯ä»¥æĬĬ": 6522,
      "éĺĪ": 6523,
      "çŃĳ": 6524,
      "åİŁåĪĻ": 6525,
      "Ġglu": 6526,
      "Ġgases": 6527,
      "Ġgood": 6528,
      "æľĢå¤ļ": 6529,
      "è®¡æķ°": 6530,
      "ä¹ĭä¸º": 6531,
      "è¡ĮçļĦ": 6532,
      "åŀĴ": 6533,
      "è¶£": 6534,
      "èĩªæĹĭ": 6535,
      "ĠTo": 6536,
      "å¾Ĺåĩº": 6537,
      "éļ§": 6538,
      "æ°´å¾ªçİ¯": 6539,
      "åı¯èĥ½åľ¨": 6540,
      "èĥ¶": 6541,
      "æµ·æµª": 6542,
      "Ġdead": 6543,
      "å¤įåĲĪçī©": 6544,
      "Ġcomes": 6545,
      "å¤ĸçº¿": 6546,
      "è°Ĳ": 6547,
      "çłĶç©¶çļĦ": 6548,
      "Ġsuccess": 6549,
      "Ġsudden": 6550,
      "åħ·å¤ĩ": 6551,
      "çĲĨè®ºä¸Ĭ": 6552,
      "æ¯ıå¹´": 6553,
      "èµ·çĤ¹": 6554,
      "å°Ĩåħ¶": 6555,
      "sequ": 6556,
      "æĮĩéĴĪ": 6557,
      "orth": 6558,
      "èĥ½éĩıçļĦ": 6559,
      "è®¤è¯Ĩ": 6560,
      "odes": 6561,
      "ç¾§": 6562,
      "ç®Ģç§°": 6563,
      "Ġrout": 6564,
      "è®©äºº": 6565,
      "å¹¶ä¸įçŃīäºİ": 6566,
      "èĥ½å¤Łåľ¨": 6567,
      "æŀĦè±¡": 6568,
      "åħ¶ä»ĸçļĦ": 6569,
      "Ġspect": 6570,
      "æİ¨åĩº": 6571,
      "Ġdispl": 6572,
      "æĶ¶éĽĨ": 6573,
      "çģ¾": 6574,
      "å®Įåħ¨ä¸įåĲĮ": 6575,
      "å®Įåħ¨çĽ¸åĲĮ": 6576,
      "å®Įåħ¨ä¸įåĲĮçļĦ": 6577,
      "èĭ±éĩĮ": 6578,
      "æĹ¥å¿Ĺ": 6579,
      "Ġefficiency": 6580,
      "Ġlost": 6581,
      "ä¸ĸçºªçļĦ": 6582,
      "çī©çĲĨåŃ¦å®¶": 6583,
      "ificant": 6584,
      "Ġexplan": 6585,
      "æ¹ĸ": 6586,
      "Ġkept": 6587,
      "çĸĹ": 6588,
      "plicated": 6589,
      "Ġdistributions": 6590,
      "Ġdistributed": 6591,
      "Ġremained": 6592,
      "åĪĨåĪ«æĺ¯": 6593,
      "Ġmechanics": 6594,
      "Ġpaths": 6595,
      "Ġoperation": 6596,
      "Ġoperating": 6597,
      "åĪĽå»º": 6598,
      "atching": 6599,
      "äº¿å¹´": 6600,
      "Ġphysics": 6601,
      "Ġexperience": 6602,
      "Ġlimited": 6603,
      "éĺŁåĪĹ": 6604,
      "Ġfactors": 6605,
      "åģ¶çĦ¶": 6606,
      "åĽłæŀľåħ³ç³»": 6607,
      "Ġeventually": 6608,
      "Ġrecord": 6609,
      "æ¼Ĥç§»": 6610,
      "Ġsamples": 6611,
      "çľŁæł¸çĶŁçī©": 6612,
      "Ġturned": 6613,
      "åĵ²åŃ¦å®¶": 6614,
      "çĽĳçĿ£åŃ¦ä¹ł": 6615,
      "âĮĬ": 6616,
      "Ġdisappeared": 6617,
      "æ¡£æ¡Ī": 6618,
      "Ġfeedback": 6619,
      "Ġexecution": 6620,
      "Ġbarrier": 6621,
      "Ġconversation": 6622,
      "æ¾³": 6623,
      "Ġexpensive": 6624,
      "Ch": 6625,
      "NI": 6626,
      "bo": 6627,
      "cal": 6628,
      "oving": 6629,
      "ring": 6630,
      "tes": 6631,
      "thesis": 6632,
      "uation": 6633,
      "xn": 6634,
      "ç¯": 6635,
      "Ġ4": 6636,
      "Ġign": 6637,
      "Ĺä½Ļ": 6638,
      "çļĦéħ¶": 6639,
      "çļĦçĬ¶æĢģ": 6640,
      "åĲĥ": 6641,
      "Ġsqu": 6642,
      "enced": 6643,
      "order": 6644,
      "åĬŀ": 6645,
      "Ġmis": 6646,
      "itation": 6647,
      "å°ĺ": 6648,
      "Ġdro": 6649,
      "Ġbased": 6650,
      "ä¸įåı¯èĥ½": 6651,
      "éĩıçº²": 6652,
      "åĪĨæķ°": 6653,
      "åĪĨåĮĸ": 6654,
      "ä»¥ä¸ĬçļĦ": 6655,
      "åĨĹä½Ļ": 6656,
      "Ġnight": 6657,
      "å®ļä½į": 6658,
      "Ġland": 6659,
      "çº¹": 6660,
      "è´¨å¿ĥ": 6661,
      "åĬ¨éĩıçļĦ": 6662,
      "çĶµè´Ł": 6663,
      "åĩºæĿ¥çļĦ": 6664,
      "çĽ¸è¿ŀ": 6665,
      "ä¹Łåľ¨": 6666,
      "ç®ĹåŃĲ": 6667,
      "oll": 6668,
      "ä¹ĭä¸Ĭ": 6669,
      "çŃīåĲĮ": 6670,
      "æĽ´å¤§çļĦ": 6671,
      "æł¸ç§į": 6672,
      "Ġprove": 6673,
      "å¹´é¾Ħ": 6674,
      "é«ĺæĸ¯": 6675,
      "çĦ¦": 6676,
      "ä¼łå¯¼": 6677,
      "åĪĹè¡¨": 6678,
      "æĬĬå®ĥ": 6679,
      "éķ¿æĹ¶éĹ´": 6680,
      "ç»ĨèĥŀåĪĨè£Ĥ": 6681,
      "Ġcore": 6682,
      "Ġareas": 6683,
      "å®Įç¾İ": 6684,
      "Ġunre": 6685,
      "Ġcompared": 6686,
      "Ġshif": 6687,
      "æĮĩä»¤": 6688,
      "çĥŃå®¹": 6689,
      "Ġsoft": 6690,
      "ç¢İ": 6691,
      "è´¨éĩıåĴĮ": 6692,
      "æĸ¹æ³ķæĺ¯": 6693,
      "æ·¡": 6694,
      "é£İéĢŁ": 6695,
      "å±ŀæĢ§": 6696,
      "ired": 6697,
      "è§ĦèĮĥ": 6698,
      "ogn": 6699,
      "Ġspent": 6700,
      "å¯ĨåĪĩ": 6701,
      "ĠMe": 6702,
      "å¤±æķĪ": 6703,
      "éĤ£æł·": 6704,
      "Ġwords": 6705,
      "ĠBut": 6706,
      "æłĳçļĦ": 6707,
      "æģĴå®ļ": 6708,
      "æĭīæł¼": 6709,
      "Ġeffort": 6710,
      "Ġreport": 6711,
      "Ġexpress": 6712,
      "çľŁæŃ£çļĦ": 6713,
      "è¿ľç¦»": 6714,
      "æĶ¯æĴĳ": 6715,
      "èıľ": 6716,
      "åıĹåĪ°çļĦ": 6717,
      "ä¹ĺä»¥": 6718,
      "Ġmetal": 6719,
      "åı¤å¸ĮèħĬ": 6720,
      "ĠThat": 6721,
      "ç½Ĺé©¬": 6722,
      "åĵªéĩĮ": 6723,
      "åı¯ä»¥çĶ¨æĿ¥": 6724,
      "ç»ĻåĩºäºĨ": 6725,
      "èĩªçĶ±èĥ½": 6726,
      "åħħåĪĨ": 6727,
      "æĬĺåıł": 6728,
      "æµĭè¯ķéĽĨ": 6729,
      "Ġbuilding": 6730,
      "Ġexperiments": 6731,
      "gener": 6732,
      "bitr": 6733,
      "Ġprinc": 6734,
      "Ġavoid": 6735,
      "çıł": 6736,
      "Ġmolecular": 6737,
      "Ġcalcul": 6738,
      "Ġdrive": 6739,
      "Ġhaz": 6740,
      "Ġexplains": 6741,
      "Ġgroups": 6742,
      "å¸Ĥåľº": 6743,
      "è¾¨è¯Ĩ": 6744,
      "Ġdevice": 6745,
      "Ġcount": 6746,
      "åĲ¯åĬ¨": 6747,
      "Ġoutcomes": 6748,
      "åĮ»åŃ¦": 6749,
      "çĶŁæĢģç³»ç»Ł": 6750,
      "Ġmicroscopic": 6751,
      "Ġholes": 6752,
      "Ġdomin": 6753,
      "çŀ¬æĹ¶": 6754,
      "æ®ĭå·®": 6755,
      "âĮĭ": 6756,
      "Ġalgorithms": 6757,
      "è¾ħåĬ©": 6758,
      "Ġpairs": 6759,
      "oxide": 6760,
      "Ġconstraints": 6761,
      "ĠOnce": 6762,
      "Ġprior": 6763,
      "è¿ĩæ¸¡éĩĳå±ŀ": 6764,
      "riction": 6765,
      "Ġcatal": 6766,
      "å¸¦çĶµç²ĴåŃĲ": 6767,
      "è¸ª": 6768,
      "Ġconservation": 6769,
      "æ±¡æŁĵ": 6770,
      "Ġsediment": 6771,
      "å¯¿åĳ½": 6772,
      "Ġsmooth": 6773,
      "åŃ©åŃĲ": 6774,
      "ĠAccelerator": 6775,
      "Ġsuggest": 6776,
      "01": 6777,
      "33": 6778,
      "During": 6779,
      "Ep": 6780,
      "To": 6781,
      "dy": 6782,
      "mar": 6783,
      "ned": 6784,
      "ouse": 6785,
      "rid": 6786,
      "ĠZ": 6787,
      "ĠçłĶç©¶": 6788,
      "ĠæīĢæľī": 6789,
      "Ġä»£è¡¨": 6790,
      "ĠéļıçĿĢ": 6791,
      "ĠéĻ¤äºĨ": 6792,
      "çļĦåŃĺåľ¨": 6793,
      "çļĦè§£éĩĬ": 6794,
      "çļĦè§ĤçĤ¹": 6795,
      "çļĦæĥħå½¢": 6796,
      "energy": 6797,
      "ä¹Į": 6798,
      "æľīå¤ļ": 6799,
      "éĢ¸": 6800,
      "Ġfill": 6801,
      "roph": 6802,
      "åı¯çĶ¨äºİ": 6803,
      "Ġrefer": 6804,
      "Ġreverse": 6805,
      "æ³Ĭ": 6806,
      "è´§": 6807,
      "å®ļéĩı": 6808,
      "ä¼ļåĦ¿": 6809,
      "uster": 6810,
      "ä¸Ĭæĸ¹": 6811,
      "Ġhis": 6812,
      "Ġbeyond": 6813,
      "Ġconv": 6814,
      "ä¹Łç§°ä¸º": 6815,
      "æĮĳ": 6816,
      "ä¸ĭæĸ¹": 6817,
      "éĽħ": 6818,
      "ï¼ļâĢľ": 6819,
      "æıŃ": 6820,
      "heric": 6821,
      "Ġexoplan": 6822,
      "abl": 6823,
      "ument": 6824,
      "èĥ¡": 6825,
      "å¾Īä¹ħ": 6826,
      "ä¸¤ç±»": 6827,
      "æµģç¨ĭ": 6828,
      "æĬĬä¸Ģä¸ª": 6829,
      "åīįæıĲ": 6830,
      "èĭı": 6831,
      "æķ°æį®çļĦ": 6832,
      "ĠTheir": 6833,
      "çĥ§": 6834,
      "ĠSuper": 6835,
      "çĲĨè®ºä¸Ń": 6836,
      "åħ¨å±Ģ": 6837,
      "Ġcontent": 6838,
      "éĻįè§£": 6839,
      "Ġqubits": 6840,
      "acts": 6841,
      "åĪ«äºº": 6842,
      "åĪ©äºļ": 6843,
      "190": 6844,
      "æĶ¹åıĺäºĨ": 6845,
      "Ġeval": 6846,
      "çº¿æĢ§ç»ĦåĲĪ": 6847,
      "èĩ³ä»Ĭ": 6848,
      "ransform": 6849,
      "Ġdistingu": 6850,
      "Ġtrade": 6851,
      "éĢĤå½ĵ": 6852,
      "ä¾Ŀçħ§": 6853,
      "äº¤æµģ": 6854,
      "èº«ä½ĵ": 6855,
      "å»ºçŃĳ": 6856,
      "Ġadv": 6857,
      "æĦŁåºĶ": 6858,
      "Ġ10": 6859,
      "è¶³ä»¥": 6860,
      "ĠFacility": 6861,
      "Ġphone": 6862,
      "éĢīæĭ©æĢ§": 6863,
      "èĭ±å°º": 6864,
      "çİ¯å¢ĥä¸Ń": 6865,
      "Ġvalid": 6866,
      "ä»ħä»ħ": 6867,
      "èĢĮæĺ¯åľ¨": 6868,
      "åįģåĪĨéĴŁ": 6869,
      "Ġdecisions": 6870,
      "Ġarbitr": 6871,
      "æĳĨ": 6872,
      "å®īéĿĻ": 6873,
      "ç¾İæ´²": 6874,
      "Ġhighly": 6875,
      "Ġdescribed": 6876,
      "å²©æµĨ": 6877,
      "å¾Ģå¾Ģæ¯Ķ": 6878,
      "éĢıæĺİ": 6879,
      "ç±»ä¼¼äºİ": 6880,
      "ç¼ºå°ĳ": 6881,
      "Ġsomeone": 6882,
      "è´Ŀæł¼": 6883,
      "æĬ½æł·": 6884,
      "åį¡å°Ķ": 6885,
      "Ġflows": 6886,
      "Ġmechanism": 6887,
      "åĭĴè´Ŀæł¼": 6888,
      "ended": 6889,
      "Ġcharged": 6890,
      "Ġfluct": 6891,
      "logn": 6892,
      "çĽ¸å½ĵäºİ": 6893,
      "Ġcenter": 6894,
      "æ²³æµģ": 6895,
      "Ġgrowth": 6896,
      "Ġapproximately": 6897,
      "å¯¹ç§°æĢ§": 6898,
      "Ġcells": 6899,
      "åĳĬè¯ī": 6900,
      "å°¤åħ¶æĺ¯": 6901,
      "èĤ¡èĦ±æ°§æł¸ç³ĸæł¸éħ¸": 6902,
      "çĽ¸åºĶçļĦ": 6903,
      "Ġbright": 6904,
      "Ġsunlight": 6905,
      "Ġlearned": 6906,
      "Ġkinetic": 6907,
      "Ġincluding": 6908,
      "ĠResearch": 6909,
      "Ġcritical": 6910,
      "æ¯«ç±³": 6911,
      "èĲ¥åħ»": 6912,
      "Ġhydrogen": 6913,
      "Ġmathemat": 6914,
      "83": 6915,
      "Im": 6916,
      "One": 6917,
      "bran": 6918,
      "dimensional": 6919,
      "fitting": 6920,
      "frequency": 6921,
      "know": 6922,
      "ov": 6923,
      "oes": 6924,
      "sion": 6925,
      "temperature": 6926,
      "wise": 6927,
      "æ§": 6928,
      "éī": 6929,
      "ĠY": 6930,
      "ĠçŁ©éĺµ": 6931,
      "ĠNASA": 6932,
      "çļĦçī©ä½ĵ": 6933,
      "çļĦæķ°åĢ¼": 6934,
      "Ġtren": 6935,
      "åº·": 6936,
      "æĹģ": 6937,
      "Ġdimens": 6938,
      "ison": 6939,
      "æĢ¥": 6940,
      "æłĸ": 6941,
      "æĿĨ": 6942,
      "çĽĨ": 6943,
      "æĹ¶åĪ»": 6944,
      "Ġlast": 6945,
      "å¤§èĦĳ": 6946,
      "ä¼ļéļı": 6947,
      "æĸ¹éĺµ": 6948,
      "unch": 6949,
      "Ġstore": 6950,
      "è¿ĩçļĦ": 6951,
      "åĬ¨åĬĽ": 6952,
      "æį·": 6953,
      "åĲĪå¹¶": 6954,
      "ç®Ĺæľ¯": 6955,
      "äººä½ĵ": 6956,
      "æľĢå¤§çļĦ": 6957,
      "æŃ¤ç±»": 6958,
      "æĽ´æİ¥è¿ĳ": 6959,
      "Ġproced": 6960,
      "ç±»çļĦ": 6961,
      "å®ĥåľ¨": 6962,
      "åī§": 6963,
      "ume": 6964,
      "åĬłæĿĥ": 6965,
      "åıªéľĢè¦ģ": 6966,
      "Ġmac": 6967,
      "æŃ£æĺ¯": 6968,
      "ä¸¤æĿ¡": 6969,
      "åĪĹå¤«": 6970,
      "åīįåĲİ": 6971,
      "è°Ī": 6972,
      "ä»¶äºĭ": 6973,
      "ç¬Ķ": 6974,
      "ç²ī": 6975,
      "è½¬è¯ĳ": 6976,
      "æķ°æį®åĪĨå¸ĥ": 6977,
      "Ġcour": 6978,
      "æĹłæľº": 6979,
      "ä½ľçĶ¨åľ¨": 6980,
      "è¿ĺåı¯ä»¥": 6981,
      "è¿ĺåĮħæĭ¬": 6982,
      "çĶŁçī©ä½ĵçļĦ": 6983,
      "äºĮèĢħ": 6984,
      "Ġcompression": 6985,
      "èĦļ": 6986,
      "å·²è¢«": 6987,
      "æŀģå¤§": 6988,
      "197": 6989,
      "Ġheating": 6990,
      "è¶Ĭé«ĺ": 6991,
      "ĠElect": 6992,
      "åį´èĥ½": 6993,
      "éĶ®ç»ĵ": 6994,
      "åĲ«éĩı": 6995,
      "åĲ«ä¹ī": 6996,
      "è°ĥçĶ¨": 6997,
      "ĠMore": 6998,
      "è®Ńç»ĥæķ°æį®": 6999,
      "éģĹä¼łçī©è´¨": 7000,
      "éģĹä¼łä¿¡æģ¯": 7001,
      "èĭ±æĸĩ": 7002,
      "å¾ĹåĪ°çļĦ": 7003,
      "åĽºæĢģ": 7004,
      "ellar": 7005,
      "ç»Łè®¡åŃ¦": 7006,
      "Ġè¿Ļæł·": 7007,
      "ç¾¤ä½ĵ": 7008,
      "èİ·åıĸ": 7009,
      "èĦ±æ°§æł¸ç³ĸæł¸éħ¸åºıåĪĹ": 7010,
      "Ġapplications": 7011,
      "versity": 7012,
      "Ġmagnet": 7013,
      "è½¨è¿¹": 7014,
      "çĸĳ": 7015,
      "Ġobjective": 7016,
      "åĽĽç§į": 7017,
      "æ³ĽåĮĸ": 7018,
      "æŀĦæĪĲçļĦ": 7019,
      "ä¿ĿæĮģä¸įåıĺ": 7020,
      "Ġapproach": 7021,
      "ĠScientists": 7022,
      "Ġentropy": 7023,
      "ç¬¬äºĮä¸ª": 7024,
      "Ġblock": 7025,
      "Ġconcern": 7026,
      "Ġallowed": 7027,
      "éĻįæ°´éĩı": 7028,
      "Ġspecies": 7029,
      "Ġspecial": 7030,
      "åĸ·": 7031,
      "åĸľ": 7032,
      "Ġpaper": 7033,
      "ç¡¬ä½ĵ": 7034,
      "Ġknowledge": 7035,
      "Ġbuilt": 7036,
      "Ġtests": 7037,
      "Ġconverts": 7038,
      "Ġappeared": 7039,
      "è¯ºè´Ŀå°Ķ": 7040,
      "Ġelement": 7041,
      "æ´»æĢ§ä½įçĤ¹": 7042,
      "æĥ¯æĢ§åıĤèĢĥç³»": 7043,
      "Ġcirculation": 7044,
      "osphere": 7045,
      "å£«å¨ģ": 7046,
      "æľĹæĹ¥": 7047,
      "Ġpreserve": 7048,
      "Ġrelease": 7049,
      "ç´§å¯Ĩ": 7050,
      "äºĭå®ŀä¸Ĭ": 7051,
      "æ°¸ä¹ħ": 7052,
      "âŁ¨": 7053,
      "Ġconsistency": 7054,
      "å¡«åħħ": 7055,
      "Ġdevelopment": 7056,
      "é¢Ĺç²Ĵ": 7057,
      "Ġalgorithm": 7058,
      "æ´»åĮĸèĥ½": 7059,
      "Ġcontinue": 7060,
      "Ġmaximum": 7061,
      "é©¬åħĭå£«å¨ģ": 7062,
      "Ġminimum": 7063,
      "iconduct": 7064,
      "Ġsufficiently": 7065,
      "æ³Ħæ¼ı": 7066,
      "Ġintermediate": 7067,
      "ï¼Įâĭ¯ï¼Į": 7068,
      "éĺĪåĢ¼": 7069,
      "æĭīæł¼æľĹæĹ¥": 7070,
      "æıŃç¤º": 7071,
      ")ãĢģ": 7072,
      "26": 7073,
      "64": 7074,
      "Linux": 7075,
      "OH": 7076,
      "On": 7077,
      "PI": 7078,
      "Pl": 7079,
      "faces": 7080,
      "iver": 7081,
      "mas": 7082,
      "oks": 7083,
      "son": 7084,
      "vious": 7085,
      "ze": 7086,
      "âĬ": 7087,
      "èĶ": 7088,
      "ĠÌ": 7089,
      "ĠæĪĸ": 7090,
      "Ġri": 7091,
      "ĠåĪĨåŃĲ": 7092,
      "ĠåŁºåĽł": 7093,
      "Ġåģĩè®¾": 7094,
      "Ġæ¯Ķå¦Ĥ": 7095,
      "çļĦæł¸å¿ĥ": 7096,
      "Ġtree": 7097,
      "onding": 7098,
      "rees": 7099,
      "heck": 7100,
      "æĺ¯ä¸į": 7101,
      "ording": 7102,
      "åľ¨æŃ¤": 7103,
      "Ġpie": 7104,
      "Ġbos": 7105,
      "æľīçĿĢ": 7106,
      "Ġways": 7107,
      "Ġfit": 7108,
      "ä¸ŃæľĢ": 7109,
      "ctions": 7110,
      "Ġeither": 7111,
      "æĹ¶ç©º": 7112,
      "omen": 7113,
      "åıĺæķ°": 7114,
      "å¤§å®¶": 7115,
      "å¤§éĩıçļĦ": 7116,
      "ä¼ļæĬĬ": 7117,
      "æĿ¥çľĭ": 7118,
      "åĩºçīĪ": 7119,
      "åħ¶ä½Ļ": 7120,
      "ç§įåŃĲ": 7121,
      "åĬĽä¸İ": 7122,
      "å¸¸çĶ¨äºİ": 7123,
      "æĪĸåħ¶ä»ĸ": 7124,
      "æĪĸå¤ļä¸ª": 7125,
      "ulations": 7126,
      "ä¸ĭéĿ¢": 7127,
      "tern": 7128,
      "eles": 7129,
      "å®ŀæĹ¶": 7130,
      "åģ¥": 7131,
      "æ°´èĴ¸æ°Ķ": 7132,
      "ä»£ä»·": 7133,
      "ç§°ä¹ĭä¸º": 7134,
      "Ġvapor": 7135,
      "å¤įçİ°": 7136,
      "Ġalign": 7137,
      "ä¸¤ä¾§": 7138,
      "Ġrat": 7139,
      "Ġasked": 7140,
      "ç¼ļ": 7141,
      "éĩĮåħĭ": 7142,
      "éķ¿éĵ¾": 7143,
      "ä¸ŃçļĦä¸Ģä¸ª": 7144,
      "âĪŀ": 7145,
      "çĽ´å¾Ħ": 7146,
      "å¸¦æĿ¥çļĦ": 7147,
      "ä¼¼çĦ¶": 7148,
      "ava": 7149,
      "è¿ŀéĢļ": 7150,
      "äºĭæĥħ": 7151,
      "è®°ä½ľ": 7152,
      "è®°åı·": 7153,
      "æĸ¹åĲĳçļĦ": 7154,
      "Ġinterv": 7155,
      "Ġinterest": 7156,
      "åĨįæ¬¡": 7157,
      "Ġrelates": 7158,
      "ä¾ĿçĦ¶": 7159,
      "aken": 7160,
      "åĲįè¯į": 7161,
      "Ġworks": 7162,
      "å¿ħçĦ¶": 7163,
      "å»ºè®®": 7164,
      "Ġadapt": 7165,
      "è´Łè½½": 7166,
      "Ġloop": 7167,
      "Ġrecur": 7168,
      "ä¸ļåĬ¡": 7169,
      "Ġprocessing": 7170,
      "Ġequation": 7171,
      "ä¼łæĴŃéĢŁåº¦": 7172,
      "è¡¨çİ°ä¸º": 7173,
      "version": 7174,
      "Ġsolar": 7175,
      "ç»Ŀç¼ĺ": 7176,
      "æĿŁç¼ļ": 7177,
      "Ġsets": 7178,
      "Ġapproac": 7179,
      "cell": 7180,
      "çļĦåľ°åĮº": 7181,
      "åħ³éĶ®åŃĹ": 7182,
      "ä¸ĵä¸ļ": 7183,
      "ä¼ĺåĮĸåĻ¨": 7184,
      "Ġcauses": 7185,
      "åľ°åĮºçļĦ": 7186,
      "Ġestabl": 7187,
      "Ġfailed": 7188,
      "äºīè®º": 7189,
      "Ġnucleus": 7190,
      "Ġprotect": 7191,
      "Ġrepresentations": 7192,
      "Ġdefined": 7193,
      "Ġdiag": 7194,
      "Ġstores": 7195,
      "Ġestimates": 7196,
      "Ġthermodynam": 7197,
      "Ġapproximation": 7198,
      "æ¸¸æĪı": 7199,
      "è¿ĽåĮĸè®º": 7200,
      "Ġexpectation": 7201,
      "Ġseconds": 7202,
      "Ġconcentr": 7203,
      "Ġaffects": 7204,
      "éħµç´ł": 7205,
      "Ġgreat": 7206,
      "ç°ĩ": 7207,
      "Ġelse": 7208,
      "Ġproducts": 7209,
      "Ġreplace": 7210,
      "Ġperfectly": 7211,
      "æ²īç§¯çī©": 7212,
      "æ¢¯åº¦ä¸ĭéĻįæ³ķ": 7213,
      "Ġservice": 7214,
      "This": 7215,
      "ç»¼åĲĪ": 7216,
      "åĪĨè¾¨çİĩ": 7217,
      "Ġfocus": 7218,
      "strap": 7219,
      "Ġpublic": 7220,
      "æĺ¾å¾®éķľ": 7221,
      "Ġhistory": 7222,
      ")]": 7223,
      "65": 7224,
      "87": 7225,
      "Com": 7226,
      "arent": 7227,
      "des": 7228,
      "keli": 7229,
      "¤Ĳ": 7230,
      "©¹": 7231,
      "è©¹": 7232,
      "Ġåı¯ä»¥": 7233,
      "ĮçĶŁ": 7234,
      "çļĦæ³¢": 7235,
      "çļĦåĮºåŁŁ": 7236,
      "è¿Ŀ": 7237,
      "Ġcut": 7238,
      "Ġcra": 7239,
      "Ġcases": 7240,
      "ä¸Ģå±Ĥ": 7241,
      "orter": 7242,
      "Ġdense": 7243,
      "ä¸įåıªæĺ¯": 7244,
      "éĢ¼": 7245,
      "åĽ½æķ°": 7246,
      "Ġfri": 7247,
      "Ġflex": 7248,
      "ä¸ŃæĢ§": 7249,
      "ä¸Ńè¢«": 7250,
      "Ġthin": 7251,
      "å¤§èĩªçĦ¶": 7252,
      "ä¼ļè®®": 7253,
      "è¿ĻæĹ¶": 7254,
      "etition": 7255,
      "Ġhab": 7256,
      "Ġstayed": 7257,
      "è¿ĩäºİ": 7258,
      "ots": 7259,
      "ott": 7260,
      "æĿ¥è§£éĩĬ": 7261,
      "çĽ¸è¿ĳ": 7262,
      "åıĳéħµ": 7263,
      "åı¯ä»¥åĪ©çĶ¨": 7264,
      "æĪĸç§°": 7265,
      "urther": 7266,
      "ä¹ĭæ¯Ķ": 7267,
      "è¡ĮåĬ¨": 7268,
      "éĩįè¯ķ": 7269,
      "èĩªæĪĳ": 7270,
      "ç½²": 7271,
      "éļĨ": 7272,
      "éģ¥": 7273,
      "éģŃ": 7274,
      "åıªçľĭ": 7275,
      "å°±åı¯èĥ½": 7276,
      "Ġdep": 7277,
      "Ġdeformation": 7278,
      "Ġcomplicated": 7279,
      "Ġnothing": 7280,
      "æŃ£çĶµèį·": 7281,
      "ä¸¤ç²Ĵ": 7282,
      "Ġright": 7283,
      "å½ĵä¸Ķ": 7284,
      "æİ¥åı£": 7285,
      "plies": 7286,
      "ç»ĨèĥŀåĨħ": 7287,
      "å±Ĥäºĳ": 7288,
      "Ġcode": 7289,
      "ĠSp": 7290,
      "ĠSmall": 7291,
      "ç§ĳæĬĢ": 7292,
      "éĢļå¸¸æ¯Ķ": 7293,
      "çĽ´è§ī": 7294,
      "åıįåºĶçļĦ": 7295,
      "è®¾ç½®": 7296,
      "ival": 7297,
      "éĵħ": 7298,
      "åĩłå¤©": 7299,
      "èģĬ": 7300,
      "æ·Ģ": 7301,
      "ç®Ĺæ³ķåľ¨": 7302,
      "è®¤åı¯": 7303,
      "ĠEach": 7304,
      "Ġrole": 7305,
      "è®°æ³ķ": 7306,
      "è¿Ľè¡ĮçļĦ": 7307,
      "åĩĨå¤ĩ": 7308,
      "ĠRel": 7309,
      "cessive": 7310,
      "æł¹æľ¬": 7311,
      "ĠMod": 7312,
      "çĭĹ": 7313,
      "Ġtransition": 7314,
      "è§ģçļĦ": 7315,
      "ä¸»è¦ģçļĦ": 7316,
      "though": 7317,
      "åģıå¯¼æķ°": 7318,
      "è§£éĩĬäºĨ": 7319,
      "ĠOS": 7320,
      "é¢ĳç¹ģ": 7321,
      "æľªå¿ħ": 7322,
      "ä¸ĢèĪ¬çļĦ": 7323,
      "ç¡®å®ļçļĦ": 7324,
      "éļıæľºåıĺéĩı": 7325,
      "ç»Łè®¡éĩı": 7326,
      "ç¢³éħ¸": 7327,
      "å¹³åĿĩåĢ¼": 7328,
      "èĻ«": 7329,
      "çĲĨè§£ä¸º": 7330,
      "è¿ŀç»ŃçļĦ": 7331,
      "åĲĮä½įç´łçļĦ": 7332,
      "Ġbehind": 7333,
      "ä¾Ŀèµĸäºİ": 7334,
      "åľ°éľĩæ³¢": 7335,
      "Ġgenerate": 7336,
      "æĺİæĺ¾çļĦ": 7337,
      "Ġmattered": 7338,
      "ometers": 7339,
      "coun": 7340,
      "çĶµç£ģåľº": 7341,
      "åĽºå®ļçļĦ": 7342,
      "Ġmembran": 7343,
      "åĽĽä¸ª": 7344,
      "æī©å¤§": 7345,
      "Ġhelped": 7346,
      "è´¨åŃĲåĴĮ": 7347,
      "Ġembed": 7348,
      "Ġeasily": 7349,
      "Ġcontained": 7350,
      "Ġplanets": 7351,
      "æ³¨æĦıåĪ°": 7352,
      "æ³¨æĦıçļĦæĺ¯": 7353,
      "çĽĲåº¦": 7354,
      "è½½æµģ": 7355,
      "Ġcontinued": 7356,
      "æĴŀåĩ»": 7357,
      "åįıè®®": 7358,
      "Ġoceanic": 7359,
      "æįŁå¤±åĩ½æķ°": 7360,
      "Ġdioxide": 7361,
      "åľĨåĳ¨": 7362,
      "Ġelectricity": 7363,
      "Ġexisting": 7364,
      "Ġshows": 7365,
      "Ġshowed": 7366,
      "Ġrises": 7367,
      "Ġclean": 7368,
      "Ġtrees": 7369,
      "Ġinclude": 7370,
      "Ġpositions": 7371,
      "Ġfraction": 7372,
      "åį·ç§¯": 7373,
      "Ġmonit": 7374,
      "çŀ¬éĹ´": 7375,
      "Ġperiodic": 7376,
      "é»İæĽ¼ç§¯åĪĨ": 7377,
      "èİ±å¸ĥå°¼åħ¹": 7378,
      "Ġfeatures": 7379,
      "Ġtypes": 7380,
      "Ġdiscrete": 7381,
      "Ġgalaxies": 7382,
      "Ġbeneath": 7383,
      "Ġhuman": 7384,
      "Ġstrain": 7385,
      "ä¾µèļĢ": 7386,
      "Ġsharp": 7387,
      "Ġnoticed": 7388,
      "æ¸ħæĻ°": 7389,
      "Ġgluons": 7390,
      "Ġprinciple": 7391,
      "å½ĵä¸Ķä»ħå½ĵ": 7392,
      ".âĢĿ": 7393,
      "97": 7394,
      "Ad": 7395,
      "Le": 7396,
      "UPAC": 7397,
      "Why": 7398,
      "eper": 7399,
      "hat": 7400,
      "iation": 7401,
      "ler": 7402,
      "lass": 7403,
      "ping": 7404,
      "run": 7405,
      "yf": 7406,
      "¬å¦Ĥ": 7407,
      "å¦": 7408,
      "åª": 7409,
      "Ġ&": 7410,
      "Ġæµ·": 7411,
      "Ġå°Ĩ": 7412,
      "Ġess": 7413,
      "Įåĳ": 7414,
      "ream": 7415,
      "ä»¿": 7416,
      "ats": 7417,
      "è¿Ī": 7418,
      "Ġser": 7419,
      "Ġsays": 7420,
      "ç»³": 7421,
      "å®£": 7422,
      "ä¸Ģå¼ł": 7423,
      "åľ¨åħ¶": 7424,
      "Ġphen": 7425,
      "å°¿": 7426,
      "Ġdig": 7427,
      "æķ°çĽ®": 7428,
      "ä¼ı": 7429,
      "isible": 7430,
      "Ġfile": 7431,
      "èĥ½åľ¨": 7432,
      "åŃ¦ä¼ļ": 7433,
      "åŃĲèĬĤçĤ¹": 7434,
      "æīĩ": 7435,
      "å¤§æ´ĭ": 7436,
      "ä½ĵåĨħ": 7437,
      "è¿Ļå°±æĺ¯": 7438,
      "ç³Ĭ": 7439,
      "unction": 7440,
      "åľ°çĤ¹": 7441,
      "åľ°åĽ¾": 7442,
      "Ġstellar": 7443,
      "é¢Ī": 7444,
      "åıĳçĶµ": 7445,
      "iling": 7446,
      "åĲİéªĮ": 7447,
      "idth": 7448,
      "ä¹ŁéľĢè¦ģ": 7449,
      "ä¸ĭåįĪ": 7450,
      "åŁºåºķ": 7451,
      "æľĢå¥½": 7452,
      "æľĢå®¹æĺĵ": 7453,
      "çŃīäºº": 7454,
      "æł¸èģļåıĺ": 7455,
      "æľ¬æĿ¥": 7456,
      "Ġexten": 7457,
      "istry": 7458,
      "éĥ½éľĢè¦ģ": 7459,
      "é«ĺéĢŁ": 7460,
      "é«ĺåİĭ": 7461,
      "Ġmaps": 7462,
      "Ġcome": 7463,
      "è·ĳ": 7464,
      "éĶĭ": 7465,
      "æµģåĲĳ": 7466,
      "éħ¸ç¢±": 7467,
      "ç¼ł": 7468,
      "æıĲéĨĴ": 7469,
      "ĠShe": 7470,
      "éĿŀè´Ł": 7471,
      "æ¶¨": 7472,
      "æ¶Į": 7473,
      "è¯ģä¼ª": 7474,
      "æ¸©å®¤": 7475,
      "æĮĩç¤º": 7476,
      "æ¦Ĥæĭ¬": 7477,
      "Ġchance": 7478,
      "rons": 7479,
      "çľŁçļĦ": 7480,
      "Ġquery": 7481,
      "åį³ä¸º": 7482,
      "ç½®ä¿¡": 7483,
      "åıĸåĢ¼": 7484,
      "ç»´æķ°": 7485,
      "ĠEm": 7486,
      "åĽ¾ä¸Ń": 7487,
      "åħ¬è½¬": 7488,
      "Ġroad": 7489,
      "å¹¶ä¸įèĩªåĬ¨": 7490,
      "å¹¶ä¸įä¿Ŀè¯ģ": 7491,
      "Ġinterface": 7492,
      "æİ¨æµĭ": 7493,
      "å®ŀéªĮä¸Ń": 7494,
      "è°ĥåº¦": 7495,
      "Ġobvious": 7496,
      "åĲįåŃĹ": 7497,
      "ĠPer": 7498,
      "å±ķç¤º": 7499,
      "ĠBy": 7500,
      "çĬ¶æĢģçļĦ": 7501,
      "Ġincom": 7502,
      "ĠOcean": 7503,
      "ç²ĴåŃĲçļĦ": 7504,
      "å¾·åĽ½": 7505,
      "æĹ¥æľ¬": 7506,
      "Ġimply": 7507,
      "éĻ¤ä»¥": 7508,
      "é¢ĨåŁŁä¸Ń": 7509,
      "åŁºæľ¬çļĦ": 7510,
      "ĠWith": 7511,
      "Ġexpon": 7512,
      "Ġexpression": 7513,
      "æ¤Ń": 7514,
      "Ġdecomp": 7515,
      "Ġsuperposition": 7516,
      "æ¼ĶåĮĸè®º": 7517,
      "Ġexplos": 7518,
      "éĩįå¤įæĢ§": 7519,
      "Ġ)=": 7520,
      "Ġincreased": 7521,
      "Ġneeds": 7522,
      "ç±»ä¼¼çļĦ": 7523,
      "åºĵä»ĳ": 7524,
      "uclear": 7525,
      "ç²¾ç¡®çļĦ": 7526,
      "åĬ¨çī©çļĦ": 7527,
      "Ġconcl": 7528,
      "éĥ½ä¼ļå½±åĵį": 7529,
      "çļĦæķ°æį®ç»ĵæŀĦ": 7530,
      "Ġattract": 7531,
      "Ġcharges": 7532,
      "Ġcombine": 7533,
      "åŃ£é£İ": 7534,
      "Ġordered": 7535,
      "Ġcooling": 7536,
      "Ġdependence": 7537,
      "æ°¨åŁºéħ¸åºıåĪĹ": 7538,
      "ä¸´æĹ¶": 7539,
      "åı¦ä¸Ģæĸ¹éĿ¢": 7540,
      "æľīæľºçī©": 7541,
      "Ġorganisms": 7542,
      "Ġreflected": 7543,
      "Ġdiscover": 7544,
      "äº®åº¦": 7545,
      "å·¨å¤§çļĦ": 7546,
      "Ġprevious": 7547,
      "é¡µéĿ¢": 7548,
      "Ġdevices": 7549,
      "Ġframe": 7550,
      "åĺĮåĳ": 7551,
      "åĲĪéĢĤçļĦ": 7552,
      "å§Ĩæĸ¯": 7553,
      "Ġmicro": 7554,
      "Ġrevealed": 7555,
      "è¿½æ±Ĥ": 7556,
      "Ġreceived": 7557,
      "æ¨ªåĲĳ": 7558,
      "Ġatmospheric": 7559,
      "éĻįéĽ¨éĩı": 7560,
      "åī¯æľ¬": 7561,
      "Ġeruption": 7562,
      "Ġcompletely": 7563,
      "Ġdamage": 7564,
      "NADH": 7565,
      "èĤĮèĤī": 7566,
      "Ġreliable": 7567,
      "é»ĺè®¤": 7568,
      "Ġdegrees": 7569,
      "Ġdistinct": 7570,
      "Ġmachine": 7571,
      "æģ°å¥½": 7572,
      "åµĮåħ¥": 7573,
      "æ¸ĹéĢı": 7574,
      "æŀģå°ıåĢ¼": 7575,
      "åĽ¾çģµæľº": 7576,
      "èŃ¬å¦Ĥ": 7577,
      "Ġastron": 7578,
      "çİĭæĺŁ": 7579,
      "Ġfluctu": 7580,
      "Ġphenomen": 7581,
      "åĺĮåĳ¤": 7582,
      "27": 7583,
      "38": 7584,
      "45": 7585,
      "98": 7586,
      "DOS": 7587,
      "HT": 7588,
      "gment": 7589,
      "iences": 7590,
      "min": 7591,
      "mat": 7592,
      "sin": 7593,
      "upl": 7594,
      "war": 7595,
      "where": 7596,
      "®æ¼Ķ": 7597,
      "Ġ[": 7598,
      "Ġåı¯": 7599,
      "Ġåıį": 7600,
      "Ġç§ĳåŃ¦": 7601,
      "Ġåħ¶ä»ĸ": 7602,
      "ĠãĢĮ": 7603,
      "ĠæīĢä»¥": 7604,
      "Ġåį³ä½¿": 7605,
      "Ġåı¦ä¸Ģç§į": 7606,
      "çļĦæ¸©åº¦": 7607,
      "çļĦè¾ĵåħ¥": 7608,
      "çļĦDNA": 7609,
      "çļĦä¹ĺç§¯": 7610,
      "Ġax": 7611,
      "inations": 7612,
      "onds": 7613,
      "äºĪ": 7614,
      "ä»ĺ": 7615,
      "Ġsense": 7616,
      "Ġcust": 7617,
      "Ġcrow": 7618,
      "ends": 7619,
      "ä¸Ģå°ı": 7620,
      "ä¸Ģåı¥": 7621,
      "anced": 7622,
      "Ġpul": 7623,
      "æĹ±": 7624,
      "Ġbody": 7625,
      "æľīæīĢ": 7626,
      "æľīåĪ©": 7627,
      "Ġfart": 7628,
      "åĩī": 7629,
      "èĥ½å¸¦": 7630,
      "å¹ķ": 7631,
      "åĴĮæ°´": 7632,
      "åĴĮæ¨¡åŀĭ": 7633,
      "çĶ¨éĢĶ": 7634,
      "æī®æ¼Ķ": 7635,
      "è´Ń": 7636,
      "å®ļç§¯åĪĨ": 7637,
      "âĢĸ": 7638,
      "å¤§å¤ļ": 7639,
      "ä¼ļå°Ĩ": 7640,
      "ä¼ļæĺ¾èĳĹ": 7641,
      "è¾Ĩ": 7642,
      "èĢĮäº§çĶŁ": 7643,
      "åŁ¹": 7644,
      "ety": 7645,
      "æİĪ": 7646,
      "ote": 7647,
      "otic": 7648,
      "è¦ģä¹Ī": 7649,
      "åıĳéĢģ": 7650,
      "åı¯ä»¥å¸®åĬ©": 7651,
      "raining": 7652,
      "åĲĳä¸Ĭ": 7653,
      "æĭĶ": 7654,
      "olute": 7655,
      "æīĢäº§çĶŁçļĦ": 7656,
      "osyn": 7657,
      "åı¯èĥ½çļĦ": 7658,
      "åĪĻä¸º": 7659,
      "ç»ĦåĪĨ": 7660,
      "Ġitem": 7661,
      "åŃĺåıĸ": 7662,
      "å¾Īé«ĺ": 7663,
      "å¾Īéĩįè¦ģ": 7664,
      "çķ´": 7665,
      "éĶķ": 7666,
      "æ¬¢": 7667,
      "Ġasks": 7668,
      "irm": 7669,
      "æµģéĩı": 7670,
      "ĠAl": 7671,
      "ĠAr": 7672,
      "å¼ĢéĶĢ": 7673,
      "Ġcoefficient": 7674,
      "æ±¤": 7675,
      "æ±ī": 7676,
      "å¾®æ³¢": 7677,
      "ocation": 7678,
      "èµ·å§ĭ": 7679,
      "Ġcompress": 7680,
      "ĠIm": 7681,
      "åĽłä¸ºå®ĥ": 7682,
      "çľĭæĪĲ": 7683,
      "èģĮ": 7684,
      "çĶµåŃĲå¯¹": 7685,
      "å¼ºéħ¸": 7686,
      "è¯ŃéŁ³": 7687,
      "Ġintended": 7688,
      "æ¼ł": 7689,
      "çī©ä½ĵåľ¨": 7690,
      "irect": 7691,
      "Ġplates": 7692,
      "äºĭçī©": 7693,
      "åĩºçİ°äºĨ": 7694,
      "ideo": 7695,
      "Ġdoor": 7696,
      "åħ³ç³»çļĦ": 7697,
      "åı·åħĥç´ł": 7698,
      "åİĭå¼º": 7699,
      "ĠRandom": 7700,
      "Ġmodul": 7701,
      "è°ĥæŁ¥": 7702,
      "åħ¶ä¸Ńä¸Ģä¸ª": 7703,
      "åģļåĩº": 7704,
      "åĩıå¼±": 7705,
      "æ£µ": 7706,
      "åĮħæĭ¬äºĨ": 7707,
      "Ġclos": 7708,
      "ä¸»è¦ģçĶ±": 7709,
      "éĵ¾æİ¥": 7710,
      "ĠBe": 7711,
      "Ġunderlying": 7712,
      "æ¦ĤçİĩåĪĨå¸ĥ": 7713,
      "äººå·¥æĻºæħ§": 7714,
      "æł·æľ¬éĩı": 7715,
      "éŁ¦": 7716,
      "å¤§æ°Ķä¸Ń": 7717,
      "Ġarise": 7718,
      "Ġstructural": 7719,
      "Ġindic": 7720,
      "é©¬ä¸Ĭ": 7721,
      "Ġequations": 7722,
      "Ġregul": 7723,
      "Ġapplied": 7724,
      "æĬĢå·§": 7725,
      "æ°¢éĶ®": 7726,
      "åĮħåĲ«äºĨ": 7727,
      "Ġafterno": 7728,
      "changed": 7729,
      "hemistry": 7730,
      "Ġconstruct": 7731,
      "Ġbuffer": 7732,
      "æīĭæ®µ": 7733,
      "æĥ¯éĩı": 7734,
      "Ġempty": 7735,
      "ä¸¥è°¨": 7736,
      "è¾¾åĪ°å¹³è¡¡": 7737,
      "Ġfunctions": 7738,
      "æŃ£ç¡®çļĦ": 7739,
      "anging": 7740,
      "çĻ»": 7741,
      "Ġanaly": 7742,
      "Ġunivers": 7743,
      "Ġprotoc": 7744,
      "Ġfrequencies": 7745,
      "Ġidentify": 7746,
      "Ġcombines": 7747,
      "Ġideas": 7748,
      "Ġnormally": 7749,
      "Ġreflects": 7750,
      "å¥ĩå¼Ĥ": 7751,
      "Ġgrows": 7752,
      "Ġremove": 7753,
      "åı¯è§ģåħī": 7754,
      "æīĢè°ĵçļĦ": 7755,
      "Ġfaults": 7756,
      "Ġopposite": 7757,
      "Ġinterpretation": 7758,
      "ä¿ĥè¿Ľ": 7759,
      "åĨ»ç»ĵ": 7760,
      "åħ´è¶£": 7761,
      "Ġdrift": 7762,
      "Ġcosmic": 7763,
      "Ġengineering": 7764,
      "Ġexchange": 7765,
      "Ġcache": 7766,
      "mission": 7767,
      "Ġremembered": 7768,
      "variance": 7769,
      "Ġconvergence": 7770,
      "Ġsaid": 7771,
      "ç¥ĸåħĪ": 7772,
      "Ġdatabase": 7773,
      "Ġshifts": 7774,
      "ĠSuperconduct": 7775,
      "Ġmacroscopic": 7776,
      "kelihood": 7777,
      "Ġmembrane": 7778,
      "åªĴ": 7779,
      ")âĮĭ": 7780,
      "86": 7781,
      "BS": 7782,
      "Con": 7783,
      "ER": 7784,
      "Em": 7785,
      "GP": 7786,
      "Pro": 7787,
      "Res": 7788,
      "ees": 7789,
      "la": 7790,
      "lations": 7791,
      "pri": 7792,
      "rast": 7793,
      "vent": 7794,
      "æĩ": 7795,
      "é¤Ĳ": 7796,
      "Ġä¸į": 7797,
      "Ġç»´": 7798,
      "Ġill": 7799,
      "Ġå®ĥä»¬": 7800,
      "ä¸¹": 7801,
      "çļĦç©ºéĹ´": 7802,
      "çļĦä¸ĢäºĽ": 7803,
      "çļĦèĮĥåĽ´": 7804,
      "çļĦè·Ŀç¦»": 7805,
      "çļĦçī¹å¾ģåĢ¼": 7806,
      "çļĦéĿ¢ç§¯": 7807,
      "ino": 7808,
      "Ġspl": 7809,
      "head": 7810,
      "ä¸Ģé¡¹": 7811,
      "ä¸Ģä¼ļåĦ¿": 7812,
      "ories": 7813,
      "è®¢": 7814,
      "åľ¨æ°´": 7815,
      "åľ¨æķ°åŃ¦": 7816,
      "Ġmel": 7817,
      "iter": 7818,
      "ital": 7819,
      "Ġdoc": 7820,
      "Ġdry": 7821,
      "Ġbond": 7822,
      "ises": 7823,
      "Ġwin": 7824,
      "Ġwall": 7825,
      "Ġfurther": 7826,
      "åĴĮä¸Ģä¸ª": 7827,
      "åĴĮçİ¯å¢ĥ": 7828,
      "åĪĨå¼Ģ": 7829,
      "åŃĲæłĳ": 7830,
      "Ġrepe": 7831,
      "enter": 7832,
      "çĽĽ": 7833,
      "è´µ": 7834,
      "Ġnow": 7835,
      "Ġla": 7836,
      "Ġthir": 7837,
      "çĶŁçĲĨ": 7838,
      "ä¼ļéĢłæĪĲ": 7839,
      "Ġtoday": 7840,
      "ä¸Ģä¸ªåĩ½æķ°": 7841,
      "Ġhund": 7842,
      "Ġhole": 7843,
      "èĩĤ": 7844,
      "çĶµæŀģ": 7845,
      "çĽ¸å®¹": 7846,
      "å¸¸è¢«": 7847,
      "éĺĲ": 7848,
      "ully": 7849,
      "uration": 7850,
      "å¹¶å°Ĩ": 7851,
      "å¿ĺ": 7852,
      "åŁºåĩĨ": 7853,
      "Ġgain": 7854,
      "olve": 7855,
      "ä¹ĭä¸ĭ": 7856,
      "æĽ´éĩįè¦ģ": 7857,
      "æĽ´å¥½": 7858,
      "å½¢åıĺ": 7859,
      "Ġmoist": 7860,
      "è¢ĭ": 7861,
      "æ¨¡ç³Ĭ": 7862,
      "çº¿ç²Ĵ": 7863,
      "çº¿åľĪ": 7864,
      "é«ĺç»´": 7865,
      "åĿ¡": 7866,
      "æµĭåº¦": 7867,
      "æµĭå®ļ": 7868,
      "ries": 7869,
      "ription": 7870,
      "ä»£æĽ¿": 7871,
      "Ġorient": 7872,
      "è¿Ľå±ķ": 7873,
      "è¿Ľåİ»": 7874,
      "å°±æľī": 7875,
      "Ġchrom": 7876,
      "Ġchild": 7877,
      "Ġchosen": 7878,
      "Ġdeeper": 7879,
      "ç§¯äºĳ": 7880,
      "ä»İä¸Ģä¸ª": 7881,
      "å¯¼åĩ½æķ°": 7882,
      "Ġrise": 7883,
      "æľŁéĹ´": 7884,
      "antic": 7885,
      "ively": 7886,
      "ç»ĨèĥŀèĨľ": 7887,
      "æıĲåıĸ": 7888,
      "è¾ĥé«ĺçļĦ": 7889,
      "è®¡ç®Ĺåĩº": 7890,
      "åıįåºĶä¸Ń": 7891,
      "Ġunchanged": 7892,
      "Ġcompact": 7893,
      "Ġshare": 7894,
      "ä¸»é¢ĺ": 7895,
      "å°Ķæĸ¯": 7896,
      "allen": 7897,
      "çľĭè§ģ": 7898,
      "åĩłåįģ": 7899,
      "æķ´çĲĨ": 7900,
      "è¿ĩç¨ĭçļĦ": 7901,
      "èĽĭçĻ½éħ¶": 7902,
      "çī©çĲĨæĢ§è´¨": 7903,
      "åıĳçĶŁäºĨ": 7904,
      "èĪ°": 7905,
      "Ġhead": 7906,
      "åľ°çĲĥä¸ĬçļĦ": 7907,
      "é£İåĬĽ": 7908,
      "å§ĭç»Ī": 7909,
      "åıĤè§ģ": 7910,
      "Ġaccept": 7911,
      "Ġspaces": 7912,
      "æºĲèĩª": 7913,
      "åģĩå®ļ": 7914,
      "Ġmodes": 7915,
      "å¤įæĿĤæĢ§": 7916,
      "åĽŀæĶ¶": 7917,
      "å¿ĥçĲĨ": 7918,
      "æİĴéĻ¤": 7919,
      "èº«ä»½": 7920,
      "ĠDe": 7921,
      "ä»įæľī": 7922,
      "ustain": 7923,
      "ĠNetwor": 7924,
      "åĥıæĺ¯": 7925,
      "ĠHow": 7926,
      "Ġkm": 7927,
      "åĨĻåħ¥": 7928,
      "æ¦Ĥçİĩè®º": 7929,
      "Ġvalu": 7930,
      "å¤ªéĺ³é£İ": 7931,
      "æ¶ĪåĮĸ": 7932,
      "æ¶ĪéĻ¤": 7933,
      "å¹³è¡¡å¸¸æķ°": 7934,
      "Ġreprodu": 7935,
      "éĺ¶å¯¼æķ°": 7936,
      "Ġrecogn": 7937,
      "ç¢³åİŁåŃĲ": 7938,
      "çĽ¸åħ³æĢ§": 7939,
      "çīĽé¡¿è¿ĲåĬ¨å®ļå¾ĭ": 7940,
      "æĿĲæĸĻçļĦ": 7941,
      "å¹²çĩ": 7942,
      "åıĳå±ķåĩº": 7943,
      "Ġhash": 7944,
      "æ°§åĮĸè¿ĺåİŁ": 7945,
      "å¯¼èĩ´äºĨ": 7946,
      "Ġformed": 7947,
      "Ġformation": 7948,
      "Ġ)ï¼Į": 7949,
      "Ġsolve": 7950,
      "ç¼©å°ı": 7951,
      "å±±èĦī": 7952,
      "Ġvisit": 7953,
      "Ġviscosity": 7954,
      "Ġsignificant": 7955,
      "Ġconfirm": 7956,
      "Ġconsider": 7957,
      "Ġentang": 7958,
      "åĢįä½ĵ": 7959,
      "å·¥ç¨ĭåŃ¦": 7960,
      "çľĭåĪ°çļĦ": 7961,
      "Ġpowerful": 7962,
      "Ġdiffusion": 7963,
      "Ġrepresentation": 7964,
      "æĤĸ": 7965,
      "é²ľ": 7966,
      "Ġplasmas": 7967,
      "Ġpersist": 7968,
      "å²©çŁ³åľĪ": 7969,
      "ĠUnder": 7970,
      "æľĢå°ıåĢ¼": 7971,
      "Ġsources": 7972,
      "æĻļä¸Ĭ": 7973,
      "Ġfollows": 7974,
      "äº²åĴĮ": 7975,
      "Ġcontinuously": 7976,
      "çº¬åº¦åľ°åĮº": 7977,
      "Ġabsorb": 7978,
      "ä¸¾ä¾ĭ": 7979,
      "å¹ĤçŃī": 7980,
      "Ġresource": 7981,
      "ç¨³æĢģ": 7982,
      "Ġefficiently": 7983,
      "Ġstationary": 7984,
      "Ġsemiconduct": 7985,
      "Ġisolated": 7986,
      "çĨĶçĤ¹": 7987,
      "Ġswitching": 7988,
      "éª¨æŀ¶": 7989,
      "äºĮåįģä¸ĸçºª": 7990,
      "Ġreview": 7991,
      "ĠQuantum": 7992,
      "å¤ļæł·æĢ§": 7993,
      "æ²¸çĤ¹": 7994,
      "Ġlife": 7995,
      "orrect": 7996,
      "Ġgiven": 7997,
      "Ġfavor": 7998,
      "Ġroutine": 7999,
      "çŃīåĲĮäºİ": 8000,
      "Ġdistinguish": 8001,
      "Ġfarther": 8002,
      "å¹²çĩ¥": 8003,
      ",âĢĿ": 8004,
      "2000": 8005,
      "AN": 8006,
      "IBM": 8007,
      "MS": 8008,
      "Qu": 8009,
      "Rn": 8010,
      "Te": 8011,
      "be": 8012,
      "cape": 8013,
      "gers": 8014,
      "mal": 8015,
      "mit": 8016,
      "mass": 8017,
      "yl": 8018,
      "é¼": 8019,
      "Ġ8": 8020,
      "ĠâĢĿ": 8021,
      "Ġæ¬¡": 8022,
      "Ġä¸ĬçļĦ": 8023,
      "Ġä»ĸä»¬": 8024,
      "ĠéļıåĲİ": 8025,
      "Ġ:=": 8026,
      "çļĦçĤ¹": 8027,
      "çļĦåıį": 8028,
      "çļĦçŁ©éĺµ": 8029,
      "erior": 8030,
      "åĪº": 8031,
      "atial": 8032,
      "Ġsaf": 8033,
      "Ġseries": 8034,
      "Ġsustain": 8035,
      "å¤¸": 8036,
      "ä½©": 8037,
      "åŃ¤": 8038,
      "éĩİ": 8039,
      "ä¸ĢåįĬ": 8040,
      "ä¸Ģéĺ¶": 8041,
      "æĺ¯å¯¹": 8042,
      "åľ¨æŁĲäºĽ": 8043,
      "Ġmut": 8044,
      "Ġmid": 8045,
      "Ġpen": 8046,
      "ards": 8047,
      "Ġbur": 8048,
      "Ġbran": 8049,
      "Ġfract": 8050,
      "Ġfully": 8051,
      "ä¸ªäºº": 8052,
      "icit": 8053,
      "let": 8054,
      "æłĪ": 8055,
      "ä¸ŃæīĢ": 8056,
      "ä»¥ä¸º": 8057,
      "å½©": 8058,
      "å¸Ŀ": 8059,
      "åĮĸçŁ³": 8060,
      "è´¦": 8061,
      "Ġnames": 8062,
      "Ġoffer": 8063,
      "omial": 8064,
      "ï¼īï¼Ľ": 8065,
      "ï¼īâĢĶ": 8066,
      "å¯¹çħ§": 8067,
      "åİĤ": 8068,
      "éĻĮçĶŁ": 8069,
      "ä¸İåħ¶ä»ĸ": 8070,
      "å¦ĤåĲĮ": 8071,
      "åĲĪåĬĽ": 8072,
      "åĲİéĿ¢": 8073,
      "åĲİç»§": 8074,
      "ä¹Łè¢«": 8075,
      "å¹¶éĢļè¿ĩ": 8076,
      "åŁºåĽ¢": 8077,
      "æĭĸ": 8078,
      "Ġgap": 8079,
      "olar": 8080,
      "olved": 8081,
      "æľĢä½İ": 8082,
      "æľĢåħĪ": 8083,
      "å¼ıåŃ¦ä¹ł": 8084,
      "æĽ´æ·±": 8085,
      "chit": 8086,
      "éĽ¹": 8087,
      "Ġprom": 8088,
      "igen": 8089,
      "iff": 8090,
      "iform": 8091,
      "å®ŀä¾ĭ": 8092,
      "å¾ĹæĽ´": 8093,
      "ades": 8094,
      "ably": 8095,
      "abul": 8096,
      "abol": 8097,
      "æ´ģ": 8098,
      "éĥ¨ç½²": 8099,
      "åı¯èĥ½åĩºçİ°": 8100,
      "èĥ°": 8101,
      "åĪĻæľī": 8102,
      "åĪĻä¼ļ": 8103,
      "ä»£çĲĨ": 8104,
      "Ġforward": 8105,
      "è¿ĽæŃ¥": 8106,
      "åŃĺæ´»": 8107,
      "Ġviol": 8108,
      "Ġchallen": 8109,
      "æµ·åºĬ": 8110,
      "éĶħ": 8111,
      "æŃ£äº¤": 8112,
      "å¯¼èĪª": 8113,
      "æĥł": 8114,
      "irt": 8115,
      "åīįèĢħ": 8116,
      "æķ°æį®åĴĮ": 8117,
      "Ġsec": 8118,
      "Ġseaf": 8119,
      "æĹ¶éĹ´åĴĮ": 8120,
      "éľĢè¦ģçļĦ": 8121,
      "éľĢè¦ģæĽ´": 8122,
      "Ġcoast": 8123,
      "ä½ľçĶ¨äºİ": 8124,
      "è¿ĺæ²¡æľī": 8125,
      "éĹ®é¢ĺæĹ¶": 8126,
      "åĻ¨å®ĺ": 8127,
      "ä¹ĭéĹ´åŃĺåľ¨": 8128,
      "Ġunne": 8129,
      "Ġshorter": 8130,
      "å¤©ç©º": 8131,
      "æº¯": 8132,
      "ĠIs": 8133,
      "ront": 8134,
      "Ġque": 8135,
      "èī²ç´ł": 8136,
      "å¢ŀéĩı": 8137,
      "çĶµåŃĲä¼łéĢĴ": 8138,
      "åŃĺåľ¨ä¸Ģä¸ª": 8139,
      "å¼ºçļĦ": 8140,
      "åį³åı¯": 8141,
      "æ·»": 8142,
      "å¦Ĥæŀľä¸Ģä¸ª": 8143,
      "ĠCal": 8144,
      "Ġusers": 8145,
      "ĠEven": 8146,
      "æķ°åŃ¦çļĦ": 8147,
      "åħ¬çº¦": 8148,
      "Ġleak": 8149,
      "Ġlets": 8150,
      "Ġleaving": 8151,
      "æııè¿°äºĨ": 8152,
      "çº¿æĢ§æĸ¹ç¨ĭç»Ħ": 8153,
      "éĴł": 8154,
      "è¿Ļç§įçİ°è±¡": 8155,
      "è§ĴéĢŁåº¦": 8156,
      "æīįä¼ļ": 8157,
      "thing": 8158,
      "ĠBro": 8159,
      "Ġ17": 8160,
      "èĩªçĦ¶çİ°è±¡": 8161,
      "æĭīä¸ģ": 8162,
      "aging": 8163,
      "Ġimpossible": 8164,
      "å½¢å¼ıåĮĸ": 8165,
      "Ġè¿Ļç±»": 8166,
      "åºķå±Ĥ": 8167,
      "åįģä¹Ŀ": 8168,
      "ermions": 8169,
      "æľ¬èº«çļĦ": 8170,
      "é©¬æĸ¯": 8171,
      "ç©ºæ°Ķä¸ŃçļĦ": 8172,
      "éĹ¨æį·": 8173,
      "åı¤åħ¸": 8174,
      "Ġbehave": 8175,
      "æ°§åĮĸçī©": 8176,
      "ä»ĭéĿ¢": 8177,
      "åĬŁèĥ½çļĦ": 8178,
      "è¾ĵåĩºåĢ¼": 8179,
      "Ġcarry": 8180,
      "ãĢĭï¼Ī": 8181,
      "Ġobservation": 8182,
      "åĮĹåįĬçĲĥ": 8183,
      "å¤©æ°Ķé¢ĦæĬ¥": 8184,
      "è¶ĭäºİ": 8185,
      "è½¯ä½ĵ": 8186,
      "è¡ĮæĺŁçļĦ": 8187,
      "ä¸ĵæ³¨": 8188,
      "Ġteach": 8189,
      "å°½éĩı": 8190,
      "Ġaccording": 8191,
      "ĠStandard": 8192,
      "Ġspecified": 8193,
      "Ġzone": 8194,
      "ä¸įç¡®å®ļåº¦": 8195,
      "Ġbuildings": 8196,
      "Ġpredictions": 8197,
      "è¡¥åħħ": 8198,
      "Ġconvert": 8199,
      "Ġcooled": 8200,
      "Ġcosts": 8201,
      "Ġstopping": 8202,
      "Ġprograms": 8203,
      "Ġreading": 8204,
      "åģ¶æŀģ": 8205,
      "åĩĨç¡®çļĦ": 8206,
      "Ġcalibration": 8207,
      "ĠUni": 8208,
      "Ġcapacit": 8209,
      "æļĸæµģ": 8210,
      "scale": 8211,
      "æ¼Ĥåıĺ": 8212,
      "itted": 8213,
      "åħ»æ®ĸ": 8214,
      "Ġenvironmental": 8215,
      "çĳŀ": 8216,
      "Ġamounts": 8217,
      "Ġpopulations": 8218,
      "Ġfamily": 8219,
      "cule": 8220,
      "èŀįåĮĸ": 8221,
      "Ġconductivity": 8222,
      "Ġreturned": 8223,
      "ä¼Ĺå¤ļ": 8224,
      "Ġtrip": 8225,
      "Ġinvolves": 8226,
      "å¯¹è§Ĵçº¿": 8227,
      "æ²Ļæ¼ł": 8228,
      "æŃ£åĪĻé¡¹": 8229,
      "çĪĨåıĳ": 8230,
      "aneously": 8231,
      "Ġeruptions": 8232,
      "Ġlatency": 8233,
      "Ġhours": 8234,
      "Ġedge": 8235,
      "ä¸¢å¤±": 8236,
      "ootstrap": 8237,
      "é»ıåº¦": 8238,
      "çĮľæĥ³": 8239,
      "çŁ¿çī©": 8240,
      "èĳĹåĲįçļĦ": 8241,
      "Ġmeeting": 8242,
      "ç¼ĸç¨ĭè¯Ńè¨Ģ": 8243,
      "ä¹ĻéĨ": 8244,
      "å´©": 8245,
      "åľ°ä¸ĭæ°´": 8246,
      "è½¬åĬ¨æĥ¯éĩı": 8247,
      "ield": 8248,
      "xygen": 8249,
      "ä¸°å¯Į": 8250,
      "Ġobserve": 8251,
      "Ġclimate": 8252,
      "åį±éĻ©": 8253,
      "Ġsurrounding": 8254,
      "è©¹å§Ĩæĸ¯": 8255,
      "è½½æµģåŃĲ": 8256,
      "Ġessential": 8257,
      "HTTP": 8258,
      "Ġafternoon": 8259,
      "Ġvaluable": 8260,
      "Ġseafloor": 8261,
      "Ġunnecess": 8262,
      "éĹ¨æį·åĪĹå¤«": 8263,
      "%ãĢĤ": 8264,
      "DP": 8265,
      "If": 8266,
      "IUPAC": 8267,
      "TA": 8268,
      "bra": 8269,
      "body": 8270,
      "dle": 8271,
      "gments": 8272,
      "hav": 8273,
      "lor": 8274,
      "mm": 8275,
      "och": 8276,
      "oud": 8277,
      "set": 8278,
      "tention": 8279,
      "¹æŀľ": 8280,
      "Ġå®ŀéªĮ": 8281,
      "ĠéĻ¤": 8282,
      "Ġæ¯ıä¸ª": 8283,
      "ĠæĪĳä»¬": 8284,
      "Ġå¾®ç§¯åĪĨ": 8285,
      "çļĦåĨħ": 8286,
      "çļĦæĸ°": 8287,
      "çļĦæłĩåĩĨ": 8288,
      "çļĦç©ºæ°Ķ": 8289,
      "çļĦå·®å¼Ĥ": 8290,
      "çļĦéķ¿åº¦": 8291,
      "Ġtakes": 8292,
      "Ġtend": 8293,
      "äº¨": 8294,
      "reement": 8295,
      "åĲŀ": 8296,
      "Ġcity": 8297,
      "ending": 8298,
      "å®Ĺ": 8299,
      "ä¸Ģå¥Ĺ": 8300,
      "orque": 8301,
      "åľ¨çī¹å®ļ": 8302,
      "itud": 8303,
      "Ġpip": 8304,
      "Ġpull": 8305,
      "æĪ´": 8306,
      "æĹħ": 8307,
      "Ġdin": 8308,
      "Ġbag": 8309,
      "Ġbase": 8310,
      "Ġwrite": 8311,
      "Ġfac": 8312,
      "Ġflo": 8313,
      "Ġfour": 8314,
      "è¯±": 8315,
      "åı¯å°Ĩ": 8316,
      "åı¯ä¿¡": 8317,
      "åĪĨéļĶ": 8318,
      "å½»": 8319,
      "å¸ķ": 8320,
      "åĨĽ": 8321,
      "æ³¥": 8322,
      "è´ª": 8323,
      "Ġnature": 8324,
      "Ġlies": 8325,
      "Ġthous": 8326,
      "omic": 8327,
      "ä½ĵçİ°": 8328,
      "ä½ĵéªĮ": 8329,
      "åľ°ä¸Ń": 8330,
      "åľ°çĲĨ": 8331,
      "åľ°æł¸": 8332,
      "éĿ©": 8333,
      "è¿ĩå¤ļ": 8334,
      "Ġbeam": 8335,
      "çĽ¸åıĺ": 8336,
      "ç§įåħĥç´ł": 8337,
      "åı¯ä»¥è¡¨ç¤º": 8338,
      "åı¯ä»¥å¾ĹåĪ°": 8339,
      "å¸¸ä¼ļ": 8340,
      "å¸¸å¾®åĪĨæĸ¹ç¨ĭ": 8341,
      "éĺħ": 8342,
      "éħĴ": 8343,
      "ils": 8344,
      "iles": 8345,
      "ided": 8346,
      "idges": 8347,
      "urally": 8348,
      "æĮ¤": 8349,
      "å¹¶ä»¥": 8350,
      "Ġget": 8351,
      "æīĢå¾Ĺ": 8352,
      "ä¹ĭæīĢä»¥": 8353,
      "æŃ¤å¤ĸ": 8354,
      "æĽ´éļ¾": 8355,
      "chron": 8356,
      "Ġproport": 8357,
      "ï¼ļâĪ«": 8358,
      "å®ŀä½ĵ": 8359,
      "çĤ¹çĶµèį·": 8360,
      "è¢«åıĳçİ°": 8361,
      "å®ĥèĥ½": 8362,
      "ç½ķ": 8363,
      "ading": 8364,
      "çº¿æ®µ": 8365,
      "ump": 8366,
      "åĪĻåľ¨": 8367,
      "åĪĻç§°ä¸º": 8368,
      "åĬłå¯Ĩ": 8369,
      "ä½Ĩä¸įèĥ½": 8370,
      "åıªåī©": 8371,
      "åįķçº¯": 8372,
      "å¾Īå¥½": 8373,
      "åĩ½æķ°åĢ¼": 8374,
      "ç¼Ŀ": 8375,
      "éĩĮéĿ¢": 8376,
      "èĭ·": 8377,
      "èĭ¹æŀľ": 8378,
      "æĹ¶éĹ´å°ºåº¦": 8379,
      "å¥ı": 8380,
      "å¼ĢæĻ®åĭĴ": 8381,
      "Ġcovered": 8382,
      "ĠSystem": 8383,
      "æĹłè®º": 8384,
      "æ±ŀ": 8385,
      "çŁ©å½¢": 8386,
      "èīº": 8387,
      "æĶ¹è¿Ľ": 8388,
      "ocabul": 8389,
      "æ¸©å¸¦": 8390,
      "iving": 8391,
      "å°Ķä¼¯çī¹": 8392,
      "æ²¡æľīä»»ä½ķ": 8393,
      "åĲĳéĩıv": 8394,
      "éĻįæ¸©": 8395,
      "å§Ķ": 8396,
      "ortun": 8397,
      "èī²çļĦ": 8398,
      "ç©ºéĹ´ä¸ŃçļĦ": 8399,
      "ç©ºéĹ´å¤įæĿĤåº¦": 8400,
      "ç£ģæĢ§": 8401,
      "1980": 8402,
      "é¢Ħè¨Ģ": 8403,
      "æ±Ĥå¾Ĺ": 8404,
      "éĴį": 8405,
      "éĴĻ": 8406,
      "æ»ļ": 8407,
      "ruction": 8408,
      "ĠRep": 8409,
      "ç¨³å®ļåĲĮä½įç´ł": 8410,
      "Ġrelativity": 8411,
      "ä¸¤ä¸ªçī©ä½ĵ": 8412,
      "æİĴæĸ¥": 8413,
      "å¼ĤæŀĦ": 8414,
      "è®Ńç»ĥæł·æľ¬": 8415,
      "Ġtransformation": 8416,
      "ä¸»è¦ģæĺ¯": 8417,
      "cont": 8418,
      "ĠNuclear": 8419,
      "åŃĹç¬¦": 8420,
      "æĵįçºµ": 8421,
      "Ġ16": 8422,
      "Ġphases": 8423,
      "ç®Ģåįķåľ°": 8424,
      "Ġsystematic": 8425,
      "å¾ĹåĪ°äºĨ": 8426,
      "å½¢å¼ıçļĦ": 8427,
      "éĽ¶çĤ¹": 8428,
      "çĭ¬çī¹": 8429,
      "æ¶Īè´¹": 8430,
      "æĮ¯åŃĲ": 8431,
      "Ġlocations": 8432,
      "Ġsurpr": 8433,
      "Ġsurfaces": 8434,
      "éĢĴå¢ŀ": 8435,
      "éļ¾åº¦": 8436,
      "Ġrecom": 8437,
      "Ġworking": 8438,
      "Ġparticip": 8439,
      "Ġ200": 8440,
      "Ġequal": 8441,
      "Ġevening": 8442,
      "Ġexplo": 8443,
      "åıªæľīä¸Ģä¸ª": 8444,
      "ç½Ĺä¼¯çī¹": 8445,
      "è¯Ńè¨Ģæ¨¡åŀĭ": 8446,
      "Ġcare": 8447,
      "plex": 8448,
      "plete": 8449,
      "æįŁèĢĹ": 8450,
      "éĺ»åĬĽ": 8451,
      "æº¶è´¨": 8452,
      "æ··åĲĪçī©": 8453,
      "èħĲ": 8454,
      "ä»İèĢĮå½¢æĪĲ": 8455,
      "æľīæĹ¶ä¼ļ": 8456,
      "ĠGood": 8457,
      "æĢĿèĢĥ": 8458,
      "åģľçķĻ": 8459,
      "Ġvolume": 8460,
      "Ġsuperconductor": 8461,
      "Ġpredic": 8462,
      "åĪĨåĪ«ä¸º": 8463,
      "è½½ä½ĵ": 8464,
      "Ġpathways": 8465,
      "Ġpages": 8466,
      "Ġcausing": 8467,
      "Ġzones": 8468,
      "eady": 8469,
      "Ġabsolute": 8470,
      "Ġunderstood": 8471,
      "Ġseparated": 8472,
      "Ġcombinations": 8473,
      "å¹ħåº¦": 8474,
      "æľĢå¤§åĢ¼": 8475,
      "Ġordering": 8476,
      "åı°æ¹¾": 8477,
      "åģ¶å°Ķ": 8478,
      "Ġexisted": 8479,
      "åĪĿå§ĭåĮĸ": 8480,
      "æľįåĬ¡åĻ¨": 8481,
      "ç¨Ģæľī": 8482,
      "åıĳè¡¨äºĨ": 8483,
      "Ġbegins": 8484,
      "çľŁæł¸ç»Ĩèĥŀ": 8485,
      "Ġgoal": 8486,
      "Ġkeeps": 8487,
      "æĬĳåĪ¶åīĤ": 8488,
      "Ġsubstant": 8489,
      "Ġvectors": 8490,
      "Ġä¸ĢèĪ¬æĿ¥è¯´": 8491,
      "è¾ħéħ¶": 8492,
      "Ġcopper": 8493,
      "æķ£åĪĹåĩ½æķ°": 8494,
      "å®¢æĪ·": 8495,
      "Ġpriv": 8496,
      "Ġwalk": 8497,
      "Ġsymmet": 8498,
      "ĠPlate": 8499,
      "Ġmultiplication": 8500,
      "Ġcrystal": 8501,
      "è¡įå°Ħ": 8502,
      "Ġmedium": 8503,
      "éķ§ç³»": 8504,
      "Ġintroduce": 8505,
      "Ġneighbor": 8506,
      "æĦıè¯ĨåĪ°": 8507,
      "åįĹæŀģæ´²": 8508,
      "Ġprotein": 8509,
      "æ¶¡æĹĭ": 8510,
      "Ġposterior": 8511,
      "Ġmonths": 8512,
      "çĵ¶é¢Ī": 8513,
      "ç®Ńå¤´": 8514,
      "ĠInstead": 8515,
      "Ġbattery": 8516,
      "ç¯ĩ": 8517,
      "çĶµè´ŁæĢ§": 8518,
      "ä¹Įæĸ¯": 8519,
      "Ġmathematical": 8520,
      "éī´": 8521,
      "Ġapproaches": 8522,
      "è¿Ŀåıį": 8523,
      "éĢ¼è¿ĳ": 8524,
      "åĽ½æķ°åŃ¦å®¶": 8525,
      "Ġexponential": 8526,
      "æ¤ŃåľĨ": 8527,
      "osynthesis": 8528,
      "æ·»åĬł": 8529,
      "ocabulary": 8530,
      "58": 8531,
      "61": 8532,
      "62": 8533,
      "69": 8534,
      "74": 8535,
      "75": 8536,
      "ED": 8537,
      "Ex": 8538,
      "Gra": 8539,
      "QL": 8540,
      "bust": 8541,
      "cles": 8542,
      "cast": 8543,
      "fåĮº": 8544,
      "got": 8545,
      "ius": 8546,
      "land": 8547,
      "rin": 8548,
      "sing": 8549,
      "âĩ": 8550,
      "é¿": 8551,
      "ĠæĹ¶": 8552,
      "Ġur": 8553,
      "ĠçĤ¹": 8554,
      "ĠåĮĸåŃ¦": 8555,
      "ĠçĲĨè§£": 8556,
      "Ġäººå·¥æĻºèĥ½": 8557,
      "Ġåı¦ä¸Ģä¸ª": 8558,
      "Ġå¤§å¤ļæķ°": 8559,
      "ĠÃĹ": 8560,
      "çļĦæµĭéĩı": 8561,
      "çļĦèĦ±æ°§æł¸ç³ĸæł¸éħ¸": 8562,
      "çļĦçī¹æĢ§": 8563,
      "Ġterm": 8564,
      "Ġtake": 8565,
      "Ġsection": 8566,
      "Ġcase": 8567,
      "æĺĤ": 8568,
      "æĺ¯çĶ¨": 8569,
      "orph": 8570,
      "åľ¨çłĶç©¶": 8571,
      "åľ¨è¿Ļä¸ª": 8572,
      "Ġpur": 8573,
      "Ġposs": 8574,
      "aring": 8575,
      "Ġdram": 8576,
      "Ġbes": 8577,
      "Ġbed": 8578,
      "Ġband": 8579,
      "Ġbinary": 8580,
      "Ġbott": 8581,
      "ä¸įåľ¨": 8582,
      "ä¸įåĪ°": 8583,
      "ä¸įå°ĳ": 8584,
      "Ġfive": 8585,
      "ä¸ºä¾ĭ": 8586,
      "ä¸ºæŃ¢": 8587,
      "åı¯å¤«": 8588,
      "Ġinform": 8589,
      "Ġinference": 8590,
      "Ġinert": 8591,
      "Ġnull": 8592,
      "å®ļåĿĢ": 8593,
      "åĲĮæºĲ": 8594,
      "Ġthresh": 8595,
      "uth": 8596,
      "å¤§éĥ¨ä»½": 8597,
      "ä¼ļå¯¹": 8598,
      "ä¼ļä¸İ": 8599,
      "è¿Ļä¹Łæĺ¯": 8600,
      "å·Ŀ": 8601,
      "ä¸ĬéĻĲ": 8602,
      "Ġsteady": 8603,
      "å¤ļå¾·": 8604,
      "çĶµèĥ½": 8605,
      "imin": 8606,
      "çĽ¸å¹²": 8607,
      "åĬĽéĩı": 8608,
      "åı¯ä»¥åĩıå°ĳ": 8609,
      "ä½ľçļĦ": 8610,
      "åĲİæŀľ": 8611,
      "vern": 8612,
      "ä¸ĭèĲ½": 8613,
      "ä¸ĭéĿ¢çļĦ": 8614,
      "æĭį": 8615,
      "äººä¸º": 8616,
      "æľĢä½³": 8617,
      "æĽ´å¥½çļĦ": 8618,
      "è¡Įç§©": 8619,
      "amiliar": 8620,
      "å®ŀè·": 8621,
      "æı´": 8622,
      "éĩįå¤§": 8623,
      "åĢ¼åŁŁ": 8624,
      "Ġexists": 8625,
      "Ġexcessive": 8626,
      "abil": 8627,
      "gebra": 8628,
      "éĿ¢ä¸Ĭ": 8629,
      "Ġvocabulary": 8630,
      "åįķæ¬¡": 8631,
      "æµ·ä¸Ĭ": 8632,
      "æµ·æĭĶ": 8633,
      "æĻ¨": 8634,
      "å¢¨": 8635,
      "å½ĵåľ°": 8636,
      "ĠATP": 8637,
      "åĪĹç§©": 8638,
      "æĬĬæīĢæľī": 8639,
      "æł·åĵģ": 8640,
      "åħ¥å°Ħ": 8641,
      "è½¬ç½®": 8642,
      "è½¬åıĺæĪĲ": 8643,
      "ç»Ĩèĥŀå£ģ": 8644,
      "éľĢè¦ģåĲĮæĹ¶": 8645,
      "å±Ĥçº§": 8646,
      "Ġcovariance": 8647,
      "acific": 8648,
      "å¾®çĶŁçī©": 8649,
      "å¾®ç²Ĵ": 8650,
      "ä½¿çĶ¨äºĨ": 8651,
      "æ¶µ": 8652,
      "ocial": 8653,
      "è¯´è¯Ŀ": 8654,
      "Ġunf": 8655,
      "Ġuniform": 8656,
      "Ġshap": 8657,
      "å°ĳéĩıçļĦ": 8658,
      "èĬ¬": 8659,
      "Ġquality": 8660,
      "ä¸Ģç§įç§°ä¸º": 8661,
      "åŃĺåľ¨çĿĢ": 8662,
      "å¸ĥæĸ¯": 8663,
      "ffic": 8664,
      "ç£ģçŁ©": 8665,
      "Ġuser": 8666,
      "Ġresolution": 8667,
      "æĸĩç«ł": 8668,
      "æĿĤäº¤": 8669,
      "opes": 8670,
      "èĩ³äºİ": 8671,
      "Ġspatial": 8672,
      "ĠMany": 8673,
      "Ġperme": 8674,
      "åģļæ³ķ": 8675,
      "åģļåĬŁ": 8676,
      "æİĴå¸ĥ": 8677,
      "ĠPri": 8678,
      "apse": 8679,
      "ĠDep": 8680,
      "Ġcluster": 8681,
      "å®ĥä»¬åľ¨": 8682,
      "éĵ¾çļĦ": 8683,
      "æķ£çĥŃ": 8684,
      "æī¾åĩº": 8685,
      "ç¥ŀè¯Ŀ": 8686,
      "é©»": 8687,
      "ä¸įèĥ½çĽ´æİ¥": 8688,
      "èĩªçĦ¶è¯Ńè¨Ģ": 8689,
      "ĠFacts": 8690,
      "ç¡®å®ļæĢ§": 8691,
      "Ġexpand": 8692,
      "rices": 8693,
      "Ġcollection": 8694,
      "è§Ĥå¯ŁåĪ°çļĦ": 8695,
      "äºļçĥŃå¸¦": 8696,
      "ç¼ĸåĨĻ": 8697,
      "çħ§çīĩ": 8698,
      "åĪĩæį¢": 8699,
      "æĿĥè¡¡": 8700,
      "é©¬å°Ķ": 8701,
      "Ġequival": 8702,
      "çŁŃæļĤ": 8703,
      "åĨ°éĽ¹": 8704,
      "å½Ĵä¸Ģ": 8705,
      "Ġexplicit": 8706,
      "åĪĨç±»åĻ¨": 8707,
      "ç½Ĺæĸ¯": 8708,
      "Ġgeneration": 8709,
      "Ġheld": 8710,
      "è§£åĨ³æĸ¹æ¡Ī": 8711,
      "ç¨ĭåº¦ä¸Ĭ": 8712,
      "éĢıéķľ": 8713,
      "éĿĻæĢģ": 8714,
      "æ··æĿĤ": 8715,
      "ç»Ŀå¤§å¤ļæķ°": 8716,
      "æĿ¥èĩªäºİ": 8717,
      "éĶĻè¯¯çļĦ": 8718,
      "æľīæĹ¶åĢĻ": 8719,
      "æ¤įçī©çļĦ": 8720,
      "Ġremaining": 8721,
      "æ²¿èĳĹ": 8722,
      "Ġappropri": 8723,
      "è¾¹çķĮæĿ¡ä»¶": 8724,
      "æķ°ç»Ħä¸Ń": 8725,
      "Ġfinding": 8726,
      "Ġimages": 8727,
      "ä¸ĵå®¶": 8728,
      "æİ¢è®¨": 8729,
      "ä¹¦ä¸Ń": 8730,
      "çŁ©éĺµçļĦç§©": 8731,
      "åįłçĶ¨": 8732,
      "Ġproviding": 8733,
      "åįıåĬ©": 8734,
      "ä»ĭè´¨çļĦ": 8735,
      "Ġcorrelations": 8736,
      "éĩįåĬĽåľº": 8737,
      "è½¬æį¢æĪĲ": 8738,
      "Ġphysic": 8739,
      "âĢ¦âĢ¦": 8740,
      "éĹŃåĲĪ": 8741,
      "åŃĺåĤ¨ç©ºéĹ´": 8742,
      "æĤ¬": 8743,
      "Ġdefin": 8744,
      "Ġappears": 8745,
      "âĨ¦": 8746,
      "èĪªè¡Į": 8747,
      "åİĨåı²ä¸Ĭ": 8748,
      "âī¥": 8749,
      "ĠRepeated": 8750,
      "Ġhardware": 8751,
      "è·¨è¶Ĭ": 8752,
      "Ġcollisions": 8753,
      "Ġbook": 8754,
      "æł¸èĭ·éħ¸åºıåĪĹ": 8755,
      "Ġgroundwater": 8756,
      "Ġopened": 8757,
      "Ġtreated": 8758,
      "åĽ½éĻħåįķä½į": 8759,
      "éĿĻæŃ¢è´¨éĩı": 8760,
      "æ±½è½¦": 8761,
      "é¡¶çĤ¹": 8762,
      "Ġsounded": 8763,
      "æĬķå½±": 8764,
      "Ġhappens": 8765,
      "æľĢæĹ©çļĦ": 8766,
      "Ġreaches": 8767,
      "è·ĥè¿ģ": 8768,
      "æŃ£åĪĻåĮĸ": 8769,
      "æķ£åĪĹè¡¨": 8770,
      "èĲ¨åħĭ": 8771,
      "Ġcharacteristic": 8772,
      "Ġisolation": 8773,
      "äºĮåħĥæłĳ": 8774,
      "Ġdistinction": 8775,
      "çĩĥçĥ§": 8776,
      "Ġheavy": 8777,
      "Ġgalaxy": 8778,
      "Ġnecessarily": 8779,
      "ç´«å¤ĸçº¿": 8780,
      "Ġdisturbances": 8781,
      "åı¶ç»¿ä½ĵ": 8782,
      "Ġcircuit": 8783,
      "Unix": 8784,
      "è¡£æľį": 8785,
      "Ġhypothesis": 8786,
      "Ġwanted": 8787,
      "article": 8788,
      "Ġroughly": 8789,
      "åĩĿèģļæĢģ": 8790,
      "åħ¼å®¹": 8791,
      "Ġexplanation": 8792,
      "æ·¡æ°´": 8793,
      "Ġarbitrary": 8794,
      "æĹģè¾¹": 8795,
      "èĶ½": 8796,
      "æĩĤ": 8797,
      "Ġdocument": 8798,
      "æĤĸè®º": 8799,
      "chitect": 8800,
      "åľ°ä¸Ńæµ·": 8801,
      "å®ŀè·µ": 8802,
      "118": 8803,
      "43": 8804,
      "89": 8805,
      "AçļĦ": 8806,
      "BA": 8807,
      "FC": 8808,
      "Se": 8809,
      "Some": 8810,
      "TL": 8811,
      "TCP": 8812,
      "We": 8813,
      "batch": 8814,
      "nlogn": 8815,
      "oh": 8816,
      "prop": 8817,
      "tice": 8818,
      "zy": 8819,
      "ºä¹³": 8820,
      "â©": 8821,
      "âĶ": 8822,
      "Ġ7": 8823,
      "Ġï¼ī": 8824,
      "Ġå¤ļ": 8825,
      "Ġé«ĺ": 8826,
      "ĠéľĢè¦ģ": 8827,
      "Ġéħ¶": 8828,
      "Ġäººç±»": 8829,
      "Ġä¸¾ä¾ĭ": 8830,
      "çļĦåĩºçİ°": 8831,
      "çļĦçİ¯å¢ĥ": 8832,
      "çļĦé¢Ħæµĭ": 8833,
      "çļĦåľ°éľĩ": 8834,
      "çļĦæĢĿæĥ³": 8835,
      "Ġtr": 8836,
      "Ġtorque": 8837,
      "ered": 8838,
      "reen": 8839,
      "ä»ģ": 8840,
      "Ġsix": 8841,
      "ä½Ľ": 8842,
      "ç»ĥ": 8843,
      "æĺ¯æľī": 8844,
      "æĺ¯ä¸ª": 8845,
      "æĺ¯æĬĬ": 8846,
      "æĺ¯éĢļè¿ĩ": 8847,
      "orn": 8848,
      "åĬ±": 8849,
      "åºŁ": 8850,
      "Ġmight": 8851,
      "Ġmarg": 8852,
      "Ġbill": 8853,
      "Ġbatch": 8854,
      "Ġburning": 8855,
      "æľīåĲĳ": 8856,
      "æľīä¸ĢäºĽ": 8857,
      "çīĮ": 8858,
      "ä¸įå¤Ł": 8859,
      "Ġfind": 8860,
      "Ġfriction": 8861,
      "èĥ½æºĲ": 8862,
      "åı¯æµĭ": 8863,
      "åı¯å¾®": 8864,
      "åı¯åĪ©çĶ¨": 8865,
      "level": 8866,
      "åĪĨå±Ĥ": 8867,
      "åŃ¦çłĶç©¶": 8868,
      "Ġretain": 8869,
      "åį¢": 8870,
      "Ġep": 8871,
      "åĨĮ": 8872,
      "æīŃ": 8873,
      "æŃ¦": 8874,
      "æŃ§": 8875,
      "Ġname": 8876,
      "Ġlines": 8877,
      "çº½": 8878,
      "âĢĺ": 8879,
      "Ġthread": 8880,
      "Ġthick": 8881,
      "Ġthings": 8882,
      "åıĺä¸º": 8883,
      "å¤§å°ºåº¦": 8884,
      "çĶŁåĮĸ": 8885,
      "å¯¹æ¯Ķ": 8886,
      "ush": 8887,
      "using": 8888,
      "etics": 8889,
      "ä¸Ģä¸ªèĬĤçĤ¹": 8890,
      "Ġstorm": 8891,
      "Ġstrate": 8892,
      "å±ī": 8893,
      "imal": 8894,
      "æĿ¥è®¡ç®Ĺ": 8895,
      "Ġconsequ": 8896,
      "stream": 8897,
      "éħ°": 8898,
      "åĲĳå¿ĥ": 8899,
      "ters": 8900,
      "äººéĢł": 8901,
      "çĤİ": 8902,
      "æĽ´å¤įæĿĤçļĦ": 8903,
      "æł¸åŃĲ": 8904,
      "ï¼ļãĢĮ": 8905,
      "ä¿Ħ": 8906,
      "åıįå¯¹": 8907,
      "åıįæ¯Ķ": 8908,
      "æľºä¼ļ": 8909,
      "åģ¿": 8910,
      "æ°ĶåĽ¢": 8911,
      "èĩªåıĺéĩı": 8912,
      "åħĥä»¶": 8913,
      "osity": 8914,
      "å¾Ĺå¤ª": 8915,
      "Ġexceed": 8916,
      "ç¡Ŀ": 8917,
      "åĵºä¹³": 8918,
      "åı¯èĥ½è¢«": 8919,
      "èĥľ": 8920,
      "Ġforgot": 8921,
      "å¾Īå°ıçļĦ": 8922,
      "å¹³æ»ĳ": 8923,
      "ä¾ĭå¤ĸ": 8924,
      "æŃ£æĢģ": 8925,
      "ç¦ģ": 8926,
      "åīįè¿Ľ": 8927,
      "ç¦»åŁŁ": 8928,
      "éĩĮæľī": 8929,
      "æ¨¡åŀĭåĴĮ": 8930,
      "Ġenorm": 8931,
      "è¾ĥå¼±": 8932,
      "æ³¢æµª": 8933,
      "Ġcoher": 8934,
      "Ġcoupl": 8935,
      "å¾®è½¯": 8936,
      "ä½ľçĶ¨ä¸ĭ": 8937,
      "æĦıå¤ĸ": 8938,
      "pts": 8939,
      "çĶŁçī©åĮĸåŃ¦": 8940,
      "å°Ĩä¼ļ": 8941,
      "å®ĮåĸĦ": 8942,
      "éļıä¹ĭ": 8943,
      "å¤©æĭ©": 8944,
      "çĥŃèĥ½": 8945,
      "å°Ķé¡¿": 8946,
      "Ġcontact": 8947,
      "çĿ¡": 8948,
      "çĿĽ": 8949,
      "éĢŁåº¦åĴĮ": 8950,
      "èĥ½éĩıåĴĮ": 8951,
      "åıĹä½ĵ": 8952,
      "ç£ģåĮĸ": 8953,
      "æĶ¾å¼ĥ": 8954,
      "oding": 8955,
      "æį¢åı¥è¯Ŀ": 8956,
      "Ġheight": 8957,
      "è¶Ĭå¥½": 8958,
      "ç»ĵæŀľçļĦ": 8959,
      "é£İåĮĸ": 8960,
      "é£İåĲĳ": 8961,
      "é£İæļ´": 8962,
      "åĽ¾çļĦ": 8963,
      "é¢ĦåħĪ": 8964,
      "èĬĤå¥ı": 8965,
      "åħ±æľī": 8966,
      "Ġlet": 8967,
      "Ġrow": 8968,
      "éĴ»": 8969,
      "æ´»è·ĥ": 8970,
      "Ġinterference": 8971,
      "Ġscatter": 8972,
      "Ġspont": 8973,
      "åģĩèĭ¥": 8974,
      "Ġtiming": 8975,
      "å¯ĨéĴ¥": 8976,
      "è¿Ļç§įæĥħåĨµä¸ĭ": 8977,
      "ç³ĸç±»": 8978,
      "åĽŀæĿ¥": 8979,
      "å£°åŃĲ": 8980,
      "Ġtraffic": 8981,
      "Ġperman": 8982,
      "æ¸©åº¦åıĺåĮĸ": 8983,
      "å¼ĤæĢ§": 8984,
      "Ġdisag": 8985,
      "ä»įèĥ½": 8986,
      "ä»įéľĢè¦ģ": 8987,
      "Ġclock": 8988,
      "å»ºæŀĦ": 8989,
      "rency": 8990,
      "ä¸»è¦ģæľī": 8991,
      "æĶ¶ç¼©": 8992,
      "èĮĥæķ°": 8993,
      "å¢ŀåĬłäºĨ": 8994,
      "ĠFerm": 8995,
      "æ·±å±Ĥ": 8996,
      "èĭ±å¯¸": 8997,
      "Ġkind": 8998,
      "æľªæĿ¥çļĦ": 8999,
      "åįĬå¯¼ä½ĵ": 9000,
      "Ġ=-": 9001,
      "è¾ĵåħ¥çļĦ": 9002,
      "åŁºæľ¬ç²ĴåŃĲ": 9003,
      "èį·åħ°": 9004,
      "çĽ®æłĩåĩ½æķ°": 9005,
      "Ġgene": 9006,
      "Ġgenetic": 9007,
      "åĪĿçŃī": 9008,
      "åĪĿæľŁ": 9009,
      "Ġarg": 9010,
      "äºļéĩĮ": 9011,
      "Ġquantity": 9012,
      "Ġapparent": 9013,
      "Ġapart": 9014,
      "180": 9015,
      "æľºåĻ¨äºº": 9016,
      "è¡¨çİ°åŀĭ": 9017,
      "ä»ĭäºİ": 9018,
      "æ¤įè¢«": 9019,
      "æĳĬ": 9020,
      "ç»§æī¿": 9021,
      "åħĥç´łçļĦåİŁåŃĲ": 9022,
      "ç¼©æĶ¾": 9023,
      "cope": 9024,
      "éĺ»å°¼": 9025,
      "éĺ»ç¢į": 9026,
      "Ġinstruct": 9027,
      "ç¼ºçĤ¹": 9028,
      "Ġmemor": 9029,
      "Ġconfl": 9030,
      "æī©å¼ł": 9031,
      "æĬ½å±ī": 9032,
      "Ġresulting": 9033,
      "çī©ä½ĵçļĦè´¨éĩı": 9034,
      "Ġbehaves": 9035,
      "åĮĹæŀģ": 9036,
      "å»ºç«ĭäºĨ": 9037,
      "æ·±åº¦ç¥ŀç»ıç½ĳç»ľ": 9038,
      "åĩ½æķ°çļĦå¯¼æķ°": 9039,
      "Ġblocks": 9040,
      "åĶĲ": 9041,
      "Ġaccident": 9042,
      "è¯Ħä»·": 9043,
      "Ġfailures": 9044,
      "æ¬§æĭī": 9045,
      "Ġrespons": 9046,
      "ä¸įåıĺçļĦ": 9047,
      "ropout": 9048,
      "æķĻèĤ²": 9049,
      "çī¹æ®ĬçļĦ": 9050,
      "ç¬¬ä¸Ģå®ļå¾ĭ": 9051,
      "Ġimproved": 9052,
      "åħ°åħĭ": 9053,
      "Ġmolecule": 9054,
      "Ġthought": 9055,
      "å¼ĹéĽ·": 9056,
      "æī¿è®¤": 9057,
      "æī¿æĭħ": 9058,
      "æľĢå°ıåĮĸ": 9059,
      "éļľç¢į": 9060,
      "Ġreleased": 9061,
      "æŃ»éĶģ": 9062,
      "éº»": 9063,
      "Ġnormalization": 9064,
      "Ġrotating": 9065,
      "æľĢä¼ĺè§£": 9066,
      "çªĹåı£": 9067,
      "æľ¬è´¨ä¸Ĭ": 9068,
      "åĲ¯åıĳ": 9069,
      "æ½ľåľ¨": 9070,
      "Ġgreater": 9071,
      "æĽ¾ç»ı": 9072,
      "é»ĳæ´ŀ": 9073,
      "Ġweeks": 9074,
      "Ġcarries": 9075,
      "çľ¼çĿĽ": 9076,
      "è¿½è¸ª": 9077,
      "ç¡«éħ¸": 9078,
      "ĠNeut": 9079,
      "åī©ä½Ļ": 9080,
      "æ®ĭåŁº": 9081,
      "çĽĳçĿ£å¼ıåŃ¦ä¹ł": 9082,
      "Ġassociation": 9083,
      "Ġopportun": 9084,
      "Ġpractice": 9085,
      "Ġchecking": 9086,
      "Ġdiscus": 9087,
      "å¯ĴåĨ·": 9088,
      "æĳ©æĵ¦åĬĽ": 9089,
      "Ġbasis": 9090,
      "Ġcomparison": 9091,
      "Ġsensitive": 9092,
      "æº¶æ¶²ä¸Ń": 9093,
      "åĨľä¸ļ": 9094,
      "æĬµæĬĹ": 9095,
      "çĽ´è§Ĥä¸Ĭ": 9096,
      "Ġsymb": 9097,
      "Ġbenef": 9098,
      "åıįåĲĳä¼łæĴŃç®Ĺæ³ķ": 9099,
      "Ġsummar": 9100,
      "èį¯çī©": 9101,
      "Ġnecessary": 9102,
      "äº¤åıīéªĮè¯ģ": 9103,
      "çºłç¼ł": 9104,
      "Ġrecovery": 9105,
      "Ġinstrument": 9106,
[...]
