{
  "version": "1.0",
  "truncation": null,
  "padding": null,
  "added_tokens": [
    {
      "id": 0,
      "content": "<|pad|>",
      "single_word": false,
      "lstrip": false,
      "rstrip": false,
      "normalized": false,
      "special": true
    },
    {
      "id": 1,
      "content": "<|unk|>",
      "single_word": false,
      "lstrip": false,
      "rstrip": false,
      "normalized": false,
      "special": true
    },
    {
      "id": 2,
      "content": "<|bos|>",
      "single_word": false,
      "lstrip": false,
      "rstrip": false,
      "normalized": false,
      "special": true
    },
    {
      "id": 3,
      "content": "<|eos|>",
      "single_word": false,
      "lstrip": false,
      "rstrip": false,
      "normalized": false,
      "special": true
    }
  ],
  "normalizer": {
    "type": "Sequence",
    "normalizers": [
      {
        "type": "Replace",
        "pattern": {
          "String": "，"
        },
        "content": ""
      },
      {
        "type": "Replace",
        "pattern": {
          "String": "："
        },
        "content": ""
      },
      {
        "type": "Replace",
        "pattern": {
          "String": "；"
        },
        "content": ""
      },
      {
        "type": "Replace",
        "pattern": {
          "String": "！"
        },
        "content": ""
      },
      {
        "type": "Replace",
        "pattern": {
          "String": "？"
        },
        "content": ""
      },
      {
        "type": "Replace",
        "pattern": {
          "String": "（"
        },
        "content": ""
      },
      {
        "type": "Replace",
        "pattern": {
          "String": "）"
        },
        "content": ""
      },
      {
        "type": "Replace",
        "pattern": {
          "String": "％"
        },
        "content": ""
      },
      {
        "type": "Replace",
        "pattern": {
          "String": "＃"
        },
        "content": ""
      },
      {
        "type": "Replace",
        "pattern": {
          "String": "＠"
        },
        "content": ""
      },
      {
        "type": "Replace",
        "pattern": {
          "String": "｛"
        },
        "content": ""
      },
      {
        "type": "Replace",
        "pattern": {
          "String": "｝"
        },
        "content": ""
      },
      {
        "type": "Replace",
        "pattern": {
          "String": "［"
        },
        "content": ""
      },
      {
        "type": "Replace",
        "pattern": {
          "String": "］"
        },
        "content": ""
      },
      {
        "type": "Replace",
        "pattern": {
          "String": "…"
        },
        "content": ""
      },
      {
        "type": "Replace",
        "pattern": {
          "String": "　"
        },
        "content": ""
      },
      {
        "type": "NFKC"
      },
      {
        "type": "Replace",
        "pattern": {
          "String": ""
        },
        "content": "，"
      },
      {
        "type": "Replace",
        "pattern": {
          "String": ""
        },
        "content": "："
      },
      {
        "type": "Replace",
        "pattern": {
          "String": ""
        },
        "content": "；"
      },
      {
        "type": "Replace",
        "pattern": {
          "String": ""
        },
        "content": "！"
      },
      {
        "type": "Replace",
        "pattern": {
          "String": ""
        },
        "content": "？"
      },
      {
        "type": "Replace",
        "pattern": {
          "String": ""
        },
        "content": "（"
      },
      {
        "type": "Replace",
        "pattern": {
          "String": ""
        },
        "content": "）"
      },
      {
        "type": "Replace",
        "pattern": {
          "String": ""
        },
        "content": "％"
      },
      {
        "type": "Replace",
        "pattern": {
          "String": ""
        },
        "content": "＃"
      },
      {
        "type": "Replace",
        "pattern": {
          "String": ""
        },
        "content": "＠"
      },
      {
        "type": "Replace",
        "pattern": {
          "String": ""
        },
        "content": "｛"
      },
      {
        "type": "Replace",
        "pattern": {
          "String": ""
        },
        "content": "｝"
      },
      {
        "type": "Replace",
        "pattern": {
          "String": ""
        },
        "content": "［"
      },
      {
        "type": "Replace",
        "pattern": {
          "String": ""
        },
        "content": "］"
      },
      {
        "type": "Replace",
        "pattern": {
          "String": ""
        },
        "content": "…"
      },
      {
        "type": "Replace",
        "pattern": {
          "String": ""
        },
        "content": "　"
      }
    ]
  },
  "pre_tokenizer": {
    "type": "ByteLevel",
    "add_prefix_space": false,
    "trim_offsets": true,
    "use_regex": true
  },
  "post_processor": {
    "type": "TemplateProcessing",
    "single": [
      {
        "SpecialToken": {
          "id": "<|bos|>",
          "type_id": 0
        }
      },
      {
        "Sequence": {
          "id": "A",
          "type_id": 0
        }
      },
      {
        "SpecialToken": {
          "id": "<|eos|>",
          "type_id": 0
        }
      }
    ],
    "pair": [
      {
        "Sequence": {
          "id": "A",
          "type_id": 0
        }
      },
      {
        "Sequence": {
          "id": "B",
          "type_id": 1
        }
      }
    ],
    "special_tokens": {
      "<|bos|>": {
        "id": "<|bos|>",
        "ids": [
          2
        ],
        "tokens": [
          "<|bos|>"
        ]
      },
      "<|eos|>": {
        "id": "<|eos|>",
        "ids": [
          3
        ],
        "tokens": [
          "<|eos|>"
        ]
      }
    }
  },
  "decoder": {
    "type": "ByteLevel",
    "add_prefix_space": true,
    "trim_offsets": true,
    "use_regex": true
  },
  "model": {
    "type": "BPE",
    "dropout": null,
    "unk_token": "<|unk|>",
    "continuing_subword_prefix": null,
    "end_of_word_suffix": null,
    "fuse_unk": false,
    "byte_fallback": false,
    "ignore_merges": false,
    "vocab": {
      "<|pad|>": 0,
      "<|unk|>": 1,
      "<|bos|>": 2,
      "<|eos|>": 3,
      "!": 4,
      "\"": 5,
      "#": 6,
      "$": 7,
      "%": 8,
      "&": 9,
      "'": 10,
      "(": 11,
      ")": 12,
      "*": 13,
      "+": 14,
      ",": 15,
      "-": 16,
      ".": 17,
      "/": 18,
      "0": 19,
      "1": 20,
      "2": 21,
      "3": 22,
      "4": 23,
      "5": 24,
      "6": 25,
      "7": 26,
      "8": 27,
      "9": 28,
      ":": 29,
      ";": 30,
      "<": 31,
      "=": 32,
      ">": 33,
      "?": 34,
      "@": 35,
      "A": 36,
      "B": 37,
      "C": 38,
      "D": 39,
      "E": 40,
      "F": 41,
      "G": 42,
      "H": 43,
      "I": 44,
      "J": 45,
      "K": 46,
      "L": 47,
      "M": 48,
      "N": 49,
      "O": 50,
      "P": 51,
      "Q": 52,
      "R": 53,
      "S": 54,
      "T": 55,
      "U": 56,
      "V": 57,
      "W": 58,
      "X": 59,
      "Y": 60,
      "Z": 61,
      "[": 62,
      "\\": 63,
      "]": 64,
      "^": 65,
      "_": 66,
      "`": 67,
      "a": 68,
      "b": 69,
      "c": 70,
      "d": 71,
      "e": 72,
      "f": 73,
      "g": 74,
      "h": 75,
      "i": 76,
      "j": 77,
      "k": 78,
      "l": 79,
      "m": 80,
      "n": 81,
      "o": 82,
      "p": 83,
      "q": 84,
      "r": 85,
      "s": 86,
      "t": 87,
      "u": 88,
      "v": 89,
      "w": 90,
      "x": 91,
      "y": 92,
      "z": 93,
      "{": 94,
      "|": 95,
      "}": 96,
      "~": 97,
      "¡": 98,
      "¢": 99,
      "£": 100,
      "¤": 101,
      "¥": 102,
      "¦": 103,
      "§": 104,
      "¨": 105,
      "©": 106,
      "ª": 107,
      "«": 108,
      "¬": 109,
      "®": 110,
      "¯": 111,
      "°": 112,
      "±": 113,
      "²": 114,
      "³": 115,
      "´": 116,
      "µ": 117,
      "¶": 118,
      "·": 119,
      "¸": 120,
      "¹": 121,
      "º": 122,
      "»": 123,
      "¼": 124,
      "½": 125,
      "¾": 126,
      "¿": 127,
      "À": 128,
      "Á": 129,
      "Â": 130,
      "Ã": 131,
      "Ä": 132,
      "Å": 133,
      "Æ": 134,
      "Ç": 135,
      "È": 136,
      "É": 137,
      "Ê": 138,
      "Ë": 139,
      "Ì": 140,
      "Í": 141,
      "Î": 142,
      "Ï": 143,
      "Ð": 144,
      "Ñ": 145,
      "Ò": 146,
      "Ó": 147,
      "Ô": 148,
      "Õ": 149,
      "Ö": 150,
      "×": 151,
      "Ø": 152,
      "Ù": 153,
      "Ú": 154,
      "Û": 155,
      "Ü": 156,
      "Ý": 157,
      "Þ": 158,
      "ß": 159,
      "à": 160,
      "á": 161,
      "â": 162,
      "ã": 163,
      "ä": 164,
      "å": 165,
      "æ": 166,
      "ç": 167,
      "è": 168,
      "é": 169,
      "ê": 170,
      "ë": 171,
      "ì": 172,
      "í": 173,
      "î": 174,
      "ï": 175,
      "ð": 176,
      "ñ": 177,
      "ò": 178,
      "ó": 179,
      "ô": 180,
      "õ": 181,
      "ö": 182,
      "÷": 183,
      "ø": 184,
      "ù": 185,
      "ú": 186,
      "û": 187,
      "ü": 188,
      "ý": 189,
      "þ": 190,
      "ÿ": 191,
      "Ā": 192,
      "ā": 193,
      "Ă": 194,
      "ă": 195,
      "Ą": 196,
      "ą": 197,
      "Ć": 198,
      "ć": 199,
      "Ĉ": 200,
      "ĉ": 201,
      "Ċ": 202,
      "ċ": 203,
      "Č": 204,
      "č": 205,
      "Ď": 206,
      "ď": 207,
      "Đ": 208,
      "đ": 209,
      "Ē": 210,
      "ē": 211,
      "Ĕ": 212,
      "ĕ": 213,
      "Ė": 214,
      "ė": 215,
      "Ę": 216,
      "ę": 217,
      "Ě": 218,
      "ě": 219,
      "Ĝ": 220,
      "ĝ": 221,
      "Ğ": 222,
      "ğ": 223,
      "Ġ": 224,
      "ġ": 225,
      "Ģ": 226,
      "ģ": 227,
      "Ĥ": 228,
      "ĥ": 229,
      "Ħ": 230,
      "ħ": 231,
      "Ĩ": 232,
      "ĩ": 233,
      "Ī": 234,
      "ī": 235,
      "Ĭ": 236,
      "ĭ": 237,
      "Į": 238,
      "į": 239,
      "İ": 240,
      "ı": 241,
      "Ĳ": 242,
      "ĳ": 243,
      "Ĵ": 244,
      "ĵ": 245,
      "Ķ": 246,
      "ķ": 247,
      "ĸ": 248,
      "Ĺ": 249,
      "ĺ": 250,
      "Ļ": 251,
      "ļ": 252,
      "Ľ": 253,
      "ľ": 254,
      "Ŀ": 255,
      "ŀ": 256,
      "Ł": 257,
      "ł": 258,
      "Ń": 259,
      "ä¸": 260,
      "ï¼": 261,
      "ï¼Į": 262,
      "çļ": 263,
      "çļĦ": 264,
      "ãĢ": 265,
      "ãĢĤ": 266,
      "åı": 267,
      "Ġt": 268,
      "Ġa": 269,
      "er": 270,
      "in": 271,
      "äº": 272,
      "on": 273,
      "æľ": 274,
      "åĪ": 275,
      "åĲ": 276,
      "ä»": 277,
      "re": 278,
      "å¤": 279,
      "åħ": 280,
      "è¿": 281,
      "ç»": 282,
      "çĶ": 283,
      "at": 284,
      "ä½": 285,
      "æĺ": 286,
      "Ġs": 287,
      "åŃ": 288,
      "he": 289,
      "åľ": 290,
      "å®": 291,
      "Ġc": 292,
      "en": 293,
      "ä¸Ģ": 294,
      "éĩ": 295,
      "es": 296,
      "æĺ¯": 297,
      "æķ": 298,
      "an": 299,
      "åĬ": 300,
      "è®": 301,
      "åº": 302,
      "or": 303,
      "ĥ½": 304,
      "ä¹": 305,
      "Ġthe": 306,
      "åľ¨": 307,
      "al": 308,
      "æĹ": 309,
      "å°": 310,
      "ion": 311,
      "æĪ": 312,
      "æĸ": 313,
      "ä¸į": 314,
      "Ġm": 315,
      "å¾": 316,
      "it": 317,
      "æľī": 318,
      "Ġp": 319,
      "ed": 320,
      "ä¼": 321,
      "ç§": 322,
      "éĢ": 323,
      "ar": 324,
      "ing": 325,
      "åĩ": 326,
      "Ġd": 327,
      "çī": 328,
      "åĽ": 329,
      "æķ°": 330,
      "Ġb": 331,
      "åĮ": 332,
      "ä¸ª": 333,
      "èĥ½": 334,
      "is": 335,
      "å¹": 336,
      "è¯": 337,
      "åĴ": 338,
      "Ġw": 339,
      "Ġf": 340,
      "åĴĮ": 341,
      "ä¸º": 342,
      "æĿ": 343,
      "ro": 344,
      "å¼": 345,
      "Ġo": 346,
      "å¯": 347,
      "åı¯": 348,
      "æĢ": 349,
      "ãĢģ": 350,
      "ic": 351,
      "Ġan": 352,
      "åĪĨ": 353,
      "æł": 354,
      "éĩı": 355,
      "åį": 356,
      "è¡": 357,
      "le": 358,
      "ä¸Ń": 359,
      "è§": 360,
      "èĢ": 361,
      "éĹ": 362,
      "æĹ¶": 363,
      "ct": 364,
      "åŃ¦": 365,
      "ä»¥": 366,
      "çĽ": 367,
      "æ°": 368,
      "çİ": 369,
      "åŃĲ": 370,
      "çĶ¨": 371,
      "æŀ": 372,
      "åĨ": 373,
      "Ġre": 374,
      "å½": 375,
      "å¸": 376,
      "Ġin": 377,
      "ent": 378,
      "æī": 379,
      "Ġe": 380,
      "æĪĲ": 381,
      "æµ": 382,
      "çĲ": 383,
      "æŃ": 384,
      "Ġand": 385,
      "çī©": 386,
      "æ³": 387,
      "åĮĸ": 388,
      "è´": 389,
      "åĲĮ": 390,
      "åº¦": 391,
      "å®ļ": 392,
      "âĢ": 393,
      "äºİ": 394,
      "Ġn": 395,
      "as": 396,
      "æĢ§": 397,
      "ä¼ļ": 398,
      "ly": 399,
      "çº": 400,
      "åıĺ": 401,
      "Ġl": 402,
      "å¤§": 403,
      "å·": 404,
      "åĽł": 405,
      "åİ": 406,
      "çĶŁ": 407,
      "Ġth": 408,
      "ä½ĵ": 409,
      "è¾": 410,
      "éĹ´": 411,
      "ation": 412,
      "è¿Ļ": 413,
      "èĢĮ": 414,
      "Ġof": 415,
      "å¯¹": 416,
      "om": 417,
      "¦Ĥ": 418,
      "ut": 419,
      "çĲĨ": 420,
      "ï¼Ī": 421,
      "ce": 422,
      "ï¼ī": 423,
      "éĻ": 424,
      "ä¸Ģä¸ª": 425,
      "Ġto": 426,
      "ç³": 427,
      "åĪ°": 428,
      "æĸ¹": 429,
      "us": 430,
      "ä¸Ĭ": 431,
      "éĿ": 432,
      "å¤ļ": 433,
      "äºĨ": 434,
      "åŁ": 435,
      "æĿ¥": 436,
      "æİ": 437,
      "è´¨": 438,
      "åľ°": 439,
      "ç®": 440,
      "é¢": 441,
      "è¿ĩ": 442,
      "et": 443,
      "ç¨": 444,
      "èĩ": 445,
      "un": 446,
      "åĲİ": 447,
      "åĬ¨": 448,
      "è¦": 449,
      "Ġh": 450,
      "æ¯": 451,
      "åĩº": 452,
      "å±": 453,
      "ç©": 454,
      "æĽ": 455,
      "è¦ģ": 456,
      "Ġst": 457,
      "åıĳ": 458,
      "ve": 459,
      "çĶµ": 460,
      "æĬ": 461,
      "ot": 462,
      "ä¸İ": 463,
      "æį": 464,
      "ç³»": 465,
      "çİ°": 466,
      "è¡¨": 467,
      "æĶ": 468,
      "im": 469,
      "çĽ¸": 470,
      "åħ¶": 471,
      "ç»ĵ": 472,
      "å¦Ĥ": 473,
      "åĢ": 474,
      "ä¾": 475,
      "ä½ľ": 476,
      "åĲĪ": 477,
      "åĬĽ": 478,
      "Ġbe": 479,
      "ç´": 480,
      "ç§į": 481,
      "å¸¸": 482,
      "æ³ķ": 483,
      "åı¯ä»¥": 484,
      "ä¹Ł": 485,
      "äºº": 486,
      "çŃ": 487,
      "éĺ": 488,
      "å¿": 489,
      "ä¸ĭ": 490,
      "æĮ": 491,
      "Ġcon": 492,
      "st": 493,
      "çŁ": 494,
      "ra": 495,
      "åºĶ": 496,
      "æĪĸ": 497,
      "éħ": 498,
      "å¹¶": 499,
      "è½": 500,
      "éĢļ": 501,
      "æĭ": 502,
      "il": 503,
      "ul": 504,
      "ç¨ĭ": 505,
      "æĽ´": 506,
      "id": 507,
      "åĲĳ": 508,
      "èµ": 509,
      "ur": 510,
      "çľ": 511,
      "Ġon": 512,
      "ver": 513,
      "æľĢ": 514,
      "åİŁ": 515,
      "æ²": 516,
      "ow": 517,
      "åŁº": 518,
      "qu": 519,
      "ç®Ĺ": 520,
      "ä¿": 521,
      "ç±": 522,
      "Ġg": 523,
      "åģ": 524,
      "è®¡": 525,
      "è¢": 526,
      "æīĢ": 527,
      "çĤ": 528,
      "Ġis": 529,
      "äºĽ": 530,
      "ol": 531,
      "ä½¿": 532,
      "éĩį": 533,
      "ä¹ĭ": 534,
      "éĽ": 535,
      "Ġcan": 536,
      "ter": 537,
      "çŃī": 538,
      "è¢«": 539,
      "å¼ı": 540,
      "è¶": 541,
      "ç»Ł": 542,
      "æľ¬": 543,
      "å½¢": 544,
      "æı": 545,
      "ä½į": 546,
      "å®ŀ": 547,
      "æŃ¤": 548,
      "è¡Į": 549,
      "è®º": 550,
      "åıį": 551,
      "èĩª": 552,
      "çĤ¹": 553,
      "å¾Ĺ": 554,
      "éľ": 555,
      "è§£": 556,
      "æł¸": 557,
      "ch": 558,
      "æ°Ķ": 559,
      "ç´ł": 560,
      "Ġpro": 561,
      "ï¼ļ": 562,
      "el": 563,
      "æľº": 564,
      "ig": 565,
      "if": 566,
      "å°ı": 567,
      "åŀ": 568,
      "æŀľ": 569,
      "am": 570,
      "å®ĥ": 571,
      "åī": 572,
      "åĳ": 573,
      "Ġmo": 574,
      "å¾Ī": 575,
      "éĥ½": 576,
      "ç±»": 577,
      "éļ": 578,
      "æ¨": 579,
      "éģ": 580,
      "ç½": 581,
      "åħ³": 582,
      "åĵ": 583,
      "her": 584,
      "åıª": 585,
      "åĢ¼": 586,
      "æŁ": 587,
      "éĿ¢": 588,
      "æ¸": 589,
      "çī¹": 590,
      "ç¡": 591,
      "æ°´": 592,
      "å¹´": 593,
      "é¡": 594,
      "ä¸įåĲĮ": 595,
      "æ¨¡": 596,
      "åħĥ": 597,
      "éĥ": 598,
      "éĥ¨": 599,
      "ĠT": 600,
      "os": 601,
      "åŀĭ": 602,
      "æį®": 603,
      "çł": 604,
      "æŀĦ": 605,
      "çĶ±": 606,
      "ure": 607,
      "ad": 608,
      "æ´": 609,
      "é«": 610,
      "æĦ": 611,
      "é«ĺ": 612,
      "åĿ": 613,
      "çº¿": 614,
      "Ġex": 615,
      "çĦ": 616,
      "ist": 617,
      "åı¯èĥ½": 618,
      "ç»ı": 619,
      "ity": 620,
      "åĬł": 621,
      "ate": 622,
      "ab": 623,
      "âĢľ": 624,
      "ge": 625,
      "âĢĿ": 626,
      "çĦ¶": 627,
      "æ¯Ķ": 628,
      "èĥ": 629,
      "å°±": 630,
      "ç©º": 631,
      "è¿Ľ": 632,
      "æµĭ": 633,
      "Ġthat": 634,
      "em": 635,
      "åĪĻ": 636,
      "æŃ£": 637,
      "ä»£": 638,
      "å¤į": 639,
      "um": 640,
      "åŃĺ": 641,
      "è·": 642,
      "éĢŁ": 643,
      "ç³»ç»Ł": 644,
      "åįķ": 645,
      "æĻ": 646,
      "æ¬": 647,
      "ri": 648,
      "çķ": 649,
      "ç»Ħ": 650,
      "éľĢ": 651,
      "éķ": 652,
      "ä½Ĩ": 653,
      "æĬĬ": 654,
      "åĨħ": 655,
      "çİĩ": 656,
      "Ġfor": 657,
      "Ġor": 658,
      "Ġit": 659,
      "ç§°": 660,
      "æ²¡": 661,
      "å¹³": 662,
      "å¢": 663,
      "ç»Ĩ": 664,
      "éĶ": 665,
      "æĥ": 666,
      "ç«": 667,
      "per": 668,
      "Ġv": 669,
      "éĩĮ": 670,
      "å¥": 671,
      "ä¸¤": 672,
      "æģ": 673,
      "Ġma": 674,
      "ä»İ": 675,
      "éª": 676,
      "æµ·": 677,
      "½æķ°": 678,
      "Ġch": 679,
      "ith": 680,
      "ect": 681,
      "åīį": 682,
      "åıĬ": 683,
      "Ġde": 684,
      "Ġcom": 685,
      "ä¾ĭ": 686,
      "åĩ½æķ°": 687,
      "Ġal": 688,
      "å¤ĸ": 689,
      "ç§¯": 690,
      "Ġnot": 691,
      "æľŁ": 692,
      "æİ¥": 693,
      "du": 694,
      "éĹ®": 695,
      "und": 696,
      "é¢ĺ": 697,
      "æµģ": 698,
      "å¼Ģ": 699,
      "ä»¶": 700,
      "ç¬": 701,
      "Ġwh": 702,
      "ç¦": 703,
      "å½ĵ": 704,
      "å¯¼": 705,
      "åħĥç´ł": 706,
      "ä»ĸ": 707,
      "æĹ¶éĹ´": 708,
      "è°": 709,
      "æĸ°": 710,
      "æ¬¡": 711,
      "Ġr": 712,
      "ions": 713,
      "æł·": 714,
      "åħ¥": 715,
      "æĺİ": 716,
      "res": 717,
      "Ġas": 718,
      "fer": 719,
      "ces": 720,
      "ä¼ł": 721,
      "ir": 722,
      "ç¼": 723,
      "åĪ¶": 724,
      "ç¦»": 725,
      "éķ¿": 726,
      "ä¹ī": 727,
      "Ġwith": 728,
      "åĪĹ": 729,
      "éľĢè¦ģ": 730,
      "ç¡®": 731,
      "äº§": 732,
      "åħī": 733,
      "ç¤": 734,
      "ĠA": 735,
      "æłĩ": 736,
      "æĢģ": 737,
      "ical": 738,
      "æıĲ": 739,
      "å¤©": 740,
      "çĥ": 741,
      "Ġne": 742,
      "ç©¶": 743,
      "pl": 744,
      "çłĶ": 745,
      "ç²": 746,
      "éħ¸": 747,
      "åºı": 748,
      "éªĮ": 749,
      "çĲĥ": 750,
      "è½¬": 751,
      "ç»ĵæŀĦ": 752,
      "çłĶç©¶": 753,
      "art": 754,
      "rom": 755,
      "è¿Ĳ": 756,
      "åĮº": 757,
      "èĢħ": 758,
      "ant": 759,
      "å·®": 760,
      "åİŁåŃĲ": 761,
      "åĩł": 762,
      "åį´": 763,
      "èµ·": 764,
      "æķ°æį®": 765,
      "æĦı": 766,
      "æ¯ı": 767,
      "åıĺåĮĸ": 768,
      "èĥŀ": 769,
      "çľĭ": 770,
      "å®Į": 771,
      "çĻ": 772,
      "åĽłæŃ¤": 773,
      "æ²¡æľī": 774,
      "è¿ĳ": 775,
      "å±Ĥ": 776,
      "æ¨¡åŀĭ": 777,
      "æ±": 778,
      "è¿ĺ": 779,
      "å·¥": 780,
      "ç¤º": 781,
      "éĹ®é¢ĺ": 782,
      "è¾ĥ": 783,
      "æĶ¹": 784,
      "èĭ": 785,
      "pe": 786,
      "Ġat": 787,
      "ĠThe": 788,
      "ive": 789,
      "åĨ³": 790,
      "åĻ": 791,
      "Ġse": 792,
      "ay": 793,
      "Ġsu": 794,
      "æĹł": 795,
      "ä¸ŃçļĦ": 796,
      "ain": 797,
      "ç»Ĩèĥŀ": 798,
      "use": 799,
      "ä»¬": 800,
      "çĽ´": 801,
      "è§Ĥ": 802,
      "Â·": 803,
      "Ġen": 804,
      "æ³¢": 805,
      "åħ¨": 806,
      "åħ·": 807,
      "è®¡ç®Ĺ": 808,
      "å®¹": 809,
      "Ġco": 810,
      "ĠS": 811,
      "åĮĸåŃ¦": 812,
      "ä¸įæĺ¯": 813,
      "æ¶": 814,
      "çľŁ": 815,
      "é£": 816,
      "ä½¿çĶ¨": 817,
      "Ġare": 818,
      "å®¶": 819,
      "éĽĨ": 820,
      "igh": 821,
      "ï¼Ľ": 822,
      "å°ĳ": 823,
      "ac": 824,
      "è¯´": 825,
      "ä½ľçĶ¨": 826,
      "å¾®": 827,
      "åĵį": 828,
      "èī": 829,
      "äºĮ": 830,
      "iz": 831,
      "è®¾": 832,
      "å½±": 833,
      "ence": 834,
      "ç§ĳ": 835,
      "Ġfrom": 836,
      "æĿ¡": 837,
      "ers": 838,
      "è¯ģ": 839,
      "éĿŀ": 840,
      "éĺµ": 841,
      "çĬ": 842,
      "éĢļå¸¸": 843,
      "çĲĨè®º": 844,
      "æ¸©": 845,
      "åŁŁ": 846,
      "å£": 847,
      "è±": 848,
      "pt": 849,
      "Ġbec": 850,
      "åĻ¨": 851,
      "çŁ©": 852,
      "å½¢æĪĲ": 853,
      "çİ¯": 854,
      "åĽłä¸º": 855,
      "åĮħ": 856,
      "ds": 857,
      "âĪ": 858,
      "çĬ¶": 859,
      "å§": 860,
      "ment": 861,
      "Ġdif": 862,
      "éļı": 863,
      "ies": 864,
      "çĶŁçī©": 865,
      "çĿ": 866,
      "çĻ½": 867,
      "çĥŃ": 868,
      "oc": 869,
      "èĬ": 870,
      "å·²": 871,
      "ä¹ĭéĹ´": 872,
      "lect": 873,
      "ä¸»": 874,
      "å°Ĩ": 875,
      "ä¿¡": 876,
      "å¤Ħ": 877,
      "NA": 878,
      "ial": 879,
      "Ġåľ¨": 880,
      "orm": 881,
      "æº": 882,
      "åıįåºĶ": 883,
      "æķ´": 884,
      "æĮĩ": 885,
      "åľº": 886,
      "éĢļè¿ĩ": 887,
      "ç¬¬": 888,
      "äº§çĶŁ": 889,
      "è¿°": 890,
      "èĦ": 891,
      "éĻį": 892,
      "se": 893,
      "Ġun": 894,
      "Ġcomp": 895,
      "ç»Ń": 896,
      "è±¡": 897,
      "ç£": 898,
      "éĵ": 899,
      "Ġsh": 900,
      "è¿ĻäºĽ": 901,
      "ke": 902,
      "å½±åĵį": 903,
      "å¢ŀ": 904,
      "ä¾ĭå¦Ĥ": 905,
      "çŁ¥": 906,
      "æ¦Ĥ": 907,
      "å°Ħ": 908,
      "æĸ¯": 909,
      "å¸¦": 910,
      "iv": 911,
      "est": 912,
      "éģĵ": 913,
      "ä½İ": 914,
      "åĪĨåŃĲ": 915,
      "æĶ¾": 916,
      "ĠI": 917,
      "ç§°ä¸º": 918,
      "éĻĲ": 919,
      "å°Ķ": 920,
      "pp": 921,
      "ated": 922,
      "ç½®": 923,
      "æķĪ": 924,
      "æĺ¾": 925,
      "ore": 926,
      "ç«ĭ": 927,
      "ater": 928,
      "åŁºåĽł": 929,
      "åĪ«": 930,
      "éĢŁåº¦": 931,
      "çŁ©éĺµ": 932,
      "Ġbut": 933,
      "å¼ķ": 934,
      "æŁĲ": 935,
      "èī²": 936,
      "æ®": 937,
      "ä¸Ģç§į": 938,
      "Ġchan": 939,
      "åĲĳéĩı": 940,
      "ron": 941,
      "èģ": 942,
      "all": 943,
      "Ġcont": 944,
      "ä¿Ŀ": 945,
      "å¦Ĥæŀľ": 946,
      "è¶Ĭ": 947,
      "è·¯": 948,
      "æĶ¹åıĺ": 949,
      "ç©ºéĹ´": 950,
      "Ġso": 951,
      "åŃĺåľ¨": 952,
      "æ·": 953,
      "æ°§": 954,
      "ç¢": 955,
      "å§ĭ": 956,
      "å¼º": 957,
      "è®©": 958,
      "Ġme": 959,
      "æĸŃ": 960,
      "Ġdiffer": 961,
      "è¾ĵ": 962,
      "åıĳçĶŁ": 963,
      "åĪ©": 964,
      "å¤Ł": 965,
      "çĽ®": 966,
      "Ġqu": 967,
      "æį¢": 968,
      "ations": 969,
      "act": 970,
      "ug": 971,
      "è¿ĩç¨ĭ": 972,
      "ort": 973,
      "åıĹ": 974,
      "hen": 975,
      "å»": 976,
      "çĿĢ": 977,
      "è®¤": 978,
      "çķĮ": 979,
      "ran": 980,
      "åħĪ": 981,
      "å¸ĥ": 982,
      "åį³": 983,
      "èĽ": 984,
      "æŀģ": 985,
      "çĶµåŃĲ": 986,
      "èĥ½éĩı": 987,
      "è´¨éĩı": 988,
      "æĸ¹æ³ķ": 989,
      "é£İ": 990,
      "éĥ¨åĪĨ": 991,
      "åıĸ": 992,
      "Ġone": 993,
      "ff": 994,
      "ç»´": 995,
      "Ġthan": 996,
      "è¯Ń": 997,
      "èĽĭ": 998,
      "èĪ": 999,
      "è®¸": 1000,
      "è¡¨ç¤º": 1001,
      "éĴ": 1002,
      "ç»ĵæŀľ": 1003,
      "ç§ĳåŃ¦": 1004,
      "èĽĭçĻ½": 1005,
      "çī©çĲĨ": 1006,
      "æĮģ": 1007,
      "æīĢæľī": 1008,
      "ç£ģ": 1009,
      "æĸĩ": 1010,
      "è¿ŀ": 1011,
      "è¾¾": 1012,
      "åĳ¨": 1013,
      "ç®Ĺæ³ķ": 1014,
      "è®°": 1015,
      "Ġby": 1016,
      "çª": 1017,
      "erg": 1018,
      "äºĭ": 1019,
      "ä»»": 1020,
      "åħ±": 1021,
      "00": 1022,
      "åħ¬": 1023,
      "å®ļä¹ī": 1024,
      "ä¼¼": 1025,
      "èĬĤ": 1026,
      "pen": 1027,
      "ĠC": 1028,
      "19": 1029,
      "æ¼": 1030,
      "åıĳçİ°": 1031,
      "able": 1032,
      "ugh": 1033,
      "low": 1034,
      "od": 1035,
      "æģ¯": 1036,
      "æĺĵ": 1037,
      "ä¹Ī": 1038,
      "and": 1039,
      "éĤ": 1040,
      "é¢Ħ": 1041,
      "åĩºçİ°": 1042,
      "Ġint": 1043,
      "åĽ¾": 1044,
      "ib": 1045,
      "éħ¶": 1046,
      "å±ŀ": 1047,
      "ile": 1048,
      "æĺŁ": 1049,
      "æıı": 1050,
      "çī©ä½ĵ": 1051,
      "Ġhe": 1052,
      "The": 1053,
      "Ġ(": 1054,
      "ame": 1055,
      "åľ°çĲĥ": 1056,
      "ç²Ĵ": 1057,
      "æ±Ĥ": 1058,
      "å¤ª": 1059,
      "ä¹ł": 1060,
      "è¯¯": 1061,
      "å¹¶ä¸į": 1062,
      "åıĤ": 1063,
      "ç½ĳ": 1064,
      "ç§»": 1065,
      "æīį": 1066,
      "ä¸Ķ": 1067,
      "åĨį": 1068,
      "è§Ħ": 1069,
      "ight": 1070,
      "Ġus": 1071,
      "Ġres": 1072,
      "éĢł": 1073,
      "av": 1074,
      "form": 1075,
      "ç¾": 1076,
      "æķ°åŃ¦": 1077,
      "ĠE": 1078,
      "åĲ«": 1079,
      "æĿĤ": 1080,
      "éĶ®": 1081,
      "ient": 1082,
      "ç®Ģ": 1083,
      "å¤±": 1084,
      "æ»": 1085,
      "ire": 1086,
      "ä¸ĬçļĦ": 1087,
      "éĩĬ": 1088,
      "æŃ¥": 1089,
      "ä½ķ": 1090,
      "æııè¿°": 1091,
      "åĬŁ": 1092,
      "åĩĨ": 1093,
      "out": 1094,
      "ï¼īï¼Į": 1095,
      "ause": 1096,
      "Ġac": 1097,
      "ç¨³": 1098,
      "åģļ": 1099,
      "åħ³ç³»": 1100,
      "åĽŀ": 1101,
      "æĸ¹åĲĳ": 1102,
      "åĿĩ": 1103,
      "ergy": 1104,
      "Ġmore": 1105,
      "å¾Ģ": 1106,
      "å¾ĭ": 1107,
      "Ġle": 1108,
      "çī©è´¨": 1109,
      "å¿«": 1110,
      "Ġpl": 1111,
      "æ´»": 1112,
      "è¿ĲåĬ¨": 1113,
      "age": 1114,
      "è¿Ļä¸ª": 1115,
      "ï¼īãĢĤ": 1116,
      "åı·": 1117,
      "ally": 1118,
      "ction": 1119,
      "æ´ĭ": 1120,
      "éĢī": 1121,
      "æĢ»": 1122,
      "ide": 1123,
      "og": 1124,
      "op": 1125,
      "ace": 1126,
      "Ġro": 1127,
      "éĩĳ": 1128,
      "äºĴ": 1129,
      "Ġev": 1130,
      "ine": 1131,
      "åħ¶ä»ĸ": 1132,
      "æºĲ": 1133,
      "ave": 1134,
      "è¯¥": 1135,
      "åİĭ": 1136,
      "æĿ¡ä»¶": 1137,
      "è¾¹": 1138,
      "çº¿æĢ§": 1139,
      "ance": 1140,
      "æĥħ": 1141,
      "Ġdo": 1142,
      "èĥ½å¤Ł": 1143,
      "æŀĲ": 1144,
      "ä½įç½®": 1145,
      "è°ĥ": 1146,
      "èº": 1147,
      "åħ·æľī": 1148,
      "æĵ": 1149,
      "ç»Ļ": 1150,
      "èĩ³": 1151,
      "è¶ħ": 1152,
      "ress": 1153,
      "åĽ½": 1154,
      "è¿Ľè¡Į": 1155,
      "æ¡": 1156,
      "æİ¨": 1157,
      "å¾ģ": 1158,
      "åĩı": 1159,
      "çº¦": 1160,
      "ult": 1161,
      "imp": 1162,
      "Ġwhile": 1163,
      "yst": 1164,
      "åı¦": 1165,
      "èº«": 1166,
      "èį": 1167,
      "äº¤": 1168,
      "æĸĻ": 1169,
      "ru": 1170,
      "å¥½": 1171,
      "very": 1172,
      "å®¹æĺĵ": 1173,
      "Ġdifferent": 1174,
      "ä¸ī": 1175,
      "rans": 1176,
      "ç¨³å®ļ": 1177,
      "åĲ¦": 1178,
      "Ġinter": 1179,
      "ill": 1180,
      "å£°": 1181,
      "ä»į": 1182,
      "éĢĤ": 1183,
      "è§ģ": 1184,
      "Ġsc": 1185,
      "ä¸¤ä¸ª": 1186,
      "åģĩ": 1187,
      "Ġsp": 1188,
      "rib": 1189,
      "è®¸å¤ļ": 1190,
      "ç§¯åĪĨ": 1191,
      "ates": 1192,
      "èĩ´": 1193,
      "æİĴ": 1194,
      "åĢĻ": 1195,
      "èİ": 1196,
      "ç»ĥ": 1197,
      "ĠR": 1198,
      "ä¸ĢäºĽ": 1199,
      "å®ŀéªĮ": 1200,
      "cess": 1201,
      "ä»¥åıĬ": 1202,
      "è¿Ļç§į": 1203,
      "å¤įæĿĤ": 1204,
      "åĤ": 1205,
      "Ġmod": 1206,
      "çī¹å¾ģ": 1207,
      "éĤ£": 1208,
      "ks": 1209,
      "ä¸ĸ": 1210,
      "Ġtim": 1211,
      "æł¹": 1212,
      "å¯¹äºİ": 1213,
      "ess": 1214,
      "å¯Ĩ": 1215,
      "è§Ĵ": 1216,
      "èĮ": 1217,
      "Ġwhen": 1218,
      "åİ»": 1219,
      "ome": 1220,
      "å¿ħ": 1221,
      "ature": 1222,
      "åŃĹ": 1223,
      "åŃ¦ä¹ł": 1224,
      "å¿ĥ": 1225,
      "å¼Ģå§ĭ": 1226,
      "ary": 1227,
      "Ġab": 1228,
      "ä¾Ŀ": 1229,
      "æ¸©åº¦": 1230,
      "ere": 1231,
      "åĲĦ": 1232,
      "red": 1233,
      "ges": 1234,
      "æĴ": 1235,
      "ä»·": 1236,
      "æĸ¹ç¨ĭ": 1237,
      "æĭ¬": 1238,
      "éĩįè¦ģ": 1239,
      "å¼Ĥ": 1240,
      "åħ¶ä¸Ń": 1241,
      "æ¢": 1242,
      "æ£": 1243,
      "Ġob": 1244,
      "æĥ³": 1245,
      "ä¿¡æģ¯": 1246,
      "ç¥": 1247,
      "ç³ĸ": 1248,
      "èĳ": 1249,
      "ud": 1250,
      "è£": 1251,
      "ĠM": 1252,
      "æĦŁ": 1253,
      "çĭ": 1254,
      "æī¾": 1255,
      "çªģ": 1256,
      "Ġbecause": 1257,
      "Ġwas": 1258,
      "åĲį": 1259,
      "åĪĨæŀĲ": 1260,
      "ãĢĮ": 1261,
      "Ġdist": 1262,
      "æĶ¶": 1263,
      "åĽ´": 1264,
      "å¢ŀåĬł": 1265,
      "Ġrel": 1266,
      "ip": 1267,
      "Ġenergy": 1268,
      "å»º": 1269,
      "Ġhad": 1270,
      "è®Ń": 1271,
      "Ġelect": 1272,
      "ç»ľ": 1273,
      "Ġtra": 1274,
      "Ġper": 1275,
      "up": 1276,
      "å±ķ": 1277,
      "é¡¹": 1278,
      "ãĢį": 1279,
      "åĲĮæĹ¶": 1280,
      "éĺ³": 1281,
      "åĨ³å®ļ": 1282,
      "Ġpart": 1283,
      "æĭ©": 1284,
      "å¾Ħ": 1285,
      "æł¼": 1286,
      "çĬ¶æĢģ": 1287,
      "æķ£": 1288,
      "éĻħ": 1289,
      "è®Ńç»ĥ": 1290,
      "åħĭ": 1291,
      "å®Įåħ¨": 1292,
      "ç½ĳç»ľ": 1293,
      "éģĹ": 1294,
      "ak": 1295,
      "åĮħæĭ¬": 1296,
      "çĽ¸åĲĮ": 1297,
      "çľŁæŃ£": 1298,
      "å°±æĺ¯": 1299,
      "å²": 1300,
      "èĤ": 1301,
      "ong": 1302,
      "çģ": 1303,
      "èĻ": 1304,
      "ĠP": 1305,
      "å¢ĥ": 1306,
      "Ġwor": 1307,
      "èĽĭçĻ½è´¨": 1308,
      "åĬ¿": 1309,
      "è¡¡": 1310,
      "å¿µ": 1311,
      "æ¼Ķ": 1312,
      "ding": 1313,
      "Ġtrans": 1314,
      "æ®µ": 1315,
      "ens": 1316,
      "åĨµ": 1317,
      "ä¸įèĥ½": 1318,
      "è¯Ĩ": 1319,
      "ign": 1320,
      "æŁ¥": 1321,
      "ap": 1322,
      "Ġdis": 1323,
      "æłĳ": 1324,
      "æĸ¹å¼ı": 1325,
      "å®ĥä»¬": 1326,
      "ĠD": 1327,
      "Ġcl": 1328,
      "èĭ¥": 1329,
      "ther": 1330,
      "å¤ĦçĲĨ": 1331,
      "æļ": 1332,
      "ility": 1333,
      "ä¸»è¦ģ": 1334,
      "ystem": 1335,
      "å¾Īå¤ļ": 1336,
      "Ġad": 1337,
      "çĶ¨äºİ": 1338,
      "åģı": 1339,
      "ard": 1340,
      "é©": 1341,
      "ren": 1342,
      "ass": 1343,
      "åĥ": 1344,
      "con": 1345,
      "éĢīæĭ©": 1346,
      "æĵį": 1347,
      "ten": 1348,
      "ust": 1349,
      "èĳĹ": 1350,
      "åĬĽåŃ¦": 1351,
      "è¶³": 1352,
      "éģĹä¼ł": 1353,
      "th": 1354,
      "ĠN": 1355,
      "éĵ¾": 1356,
      "atter": 1357,
      "çİ¯å¢ĥ": 1358,
      "å·²ç»ı": 1359,
      "åĥı": 1360,
      "ok": 1361,
      "åĬ¡": 1362,
      "åĨĻ": 1363,
      "fore": 1364,
      "èĲ": 1365,
      "ç´¢": 1366,
      "åįĬ": 1367,
      "Ġinto": 1368,
      "èĩªçĦ¶": 1369,
      "ĠB": 1370,
      "Ġï¼Į": 1371,
      "çº§": 1372,
      "é¢ĳ": 1373,
      "ä¹ĭéĹ´çļĦ": 1374,
      "ç¥ŀ": 1375,
      "è¯ķ": 1376,
      "èĮĥ": 1377,
      "éĩĳå±ŀ": 1378,
      "æĹ©": 1379,
      "ition": 1380,
      "Ġsame": 1381,
      "èĢĮæĺ¯": 1382,
      "è§£éĩĬ": 1383,
      "uld": 1384,
      "ç®Ģåįķ": 1385,
      "æĹ¥": 1386,
      "ä¼ĺ": 1387,
      "æ¶Ī": 1388,
      "éĶĻ": 1389,
      "¥¿": 1390,
      "åĪĨå¸ĥ": 1391,
      "Ġits": 1392,
      "åįģ": 1393,
      "âĢĶ": 1394,
      "duct": 1395,
      "è¥¿": 1396,
      "Ġdes": 1397,
      "ts": 1398,
      "æħ": 1399,
      "åıĪ": 1400,
      "æĢ§è´¨": 1401,
      "æµĭéĩı": 1402,
      "Ġdat": 1403,
      "20": 1404,
      "æľª": 1405,
      "åĽº": 1406,
      "æİ§": 1407,
      "æ¦Ĥå¿µ": 1408,
      "ys": 1409,
      "çĽ¸å¯¹": 1410,
      "æĵįä½ľ": 1411,
      "ep": 1412,
      "ĠçļĦ": 1413,
      "Ġund": 1414,
      "ors": 1415,
      "Ġhow": 1416,
      "æ·±": 1417,
      "Ġ1": 1418,
      "ä»Ģ": 1419,
      "æĺ¯åĲ¦": 1420,
      "è®¤ä¸º": 1421,
      "¨Ģ": 1422,
      "è¨Ģ": 1423,
      "ari": 1424,
      "æĭī": 1425,
      "ĠL": 1426,
      "æ³¨": 1427,
      "èģļ": 1428,
      "ĠF": 1429,
      "Ġtime": 1430,
      "åĪ©çĶ¨": 1431,
      "åĳ¨æľŁ": 1432,
      "å½ķ": 1433,
      "éĽĨåĲĪ": 1434,
      "æĥħåĨµ": 1435,
      "ä¸Ģæ¬¡": 1436,
      "Ġph": 1437,
      "Ġsm": 1438,
      "èĢĥ": 1439,
      "etw": 1440,
      "æģĴ": 1441,
      "éħį": 1442,
      "Ġsystem": 1443,
      "ruct": 1444,
      "ä»Ģä¹Ī": 1445,
      "çļĦæĺ¯": 1446,
      "erv": 1447,
      "èµ·æĿ¥": 1448,
      "çĽ´æİ¥": 1449,
      "Ġinc": 1450,
      "cy": 1451,
      "ĠO": 1452,
      "ĠH": 1453,
      "ice": 1454,
      "å®ļå¾ĭ": 1455,
      "Ġtem": 1456,
      "è§ī": 1457,
      "åıªæĺ¯": 1458,
      "ory": 1459,
      "é¢Ĩ": 1460,
      "RNA": 1461,
      "ç¡®å®ļ": 1462,
      "ç²ĴåŃĲ": 1463,
      "å¾·": 1464,
      "vel": 1465,
      "ä¾Ľ": 1466,
      "å¾ĹåĪ°": 1467,
      "ç»Ī": 1468,
      "ating": 1469,
      "é¦": 1470,
      "ç»ĦæĪĲ": 1471,
      "perature": 1472,
      "å¤ªéĺ³": 1473,
      "Ġra": 1474,
      "çİ°è±¡": 1475,
      "Ġmodel": 1476,
      "les": 1477,
      "çºª": 1478,
      "ag": 1479,
      "å¯Ł": 1480,
      "æŁĵ": 1481,
      "æĻ®": 1482,
      "èĭ±": 1483,
      "æ¦Ĥçİĩ": 1484,
      "Ġdoes": 1485,
      "Ġk": 1486,
      "Ġdepen": 1487,
      "ous": 1488,
      "rough": 1489,
      "éĻ¤": 1490,
      "é¡¿": 1491,
      "æĿĲ": 1492,
      "éļ¾": 1493,
      "ning": 1494,
      "Ġman": 1495,
      "Ġunder": 1496,
      "Ġgra": 1497,
      "Ġprob": 1498,
      "Ġrem": 1499,
      "æł¸ç³ĸ": 1500,
      "æ¯ıä¸ª": 1501,
      "çĭ¬": 1502,
      "ä¸įåĲĮçļĦ": 1503,
      "åĿĹ": 1504,
      "ack": 1505,
      "çĽ®æłĩ": 1506,
      "ç¥ŀç»ı": 1507,
      "Ġ=": 1508,
      "èĪ¬": 1509,
      "åĲ¸": 1510,
      "éĩįæĸ°": 1511,
      "Ġimp": 1512,
      "çķĻ": 1513,
      "Ġover": 1514,
      "èµĦ": 1515,
      "ä¸ĢèĪ¬": 1516,
      "Ġthrough": 1517,
      "å½¢å¼ı": 1518,
      "å®ŀéĻħ": 1519,
      "åĪ¤": 1520,
      "Ġval": 1521,
      "è¾ĵåħ¥": 1522,
      "éļıæľº": 1523,
      "çħ": 1524,
      "Ġuse": 1525,
      "éĽ¶": 1526,
      "arth": 1527,
      "'s": 1528,
      "ms": 1529,
      "ather": 1530,
      "å¹¿": 1531,
      "ä»ħ": 1532,
      "ics": 1533,
      "èĬĤçĤ¹": 1534,
      "ell": 1535,
      "åĳ½": 1536,
      "æħ¢": 1537,
      "æľ¯": 1538,
      "ase": 1539,
      "çĶ±äºİ": 1540,
      "è·Ŀ": 1541,
      "åĲĮä¸Ģ": 1542,
      "èĦ±": 1543,
      "é¢Ħæµĭ": 1544,
      "è§Ĩ": 1545,
      "åįķä½į": 1546,
      "çłģ": 1547,
      "å¼ķåĬĽ": 1548,
      "é¢ĨåŁŁ": 1549,
      "è´Ł": 1550,
      "å¹³è¡¡": 1551,
      "ä¸Ģå®ļ": 1552,
      "ros": 1553,
      "one": 1554,
      "æµ·æ´ĭ": 1555,
      "æľ¬èº«": 1556,
      "äºĳ": 1557,
      "æĹĭ": 1558,
      "ich": 1559,
      "ast": 1560,
      "ç»ĵåĲĪ": 1561,
      "here": 1562,
      "formation": 1563,
      "éŁ": 1564,
      "arge": 1565,
      "éĿł": 1566,
      "æĮ¯": 1567,
      "fter": 1568,
      "æľĪ": 1569,
      "è¿ľ": 1570,
      "Ġwe": 1571,
      "Ġeff": 1572,
      "äººå·¥": 1573,
      "ach": 1574,
      "åĪĿ": 1575,
      "çħ§": 1576,
      "Ġhave": 1577,
      "å±Ģ": 1578,
      "è§Ĥå¯Ł": 1579,
      "é»": 1580,
      "éĹ¨": 1581,
      "æĶ¯": 1582,
      "Ġsmall": 1583,
      "Ġout": 1584,
      "çĲĨè§£": 1585,
      "åºĶçĶ¨": 1586,
      "éĽ¨": 1587,
      "Ġfi": 1588,
      "æ¤": 1589,
      "ä¿®": 1590,
      "Ġtemperature": 1591,
      "éĢĴ": 1592,
      "æĮī": 1593,
      "éľĩ": 1594,
      "éĢĲ": 1595,
      "åŁºæľ¬": 1596,
      "æıĲä¾Ľ": 1597,
      "ç¾¤": 1598,
      "èį·": 1599,
      "Ġdata": 1600,
      "é¡»": 1601,
      "æĺİæĺ¾": 1602,
      "ç²¾": 1603,
      "ĠW": 1604,
      "Ġspe": 1605,
      "èĥ½åĬĽ": 1606,
      "Ġevery": 1607,
      "Ġloc": 1608,
      "ç»Łè®¡": 1609,
      "Ġprodu": 1610,
      "Ġy": 1611,
      "æ¯Ķè¾ĥ": 1612,
      "ç¬¦": 1613,
      "æ»¡": 1614,
      "ound": 1615,
      "ative": 1616,
      "ä¸ļ": 1617,
      "ind": 1618,
      "Ġredu": 1619,
      "éĺ¶": 1620,
      "Ġrep": 1621,
      "Ġoften": 1622,
      "Ġexp": 1623,
      "å¹³åĿĩ": 1624,
      "æł¸éħ¸": 1625,
      "æĲ": 1626,
      "èı": 1627,
      "åı£": 1628,
      "åºķ": 1629,
      "éĩıåŃĲ": 1630,
      "ents": 1631,
      "çŁŃ": 1632,
      "æł·æľ¬": 1633,
      "Ġè¿Ļ": 1634,
      "Ġsur": 1635,
      "Ġthey": 1636,
      "Ġonly": 1637,
      "æĻº": 1638,
      "æĿĲæĸĻ": 1639,
      "çļĦä¸Ģ": 1640,
      "å°º": 1641,
      "Ġdire": 1642,
      "Ġlo": 1643,
      "Ġgen": 1644,
      "å¿ħé¡»": 1645,
      "çĹ": 1646,
      "Ġcre": 1647,
      "è¡¨éĿ¢": 1648,
      "Ġmay": 1649,
      "åģĩè®¾": 1650,
      "å¹²": 1651,
      "æŃ¢": 1652,
      "åĪ¤æĸŃ": 1653,
      "Ġfe": 1654,
      "è®¡ç®Ĺæľº": 1655,
      "èİ·": 1656,
      "ject": 1657,
      "åºıåĪĹ": 1658,
      "rong": 1659,
      "Ġact": 1660,
      "round": 1661,
      "è¿ŀç»Ń": 1662,
      "ric": 1663,
      "Ġcol": 1664,
      "ible": 1665,
      "ä¸ĸçºª": 1666,
      "æ£Ģ": 1667,
      "ail": 1668,
      "ex": 1669,
      "è®¾è®¡": 1670,
      "ç©ºæ°Ķ": 1671,
      "æŁĵèī²": 1672,
      "Ġpo": 1673,
      "è¯į": 1674,
      "Ġcond": 1675,
      "Ġmeas": 1676,
      "èĮĥåĽ´": 1677,
      "äººç±»": 1678,
      "èµĸ": 1679,
      "ä¸įä¼ļ": 1680,
      "ution": 1681,
      "å¤ļä¸ª": 1682,
      "ose": 1683,
      "æĿ¿": 1684,
      "æıĲåĩº": 1685,
      "ç¢³": 1686,
      "æł¹æį®": 1687,
      "æķ°éĩı": 1688,
      "Ġrec": 1689,
      "å¤§éĩı": 1690,
      "å¯¼æķ°": 1691,
      "è·Ŀç¦»": 1692,
      "Ġrequ": 1693,
      "ç»§": 1694,
      "çĽ¸åħ³": 1695,
      "ability": 1696,
      "ization": 1697,
      "å¤§æ°Ķ": 1698,
      "é¡º": 1699,
      "æ¢¯": 1700,
      "so": 1701,
      "çīĽ": 1702,
      "åįĩ": 1703,
      "åĵª": 1704,
      "lu": 1705,
      "Ġpre": 1706,
      "éŁ³": 1707,
      "åıĺéĩı": 1708,
      "ç®¡": 1709,
      "åĨħéĥ¨": 1710,
      "æł¸ç³ĸæł¸éħ¸": 1711,
      "åĪĩ": 1712,
      "tain": 1713,
      "erm": 1714,
      "etic": 1715,
      "è½¦": 1716,
      "èģĶ": 1717,
      "Ġdec": 1718,
      "Ġwhich": 1719,
      "åĩıå°ĳ": 1720,
      "Ġar": 1721,
      "ä½ľä¸º": 1722,
      "ç«¯": 1723,
      "ced": 1724,
      "çĨ": 1725,
      "äºļ": 1726,
      "åĬ©": 1727,
      "å¾®åĪĨ": 1728,
      "Ġwork": 1729,
      "Ġmany": 1730,
      "æīĭ": 1731,
      "èĩªå·": 1732,
      "å¡": 1733,
      "æŁĲäºĽ": 1734,
      "DNA": 1735,
      "ç¼ĸ": 1736,
      "ual": 1737,
      "æĿĥ": 1738,
      "éĻĨ": 1739,
      "ç±³": 1740,
      "çī¹å®ļ": 1741,
      "âĢĿï¼Į": 1742,
      "Ġmeasure": 1743,
      "ry": 1744,
      "Ġlong": 1745,
      "æ¸ħ": 1746,
      "âĪĴ": 1747,
      "Ġother": 1748,
      "åıªæľī": 1749,
      "Ġmag": 1750,
      "åĬŁèĥ½": 1751,
      "ä¼°": 1752,
      "Ġalso": 1753,
      "Ġass": 1754,
      "æłĩåĩĨ": 1755,
      "èĦ±æ°§": 1756,
      "å®ī": 1757,
      "itions": 1758,
      "ise": 1759,
      "éĩįå¤į": 1760,
      "çīĽé¡¿": 1761,
      "Ġno": 1762,
      "Ġpartic": 1763,
      "é©¬": 1764,
      "èĩªå·±": 1765,
      "aterial": 1766,
      "ful": 1767,
      "ould": 1768,
      "Ġ2": 1769,
      "Ġstruct": 1770,
      "ular": 1771,
      "åģľ": 1772,
      "oss": 1773,
      "ä¾Ŀèµĸ": 1774,
      "æĴŃ": 1775,
      "èĨ": 1776,
      "å¯¹åºĶ": 1777,
      "æĬĢ": 1778,
      "æĭŁ": 1779,
      "çī©çĲĨåŃ¦": 1780,
      "åĨ°": 1781,
      "ä½ĵçļĦ": 1782,
      "çĶµèį·": 1783,
      "åĲĪæĪĲ": 1784,
      "Ġquant": 1785,
      "ä»»ä½ķ": 1786,
      "èĦ±æ°§æł¸ç³ĸæł¸éħ¸": 1787,
      "der": 1788,
      "een": 1789,
      "çķ¥": 1790,
      "ically": 1791,
      "æĹłæ³ķ": 1792,
      "å¤§å°ı": 1793,
      "æ¡Ī": 1794,
      "Ġapp": 1795,
      "å¤ĩ": 1796,
      "ars": 1797,
      "æİ§åĪ¶": 1798,
      "æĳ": 1799,
      "hes": 1800,
      "Ġcur": 1801,
      "Ġind": 1802,
      "åıĳå±ķ": 1803,
      "Ġprocess": 1804,
      "Ġrather": 1805,
      "æĪĳ": 1806,
      "Ġli": 1807,
      "èĢĮä¸įæĺ¯": 1808,
      "åŁºç¡": 1809,
      "åĮºåŁŁ": 1810,
      "åŁºç¡Ģ": 1811,
      "ged": 1812,
      "å®Ī": 1813,
      "å¤§çļĦ": 1814,
      "ç¦»åŃĲ": 1815,
      "Ġsuper": 1816,
      "ä¹ĺ": 1817,
      "æķ°åĢ¼": 1818,
      "ower": 1819,
      "ific": 1820,
      "åıĹåĪ°": 1821,
      "ually": 1822,
      "æ¹": 1823,
      "ree": 1824,
      "Ġmaterial": 1825,
      "è§£åĨ³": 1826,
      "æ°ĶåĢĻ": 1827,
      "éĴŁ": 1828,
      "é¢ĳçİĩ": 1829,
      "ency": 1830,
      "å¸Į": 1831,
      "åĳ³": 1832,
      "åĮħåĲ«": 1833,
      "èĲ½": 1834,
      "Ġdesc": 1835,
      "æĢ§çļĦ": 1836,
      "cur": 1837,
      "arch": 1838,
      "è¡¨çİ°": 1839,
      "åĤ¨": 1840,
      "è£Ĥ": 1841,
      "Ġä¾ĭå¦Ĥ": 1842,
      "Ġbetw": 1843,
      "ĠIn": 1844,
      "Ġchanges": 1845,
      "éĢłæĪĲ": 1846,
      "Ġbetween": 1847,
      "çĽ¸äºĴ": 1848,
      "è¯ģæĺİ": 1849,
      "ross": 1850,
      "serv": 1851,
      "wo": 1852,
      "ä»¥åĲİ": 1853,
      "Ġinformation": 1854,
      "Ġvari": 1855,
      "ä¼łæĴŃ": 1856,
      "å·®å¼Ĥ": 1857,
      "æĻºèĥ½": 1858,
      "åħ¸": 1859,
      "Ġequ": 1860,
      "æ¸Ĳ": 1861,
      "cle": 1862,
      "åĪĴ": 1863,
      "ä¹İ": 1864,
      "ç¼©": 1865,
      "æ¼ĶåĮĸ": 1866,
      "æ¤į": 1867,
      "row": 1868,
      "åĨ·": 1869,
      "Ġreg": 1870,
      "ä½įç´ł": 1871,
      "æľºåĻ¨": 1872,
      "Ġwithout": 1873,
      "çľŁå®ŀ": 1874,
      "èĦĳ": 1875,
      "åıĤæķ°": 1876,
      "åĽºå®ļ": 1877,
      "ue": 1878,
      "Ġmet": 1879,
      "åĲĮä½įç´ł": 1880,
      "éĻĦ": 1881,
      "Ġhas": 1882,
      "ä¾¿": 1883,
      "èµ°": 1884,
      "çŃīäºİ": 1885,
      "lo": 1886,
      "Ġap": 1887,
      "æ¶²": 1888,
      "çŁ¥éģĵ": 1889,
      "te": 1890,
      "uch": 1891,
      "å½Ĵ": 1892,
      "æĪĲæľ¬": 1893,
      "åĲİæĿ¥": 1894,
      "çŁ³": 1895,
      "æľĢç»Ī": 1896,
      "Ġnear": 1897,
      "è¯Ńè¨Ģ": 1898,
      "åħ±åĲĮ": 1899,
      "å¾Ģå¾Ģ": 1900,
      "ph": 1901,
      "ç»Ŀ": 1902,
      "its": 1903,
      "éĿŀå¸¸": 1904,
      "ĠIt": 1905,
      "ough": 1906,
      "åıĮ": 1907,
      "æ°¢": 1908,
      "å®ĮæĪĲ": 1909,
      "18": 1910,
      "è¯»": 1911,
      "éĻįä½İ": 1912,
      "Ġeven": 1913,
      "Ġstructure": 1914,
      "åı¤": 1915,
      "ä»ĭ": 1916,
      "Ġbeh": 1917,
      "ç§»åĬ¨": 1918,
      "ved": 1919,
      "Ġer": 1920,
      "åĪĨç±»": 1921,
      "Ġstrong": 1922,
      "ĠTh": 1923,
      "ä»£è¡¨": 1924,
      "æ°§åĮĸ": 1925,
      "Ġabout": 1926,
      "Ġafter": 1927,
      "å¯¼èĩ´": 1928,
      "è·¯å¾Ħ": 1929,
      "çĭ¬ç«ĭ": 1930,
      "ting": 1931,
      "èĴ": 1932,
      "ite": 1933,
      "æīĢä»¥": 1934,
      "Ġexpl": 1935,
      "å±Ģéĥ¨": 1936,
      "åķ": 1937,
      "ons": 1938,
      "æĺ¯åľ¨": 1939,
      "å¾ª": 1940,
      "Ġwater": 1941,
      "æįŁ": 1942,
      "chan": 1943,
      "ments": 1944,
      "éĶĻè¯¯": 1945,
      "10": 1946,
      "ck": 1947,
      "åľ°éľĩ": 1948,
      "vers": 1949,
      "è°±": 1950,
      "å·¥ä½ľ": 1951,
      "è¯¯å·®": 1952,
      "é¥": 1953,
      "æľį": 1954,
      "åİĨ": 1955,
      "ç½Ĺ": 1956,
      "Ġchange": 1957,
      "Ġgener": 1958,
      "Ġmagn": 1959,
      "åĬ¨éĩı": 1960,
      "Ġbefore": 1961,
      "åĵģ": 1962,
      "å¥¹": 1963,
      "Ġnew": 1964,
      "æ¢¯åº¦": 1965,
      "ä¸ĩ": 1966,
      "Ġca": 1967,
      "Ġthere": 1968,
      "éĿĻ": 1969,
      "æĽ²": 1970,
      "è¡¨è¾¾": 1971,
      "face": 1972,
      "ple": 1973,
      "ath": 1974,
      "æĿŁ": 1975,
      "æĪĲä¸º": 1976,
      "ä¸ĭéĻį": 1977,
      "æİ¥è¿ĳ": 1978,
      "åħĥç´łçļĦ": 1979,
      "rent": 1980,
      "ĠèĢĮ": 1981,
      "Ġup": 1982,
      "æľīæĹ¶": 1983,
      "Ġdet": 1984,
      "ä¹Łä¼ļ": 1985,
      "ç¨ĭåº¦": 1986,
      "uring": 1987,
      "ists": 1988,
      "ivity": 1989,
      "æĹı": 1990,
      "çīĩ": 1991,
      "ä¹Łæĺ¯": 1992,
      "Ġform": 1993,
      "æ··": 1994,
      "è¾ĵåĩº": 1995,
      "äºĭä»¶": 1996,
      "Ġhel": 1997,
      "Ġdepends": 1998,
      "èİ·å¾Ĺ": 1999,
      "ç»§ç»Ń": 2000,
      "ä¸įæĸŃ": 2001,
      "ç¾İ": 2002,
      "Ġå¦Ĥæŀľ": 2003,
      "int": 2004,
      "hem": 2005,
      "éĩĩ": 2006,
      "Ġmatter": 2007,
      "ç¼º": 2008,
      "è¿ĳä¼¼": 2009,
      "Ġam": 2010,
      "åĪĨéĴŁ": 2011,
      "çĶŁæĪĲ": 2012,
      "ä¸ĭçļĦ": 2013,
      "æĸ°çļĦ": 2014,
      "Ġ)": 2015,
      "Ġsol": 2016,
      "Ġcor": 2017,
      "Ġcar": 2018,
      "éªĮè¯ģ": 2019,
      "ier": 2020,
      "arg": 2021,
      "å¼±": 2022,
      "éĥ½æĺ¯": 2023,
      "ays": 2024,
      "Ġke": 2025,
      "æĿ¥èĩª": 2026,
      "è¿Ľåħ¥": 2027,
      "Ġmuch": 2028,
      "æľĢåĲİ": 2029,
      "æľºåĪ¶": 2030,
      "éķ¿æľŁ": 2031,
      "Ġfiel": 2032,
      "ty": 2033,
      "æľīåħ³": 2034,
      "Ġwhere": 2035,
      "æī§": 2036,
      "Ġlarge": 2037,
      "æĪĸèĢħ": 2038,
      "çĸ": 2039,
      "ä¹ħ": 2040,
      "è¯Ŀ": 2041,
      "omet": 2042,
      "å±±": 2043,
      "âĢĿãĢĤ": 2044,
      "Ġå½ĵ": 2045,
      "ining": 2046,
      "éĢı": 2047,
      "Ġhigh": 2048,
      "å¹¶ä¸Ķ": 2049,
      "å®ĥçļĦ": 2050,
      "æī§è¡Į": 2051,
      "è¡°": 2052,
      "ases": 2053,
      "è¿Ļä¸Ģ": 2054,
      "ade": 2055,
      "æĮģç»Ń": 2056,
      "éĤ£ä¹Ī": 2057,
      "æ³¨æĦı": 2058,
      "Ġdescrib": 2059,
      "¬åĮĸ": 2060,
      "æ½": 2061,
      "Ġ19": 2062,
      "oth": 2063,
      "è½¨": 2064,
      "æĻ¶": 2065,
      "å²©": 2066,
      "ience": 2067,
      "æľīäºĽ": 2068,
      "æľīéĻĲ": 2069,
      "æĽ´å¤ļ": 2070,
      "ç¬¬äºĮ": 2071,
      "Ġincre": 2072,
      "æŁĵèī²ä½ĵ": 2073,
      "put": 2074,
      "other": 2075,
      "éĺ»": 2076,
      "æĥ¯": 2077,
      "åĩłä¹İ": 2078,
      "ä»»åĬ¡": 2079,
      "æ¤įçī©": 2080,
      "ä¸ľ": 2081,
      "åĪļ": 2082,
      "ä¸ĢæŃ¥": 2083,
      "Ġcomm": 2084,
      "å¾ªçİ¯": 2085,
      "co": 2086,
      "çĪ": 2087,
      "æĿ¥çļĦ": 2088,
      "Ġstill": 2089,
      "çĶµç£ģ": 2090,
      "å¤©æ°Ķ": 2091,
      "åĤ¬åĮĸ": 2092,
      "12": 2093,
      "our": 2094,
      "æīĵ": 2095,
      "yn": 2096,
      "Ġpar": 2097,
      "Ġmean": 2098,
      "Ġadd": 2099,
      "çĮ": 2100,
      "èħ": 2101,
      "ism": 2102,
      "æĬ½": 2103,
      "ä¹Łåı¯èĥ½": 2104,
      "è¾¹çķĮ": 2105,
      "å°ºåº¦": 2106,
      "inu": 2107,
      "æĢĿ": 2108,
      "ential": 2109,
      "Ġneed": 2110,
      "Ġeffect": 2111,
      "èıĮ": 2112,
      "Ġconditions": 2113,
      "Ġæĺ¯": 2114,
      "hed": 2115,
      "als": 2116,
      "åıĺæĪĲ": 2117,
      "Ġall": 2118,
      "plic": 2119,
      "conduct": 2120,
      "èŀ": 2121,
      "å¼ł": 2122,
      "åį¡": 2123,
      "Ġnum": 2124,
      "å¹¶ä¸įæĺ¯": 2125,
      "æĻ¯": 2126,
      "ize": 2127,
      "æº¶": 2128,
      "çªģçĦ¶": 2129,
      "now": 2130,
      "ving": 2131,
      "åı¶": 2132,
      "åĽĽ": 2133,
      "æī©": 2134,
      "çİ°ä»£": 2135,
      "èĩªåĬ¨": 2136,
      "ä½Ĩæĺ¯": 2137,
      "irst": 2138,
      "è¿ŀæİ¥": 2139,
      "æĬĢæľ¯": 2140,
      "ä¹¦": 2141,
      "ï¼īãĢģ": 2142,
      "Ġconst": 2143,
      "è§Ĥæµĭ": 2144,
      "æķĪåºĶ": 2145,
      "ĠU": 2146,
      "çļĦçłĶç©¶": 2147,
      "ational": 2148,
      "ç±»ä¼¼": 2149,
      "Ġobject": 2150,
      "éĢĲæ¸Ĳ": 2151,
      "Ġquantum": 2152,
      "Ġwere": 2153,
      "ict": 2154,
      "Ġthis": 2155,
      "æ²¿": 2156,
      "ä»İèĢĮ": 2157,
      "ç¢±": 2158,
      "ç¥ŀç»ıç½ĳç»ľ": 2159,
      "èĨľ": 2160,
      "Ġoc": 2161,
      "Ġinst": 2162,
      "Ġdistrib": 2163,
      "éĻĦè¿ĳ": 2164,
      "åĲĮæł·": 2165,
      "è¡Įä¸º": 2166,
      "Ġcomput": 2167,
      "å»ºç«ĭ": 2168,
      "Ġtwo": 2169,
      "åĨ³äºİ": 2170,
      "åıĸåĨ³äºİ": 2171,
      "æĪĳä»¬": 2172,
      "Ġ+": 2173,
      "ĠG": 2174,
      "ãĢĬ": 2175,
      "åıł": 2176,
      "åĨ²": 2177,
      "ç¨ĭåºı": 2178,
      "ä½¿å¾Ĺ": 2179,
      "è¢«ç§°ä¸º": 2180,
      "Ġvis": 2181,
      "çļĦå½±åĵį": 2182,
      "ãĢĭ": 2183,
      "Ġbu": 2184,
      "rol": 2185,
      "olog": 2186,
      "ç»ĦåĲĪ": 2187,
      "Ġelectron": 2188,
      "ior": 2189,
      "king": 2190,
      "çļĦåľ°": 2191,
      "çļĦåħĥç´ł": 2192,
      "Ġsign": 2193,
      "ä¸Ģèµ·": 2194,
      "Ġmade": 2195,
      "æľīæķĪ": 2196,
      "åĽ¢": 2197,
      "Ġfirst": 2198,
      "æ°¨": 2199,
      "æ³Ľ": 2200,
      "éĢŁçİĩ": 2201,
      "ä¿ĿæĮģ": 2202,
      "é¦ĸ": 2203,
      "å°¼": 2204,
      "å¸¸è§ģ": 2205,
      "ç±»åŀĭ": 2206,
      "resent": 2207,
      "Ġsub": 2208,
      "Ġremain": 2209,
      "gan": 2210,
      "åĭ": 2211,
      "Ġset": 2212,
      "æĪ·": 2213,
      "Ġmem": 2214,
      "Ġconf": 2215,
      "åıįèĢĮ": 2216,
      "éļĶ": 2217,
      "éķ¿åº¦": 2218,
      "ber": 2219,
      "æĺ¯çĶ±": 2220,
      "è´Ŀ": 2221,
      "cean": 2222,
      "Ġhelp": 2223,
      "ç¿": 2224,
      "Ġsome": 2225,
      "åºĵ": 2226,
      "çĶµåľº": 2227,
      "åĲĪçī©": 2228,
      "è¯´æĺİ": 2229,
      "æŁĲä¸ª": 2230,
      "Ġresult": 2231,
      "ared": 2232,
      "ä¸¥": 2233,
      "æĹ¶åĢĻ": 2234,
      "è½¯": 2235,
      "æŀĦæĪĲ": 2236,
      "æĦıåĳ³": 2237,
      "çī©ä½ĵçļĦ": 2238,
      "åı¦ä¸Ģä¸ª": 2239,
      "Ġsurface": 2240,
      "é¡ºåºı": 2241,
      "·éħ¸": 2242,
      "¿Ģ": 2243,
      "æ¿Ģ": 2244,
      "åİŁåĽł": 2245,
      "éĿ¢çļĦ": 2246,
      "ç¼ĵ": 2247,
      "åĩłä¸ª": 2248,
      "ä»įçĦ¶": 2249,
      "Ġobserv": 2250,
      "Ġbehav": 2251,
      "ie": 2252,
      "æĺł": 2253,
      "åĮĹ": 2254,
      "ä¸ºäºĨ": 2255,
      "çī©ç§į": 2256,
      "çº³": 2257,
      "ç»ıè¿ĩ": 2258,
      "åį³ä½¿": 2259,
      "è®°å½ķ": 2260,
      "è£ħ": 2261,
      "æĿ¿åĿĹ": 2262,
      "Ġtheir": 2263,
      "è¯ĳ": 2264,
      "éĺŁ": 2265,
      "æŃ£ç¡®": 2266,
      "å»¶": 2267,
      "æĺ¯ä¸Ģä¸ª": 2268,
      "Ġanother": 2269,
      "Ġsuch": 2270,
      "ç»Ļåĩº": 2271,
      "åĸ": 2272,
      "Ġmot": 2273,
      "å¤ļæķ°": 2274,
      "åı¯ä»¥çĶ¨": 2275,
      "urn": 2276,
      "æĻļ": 2277,
      "éĻĲåĪ¶": 2278,
      "Ġproble": 2279,
      "Ġdirect": 2280,
      "Ġappro": 2281,
      "ma": 2282,
      "æ¥": 2283,
      "ĠãĢĤ": 2284,
      "read": 2285,
      "ences": 2286,
      "ract": 2287,
      "Ġvol": 2288,
      "ä¼łéĢĴ": 2289,
      "çľĭèµ·æĿ¥": 2290,
      "arthqu": 2291,
      "æĲľ": 2292,
      "ood": 2293,
      "åįĹ": 2294,
      "äººä»¬": 2295,
      "æĭ¥": 2296,
      "æ°Ķä½ĵ": 2297,
      "åĳĺ": 2298,
      "åħ³éĶ®": 2299,
      "çľĭåĪ°": 2300,
      "ves": 2301,
      "requ": 2302,
      "Ġmin": 2303,
      "cel": 2304,
      "è¾¾åĪ°": 2305,
      "æ·±åº¦": 2306,
      "ç¬¦åı·": 2307,
      "ne": 2308,
      "ucle": 2309,
      "Ġopt": 2310,
      "Ġlight": 2311,
      "è´¨åŃĲ": 2312,
      "ç£ģåľº": 2313,
      "Ġspace": 2314,
      "In": 2315,
      "gth": 2316,
      "ä¸ĵ": 2317,
      "Ġcons": 2318,
      "èĩªçĶ±": 2319,
      "ĠSc": 2320,
      "æĥħåĨµä¸ĭ": 2321,
      "äººå·¥æĻºèĥ½": 2322,
      "Ġlocal": 2323,
      "Ġsuperconduct": 2324,
      "æĦıåĳ³çĿĢ": 2325,
      "ward": 2326,
      "çļĦéĹ®é¢ĺ": 2327,
      "æķ°ç»Ħ": 2328,
      "Ġem": 2329,
      "åıĺæį¢": 2330,
      "çĶµèĦĳ": 2331,
      "Ġheat": 2332,
      "å¯Ĩåº¦": 2333,
      "Ġeas": 2334,
      "âĢ²": 2335,
      "Ġstate": 2336,
      "æĽ´å®¹æĺĵ": 2337,
      "è¶ĭ": 2338,
      "åĩ½æķ°çļĦ": 2339,
      "Ġcontain": 2340,
      "èĻ½": 2341,
      "åıī": 2342,
      "ertain": 2343,
      "ä½ı": 2344,
      "Ġfin": 2345,
      "è¦ģæ±Ĥ": 2346,
      "å®Įæķ´": 2347,
      "çĶŁçī©åŃ¦": 2348,
      "åĲĦç§į": 2349,
      "Ġuseful": 2350,
      "å®ĪæģĴ": 2351,
      "ä¸ĢçĽ´": 2352,
      "iss": 2353,
      "å¹´ä»£": 2354,
      "æĵįä½ľç³»ç»Ł": 2355,
      "çĹħ": 2356,
      "ä»½": 2357,
      "ä¸Ģæł·": 2358,
      "æĸ½": 2359,
      "åĪĨåĪ«": 2360,
      "æŀ¶": 2361,
      "å¸®": 2362,
      "ç²¾ç¡®": 2363,
      "ub": 2364,
      "Ġj": 2365,
      "Ġent": 2366,
      "Ġim": 2367,
      "ĠåĽłæŃ¤": 2368,
      "åı³": 2369,
      "Ġsimp": 2370,
      "Ġpred": 2371,
      "âĢĻ": 2372,
      "åĿı": 2373,
      "åİŁåŃĲæł¸": 2374,
      "é£Ł": 2375,
      "000": 2376,
      "è¶ħå¯¼": 2377,
      "ressure": 2378,
      "èĻĳ": 2379,
      "åĪ»": 2380,
      "Ġfun": 2381,
      "æĬ¥": 2382,
      "åĨħå®¹": 2383,
      "ized": 2384,
      "æ»¡è¶³": 2385,
      "æ¹¿": 2386,
      ")ï¼Į": 2387,
      "æĤ": 2388,
      "Ġè¿ĻäºĽ": 2389,
      "ities": 2390,
      "çīĪ": 2391,
      "æµĵ": 2392,
      "Ġmake": 2393,
      "Ġcontrol": 2394,
      "Ġplan": 2395,
      "Ġscient": 2396,
      "çģ«": 2397,
      "åĬ¿èĥ½": 2398,
      "ĠThis": 2399,
      "åĶ": 2400,
      "ä½Ļ": 2401,
      "Ġbound": 2402,
      "åĬ¨çī©": 2403,
      "çī¹åĪ«": 2404,
      "éĩĮçļĦ": 2405,
      "äº§çĶŁçļĦ": 2406,
      "è§ĦåĪĻ": 2407,
      "è®®": 2408,
      "è¯Ħ": 2409,
      "Ġlim": 2410,
      "å¯¹è±¡": 2411,
      "ä¹ĭåĲİ": 2412,
      "å¾®åĪĨæĸ¹ç¨ĭ": 2413,
      "âĭ": 2414,
      "åı¥": 2415,
      "åĪĽ": 2416,
      "å°½": 2417,
      "ä¸įåı¯": 2418,
      "ark": 2419,
      "åĪĨä¸º": 2420,
      "çŃĶ": 2421,
      "Ġmost": 2422,
      "å¤įæĿĤåº¦": 2423,
      "hip": 2424,
      "çļĦæľĢ": 2425,
      "åħħ": 2426,
      "ang": 2427,
      "æķ°åŃĹ": 2428,
      "æİ¢": 2429,
      "çŃĸ": 2430,
      "è½½": 2431,
      "åİŁæľ¬": 2432,
      "ampl": 2433,
      "Ġchanged": 2434,
      "ied": 2435,
      "åįł": 2436,
      "Ġearthqu": 2437,
      "éĥ½ä¼ļ": 2438,
      "åĮºéĹ´": 2439,
      "è¿ĩç¨ĭä¸Ń": 2440,
      "par": 2441,
      "ues": 2442,
      "ä¸ĢçĤ¹": 2443,
      "æķħ": 2444,
      "arning": 2445,
      "Ġbl": 2446,
      "åĪĨè§£": 2447,
      "çĽĲ": 2448,
      "Ġins": 2449,
      "ident": 2450,
      "è¡ĮæĺŁ": 2451,
      "æ´²": 2452,
      "Ġwhat": 2453,
      "è¯ģæį®": 2454,
      "åĲ¸æĶ¶": 2455,
      "èĻ½çĦ¶": 2456,
      "åı²": 2457,
      "å¤´": 2458,
      "ç»ķ": 2459,
      "Ġflow": 2460,
      "Ġstud": 2461,
      "å¸¸æķ°": 2462,
      "ä¹Łåı¯ä»¥": 2463,
      "ç¡¬": 2464,
      "çł´": 2465,
      "èµĦæºĲ": 2466,
      "ä»Ĭ": 2467,
      "ä¸Ģèĩ´": 2468,
      "åįı": 2469,
      "åĽłç´ł": 2470,
      "Ġconc": 2471,
      "åıªèĥ½": 2472,
      "æµĭè¯ķ": 2473,
      "æıĲé«ĺ": 2474,
      "ä¿¡åı·": 2475,
      "ä¼ĺåĮĸ": 2476,
      "èĢĥèĻĳ": 2477,
      "æĲľç´¢": 2478,
      "å®Ļ": 2479,
      "Ġthem": 2480,
      "éĢĨ": 2481,
      "Ġsupp": 2482,
      "å¾®ç§¯åĪĨ": 2483,
      "ç¬¬ä¸Ģ": 2484,
      "Ġcomple": 2485,
      "Ġlike": 2486,
      "xim": 2487,
      "Ġslow": 2488,
      "å®ĩ": 2489,
      "éĻ©": 2490,
      "Ġacross": 2491,
      "æ´»åĬ¨": 2492,
      "èİ±": 2493,
      "çĨŁ": 2494,
      "din": 2495,
      "me": 2496,
      "çļĦæĸ¹æ³ķ": 2497,
      "äºī": 2498,
      "åľŁ": 2499,
      "ä¸įç¡®å®ļ": 2500,
      "æĬ¤": 2501,
      "åĵĪ": 2502,
      "Ġbecame": 2503,
      "andom": 2504,
      "éĩĬæĶ¾": 2505,
      "è½¨éģĵ": 2506,
      "Ġte": 2507,
      "ä¸įè¿ĩ": 2508,
      "ision": 2509,
      "åŃ¦å®¶": 2510,
      "Ġref": 2511,
      "Ġbeen": 2512,
      "å°ıçļĦ": 2513,
      "èĥĮ": 2514,
      "åĩłä½ķ": 2515,
      "peated": 2516,
      "åıĤä¸İ": 2517,
      "Ġused": 2518,
      "éĢĤåĲĪ": 2519,
      "èĭ±è¯Ń": 2520,
      "ä¼°è®¡": 2521,
      "are": 2522,
      "led": 2523,
      "çļĦäºº": 2524,
      "Ġsim": 2525,
      "å®¤": 2526,
      "è¡¥": 2527,
      "åıĺå¾Ĺ": 2528,
      "å·¥åħ·": 2529,
      "æķ´ä¸ª": 2530,
      "éĻįæ°´": 2531,
      "Ġmechan": 2532,
      "aves": 2533,
      "Ġacc": 2534,
      "çĽ¸å¯¹è®º": 2535,
      "è§īå¾Ĺ": 2536,
      "Ġerr": 2537,
      "Ġoccur": 2538,
      "Ġmotion": 2539,
      "ĠçĶ±äºİ": 2540,
      "ä¸´": 2541,
      "çĽĸ": 2542,
      "çº¯": 2543,
      "è¾Ĳ": 2544,
      "æĬĺ": 2545,
      "ç´¯": 2546,
      "åĬłéĢŁåº¦": 2547,
      "ç³»ç»ŁçļĦ": 2548,
      "è¿Ĳç®Ĺ": 2549,
      "ĠSt": 2550,
      "âĪĤ": 2551,
      "æŀģéĻĲ": 2552,
      "å¤«": 2553,
      "ç»ĩ": 2554,
      "çĶļ": 2555,
      "æĹ§": 2556,
      "Ġpath": 2557,
      "Ġpressure": 2558,
      "è´¹": 2559,
      "ç©·": 2560,
      "å®ŀçİ°": 2561,
      "é«ĺåº¦": 2562,
      "åĿĲ": 2563,
      "Ġallow": 2564,
      "åħ¬å¼ı": 2565,
      "çī¹å¾ģåĢ¼": 2566,
      "Ġcurrent": 2567,
      "èĴ¸": 2568,
      "Ġbehavior": 2569,
      "å¸®åĬ©": 2570,
      "ft": 2571,
      "omes": 2572,
      "å¦Ĥä½ķ": 2573,
      "åĢį": 2574,
      "Ġext": 2575,
      "å¤įåĪ¶": 2576,
      "æµ·æ°´": 2577,
      "è¿ĺæľī": 2578,
      "çŁ¥è¯Ĩ": 2579,
      "çŁ©éĺµçļĦ": 2580,
      "ä»»æĦı": 2581,
      "åı¦ä¸Ģ": 2582,
      "å£°éŁ³": 2583,
      "ä¸ĸçķĮ": 2584,
      "Ġtraining": 2585,
      "Ġspec": 2586,
      "ext": 2587,
      "Ġfield": 2588,
      "è¿Ļæł·": 2589,
      "ets": 2590,
      "ä¾§": 2591,
      "æł¸å¿ĥ": 2592,
      "å°ıæĹ¶": 2593,
      "Ġmove": 2594,
      "çĦ¶èĢĮ": 2595,
      "ä¾ĭåŃĲ": 2596,
      "ä»·åĢ¼": 2597,
      "æī¾åĪ°": 2598,
      "åĳ¨æľŁè¡¨": 2599,
      "å®ĩå®Ļ": 2600,
      "Ġpa": 2601,
      "Ġreact": 2602,
      "åĲĮä¸Ģä¸ª": 2603,
      "å¤§éĻĨ": 2604,
      "å·¥ç¨ĭ": 2605,
      "ĠEarth": 2606,
      "Ġcr": 2607,
      "Ġboth": 2608,
      "Ġoper": 2609,
      "ased": 2610,
      "è½»": 2611,
      "veral": 2612,
      "Ġprov": 2613,
      "éĥ½æľī": 2614,
      "Ġspeed": 2615,
      "Ġcaus": 2616,
      "åĭĴ": 2617,
      "æĭ¥æľī": 2618,
      "edi": 2619,
      "ç§©": 2620,
      "ick": 2621,
      "çĶŁåĳ½": 2622,
      "ute": 2623,
      "åľ°åĮº": 2624,
      "amet": 2625,
      "ample": 2626,
      "ä¸¤ç§į": 2627,
      "è§Ħå¾ĭ": 2628,
      "æģĴæĺŁ": 2629,
      "Ġrequire": 2630,
      "Ġparticles": 2631,
      "ake": 2632,
      "ration": 2633,
      "Ġz": 2634,
      "çĶ¨çļĦ": 2635,
      "åħ·ä½ĵ": 2636,
      "Ġcontinu": 2637,
      "16": 2638,
      "An": 2639,
      "ĠæŃ¤": 2640,
      "Ġduring": 2641,
      "Ġinf": 2642,
      "çĽ¸ä¼¼": 2643,
      "ç»ıåħ¸": 2644,
      "Ġcould": 2645,
      "åĲ«æľī": 2646,
      "è¶³å¤Ł": 2647,
      "Ġlook": 2648,
      "val": 2649,
      "çļĦç»ĵæŀľ": 2650,
      "æĺ¯ä¸Ģç§į": 2651,
      "Ġwould": 2652,
      "Ġlater": 2653,
      "usion": 2654,
      "æĽ¼": 2655,
      "ä¹ĭä¸Ģ": 2656,
      "åħ³äºİ": 2657,
      "ç»Ħç»ĩ": 2658,
      "Ġatom": 2659,
      "æ¶ī": 2660,
      "æĻ®éĢļ": 2661,
      "ead": 2662,
      "èĹ": 2663,
      "çļĦçĲĨè®º": 2664,
      "æĺ¯æĮĩ": 2665,
      "icient": 2666,
      "ä¸ŃåŃĲ": 2667,
      "Ġreal": 2668,
      "Ġeach": 2669,
      "æĽ¿": 2670,
      "idence": 2671,
      "ä¹ĭåīį": 2672,
      "åīĤ": 2673,
      "æ¨¡å¼ı": 2674,
      "æ¯Ķå¦Ĥ": 2675,
      "è½¬åĮĸ": 2676,
      "æĹłç©·": 2677,
      "Ġtherefore": 2678,
      "è¾Ĳå°Ħ": 2679,
      "Ġest": 2680,
      "çļĦæķ°æį®": 2681,
      "æķĻ": 2682,
      "å·¦": 2683,
      "éģį": 2684,
      "æĦıä¹ī": 2685,
      "æĴŀ": 2686,
      "Ġrelations": 2687,
      "âĢĶâĢĶ": 2688,
      "cing": 2689,
      "¢å¤į": 2690,
      "çļĦæĹ¶éĹ´": 2691,
      "è®¨": 2692,
      "æľīäºº": 2693,
      "Ġpower": 2694,
      "ä¼¯": 2695,
      "osition": 2696,
      "æĺ¾èĳĹ": 2697,
      "åıĤèĢĥ": 2698,
      "è§Ħæ¨¡": 2699,
      "akes": 2700,
      "æŁ¥æī¾": 2701,
      "Ġknow": 2702,
      "ä»ĭè´¨": 2703,
      "åħģ": 2704,
      "atch": 2705,
      "Ġfail": 2706,
      "åĩºæĿ¥": 2707,
      "çĶµæµģ": 2708,
      "ä¹Łå°±æĺ¯": 2709,
      "æ¬§": 2710,
      "æģ¢å¤į": 2711,
      "Ġmain": 2712,
      "è½¬æį¢": 2713,
      "èĬ±": 2714,
      "æĹ©æľŁ": 2715,
      "Ġfunction": 2716,
      "cul": 2717,
      "de": 2718,
      "nal": 2719,
      "èĢĹ": 2720,
      "ately": 2721,
      "è¿Ĳè¡Į": 2722,
      "å¼ºåº¦": 2723,
      "çĽ¸äºĴä½ľçĶ¨": 2724,
      "æµĵåº¦": 2725,
      "çĶļèĩ³": 2726,
      "åħģè®¸": 2727,
      "not": 2728,
      "åł": 2729,
      "çļĦæ¦Ĥå¿µ": 2730,
      "åĲ¬": 2731,
      "åľĪ": 2732,
      "å¼¹": 2733,
      "æĢ§èĥ½": 2734,
      "çº¢": 2735,
      "å¤§å¤ļæķ°": 2736,
      "æĿ¥è¯´": 2737,
      "æĪĸæĺ¯": 2738,
      "å¾Īå¿«": 2739,
      "é¡µ": 2740,
      "Ġatt": 2741,
      "å·²çŁ¥": 2742,
      "æĶ¾å°Ħ": 2743,
      "Ġcorre": 2744,
      "Ġbuil": 2745,
      "get": 2746,
      "Ġä¸º": 2747,
      "ĨĴ": 2748,
      "äº¿": 2749,
      "end": 2750,
      "è¾ĳ": 2751,
      "ä¸Ĭåįĩ": 2752,
      "å¿Ĩ": 2753,
      "åŁºäºİ": 2754,
      "åģ¶": 2755,
      "è½¬å½ķ": 2756,
      "Ġbecome": 2757,
      "ä¿ĿçķĻ": 2758,
      "äº¤æį¢": 2759,
      "çªģåıĺ": 2760,
      "Ġrelationship": 2761,
      "dient": 2762,
      "å¨": 2763,
      "Ġanal": 2764,
      "éĹŃ": 2765,
      "çĶ¨æĿ¥": 2766,
      "Ġnucle": 2767,
      "ç©¿": 2768,
      "éĩįåĬĽ": 2769,
      "çĤ¹çļĦ": 2770,
      "éĿ¢ç§¯": 2771,
      "Ġuni": 2772,
      "çĽ®åīį": 2773,
      "Ġphys": 2774,
      "Ġpredict": 2775,
      "oun": 2776,
      "Ġ-": 2777,
      "Ġaut": 2778,
      "æľĽ": 2779,
      "åħį": 2780,
      "å½¼": 2781,
      "verse": 2782,
      "Ġprot": 2783,
      "Ġexper": 2784,
      "æ¢°": 2785,
      "æįŁå¤±": 2786,
      "Ġmagnetic": 2787,
      "Ġoptim": 2788,
      "aw": 2789,
      "nect": 2790,
      "äº®": 2791,
      "å¾ħ": 2792,
      "éĺ¿": 2793,
      "åİŁçĲĨ": 2794,
      "æ²ī": 2795,
      "æľºæ¢°": 2796,
      "ä»£æķ°": 2797,
      "Ġseveral": 2798,
      "ptions": 2799,
      "Ġusually": 2800,
      "åİĭåĬĽ": 2801,
      "Ġscal": 2802,
      "Ġproduce": 2803,
      "ec": 2804,
      "ost": 2805,
      "çı": 2806,
      "Ġä¸Ģä¸ª": 2807,
      "åı°": 2808,
      "Ġmass": 2809,
      "Ġfrequ": 2810,
      "æ¯į": 2811,
      "çİ°åľ¨": 2812,
      "ä½įäºİ": 2813,
      "Ġproper": 2814,
      "Ġrate": 2815,
      "æ³¢åĬ¨": 2816,
      "éļıçĿĢ": 2817,
      "æ®Ĭ": 2818,
      "pend": 2819,
      "å±ŀäºİ": 2820,
      "Ġresp": 2821,
      "Ġabs": 2822,
      "etwor": 2823,
      "å¹¿æ³Ľ": 2824,
      "dx": 2825,
      "Ġx": 2826,
      "Ġvery": 2827,
      "ond": 2828,
      "ator": 2829,
      "ä¸įåıĺ": 2830,
      "Ġocean": 2831,
      "å¯»": 2832,
      "éĩıçļĦ": 2833,
      "Ġlow": 2834,
      "Ġloss": 2835,
      "äºĨä¸Ģ": 2836,
      "Ġstat": 2837,
      "åĿĢ": 2838,
      "å¥Ĺ": 2839,
      "ç»Ĩèĥŀæł¸": 2840,
      "indow": 2841,
      "ness": 2842,
      "Ġtest": 2843,
      "éĢ»": 2844,
      "rop": 2845,
      "ention": 2846,
      "æİī": 2847,
      "é¢Ŀ": 2848,
      "otential": 2849,
      "Ġconver": 2850,
      "çī¹æ®Ĭ": 2851,
      "å°±ä¼ļ": 2852,
      "âĪ«": 2853,
      "Ġdiff": 2854,
      "search": 2855,
      "èµĦæĸĻ": 2856,
      "æ½®": 2857,
      "Ġdistribution": 2858,
      "æķ°åĪĹ": 2859,
      "å¹ħ": 2860,
      "èĢģ": 2861,
      "Ġrepeated": 2862,
      "æī¿": 2863,
      "âĢ¦": 2864,
      "Ġless": 2865,
      "ç»ĵè®º": 2866,
      "æĽ´æĸ°": 2867,
      "çĻ¾": 2868,
      "æļ´": 2869,
      "éĵ¾è¡¨": 2870,
      "èģļç±»": 2871,
      "Ġunderst": 2872,
      "Ġdirection": 2873,
      "æ°¨åŁº": 2874,
      "åĶ¯": 2875,
      "éĢ»è¾ĳ": 2876,
      "ix": 2877,
      "Ġair": 2878,
      "åŃ£": 2879,
      "è§¦": 2880,
      "Ġresearch": 2881,
      "å¸Ĥ": 2882,
      "å®ļçĲĨ": 2883,
      "å¤ļå°ĳ": 2884,
      "ram": 2885,
      "æķ´ä½ĵ": 2886,
      "æīįåıĳçİ°": 2887,
      "è¶ħè¿ĩ": 2888,
      "Ġparamet": 2889,
      "certain": 2890,
      "çļĦèĥ½éĩı": 2891,
      "è®¿": 2892,
      "Ġpe": 2893,
      "ä¸Ńå¿ĥ": 2894,
      "å¤ļé¡¹": 2895,
      "ä¹Łæľī": 2896,
      "elf": 2897,
      "éģ¿": 2898,
      "å£³": 2899,
      "ives": 2900,
      "æĳ©": 2901,
      "50": 2902,
      "ines": 2903,
      "ä¸ºä»Ģä¹Ī": 2904,
      "Ġinv": 2905,
      "Ġge": 2906,
      "Ġcannot": 2907,
      "ä¸¤èĢħ": 2908,
      "Ġsepar": 2909,
      "è®°å¿Ĩ": 2910,
      "æīįèĥ½": 2911,
      "çĽ¸åĲĮçļĦ": 2912,
      "è¯ĨåĪ«": 2913,
      "Ġrepresent": 2914,
      "Ġdescribes": 2915,
      "Ġsupport": 2916,
      "å¤ļé¡¹å¼ı": 2917,
      "çĵ": 2918,
      "Ġident": 2919,
      "çļĦæ°´": 2920,
      "Ġthese": 2921,
      "Ġmust": 2922,
      "Ġret": 2923,
      "åı¯ä»¥éĢļè¿ĩ": 2924,
      "Ġchar": 2925,
      "iron": 2926,
      "Ġshould": 2927,
      "å²¸": 2928,
      "æĶ¾å°ĦæĢ§": 2929,
      "light": 2930,
      "ven": 2931,
      "ä»¤": 2932,
      "åĩĿ": 2933,
      "Ġline": 2934,
      "æľĢå¤§": 2935,
      "åŃĺåĤ¨": 2936,
      "Ġcomb": 2937,
      "ä»ĸä»¬": 2938,
      "çªĹ": 2939,
      "åĩĨç¡®": 2940,
      "Ġcreate": 2941,
      "Ġassum": 2942,
      "ç¿»": 2943,
      "celer": 2944,
      "gen": 2945,
      "Ġide": 2946,
      "Ġèĭ¥": 2947,
      "ä¸ŃéĹ´": 2948,
      "æĢ§åĴĮ": 2949,
      "ä¼ļè®©": 2950,
      "é¢ľ": 2951,
      "Ġgu": 2952,
      "ä¿Ŀè¯ģ": 2953,
      "ople": 2954,
      "ude": 2955,
      "æļĤ": 2956,
      "Ġprobability": 2957,
      "å¨ģ": 2958,
      "ins": 2959,
      "ined": 2960,
      "å¤§éĥ¨åĪĨ": 2961,
      "è¿Ľä¸ĢæŃ¥": 2962,
      "Ġorder": 2963,
      "æİĴåĪĹ": 2964,
      "æİĴåºı": 2965,
      "attern": 2966,
      "æ¶Īå¤±": 2967,
      "Ġimpro": 2968,
      "Ġmemory": 2969,
      "bit": 2970,
      "ld": 2971,
      "ole": 2972,
      "çļĦä¸Ģä¸ª": 2973,
      "Ġag": 2974,
      "çĽĳ": 2975,
      "æĿ¥è¶Ĭ": 2976,
      "æĺİç¡®": 2977,
      "Ġcool": 2978,
      "Ġuncertain": 2979,
      "æĺ¾ç¤º": 2980,
      "èĪª": 2981,
      "Ġperform": 2982,
      "Ġdepend": 2983,
      "hemical": 2984,
      "ä¸ľè¥¿": 2985,
      "èŀº": 2986,
      "å½¼æŃ¤": 2987,
      "é¢ľèī²": 2988,
      "ee": 2989,
      "æĪ¿": 2990,
      "Ġmult": 2991,
      "Ġback": 2992,
      "Ġwave": 2993,
      "åĪĨè£Ĥ": 2994,
      "åĽłåŃĲ": 2995,
      "æĸ¹éĿ¢": 2996,
      "éª¤": 2997,
      "Ġrandom": 2998,
      "æ¯ıæ¬¡": 2999,
      "å½¢æĪĲçļĦ": 3000,
      "ç¢°": 3001,
      "éĽĨåĲĪè®º": 3002,
      "è§Ĩä¸º": 3003,
      "Ġlimit": 3004,
      "çļĦä½įç½®": 3005,
      "Ġsize": 3006,
      "å®¢": 3007,
      "ä¸įä»ħ": 3008,
      "Ġpattern": 3009,
      "æŀĹ": 3010,
      "Ġnorm": 3011,
      "Ġtok": 3012,
      "åĲİçļĦ": 3013,
      "ç´§": 3014,
      "ural": 3015,
      "å½¢çĬ¶": 3016,
      "åĨħçļĦ": 3017,
      "åĨħåŃĺ": 3018,
      "Ġdef": 3019,
      "Ġcost": 3020,
      "åĮĸåŃ¦åıįåºĶ": 3021,
      "è°ĥæķ´": 3022,
      "Ġappe": 3023,
      "åĶ¯ä¸Ģ": 3024,
      "..": 3025,
      "Ġ20": 3026,
      "åı«": 3027,
      "è¿Ł": 3028,
      "Ġpr": 3029,
      "è¯º": 3030,
      "è½´": 3031,
      "ption": 3032,
      "ç¬¬ä¸Ģä¸ª": 3033,
      "æĶ¾åľ¨": 3034,
      "æŃ¥éª¤": 3035,
      "Ġgradient": 3036,
      "Ġpoint": 3037,
      "åķĨ": 3038,
      "way": 3039,
      "é²": 3040,
      "äº¦": 3041,
      "åħ°": 3042,
      "hether": 3043,
      "ä¸ĢæĿ¡": 3044,
      "Ġpotential": 3045,
      "éĢĶ": 3046,
      "arm": 3047,
      "Ġdi": 3048,
      "Ġflu": 3049,
      "å¤§çº¦": 3050,
      "è¿ĩåİ»": 3051,
      "åĩºçļĦ": 3052,
      "éĽª": 3053,
      "çĦ¶åĲİ": 3054,
      "æ®ĸ": 3055,
      "è¶ĬæĿ¥è¶Ĭ": 3056,
      "é£İéĻ©": 3057,
      "éĤ»": 3058,
      "æĶ¯æĮģ": 3059,
      "Ġelectrons": 3060,
      "Ġscientists": 3061,
      "æ°¨åŁºéħ¸": 3062,
      "è®¿éĹ®": 3063,
      "Â°": 3064,
      "ĠåĴĮ": 3065,
      "ä¸įä¸Ģå®ļ": 3066,
      "æľīæľº": 3067,
      "æķ°çļĦ": 3068,
      "åĪĨéħį": 3069,
      "æĪĲåĬŁ": 3070,
      "aster": 3071,
      "åĽłæŀľ": 3072,
      "oment": 3073,
      "åľ°è¡¨": 3074,
      "æŀĦéĢł": 3075,
      "æµģåĬ¨": 3076,
      "Ġsequ": 3077,
      "åħ¨çĲĥ": 3078,
      "å¥½çļĦ": 3079,
      "ä¸īä¸ª": 3080,
      "Ġsystems": 3081,
      "æ£ĢæŁ¥": 3082,
      "æĽ²çº¿": 3083,
      "11": 3084,
      "Ġ0": 3085,
      "Ġif": 3086,
      "ret": 3087,
      "Ġshe": 3088,
      "ä¹°": 3089,
      "ä¸įåĨį": 3090,
      "Ġsto": 3091,
      "æĬĹ": 3092,
      "Ġconnect": 3093,
      "ides": 3094,
      "è®¡åĪĴ": 3095,
      "Ġprog": 3096,
      "åĳĬ": 3097,
      "çĽ´åĪ°": 3098,
      "ç§ĳåŃ¦å®¶": 3099,
      "å¿«éĢŁ": 3100,
      "ç´¢å¼ķ": 3101,
      "Ġvalue": 3102,
      "æľįåĬ¡": 3103,
      "Ġnumber": 3104,
      "Ġerror": 3105,
      "TP": 3106,
      "di": 3107,
      "log": 3108,
      "çļĦä½ľçĶ¨": 3109,
      "è®¯": 3110,
      "itive": 3111,
      "åı¯éĿł": 3112,
      "åį«": 3113,
      "Ġread": 3114,
      "åĪ°çļĦ": 3115,
      "å¤ļç§į": 3116,
      "æ²³": 3117,
      "éķľ": 3118,
      "Ġusing": 3119,
      "Ġinteract": 3120,
      "oken": 3121,
      "æĭŁåĲĪ": 3122,
      "åİĨåı²": 3123,
      "Ġproblem": 3124,
      "è®¨è®º": 3125,
      "hing": 3126,
      "Ġaver": 3127,
      "åľĨ": 3128,
      "åºĹ": 3129,
      "éĢģ": 3130,
      "Ġdel": 3131,
      "Ġfact": 3132,
      "è´£": 3133,
      "æ¸¸": 3134,
      "å¥ĩ": 3135,
      "ference": 3136,
      "äº§çī©": 3137,
      "åıĳçĶŁåľ¨": 3138,
      "éĺ¶æ®µ": 3139,
      "åĵªäºĽ": 3140,
      "ç¼ĸçłģ": 3141,
      "ĠâĢľ": 3142,
      "Ġå¯¹äºİ": 3143,
      "Ġtas": 3144,
      "ont": 3145,
      "Ġcall": 3146,
      "Ġcap": 3147,
      "Ġthen": 3148,
      "roup": 3149,
      "çĶ¨æĪ·": 3150,
      "åĮĸåĲĪçī©": 3151,
      "Ġlarg": 3152,
      "åĮºåĪĨ": 3153,
      "åİŁåŃĲçļĦ": 3154,
      "Ġgrav": 3155,
      "Ġreduce": 3156,
      "æĥ¯æĢ§": 3157,
      "ç¢±åŁº": 3158,
      "ging": 3159,
      "yp": 3160,
      "Ġaround": 3161,
      "Ġfol": 3162,
      "åįĪ": 3163,
      "çĽ¸å½ĵ": 3164,
      "å¿½": 3165,
      "å¹¶æ²¡æľī": 3166,
      "çī¹æĢ§": 3167,
      "Ġcho": 3168,
      "åĻª": 3169,
      "è®¾å¤ĩ": 3170,
      "åŁºåĽłçļĦ": 3171,
      "Ġclass": 3172,
      "æļĸ": 3173,
      "Ġdesign": 3174,
      "æĮ¯åĬ¨": 3175,
      "Ġestim": 3176,
      "40": 3177,
      "Ġav": 3178,
      "Ġele": 3179,
      "Ġtherm": 3180,
      "utes": 3181,
      "elt": 3182,
      "éļĲ": 3183,
      "æ¨¡æĭŁ": 3184,
      "æ¯Ķä¾ĭ": 3185,
      "Ġorgan": 3186,
      "éĴĪ": 3187,
      "æ´»æĢ§": 3188,
      "Ġelectric": 3189,
      "éĻ¤äºĨ": 3190,
      "Ġvalues": 3191,
      "å®īåħ¨": 3192,
      "Ġmaterials": 3193,
      "Ġstatist": 3194,
      "port": 3195,
      "Ġcent": 3196,
      "Ġcir": 3197,
      "ength": 3198,
      "æµª": 3199,
      "å¾Īå®¹æĺĵ": 3200,
      "åĪĻæĺ¯": 3201,
      "Ġforce": 3202,
      "éĶģ": 3203,
      "ĠAn": 3204,
      "æĹłéĻĲ": 3205,
      "çĥŃå¸¦": 3206,
      "Ġrelative": 3207,
      "Ġimport": 3208,
      "é¢Ŀå¤ĸ": 3209,
      "çļĦåĩ½æķ°": 3210,
      "ä»ª": 3211,
      "atically": 3212,
      "Ġfaster": 3213,
      "ices": 3214,
      "äºĨä¸Ģä¸ª": 3215,
      "åı¯ä»¥åľ¨": 3216,
      "Ġmole": 3217,
      "é«ĺçļĦ": 3218,
      "ç»ĨèıĮ": 3219,
      "Ġneut": 3220,
      "ock": 3221,
      "Ġlevel": 3222,
      "Ġplas": 3223,
      "æĿ¡ä»¶ä¸ĭ": 3224,
      "é¦Ī": 3225,
      "Ġmeth": 3226,
      "æĬ½è±¡": 3227,
      "Ġreflect": 3228,
      "éģ¿åħį": 3229,
      "viron": 3230,
      "ĠçĦ¶èĢĮ": 3231,
      "Ġcal": 3232,
      "Ġwhether": 3233,
      "Ġthough": 3234,
      "èĢĮè¨Ģ": 3235,
      "æĸ¹æ¡Ī": 3236,
      "éĽ·": 3237,
      "åıįå°Ħ": 3238,
      "ift": 3239,
      "å¹³æĸ¹": 3240,
      "çĥŃéĩı": 3241,
      "åĳ¨åĽ´": 3242,
      "çī©è´¨çļĦ": 3243,
      "å®ĥä»¬çļĦ": 3244,
      "èģĶç³»": 3245,
      "Ġinde": 3246,
      "éĩĩçĶ¨": 3247,
      "Ġcommon": 3248,
      "æĺłå°Ħ": 3249,
      "Ġunderstand": 3250,
      "âī": 3251,
      "å®½": 3252,
      "arly": 3253,
      "æĹ¶çļĦ": 3254,
      "Ġstates": 3255,
      "own": 3256,
      "æİ¥åıĹ": 3257,
      "ç¡®è®¤": 3258,
      "æĮĩæłĩ": 3259,
      "ç»´æĮģ": 3260,
      "ression": 3261,
      "æ£®": 3262,
      "åĪĿå§ĭ": 3263,
      "Ġfix": 3264,
      "çīĪæľ¬": 3265,
      "Ġpeople": 3266,
      "ç¢°æĴŀ": 3267,
      "å³": 3268,
      "éº": 3269,
      "Ġche": 3270,
      "Ġmat": 3271,
      "Ġmoment": 3272,
      "Ġpers": 3273,
      "ings": 3274,
      "è¯·": 3275,
      "åį°": 3276,
      "æī¹": 3277,
      "ä¼ļåľ¨": 3278,
      "Ġtoget": 3279,
      "åľ°éĿ¢": 3280,
      "åĬ¨ä½ľ": 3281,
      "ime": 3282,
      "åħ¶å®ĥ": 3283,
      "Ġgrow": 3284,
      "éļľ": 3285,
      "åħ³æ³¨": 3286,
      "osp": 3287,
      "è·¨": 3288,
      "åĩ½æķ°åľ¨": 3289,
      "éĢĤåºĶ": 3290,
      "ĠRe": 3291,
      "åģıå·®": 3292,
      "Ġtogether": 3293,
      "ym": 3294,
      "¹ģ": 3295,
      "ç¹ģ": 3296,
      "ero": 3297,
      "äºĶ": 3298,
      "å°¤": 3299,
      "å¼Ĺ": 3300,
      "åįĥ": 3301,
      "åĬ¨èĥ½": 3302,
      "Ġhard": 3303,
      "çľ¼": 3304,
      "æł¸èĭ": 3305,
      "Ġexist": 3306,
      "åįķä¸Ģ": 3307,
      "å½ĵåīį": 3308,
      "ç¼ĺ": 3309,
      "äºĮåıī": 3310,
      "å¢ŀéķ¿": 3311,
      "åĪĨåŃĲçļĦ": 3312,
      "åľ°çĲĥçļĦ": 3313,
      "Ġuses": 3314,
      "Ġevent": 3315,
      "ä¿®æĶ¹": 3316,
      "Ġstrongly": 3317,
      "è¡°åıĺ": 3318,
      "å²©çŁ³": 3319,
      "ĠScience": 3320,
      "Ġinflu": 3321,
      "Token": 3322,
      "ium": 3323,
      "Ġdri": 3324,
      "ä»¥ä¸ĭ": 3325,
      "æī°": 3326,
      "Ġnetwor": 3327,
      "Ġha": 3328,
      "ilib": 3329,
      "å¹³éĿ¢": 3330,
      "éĵģ": 3331,
      "æ¼Ĥ": 3332,
      "åİĭç¼©": 3333,
      "å¯Ĩçłģ": 3334,
      "Ġdisco": 3335,
      "æľºåĻ¨åŃ¦ä¹ł": 3336,
      "dinary": 3337,
      "Ġautom": 3338,
      "Ġuncertainty": 3339,
      "èŀºæĹĭ": 3340,
      "kes": 3341,
      "ral": 3342,
      "Ġå®ĥ": 3343,
      "æľ«": 3344,
      "æĿ¾": 3345,
      "çĽĺ": 3346,
      "æĪĲç«ĭ": 3347,
      "å·¨": 3348,
      "ä½ĵç§¯": 3349,
      "åĪ°äºĨ": 3350,
      "ull": 3351,
      "ç¨ĭå¼ı": 3352,
      "å®ŀæķ°": 3353,
      "ify": 3354,
      "åĢ¼çļĦ": 3355,
      "Ġran": 3356,
      "çĥĪ": 3357,
      "æķĪæŀľ": 3358,
      "æķĪçİĩ": 3359,
      "æīĢæľīçļĦ": 3360,
      "ç®ĢåįķçļĦ": 3361,
      "å¹¿ä¹ī": 3362,
      "Ġrecor": 3363,
      "Ġexplain": 3364,
      "Ġdeterm": 3365,
      "ĠUn": 3366,
      "Ġapproxim": 3367,
      "pendent": 3368,
      "åĻªå£°": 3369,
      "Ġimportant": 3370,
      "ilibri": 3371,
      "medi": 3372,
      "æł¡": 3373,
      "åŃ¦ç§ĳ": 3374,
      "ä¸Ĭè¿°": 3375,
      "åĬłåħ¥": 3376,
      "åħīè°±": 3377,
      "Ġenviron": 3378,
      "éħ¶çļĦ": 3379,
      "ĠEn": 3380,
      "æĹĭè½¬": 3381,
      "Ġeasier": 3382,
      "Ġcapac": 3383,
      "17": 3384,
      "ires": 3385,
      "Ġ'": 3386,
      "Ġä½Ĩ": 3387,
      "çļĦåıĺåĮĸ": 3388,
      "äº«": 3389,
      "æĺ¯åĽłä¸º": 3390,
      "Ġlay": 3391,
      "éĹ´çļĦ": 3392,
      "å¯¹ç§°": 3393,
      "åĬĽçļĦ": 3394,
      "å¸¸å¸¸": 3395,
      "Ġgroup": 3396,
      "åı¯èĥ½ä¼ļ": 3397,
      "ç«Ļ": 3398,
      "å£«": 3399,
      "Ġbecomes": 3400,
      "Ġshow": 3401,
      "çº¦æĿŁ": 3402,
      "å¤įæĿĤçļĦ": 3403,
      "èĤ²": 3404,
      "Ġye": 3405,
      "Ġprec": 3406,
      "Ġlonger": 3407,
      "ç»Ŀå¯¹": 3408,
      "Ġupd": 3409,
      "ilibrium": 3410,
      "OE": 3411,
      "ages": 3412,
      "sc": 3413,
      "Ġve": 3414,
      "çļĦæĹ¶åĢĻ": 3415,
      "æľĹ": 3416,
      "atory": 3417,
      "Ġwaves": 3418,
      "å¤§å®¶": 3419,
      "ç¨Ģ": 3420,
      "çĽ¸åıį": 3421,
      "idation": 3422,
      "æľĢå°ı": 3423,
      "ables": 3424,
      "Ġalone": 3425,
      "æ±½": 3426,
      "Ġquest": 3427,
      "iple": 3428,
      "Ġitself": 3429,
      "è®¡ç®Ĺæľºç§ĳåŃ¦": 3430,
      "æĿĥéĩį": 3431,
      "ç¾İåĽ½": 3432,
      "âĭħ": 3433,
      "Ġaverage": 3434,
      "atic": 3435,
      "Ġsampl": 3436,
      "itt": 3437,
      "å¤§äºİ": 3438,
      "å¤§åŀĭ": 3439,
      "æĽ´å¿«": 3440,
      "ç»Łä¸Ģ": 3441,
      "ä½įç§»": 3442,
      "ç»ıå¸¸": 3443,
      "Ġordinary": 3444,
      "å¼Ģåıĳ": 3445,
      "äºĭå®ŀ": 3446,
      "åħ±ä»·": 3447,
      "Ġroom": 3448,
      "æİ¨çĲĨ": 3449,
      "æĦŁçŁ¥": 3450,
      "Ġradi": 3451,
      "åĳ½åĲį": 3452,
      "æĮīçħ§": 3453,
      "ynam": 3454,
      "å¯»æī¾": 3455,
      "å¿½çķ¥": 3456,
      "ties": 3457,
      "wer": 3458,
      "èĸ": 3459,
      "Ġaff": 3460,
      "æĺ¯ä¸Ģ": 3461,
      "Ġwell": 3462,
      "Ġfelt": 3463,
      "çº¸": 3464,
      "åĲĪéĢĤ": 3465,
      "çŃīå¾ħ": 3466,
      "å¾Īå¤§": 3467,
      "Ġmakes": 3468,
      "Ġenough": 3469,
      "pped": 3470,
      "Ġtransfer": 3471,
      "åįĬå¾Ħ": 3472,
      "Ġcoll": 3473,
      "Ġprev": 3474,
      "Ġequilibrium": 3475,
      "ä¸¥æł¼": 3476,
      "bon": 3477,
      "Ġè¿Ļç§į": 3478,
      "åħ¹": 3479,
      "ç»¿": 3480,
      "Ġsing": 3481,
      "Ġpass": 3482,
      "Ġbo": 3483,
      "çº¬": 3484,
      "Ġtoo": 3485,
      "æĬķ": 3486,
      "åĢŁ": 3487,
      "äººçļĦ": 3488,
      "åºĶè¯¥": 3489,
      "åĳĪ": 3490,
      "è¿ĽåĮĸ": 3491,
      "å¤ĸéĥ¨": 3492,
      "åĪ¶éĢł": 3493,
      "è¿ĺæĺ¯": 3494,
      "pping": 3495,
      "Ġsour": 3496,
      "æ»ĳ": 3497,
      "Ġlearning": 3498,
      "æĵ¦": 3499,
      "åģĩè¯´": 3500,
      "agn": 3501,
      "åºķçī©": 3502,
      "éĩıåŃĲåĬĽåŃ¦": 3503,
      "åĤ¨åŃĺ": 3504,
      "Ġconstant": 3505,
      "indows": 3506,
      "Ġlarger": 3507,
      "aces": 3508,
      "cl": 3509,
      "ily": 3510,
      "ĠQ": 3511,
      "ĠV": 3512,
      "çļĦè¿ĩç¨ĭ": 3513,
      "åľ¨äºİ": 3514,
      "å°ģ": 3515,
      "Ġpres": 3516,
      "arn": 3517,
      "åĪĨç¦»": 3518,
      "æĪĲåĪĨ": 3519,
      "æŃ»": 3520,
      "cept": 3521,
      "Ġris": 3522,
      "ially": 3523,
      "Ġshort": 3524,
      "å®ļä¹īä¸º": 3525,
      "ç»Ļå®ļ": 3526,
      "åı¦å¤ĸ": 3527,
      "ç¥ŀç»ıåħĥ": 3528,
      "å®ŀéĻħä¸Ĭ": 3529,
      "Ġexpect": 3530,
      "çļĦä¸Ģéĥ¨åĪĨ": 3531,
      "å¡ŀ": 3532,
      "Ġanalys": 3533,
      "æł¸èĭ·éħ¸": 3534,
      "13": 3535,
      "ways": 3536,
      "Ġ.": 3537,
      "ĠåĽłä¸º": 3538,
      "çļĦæĸ¹å¼ı": 3539,
      "åĲ¯": 3540,
      "å®ı": 3541,
      "Ġcle": 3542,
      "Ġcell": 3543,
      "æĪĺ": 3544,
      "Ġonce": 3545,
      "åĳ¼": 3546,
      "éģĩ": 3547,
      "æ°´å¹³": 3548,
      "å¹³æĹ¶": 3549,
      "Ġalter": 3550,
      "Ġwhy": 3551,
      "Ġsecon": 3552,
      "è§ĤçĤ¹": 3553,
      "äºĮåĪĨ": 3554,
      "Ġcompon": 3555,
      "æķ°åŃ¦å®¶": 3556,
      "aking": 3557,
      "Ġphase": 3558,
      "Ġremo": 3559,
      "åĽ¢éĺŁ": 3560,
      "Ġconcent": 3561,
      "ou": 3562,
      "pect": 3563,
      "Ńä»£": 3564,
      "çļĦåŁºç¡Ģ": 3565,
      "äº²": 3566,
      "è¿Ńä»£": 3567,
      "ç§Ĵ": 3568,
      "Ġway": 3569,
      "ä¸ºéĽ¶": 3570,
      "Ġrele": 3571,
      "lying": 3572,
      "utions": 3573,
      "çĲĨæĥ³": 3574,
      "Ġstor": 3575,
      "ä¸ĭæĿ¥": 3576,
      "æľĢä¼ĺ": 3577,
      "Ġground": 3578,
      "åī©": 3579,
      "å¹´åīį": 3580,
      "å¥¥": 3581,
      "éĹ®é¢ĺçļĦ": 3582,
      "äºĮæ°§åĮĸ": 3583,
      "Ġunt": 3584,
      "åŁºåĽłç»Ħ": 3585,
      "Ġevidence": 3586,
      "é©±": 3587,
      "æ£ĢéªĮ": 3588,
      "é¥Ń": 3589,
      "Ġsimply": 3590,
      "Ġfixed": 3591,
      "eg": 3592,
      "ked": 3593,
      "çĩ": 3594,
      "Ġåħ¶ä¸Ń": 3595,
      "ints": 3596,
      "åľ¨ä¸Ģèµ·": 3597,
      "Ġmiss": 3598,
      "åĩ»": 3599,
      "åĮĢ": 3600,
      "è¯¢": 3601,
      "Ġopen": 3602,
      "Ġthree": 3603,
      "åĪ°è¾¾": 3604,
      "Ġstep": 3605,
      "åıĳè¡¨": 3606,
      "ç³»æķ°": 3607,
      "iment": 3608,
      "æīĢéľĢ": 3609,
      "çŃīçŃī": 3610,
      "è¿ĺåİŁ": 3611,
      "èĪ¹": 3612,
      "æĢĿæĥ³": 3613,
      "plication": 3614,
      "æ¥¼": 3615,
      "æ¥ļ": 3616,
      "çł´åĿı": 3617,
      "åıĤèĢĥç³»": 3618,
      "Ġnormal": 3619,
      "Ġaffect": 3620,
      "ax": 3621,
      "ĠJ": 3622,
      "Ġtre": 3623,
      "inal": 3624,
      "åħ»": 3625,
      "æĹ¢": 3626,
      "åĪĨæĶ¯": 3627,
      "Ġreve": 3628,
      "èĢĮä¸Ķ": 3629,
      "Ġhot": 3630,
      "Ġstar": 3631,
      "Ġstars": 3632,
      "çĽ¸çŃī": 3633,
      "ä½ľä¸ļ": 3634,
      "æĹ¶éĹ´çļĦ": 3635,
      "æ¬¡æķ°": 3636,
      "æıĲåīį": 3637,
      "ivid": 3638,
      "ored": 3639,
      "åĲĳéĩıçļĦ": 3640,
      "åħ±äº«": 3641,
      "ĠEx": 3642,
      "Ġrot": 3643,
      "äºĴçĽ¸": 3644,
      "åĽ½éĻħ": 3645,
      "Ġincl": 3646,
      "Ġrequires": 3647,
      "æ¸ħæ¥ļ": 3648,
      "Ġnoise": 3649,
      "æĻ¶ä½ĵ": 3650,
      "å°½ç®¡": 3651,
      "Ġproperties": 3652,
      "Ġsingle": 3653,
      "å®ıè§Ĥ": 3654,
      "30": 3655,
      "AI": 3656,
      "Ġä»İ": 3657,
      "åľ¨ä¸įåĲĮ": 3658,
      "ä¼¸": 3659,
      "ä¸ªä½ĵ": 3660,
      "æ°¸": 3661,
      "Ġinput": 3662,
      "Ġstre": 3663,
      "osed": 3664,
      "abor": 3665,
      "åįķçĭ¬": 3666,
      "éľĢæ±Ĥ": 3667,
      "å¤©ä½ĵ": 3668,
      "çĥŃåĬĽåŃ¦": 3669,
      "ç«ĭåĪ»": 3670,
      "æ»´": 3671,
      "åı¦ä¸Ģç§į": 3672,
      "ç¨³å®ļçļĦ": 3673,
      "Ġdistance": 3674,
      "å²Ľ": 3675,
      "èģļåĲĪ": 3676,
      "Ġcreated": 3677,
      "Ġmeasures": 3678,
      "è¶ĭåĬ¿": 3679,
      "å°¤åħ¶": 3680,
      "Ġenvironment": 3681,
      "çĳ": 3682,
      "é±": 3683,
      "çļĦéĩįè¦ģ": 3684,
      "Ġcy": 3685,
      "Ġwill": 3686,
      "ä¼ļæĶ¹åıĺ": 3687,
      "ä½ĵç³»": 3688,
      "æ¯Ĵ": 3689,
      "éħµ": 3690,
      "åıįé¦Ī": 3691,
      "Ġexact": 3692,
      "è°ĵ": 3693,
      "åħīåŃ¦": 3694,
      "fficient": 3695,
      "ensity": 3696,
      "ç®¡çĲĨ": 3697,
      "èĩªå·±çļĦ": 3698,
      "è½¯ä»¶": 3699,
      "Ġearthquakes": 3700,
      "ä¸įç¡®å®ļæĢ§": 3701,
      "èĴ¸åıĳ": 3702,
      "can": 3703,
      "den": 3704,
      "gor": 3705,
      "ura": 3706,
      "ern": 3707,
      "çĶ»": 3708,
      "ä¸Ģéĥ¨åĪĨ": 3709,
      "ans": 3710,
      "è®²": 3711,
      "itude": 3712,
      "Ġpos": 3713,
      "ä¼¦": 3714,
      "aries": 3715,
      "åı¯è§ģ": 3716,
      "å¸Ī": 3717,
      "æīĺ": 3718,
      "æµ®": 3719,
      "æĢ§çĬ¶": 3720,
      "Ġthose": 3721,
      "è¾¨": 3722,
      "ä¸Ĭä¸ĭ": 3723,
      "åĲĪçĲĨ": 3724,
      "Ġbeg": 3725,
      "é¡¶": 3726,
      "Ġdev": 3727,
      "æİ¥è§¦": 3728,
      "ç¦»æķ£": 3729,
      "çłĶç©¶èĢħ": 3730,
      "çľŁæł¸": 3731,
      "ç¬¬ä¸Ģæ¬¡": 3732,
      "ç£·éħ¸": 3733,
      "åŃĺåľ¨çļĦ": 3734,
      "åħ¬éĩĮ": 3735,
      "å¤±åİ»": 3736,
      "Ġtimes": 3737,
      "æ¼Ķç®Ĺæ³ķ": 3738,
      "ĠOff": 3739,
      "Ġcarbon": 3740,
      "éĢıè¿ĩ": 3741,
      "åĨ²çªģ": 3742,
      "Ġminutes": 3743,
      "æĤī": 3744,
      "çŃĶæ¡Ī": 3745,
      "åĿĲæłĩ": 3746,
      "Ġzero": 3747,
      "Ġfollow": 3748,
      ").": 3749,
      "For": 3750,
      "ault": 3751,
      "Ġå¯¹": 3752,
      "è¿½": 3753,
      "Ġsomet": 3754,
      "ands": 3755,
      "Ġbal": 3756,
      "icult": 3757,
      "Ġrest": 3758,
      "å·´": 3759,
      "åĬ¨æĢģ": 3760,
      "åĬ¨åĬĽåŃ¦": 3761,
      "Ġstable": 3762,
      "æĽ´é«ĺ": 3763,
      "æľ¬è´¨": 3764,
      "åıįå¤į": 3765,
      "chn": 3766,
      "Ġmoving": 3767,
      "ç»ĨèĬĤ": 3768,
      "è°¢": 3769,
      "è½¬ç§»": 3770,
      "Ġcoun": 3771,
      "Ġacceler": 3772,
      "çģµ": 3773,
      "ç¬¦åĲĪ": 3774,
      "éĿĻæŃ¢": 3775,
      "å¸¸è§ģçļĦ": 3776,
      "é£Łçī©": 3777,
      "çĨŁæĤī": 3778,
      "åłĨ": 3779,
      "Ġfrequency": 3780,
      "Ġsequence": 3781,
      "é±¼": 3782,
      "iod": 3783,
      "åĺ": 3784,
      "Ġchemical": 3785,
      "åĽ°": 3786,
      "åį·": 3787,
      "çİ»": 3788,
      "Ġlower": 3789,
      "äºĨè§£": 3790,
      "æĽ¾": 3791,
      "éĺ²": 3792,
      "ulation": 3793,
      "æıĴ": 3794,
      "æ´Ľ": 3795,
      "istic": 3796,
      "å¥ĸ": 3797,
      "æ¯ıå¤©": 3798,
      "oci": 3799,
      "lection": 3800,
      "å¼ķèµ·": 3801,
      "åħ¬çĲĨ": 3802,
      "Ġresist": 3803,
      "æĢ»æĺ¯": 3804,
      "èĤ¡": 3805,
      "è´Łè´£": 3806,
      "æ³¨æĦıåĬĽ": 3807,
      "èĥĮæĻ¯": 3808,
      "èĹı": 3809,
      "è½¬åĮĸä¸º": 3810,
      "Ġdifficult": 3811,
      "Ġguar": 3812,
      "äºĮæ°§åĮĸç¢³": 3813,
      "ĠOffice": 3814,
      "15": 3815,
      "60": 3816,
      "ape": 3817,
      "fect": 3818,
      "ÃĹ": 3819,
      "çļĦå°ı": 3820,
      "çļĦåİŁåŃĲ": 3821,
      "Ġturn": 3822,
      "ense": 3823,
      "ä¸Ģæ®µ": 3824,
      "ances": 3825,
      "æĸľ": 3826,
      "Ġdown": 3827,
      "Ġbi": 3828,
      "è¯¾": 3829,
      "Ġfra": 3830,
      "åĮĸçļĦ": 3831,
      "asing": 3832,
      "Ġstart": 3833,
      "éľ²": 3834,
      "åıĺåĮĸçļĦ": 3835,
      "åħ¨éĥ¨": 3836,
      "æķ´æķ°": 3837,
      "ä¿ĿåŃĺ": 3838,
      "åĽ¾åĥı": 3839,
      "ç¨³å®ļæĢ§": 3840,
      "åįģåĪĨéĴŁ": 3841,
      "ossible": 3842,
      "æ½ľ": 3843,
      "Ġvisible": 3844,
      "Ġsimple": 3845,
      "Ġcomplex": 3846,
      "æ¶īåıĬ": 3847,
      "Ġperformance": 3848,
      "Ġplasma": 3849,
      "äºĮåĪĨæŁ¥æī¾": 3850,
      "Ġguarant": 3851,
      "200": 3852,
      "wn": 3853,
      "çļĦç»ĵæŀĦ": 3854,
      "çĶ²": 3855,
      "Ġcross": 3856,
      "ä¸Ģç»Ħ": 3857,
      "æľīåºı": 3858,
      "è´¥": 3859,
      "Ġnon": 3860,
      "è¿Ļç±»": 3861,
      "æĬĳ": 3862,
      "ilar": 3863,
      "olution": 3864,
      "ures": 3865,
      "åĿ¦": 3866,
      "æŃ£å¸¸": 3867,
      "Ġorig": 3868,
      "Ġcharge": 3869,
      "ä¼łç»Ł": 3870,
      "izes": 3871,
      "è§Ĵåº¦": 3872,
      "ãĢįãĢĤ": 3873,
      "éĻĨåľ°": 3874,
      "å¯¹åºĶçļĦ": 3875,
      "Ġamoun": 3876,
      "çĶµç£ģæ³¢": 3877,
      "ological": 3878,
      "èĸĦ": 3879,
      "80": 3880,
      "OS": 3881,
      "cos": 3882,
      "cks": 3883,
      "li": 3884,
      "Ġè¿Ļä¸ª": 3885,
      "å®³": 3886,
      "ä¸Ģè¯į": 3887,
      "æľīä¸Ģä¸ª": 3888,
      "Ġday": 3889,
      "æĿ¯": 3890,
      "ä¸ŃåĽ½": 3891,
      "åŃ¦çĶŁ": 3892,
      "æĸ¹å·®": 3893,
      "è¦Ĩ": 3894,
      "vered": 3895,
      "Ġgre": 3896,
      "æīĢè°ĵ": 3897,
      "å±ĤçļĦ": 3898,
      "åĽ¾å½¢": 3899,
      "éĿłè¿ĳ": 3900,
      "é»ĳ": 3901,
      "Ġreduces": 3902,
      "Ġfeel": 3903,
      "å¸Įèħ": 3904,
      "èŀį": 3905,
      "ĠæŃ¤å¤ĸ": 3906,
      "Ġneutron": 3907,
      "Ġindependent": 3908,
      "å³°": 3909,
      "å¸ĮèħĬ": 3910,
      "ait": 3911,
      "by": 3912,
      "ious": 3913,
      "po": 3914,
      "xt": 3915,
      "çŀ": 3916,
      "çļ®": 3917,
      "éĢĢ": 3918,
      "rodu": 3919,
      "å¯¸": 3920,
      "æĿ¥æºĲ": 3921,
      "å±ħ": 3922,
      "çĽ¸åºĶ": 3923,
      "ä¹Łèĥ½": 3924,
      "æĭ¿": 3925,
      "èµ«": 3926,
      "æľĢåĪĿ": 3927,
      "åıįåĲĳ": 3928,
      "åıįæĺł": 3929,
      "ç«ŀ": 3930,
      "åħīåĲĪ": 3931,
      "ç¤¾": 3932,
      "åĨ³çŃĸ": 3933,
      "éĽĨä¸Ń": 3934,
      "å·²æľī": 3935,
      "Ġtravel": 3936,
      "é¡¹çĽ®": 3937,
      "Ġarri": 3938,
      "ä¸ĩæľī": 3939,
      "iew": 3940,
      "åĸĦ": 3941,
      "Ġearthquake": 3942,
      "çº¬åº¦": 3943,
      "âŁ": 3944,
      "Ġåľ°çĲĥ": 3945,
      "æľ¨": 3946,
      "è¿¹": 3947,
      "Ġsw": 3948,
      "Ġpop": 3949,
      "çĶŁæĢģ": 3950,
      "çĶŁæ´»": 3951,
      "æĿ¥è¡¨ç¤º": 3952,
      "imens": 3953,
      "raph": 3954,
      "å¹¶éĿŀ": 3955,
      "ider": 3956,
      "Ġgo": 3957,
      "å¾Īéļ¾": 3958,
      "å¹´çļĦ": 3959,
      "æŃ£å¼ı": 3960,
      "Ġdevel": 3961,
      "ä»ĸçļĦ": 3962,
      "pec": 3963,
      "Ġseism": 3964,
      "ä½¿çĶ¨çļĦ": 3965,
      "åĵįåºĶ": 3966,
      "å¤±è´¥": 3967,
      "Ġmodels": 3968,
      "Ġoutc": 3969,
      "Ġfew": 3970,
      "å¡«": 3971,
      "ä¹ĺæ³ķ": 3972,
      "Ġkeep": 3973,
      "çĮ®": 3974,
      "ç¼ĵåŃĺ": 3975,
      "Ġobserved": 3976,
      "Ġvolcan": 3977,
      "äºĮåıīæłĳ": 3978,
      "åħ±ä»·éĶ®": 3979,
      "æĬĳåĪ¶": 3980,
      "23": 3981,
      "At": 3982,
      "ches": 3983,
      "no": 3984,
      "Ġä¸įè¿ĩ": 3985,
      "çļĦæĸ¹åĲĳ": 3986,
      "çļĦåŁºæľ¬": 3987,
      "å¤ľ": 3988,
      "åħŃ": 3989,
      "å°ļ": 3990,
      "Ġfam": 3991,
      "æĢİ": 3992,
      "æ°ı": 3993,
      "ason": 3994,
      "æĸ¹ä¾¿": 3995,
      "å¦Ĥä¸ĭ": 3996,
      "åĢ¾": 3997,
      "å¸¸çĶ¨": 3998,
      "çŃīä»·": 3999,
      "èĩªèº«": 4000,
      "ä»£è°¢": 4001,
      "æ³¢éķ¿": 4002,
      "æĮĩåĩº": 4003,
      "ĠIf": 4004,
      "é¢ĦæĬ¥": 4005,
      "çº¿æĢ§åıĺæį¢": 4006,
      "çī¹å¾ģåĲĳéĩı": 4007,
      "æŁ¥è¯¢": 4008,
      "ĠDOE": 4009,
      "itional": 4010,
      "Ġmeasurement": 4011,
      "Ġinside": 4012,
      "Ġassumptions": 4013,
      "åį«æĺŁ": 4014,
      "Ġyears": 4015,
      "Ġanalysis": 4016,
      "Ġstorage": 4017,
      "Ġuntil": 4018,
      "çŀ¬": 4019,
      "bed": 4020,
      "tage": 4021,
      "ç°": 4022,
      "ĠèĻ½çĦ¶": 4023,
      "çļĦä¿¡æģ¯": 4024,
      "çļĦå½¢å¼ı": 4025,
      "åı¸": 4026,
      "äº¡": 4027,
      "æķĽ": 4028,
      "ane": 4029,
      "Ġbet": 4030,
      "åĮ»": 4031,
      "Ġany": 4032,
      "åľ°åĿĢ": 4033,
      "åľ°å£³": 4034,
      "ç³»åĪĹ": 4035,
      "å¿Ĺ": 4036,
      "è½®": 4037,
      "que": 4038,
      "æ°Ķè±¡": 4039,
      "åī²": 4040,
      "Ġexample": 4041,
      "Ġnext": 4042,
      "åĮĸåŃ¦æĢ§è´¨": 4043,
      "å¾®è§Ĥ": 4044,
      "çĿ£": 4045,
      "æŁĲç§į": 4046,
      "ä¿ĿæĬ¤": 4047,
      "Ġdifferences": 4048,
      "Ġquick": 4049,
      "åĩºçİ°åľ¨": 4050,
      "æ±Ĥè§£": 4051,
      "åĲįç§°": 4052,
      "ãĢįï¼Į": 4053,
      "Ġyet": 4054,
      "Ġreduced": 4055,
      "Ġactive": 4056,
      "çĪ±": 4057,
      "å»¶è¿Ł": 4058,
      "Ġconsist": 4059,
      "æķħéļľ": 4060,
      "åĵĪå¸Į": 4061,
      "ç´¯ç§¯": 4062,
      "Ġcontinuous": 4063,
      "Ġlooked": 4064,
      "ä¸Ĭä¸ĭæĸĩ": 4065,
      "Cl": 4066,
      "cop": 4067,
      "ian": 4068,
      "ods": 4069,
      "rical": 4070,
      "é¾": 4071,
      "ĠK": 4072,
      "è¿ģ": 4073,
      "ene": 4074,
      "å°Ŀ": 4075,
      "ional": 4076,
      "ä¼Ĺ": 4077,
      "Ġbr": 4078,
      "Ġans": 4079,
      "è¡£": 4080,
      "åĽłèĢĮ": 4081,
      "Ġtot": 4082,
      "Ġstren": 4083,
      "æĮ¥": 4084,
      "æĭħ": 4085,
      "è¢«è®¤ä¸º": 4086,
      "è¾ĥä½İ": 4087,
      "Ġseem": 4088,
      "Ġarea": 4089,
      "éĿŀçº¿æĢ§": 4090,
      "å§Ĩ": 4091,
      "æĺ¾å¾Ĺ": 4092,
      "æ¼ı": 4093,
      "å¹¶ä¸įæĦıåĳ³çĿĢ": 4094,
      "è°ĥæİ§": 4095,
      "æ¡Į": 4096,
      "æĶ¶æķĽ": 4097,
      "æļĹ": 4098,
      "æľªçŁ¥": 4099,
      "Ġwee": 4100,
      "åģľæŃ¢": 4101,
      "åĨ·åį´": 4102,
      "Ġcarri": 4103,
      "Ġobjects": 4104,
      "é¦ĸåħĪ": 4105,
      "Ġsubst": 4106,
      "è¯Ħä¼°": 4107,
      "Ġatoms": 4108,
      "Ġautomatically": 4109,
      "gorith": 4110,
      "è¦ĨçĽĸ": 4111,
      ")ãĢĤ": 4112,
      "Ġä¸İ": 4113,
      "çļĦä¸Ģç§į": 4114,
      "Ġsun": 4115,
      "Ġmic": 4116,
      "ä¼½": 4117,
      "Ġdid": 4118,
      "ish": 4119,
      "isms": 4120,
      "Ġour": 4121,
      "è¡Ĺ": 4122,
      "åŃ¦çļĦ": 4123,
      "ä¼ļäº§çĶŁ": 4124,
      "è´¨çĤ¹": 4125,
      "ç®±": 4126,
      "æĭĨ": 4127,
      "çľģ": 4128,
      "å°±èĥ½": 4129,
      "ä»£çłģ": 4130,
      "Ġdeep": 4131,
      "åıįåºĶçī©": 4132,
      "Ġchanging": 4133,
      "Ġsound": 4134,
      "ode": 4135,
      "æ¡£": 4136,
      "Ġinterp": 4137,
      "Ġrare": 4138,
      "é»ĺ": 4139,
      "Ġhelps": 4140,
      "ready": 4141,
      "Ġsimilar": 4142,
      "Ġvect": 4143,
      "Ġreveal": 4144,
      "70": 4145,
      "Ġï¼Ī": 4146,
      "çļĨ": 4147,
      "çļĦéĢŁåº¦": 4148,
      "çļĦä¸»è¦ģ": 4149,
      "çļĦæ¦Ĥçİĩ": 4150,
      "erve": 4151,
      "Ġfree": 4152,
      "åı¯çĶ¨": 4153,
      "Ġang": 4154,
      "Ġhol": 4155,
      "ç»ĵæĿŁ": 4156,
      "çŃ¾": 4157,
      "quid": 4158,
      "ä¹ĭå¤ĸ": 4159,
      "å°ıäºİ": 4160,
      "å¾Īå°ĳ": 4161,
      "ç¡«": 4162,
      "åįķä¸ª": 4163,
      "åĩ½æķ°f": 4164,
      "Ġalong": 4165,
      "Ġalready": 4166,
      "å½ĵæĹ¶": 4167,
      "æĮĩæķ°": 4168,
      "æĸĩä»¶": 4169,
      "ĠCom": 4170,
      "ä¹łæĥ¯": 4171,
      "åĿĩåĮĢ": 4172,
      "çģ¯": 4173,
      "æľªæĿ¥": 4174,
      "arily": 4175,
      "èĭ±åĽ½": 4176,
      "æľĪçĲĥ": 4177,
      "é»İ": 4178,
      "Ġprocesses": 4179,
      "Ġdetect": 4180,
      "Ġdirectly": 4181,
      "Ġcorrect": 4182,
      "æĳ©æĵ¦": 4183,
      "Ġtoken": 4184,
      "Ġdevelop": 4185,
      "22": 4186,
      "AC": 4187,
      "Windows": 4188,
      "af": 4189,
      "cu": 4190,
      "rit": 4191,
      "rate": 4192,
      "âĨĴ": 4193,
      "Ġæł¹æį®": 4194,
      "ä¸²": 4195,
      "çļĦå®ļä¹ī": 4196,
      "reme": 4197,
      "ä¹±": 4198,
      "Ġmon": 4199,
      "Ġpol": 4200,
      "Ġfar": 4201,
      "ä»¥ä¸Ĭ": 4202,
      "Ġrece": 4203,
      "Ġlaw": 4204,
      "å¯¹æĸ¹": 4205,
      "Ġtoward": 4206,
      "åľ°æĸ¹": 4207,
      "é¢Ĺ": 4208,
      "åı¯ä»¥è¢«": 4209,
      "åİŁå§ĭ": 4210,
      "osing": 4211,
      "åĬłéĢŁ": 4212,
      "èĥĢ": 4213,
      "è·Ł": 4214,
      "åįķåħĥ": 4215,
      "Ġmaking": 4216,
      "æľŁæľĽ": 4217,
      "æ¨¡åŀĭçļĦ": 4218,
      "æ±ł": 4219,
      "Ġdifference": 4220,
      "ç»´æĬ¤": 4221,
      "andard": 4222,
      "åĽŀå½Ĵ": 4223,
      "çĭŃ": 4224,
      "Ġtransform": 4225,
      "ĠNe": 4226,
      "ç»ĦæĪĲçļĦ": 4227,
      "è§Ĩè§ī": 4228,
      "Ġweak": 4229,
      "ĠWhen": 4230,
      "Ġproduced": 4231,
      "æ£Ģæµĭ": 4232,
      "Ġproblems": 4233,
      "Ġstudy": 4234,
      "Ġcapacity": 4235,
      "Ġbetter": 4236,
      "Ġquickly": 4237,
      "tic": 4238,
      "çļĦçī©è´¨": 4239,
      "iny": 4240,
      "åŃĶ": 4241,
      "åº§": 4242,
      "Ġdom": 4243,
      "Ġbro": 4244,
      "Ġwarm": 4245,
      "ently": 4246,
      "ä¼ļå½±åĵį": 4247,
      "çĶŁäº§": 4248,
      "åŁĥ": 4249,
      "è¿ĩæĭŁåĲĪ": 4250,
      "çĶµåİĭ": 4251,
      "ilities": 4252,
      "æ²Ļ": 4253,
      "éĩįéĩı": 4254,
      "åĵ²": 4255,
      "ç»ıéªĮ": 4256,
      "Ġneg": 4257,
      "æķ°æį®åºĵ": 4258,
      "æ¯ıä¸Ģä¸ª": 4259,
      "æĹłåħ³": 4260,
      "å®¹éĩı": 4261,
      "éĺµåĪĹ": 4262,
      "å£¤": 4263,
      "âĪĪ": 4264,
      "ä¸»åĬ¨": 4265,
      "å¤ĦçļĦ": 4266,
      "æĮĩåĲĳ": 4267,
      "ibility": 4268,
      "æ··åĲĪ": 4269,
      "Ġfields": 4270,
      "Ġknown": 4271,
      "éº¦": 4272,
      "ĠEnergy": 4273,
      "åĽ°éļ¾": 4274,
      "air": 4275,
      "ia": 4276,
      "line": 4277,
      "Ġåħ¶": 4278,
      "ĤçĽ´": 4279,
      "ä¸¾": 4280,
      "çļĦçĶµåŃĲ": 4281,
      "ery": 4282,
      "æĹ¦": 4283,
      "è¡Ģ": 4284,
      "æ°ĳ": 4285,
      "Ġel": 4286,
      "Ġlog": 4287,
      "Ġhig": 4288,
      "æ¯Ľ": 4289,
      "Ġconduct": 4290,
      "æĭĵ": 4291,
      "iding": 4292,
      "Ġproduct": 4293,
      "åŀĤçĽ´": 4294,
      "æ¨ª": 4295,
      "è¿Ĳè¾ĵ": 4296,
      "èµ·æºĲ": 4297,
      "å¼ķåħ¥": 4298,
      "æ®ĭ": 4299,
      "åĲĳéĩıç©ºéĹ´": 4300,
      "éĺ³åħī": 4301,
      "èĽĭçĻ½è´¨çļĦ": 4302,
      "ĠNational": 4303,
      "ä¹ĭéĹ´çļĦåħ³ç³»": 4304,
      "çĨµ": 4305,
      "Ġliquid": 4306,
      "Ġinstead": 4307,
      "æĬĺå°Ħ": 4308,
      "æĽ¿ä»£": 4309,
      "Ġabsor": 4310,
      "Ġparameters": 4311,
      "Ġimprove": 4312,
      "çĽĳçĿ£": 4313,
      "è¯·æ±Ĥ": 4314,
      "ittle": 4315,
      "Ġsource": 4316,
      "åĳ¼åĲ¸": 4317,
      "ä½ľä¸ļç³»ç»Ł": 4318,
      "ä¸ĩæľīå¼ķåĬĽ": 4319,
      ")(": 4320,
      "14": 4321,
      "When": 4322,
      "ded": 4323,
      "ling": 4324,
      "Ġä¸ĢèĪ¬": 4325,
      "åħ´": 4326,
      "ale": 4327,
      "itting": 4328,
      "æľīçļĦ": 4329,
      "åĩ¸": 4330,
      "Ġder": 4331,
      "ä»¥åīį": 4332,
      "åŃĲçļĦ": 4333,
      "Ġrepl": 4334,
      "åº¦çļĦ": 4335,
      "åŁİ": 4336,
      "ili": 4337,
      "æĽ´åĬł": 4338,
      "æľĢæĹ©": 4339,
      "æ¸¡": 4340,
      "Ġwithin": 4341,
      "åħīçº¿": 4342,
      "ç²Ĺ": 4343,
      "åĩłå¤©": 4344,
      "åĮĸåŃ¦å®¶": 4345,
      "çĶŁçī©ä½ĵ": 4346,
      "åľºæĻ¯": 4347,
      "æĸ¯åĿ¦": 4348,
      "æŁĲä¸Ģ": 4349,
      "Ġcontext": 4350,
      "æĸĩåŃĹ": 4351,
      "Ġaccess": 4352,
      "Ġinternal": 4353,
      "Ġrelated": 4354,
      "Ġperiod": 4355,
      "Ġassoci": 4356,
      "ä¹ĺç§¯": 4357,
      "Ġincrease": 4358,
      "åľŁå£¤": 4359,
      "Ġtechn": 4360,
      "Ġextreme": 4361,
      "âĢ¦ï¼Į": 4362,
      "Ġgeomet": 4363,
      "Ġreturn": 4364,
      "Ġlinear": 4365,
      "Ġavail": 4366,
      "Ġhapp": 4367,
      "å°Ŀè¯ķ": 4368,
      "Ġtotal": 4369,
      "Ġstrength": 4370,
      "é»İæĽ¼": 4371,
      "bers": 4372,
      "mosp": 4373,
      "âĮ": 4374,
      "éĨĴ": 4375,
      "Ġ3": 4376,
      "Ġsample": 4377,
      "ä¸ĢæĹ¦": 4378,
      "Ġtheory": 4379,
      "è¾ħ": 4380,
      "Ġoff": 4381,
      "åħ¶å®ŀ": 4382,
      "åĢĴ": 4383,
      "urb": 4384,
      "ç±»åĪ«": 4385,
      "Ġalgorith": 4386,
      "çİ¯æµģ": 4387,
      "çĶŁçī©çļĦ": 4388,
      "å¸¦æĿ¥": 4389,
      "ä¿Ŀå®Ī": 4390,
      "acter": 4391,
      "å¸ĥå°¼": 4392,
      "Ġleft": 4393,
      "Ġplate": 4394,
      "äº¤äºĴ": 4395,
      "éĩįè¦ģçļĦ": 4396,
      "Ġclose": 4397,
      "èĩªçĦ¶çķĮ": 4398,
      "roscop": 4399,
      "éĢĲæŃ¥": 4400,
      "èĨ¨": 4401,
      "loor": 4402,
      "Ġincreases": 4403,
      "Ġcommun": 4404,
      "Ġvoltage": 4405,
      "èİ±å¸ĥå°¼": 4406,
      "Ġuniverse": 4407,
      "Ġrespon": 4408,
      "åĩĿç»ĵ": 4409,
      "éģĩåĪ°": 4410,
      "cular": 4411,
      "pid": 4412,
      "Ġä½Ĩæĺ¯": 4413,
      "çļĦè´¨éĩı": 4414,
      "Ġtri": 4415,
      "æĪª": 4416,
      "ä¸įéľĢè¦ģ": 4417,
      "ä¸įè¶³": 4418,
      "arks": 4419,
      "å¹Ĥ": 4420,
      "Ġwait": 4421,
      "Ġfil": 4422,
      "Ġfault": 4423,
      "Ġopp": 4424,
      "èĢ³": 4425,
      "ä¼ļåĩºçİ°": 4426,
      "ç§įç±»": 4427,
      "èµ¤": 4428,
      "éĥ½åı¯ä»¥": 4429,
      "åĪĹå¼ı": 4430,
      "ĠAt": 4431,
      "romagn": 4432,
      "åİŁåŃĲåºı": 4433,
      "å±Ĥæ¬¡": 4434,
      "éĢļå¸¸æĺ¯": 4435,
      "è·¯çº¿": 4436,
      "Ġlearn": 4437,
      "èį¡": 4438,
      "éĤ£äºĽ": 4439,
      "Ġelectrical": 4440,
      "æ¶Īæģ¯": 4441,
      "Ġ18": 4442,
      "Ġrapid": 4443,
      "çķĻä¸ĭ": 4444,
      "æ¶²ä½ĵ": 4445,
      "æī©å±ķ": 4446,
      "Ġcomputers": 4447,
      "çģ«å±±": 4448,
      "Ġpair": 4449,
      "Ġagain": 4450,
      "æĪ¿éĹ´": 4451,
      "Ġgravity": 4452,
      "Ġelements": 4453,
      "CO": 4454,
      "ner": 4455,
      "opl": 4456,
      "ps": 4457,
      "yd": 4458,
      "çļĦéĥ¨åĪĨ": 4459,
      "æľĿ": 4460,
      "åĲĥ": 4461,
      "åĬ³": 4462,
      "Ġmess": 4463,
      "Ġpract": 4464,
      "åĩĢ": 4465,
      "isions": 4466,
      "å¼¯": 4467,
      "ental": 4468,
      "æµİ": 4469,
      "çĶµéĺ»": 4470,
      "ä¿ĥ": 4471,
      "çŃīä½į": 4472,
      "è·ĥ": 4473,
      "rix": 4474,
      "ä½Ĩåľ¨": 4475,
      "ç«ł": 4476,
      "åħīéĢŁ": 4477,
      "ä½ľçĶ¨åĬĽ": 4478,
      "éļıæĹ¶éĹ´": 4479,
      "éĻįéĽ¨": 4480,
      "æ°§æ°Ķ": 4481,
      "æĥħå½¢": 4482,
      "èĩ³å°ĳ": 4483,
      "å¼Ĥå¸¸": 4484,
      "èĻļ": 4485,
      "è¡¡éĩı": 4486,
      "Ġtransport": 4487,
      "æ¶ĪèĢĹ": 4488,
      "Ġphot": 4489,
      "æħ¢æħ¢": 4490,
      "èıľ": 4491,
      "åĵªéĩĮ": 4492,
      "Ġgenerally": 4493,
      "Ġkey": 4494,
      "Ġsignal": 4495,
      "Ġremains": 4496,
      "ç¼ĵæħ¢": 4497,
      "Ġboundary": 4498,
      "Ġinvol": 4499,
      "Ġtask": 4500,
      "Ġresistance": 4501,
      "Ġoriginal": 4502,
      "åħīåĲĪä½ľçĶ¨": 4503,
      "èĨ¨èĥĢ": 4504,
      "cent": 4505,
      "ox": 4506,
      "ert": 4507,
      "ink": 4508,
      "Ġfusion": 4509,
      "çĽĬ": 4510,
      "Ġreac": 4511,
      "çİ°å®ŀ": 4512,
      "æ²»": 4513,
      "Ġgal": 4514,
      "è¡ĮåĪĹå¼ı": 4515,
      "æĻ¨": 4516,
      "å¤ĸåĬĽ": 4517,
      "æ¯ıä¸Ģ": 4518,
      "è¿ĺè¦ģ": 4519,
      "Ġatmosp": 4520,
      "èī¯": 4521,
      "åıįåºĶéĢŁçİĩ": 4522,
      "çĽ®çļĦ": 4523,
      "Ġadj": 4524,
      "Ġkin": 4525,
      "Ġfeature": 4526,
      "æīĭæľº": 4527,
      "ç¼ĸè¯ĳ": 4528,
      "åĤ¬åĮĸåīĤ": 4529,
      "æīĵå¼Ģ": 4530,
      "Ġconstra": 4531,
      "angu": 4532,
      "ä¸´æĹ¶": 4533,
      "Ġattention": 4534,
      "Ġphysical": 4535,
      "çĵ¦": 4536,
      "æļĤæĹ¶": 4537,
      "Ġpatterns": 4538,
      "Ġappear": 4539,
      "ä»ªåĻ¨": 4540,
      "Ġcheck": 4541,
      "Ġperson": 4542,
      "Ġanswer": 4543,
      "Ġinterpret": 4544,
      "St": 4545,
      "bal": 4546,
      "é¸": 4547,
      "Ġi": 4548,
      "Ġtyp": 4549,
      "Ġaway": 4550,
      "å°¾": 4551,
      "åĮ¹": 4552,
      "Ġown": 4553,
      "å¯Ĵ": 4554,
      "ä¼ļè¢«": 4555,
      "å¯¹è§Ĵ": 4556,
      "è¿ĩæ¸¡": 4557,
      "Ġhand": 4558,
      "ä¸İåħ¶": 4559,
      "è¡¨æĺİ": 4560,
      "ç»ĵçĤ¹": 4561,
      "Ġbeing": 4562,
      "Ġprop": 4563,
      "åī¯": 4564,
      "æµģä½ĵ": 4565,
      "è°ģ": 4566,
      "ç»ĵæŀĦçļĦ": 4567,
      "é£ŀ": 4568,
      "å¾®å°ı": 4569,
      "æĸ¯çī¹": 4570,
      "å¹¶ä¸įèĥ½": 4571,
      "ĠPh": 4572,
      "Ġdisc": 4573,
      "çĹĩ": 4574,
      "åħ¸åŀĭ": 4575,
      "Ġregion": 4576,
      "Ġamong": 4577,
      "Ġneeded": 4578,
      "ology": 4579,
      "æĻļä¸Ĭ": 4580,
      "åĪĽéĢł": 4581,
      "Ġblack": 4582,
      "âī¤": 4583,
      "Ġinfluence": 4584,
      "Ġsecond": 4585,
      ")+": 4586,
      "Re": 4587,
      "day": 4588,
      "mRNA": 4589,
      "ove": 4590,
      "åĦ": 4591,
      "Ġè®¸å¤ļ": 4592,
      "ĠçīĽé¡¿": 4593,
      "ï¼ĮâĢ¦ï¼Į": 4594,
      "çļĦçİ°è±¡": 4595,
      "åºĬ": 4596,
      "ality": 4597,
      "Ġdensity": 4598,
      "Ġfound": 4599,
      "åİļ": 4600,
      "ï¼īï¼ļ": 4601,
      "åºĶåĬĽ": 4602,
      "ternal": 4603,
      "å¾Īä¹ħ": 4604,
      "éĥ¨ä»½": 4605,
      "æ´Ĺ": 4606,
      "æŃ£åĪĻ": 4607,
      "å¤©çĦ¶": 4608,
      "ants": 4609,
      "ĠThese": 4610,
      "Ġcop": 4611,
      "æĶ¾å¤§": 4612,
      "æŀģç«¯": 4613,
      "æķ£åĪĹ": 4614,
      "è®Ńç»ĥéĽĨ": 4615,
      "å¤ĦçĲĨåĻ¨": 4616,
      "ĠOn": 4617,
      "Ġoutput": 4618,
      "æıĲåĩºäºĨ": 4619,
      "Ġgeneral": 4620,
      "éĩĩæł·": 4621,
      "çĪĨ": 4622,
      "Ġaddress": 4623,
      "åıłåĬł": 4624,
      "çļĦåľ°æĸ¹": 4625,
      "éļĶç¦»": 4626,
      "Ġresults": 4627,
      "Ġboundaries": 4628,
      "âĭ¯": 4629,
      "åı¥è¯Ŀ": 4630,
      "Ġreaction": 4631,
      "Ġcalled": 4632,
      "Ġmethod": 4633,
      "Ġnetwork": 4634,
      "é©±åĬ¨": 4635,
      "aneous": 4636,
      "åŁİå¸Ĥ": 4637,
      "iliar": 4638,
      "90": 4639,
      "iet": 4640,
      "ype": 4641,
      "¡çĮ®": 4642,
      "Ġä¸ª": 4643,
      "ä¸¢": 4644,
      "åĪł": 4645,
      "Ġsyn": 4646,
      "åĬŀ": 4647,
      "Ġpri": 4648,
      "Ġbas": 4649,
      "åĪĨéĩı": 4650,
      "åĨ»": 4651,
      "Ġred": 4652,
      "è´¡çĮ®": 4653,
      "Ġlittle": 4654,
      "å¯¹æµģ": 4655,
      "æįķ": 4656,
      "iffer": 4657,
      "Ġmoved": 4658,
      "é«ĺæķĪ": 4659,
      "å°±åı¯ä»¥": 4660,
      "æµģç¨ĭ": 4661,
      "åĩłåĪĨéĴŁ": 4662,
      "Ġsee": 4663,
      "çĽ´çº¿": 4664,
      "å£ģ": 4665,
      "Ġinteg": 4666,
      "Ġresour": 4667,
      "Ġperfect": 4668,
      "dings": 4669,
      "appe": 4670,
      "èĲ¨": 4671,
      "éħįå¯¹": 4672,
      "veloc": 4673,
      "Ġproduces": 4674,
      "å¤§æ°Ķå±Ĥ": 4675,
      "å¡ĳ": 4676,
      "hesis": 4677,
      "Ġindivid": 4678,
      "Ġvariables": 4679,
      "Ġeru": 4680,
      "Ġwhereas": 4681,
      "Ġimmedi": 4682,
      "Ġrequired": 4683,
      "Ġoptimization": 4684,
      "aboratory": 4685,
      "Ġbegin": 4686,
      "Ġderiv": 4687,
      ")=": 4688,
      "ATP": 4689,
      "jor": 4690,
      "mic": 4691,
      "por": 4692,
      "sp": 4693,
      "è¸": 4694,
      "Ġes": 4695,
      "è¿Ķ": 4696,
      "åŃ©": 4697,
      "Ġbre": 4698,
      "Ġlat": 4699,
      "çĶŁéķ¿": 4700,
      "éĻ·": 4701,
      "Ġstress": 4702,
      "æ³ķåĪĻ": 4703,
      "åºĶçĶ¨äºİ": 4704,
      "Ġgas": 4705,
      "å¾Ĺå¾Ī": 4706,
      "ified": 4707,
      "åıªè¦ģ": 4708,
      "ç»ıæµİ": 4709,
      "umul": 4710,
      "ç³»ç»Łä¸Ń": 4711,
      "ç§°ä½ľ": 4712,
      "Ġalways": 4713,
      "ä¼łè¾ĵ": 4714,
      "ç¦»å¼Ģ": 4715,
      "äº§åĵģ": 4716,
      "æĦıè¯Ĩ": 4717,
      "åĮĸåŃ¦éĶ®": 4718,
      "å°Ķæĸĩ": 4719,
      "è¶Ĭå¤§": 4720,
      "éĴ¥": 4721,
      "åĩĨå¤ĩ": 4722,
      "åĽŀåĪ°": 4723,
      "æĦŁè§ī": 4724,
      "ç²¾åº¦": 4725,
      "æĲ¬": 4726,
      "rict": 4727,
      "çĽ¸åħ³çļĦ": 4728,
      "Ġassign": 4729,
      "Ġstructures": 4730,
      "Ġmeans": 4731,
      "æİ¢ç´¢": 4732,
      "Ġoccurs": 4733,
      "ä¸´çķĮ": 4734,
      "ç©¿è¿ĩ": 4735,
      "æ²īç§¯": 4736,
      "Ġparameter": 4737,
      "Ġsampling": 4738,
      "ç«ŀäºī": 4739,
      "æĢİæł·": 4740,
      "roscopic": 4741,
      "Ġresponse": 4742,
      "åĮ¹éħį": 4743,
      "earch": 4744,
      "rum": 4745,
      "¤Ĳ": 4746,
      "Ġveloc": 4747,
      "çļĦæµ·": 4748,
      "çļĦåİŁåĽł": 4749,
      "è¿«": 4750,
      "æķı": 4751,
      "orning": 4752,
      "Ġtheore": 4753,
      "Ġpossible": 4754,
      "ä¼ª": 4755,
      "Ġdark": 4756,
      "Ġwal": 4757,
      "Ġinit": 4758,
      "æµħ": 4759,
      "Ġnat": 4760,
      "ä¼ļæľī": 4761,
      "å±ı": 4762,
      "çĽ¸ä½į": 4763,
      "çŁ¢": 4764,
      "åıªåľ¨": 4765,
      "é«ĺæ¸©": 4766,
      "Ġmajor": 4767,
      "çĲĨè®ºçļĦ": 4768,
      "çĬ¶åĨµ": 4769,
      "éļıåĲİ": 4770,
      "å¢ŀå¼º": 4771,
      "å¼ºè°ĥ": 4772,
      "range": 4773,
      "åħĪéªĮ": 4774,
      "è´¨éĩıçļĦ": 4775,
      "ç®Ĺæ³ķçļĦ": 4776,
      "åħ¬åħĥ": 4777,
      "å®ļä¹īçļĦ": 4778,
      "ĠCh": 4779,
      "Ġacid": 4780,
      "åĽŀçŃĶ": 4781,
      "æĢ»ä½ĵ": 4782,
      "è°ĥèĬĤ": 4783,
      "åĽ½å®¶": 4784,
      "åĲ¦åĪĻ": 4785,
      "å£°æ³¢": 4786,
      "Ġspread": 4787,
      "åĲĦèĩª": 4788,
      "Ġdisappe": 4789,
      "åĽºä½ĵ": 4790,
      "æĻ®éģį": 4791,
      "Ġefficient": 4792,
      "Ġsmaller": 4793,
      "å°ºå¯¸": 4794,
      "Ġcondition": 4795,
      "Ġdecision": 4796,
      "è¡¨çİ°åĩº": 4797,
      "çĭ¬ç«ĭçļĦ": 4798,
      "é¥°": 4799,
      "çĮľ": 4800,
      "Ġsuperconductors": 4801,
      "çŃĸçķ¥": 4802,
      "Ġcomplete": 4803,
      "çıŃ": 4804,
      "Ġcharacter": 4805,
      "Ġthermal": 4806,
      "Ġmomentum": 4807,
      "Ġguarantee": 4808,
      "ä¼½åĪ©": 4809,
      "anguage": 4810,
      "åĦ¿": 4811,
      "back": 4812,
      "less": 4813,
      "oid": 4814,
      "Ġæľī": 4815,
      "ĠãĢģ": 4816,
      "ä¸Ģç³»åĪĹ": 4817,
      "Ġdam": 4818,
      "æ°®": 4819,
      "åĨ¬": 4820,
      "Ġearly": 4821,
      "çº¤": 4822,
      "å¯¹æķ°": 4823,
      "imes": 4824,
      "å¹¶åľ¨": 4825,
      "ules": 4826,
      "urning": 4827,
      "åıªçľĭ": 4828,
      "åĬłä¸Ĭ": 4829,
      "æŃ£æ¯Ķ": 4830,
      "å¯¼ä½ĵ": 4831,
      "åĮºåĪ«": 4832,
      "Ġenc": 4833,
      "Ġshared": 4834,
      "å¸¦æľī": 4835,
      "çķĮéĿ¢": 4836,
      "ç»´åº¦": 4837,
      "è¡¨ç¤ºä¸º": 4838,
      "è§ĴåĬ¨éĩı": 4839,
      "èĮ¨": 4840,
      "å¾·å°Ķ": 4841,
      "Ġvalidation": 4842,
      "æĮ¯èį¡": 4843,
      "æıĲä¾ĽäºĨ": 4844,
      "å¹²æ¶ī": 4845,
      "æ¢¯åº¦ä¸ĭéĻį": 4846,
      "ä¸¥éĩį": 4847,
      "æ·±åº¦åŃ¦ä¹ł": 4848,
      "Ġsuperconductivity": 4849,
      "æĸ½åĬł": 4850,
      "amples": 4851,
      "ç»ıåħ¸åĬĽåŃ¦": 4852,
      "Ġrelationships": 4853,
      "Ġconcentration": 4854,
      "Ġinclud": 4855,
      "Ġamount": 4856,
      "gine": 4857,
      "èļ": 4858,
      "çļĦè®¡ç®Ĺ": 4859,
      "erms": 4860,
      "ä¹Ŀ": 4861,
      "ä¸įçŁ¥éģĵ": 4862,
      "æĹ¶æľŁ": 4863,
      "Ġreason": 4864,
      "ä½ĵéªĮ": 4865,
      "Ġhour": 4866,
      "Ġstation": 4867,
      "çĶµç¦»": 4868,
      "å¹¶åıĳ": 4869,
      "åİŁæĿ¥çļĦ": 4870,
      "Ġglo": 4871,
      "ä½įçĤ¹": 4872,
      "è§£æŀĲ": 4873,
      "Ġmoves": 4874,
      "æģ°": 4875,
      "Ġrun": 4876,
      "å¤©æĸĩ": 4877,
      "ayed": 4878,
      "å°ĳéĩı": 4879,
      "NAD": 4880,
      "Ġcompar": 4881,
      "ĠCon": 4882,
      "ody": 4883,
      "æ´»åĮĸ": 4884,
      "Ġrock": 4885,
      "æ¡Ĩ": 4886,
      "ä¸īç§į": 4887,
      "çº§æķ°": 4888,
      "åĲ¸å¼ķ": 4889,
      "Ġweight": 4890,
      "é»ı": 4891,
      "éĢĴå½Ĵ": 4892,
      "Ġfeed": 4893,
      "Ġparticle": 4894,
      "æī©æķ£": 4895,
      "Ġdirections": 4896,
      "Ġslowly": 4897,
      "æļ´éľ²": 4898,
      "åı«åģļ": 4899,
      "æī°åĬ¨": 4900,
      "Ġrange": 4901,
      "scill": 4902,
      "Ġcomponents": 4903,
      "Ġhigher": 4904,
      "èµ¤éģĵ": 4905,
      "romagnetic": 4906,
      "25": 4907,
      "28": 4908,
      "éĨ": 4909,
      "é¤Ĳ": 4910,
      "Ġed": 4911,
      "ħéĢŁ": 4912,
      "ä¸Ŀ": 4913,
      "çļĦéģĹä¼ł": 4914,
      "ering": 4915,
      "è¿ħéĢŁ": 4916,
      "ators": 4917,
      "Ġserv": 4918,
      "ä¸Ģå¼Ģå§ĭ": 4919,
      "ordin": 4920,
      "ited": 4921,
      "arrow": 4922,
      "è¯ī": 4923,
      "å¯Į": 4924,
      "åŃ¦èĢħ": 4925,
      "çºµ": 4926,
      "Ġtop": 4927,
      "Ġconve": 4928,
      "èĩªè½¬": 4929,
      "åĢ¼å¾Ĺ": 4930,
      "è¿Ľç¨ĭ": 4931,
      "Ġorbit": 4932,
      "åıĬåħ¶": 4933,
      "ĠAc": 4934,
      "ç»Ĩèĥŀä¸Ń": 4935,
      "izer": 4936,
      "âĪĳ": 4937,
      "Ġcontin": 4938,
      "åıĳçĶŁåıĺåĮĸ": 4939,
      "çªĦ": 4940,
      "çº¿æĢ§ä»£æķ°": 4941,
      "å¿ħè¦ģ": 4942,
      "åŃĹæ¯į": 4943,
      "èĤĮ": 4944,
      "ĠDNA": 4945,
      "åģıç¦»": 4946,
      "æĹ¥å¸¸": 4947,
      "ysics": 4948,
      "å®īéĿĻ": 4949,
      "ification": 4950,
      "Ġvariable": 4951,
      "Ġentire": 4952,
      "Ġreactions": 4953,
      "ä¼¯çī¹": 4954,
      "cules": 4955,
      "Ġnuclei": 4956,
      "Ġscale": 4957,
      "Ġmultiple": 4958,
      "Ġdetermine": 4959,
      "Ġquestion": 4960,
      "oplan": 4961,
      "Ġadjust": 4962,
      "åŃ©åŃĲ": 4963,
      "Ġvelocity": 4964,
      ")âĪĴ": 4965,
      "lation": 4966,
      "length": 4967,
      "oot": 4968,
      "to": 4969,
      "èĵ": 4970,
      "Ġver": 4971,
      "ä¸Ļ": 4972,
      "ï¼ĮâĢľ": 4973,
      "çļĦç®Ĺæ³ķ": 4974,
      "çļĦæĥħåĨµä¸ĭ": 4975,
      "Ġsens": 4976,
      "oring": 4977,
      "ä¹Ĳ": 4978,
      "Ġmorning": 4979,
      "Ġpresent": 4980,
      "Ġdr": 4981,
      "èĥ½çº§": 4982,
      "Ġfl": 4983,
      "Ġfut": 4984,
      "æīĳ": 4985,
      "âĢĵ": 4986,
      "äºİæĺ¯": 4987,
      "åľ°è´¨": 4988,
      "çĶµåĬ¿": 4989,
      "æĬµ": 4990,
      "å¦ĤæŃ¤": 4991,
      "ä¹Łä¸į": 4992,
      "äººåĳĺ": 4993,
      "ä¸ĭä¸Ģ": 4994,
      "ä¸ĭåįĪ": 4995,
      "Ġgives": 4996,
      "éĩįåıł": 4997,
      "éľį": 4998,
      "åīª": 4999,
      "å½ĵæĪĲ": 5000,
      "Ġnever": 5001,
      "è½¬åıĺ": 5002,
      "è¿ĺèĥ½": 5003,
      "ç»Ĩèĥŀè´¨": 5004,
      "å®¹åĻ¨": 5005,
      "å¢ŀå¤§": 5006,
      "ived": 5007,
      "èĪį": 5008,
      "è®°ä½ı": 5009,
      "åĩºçİ°çļĦ": 5010,
      "è¯¯åĮº": 5011,
      "è¿ĲåĬ¨çļĦ": 5012,
      "ograph": 5013,
      "è¾¹ç¼ĺ": 5014,
      "æİ¨åĬ¨": 5015,
      "æĸ¹ç¨ĭå¼ı": 5016,
      "çģŃ": 5017,
      "Ġworld": 5018,
      "ĠHe": 5019,
      "Ġtemperatures": 5020,
      "Ġnearly": 5021,
      "Ġdetail": 5022,
      "æĹıç¾¤": 5023,
      "Ġeffects": 5024,
      "æº¶æ¶²": 5025,
      "Ġconsum": 5026,
      "Ġcontains": 5027,
      "æŀ¶æŀĦ": 5028,
      "ä¸Ģèĩ´æĢ§": 5029,
      "Ġprovides": 5030,
      "åį°åº¦": 5031,
      "Ġbalance": 5032,
      "Ġweek": 5033,
      "Ġcommunic": 5034,
      "sh": 5035,
      "Ġions": 5036,
      "çļĦä¸įåĲĮ": 5037,
      "eries": 5038,
      "å¤ı": 5039,
      "åħ«": 5040,
      "Ġsat": 5041,
      "Ġsem": 5042,
      "Ġside": 5043,
      "Ġcat": 5044,
      "Ġcos": 5045,
      "ä¸Ģå¼ł": 5046,
      "ä¹³": 5047,
      "ä¸įç¨³å®ļ": 5048,
      "Ġfall": 5049,
      "åĪĨåī²": 5050,
      "åĨľ": 5051,
      "åĲĮæŃ¥": 5052,
      "Ġlength": 5053,
      "åĽłæĸ¯åĿ¦": 5054,
      "èĢĮä¸į": 5055,
      "omp": 5056,
      "æĽ´å¤§": 5057,
      "æ²Ł": 5058,
      "Ġisol": 5059,
      "æŃ¤æĹ¶": 5060,
      "Ġexec": 5061,
      "åı¯èĥ½æĺ¯": 5062,
      "ç»ıåİĨ": 5063,
      "åĬłçĥŃ": 5064,
      "æģ©": 5065,
      "çĽ´è§Ĥ": 5066,
      "ä½¿çĶ¨èĢħ": 5067,
      "äºĮåħĥ": 5068,
      "éĢļå¸¸éľĢè¦ģ": 5069,
      "ç©ºéĹ´ä¸Ń": 5070,
      "è®©äºº": 5071,
      "Ġquiet": 5072,
      "æĸĩæľ¬": 5073,
      "æĺŁç³»": 5074,
      "Ġreli": 5075,
      "å»ºæ¨¡": 5076,
      "è¯ķéªĮ": 5077,
      "ĠFor": 5078,
      "å¼ķåĬĽåľº": 5079,
      "Ġcollect": 5080,
      "æıĲåĩºçļĦ": 5081,
      "çī¹å®ļçļĦ": 5082,
      "Ġregions": 5083,
      "è¡°åĩı": 5084,
      "é¦ĸæ¬¡": 5085,
      "âĢ²(": 5086,
      "çĹħæ¯Ĵ": 5087,
      "Ġallowing": 5088,
      "Ġoperations": 5089,
      "ç¤¾ä¼ļ": 5090,
      "çĪ±åĽłæĸ¯åĿ¦": 5091,
      "Ġavailable": 5092,
      "Ġindividual": 5093,
      "most": 5094,
      "vant": 5095,
      "ï¼Ł": 5096,
      "çļĦè¿ĲåĬ¨": 5097,
      "ç»¼": 5098,
      "å®ľ": 5099,
      "enc": 5100,
      "ä¸Ģå¤©": 5101,
      "åľ¨ä¸Ģä¸ª": 5102,
      "åľ¨åĲĮä¸Ģ": 5103,
      "Ġmix": 5104,
      "èĥ½åĲ¦": 5105,
      "åĴĮåħ¶ä»ĸ": 5106,
      "å¼ĥ": 5107,
      "Ġoscill": 5108,
      "è¿ĻéĩĮ": 5109,
      "uted": 5110,
      "æĿ¥æııè¿°": 5111,
      "åľ°ä¸ĭ": 5112,
      "åĩºäºĨ": 5113,
      "åıĳèĤ²": 5114,
      "Ġbegan": 5115,
      "çŁ¿": 5116,
      "raction": 5117,
      "å¾Ĺä»¥": 5118,
      "éļĻ": 5119,
      "æ°´æ±½": 5120,
      "Ġexamples": 5121,
      "åĬłå¿«": 5122,
      "è¿ĽèĢĮ": 5123,
      "Ġdeg": 5124,
      "ç¬Ķ": 5125,
      "æłĩè®°": 5126,
      "æłĩçŃ¾": 5127,
      "è¿ĺä¼ļ": 5128,
      "éĿŀéĽ¶": 5129,
      "èĦļ": 5130,
      "éĵĢ": 5131,
      "å¸¦çĶµ": 5132,
      "èģĬ": 5133,
      "å¼ºçĥĪ": 5134,
      "Ġplace": 5135,
      "æ´ĭæµģ": 5136,
      "ĠRes": 5137,
      "Ġdistin": 5138,
      "Ġelectro": 5139,
      "èĤ½": 5140,
      "èĳĹåĲį": 5141,
      "åįĬçĲĥ": 5142,
      "éĩĳå±ŀéĶ®": 5143,
      "çĨĶ": 5144,
      "Ġvariation": 5145,
      "æ¶²æĢģ": 5146,
      "Ġincreasing": 5147,
      "Ġfinal": 5148,
      "Ġjust": 5149,
      "æĬ¥åĳĬ": 5150,
      "çī¹åĪ«æĺ¯": 5151,
      "Ġprovide": 5152,
      "æĹłç©·å°ı": 5153,
      "Ġmolecules": 5154,
      "çĩĥ": 5155,
      "Ġcycle": 5156,
      "like": 5157,
      "çĭŃä¹ī": 5158,
      "æ¡Ĩæŀ¶": 5159,
      "Ġfuture": 5160,
      "24": 5161,
      "AT": 5162,
      "Th": 5163,
      "for": 5164,
      "ger": 5165,
      "io": 5166,
      "sive": 5167,
      "æ¾": 5168,
      "é½": 5169,
      "Ġ\"": 5170,
      "ĠéĢļè¿ĩ": 5171,
      "Ġä¸ĢäºĽ": 5172,
      "Ġice": 5173,
      "ä¸ģ": 5174,
      "çļĦå¤§": 5175,
      "çļĦç³»ç»Ł": 5176,
      "çļĦæ¨¡åŀĭ": 5177,
      "çļĦåıįåºĶ": 5178,
      "çļĦçī©çĲĨ": 5179,
      "çļĦèĥ½åĬĽ": 5180,
      "Ġtw": 5181,
      "Ġtru": 5182,
      "Ġtiny": 5183,
      "ä»ĺ": 5184,
      "æĹģ": 5185,
      "itable": 5186,
      "ä¸Ńæľī": 5187,
      "åŃ¦åĴĮ": 5188,
      "åŃ¦è¯´": 5189,
      "ä»¥ä¸º": 5190,
      "ä¼ļè®®": 5191,
      "åľ°å½¢": 5192,
      "åĲİç»Ń": 5193,
      "åıĳæĮ¥": 5194,
      "éĺ´": 5195,
      "old": 5196,
      "çŃīå¼ı": 5197,
      "æľ¬æĿ¥": 5198,
      "æ°Ķæ¸©": 5199,
      "éĥ½èĥ½": 5200,
      "éĥ½åı¯èĥ½": 5201,
      "éĿ¢å¯¹": 5202,
      "ç»ıçĶ±": 5203,
      "ement": 5204,
      "æ²¡äºº": 5205,
      "éª¨": 5206,
      "æİ¥æĶ¶": 5207,
      "è°·": 5208,
      "ĠAfter": 5209,
      "åĩłåįģ": 5210,
      "ĠThey": 5211,
      "ĠSun": 5212,
      "éĢļå¸¸ä¼ļ": 5213,
      "éļıèĳĹ": 5214,
      "ä¸»ä¹ī": 5215,
      "æĸŃè£Ĥ": 5216,
      "äºĭæĥħ": 5217,
      "Ġheav": 5218,
      "æİ¨å¹¿": 5219,
      "Ġabove": 5220,
      "ä¾Ŀæį®": 5221,
      "ä»·æł¼": 5222,
      "åĨ³å®ļäºĨ": 5223,
      "å®Įåħ¨ä¸įåĲĮ": 5224,
      "èĤī": 5225,
      "èĬĤçĤ¹çļĦ": 5226,
      "Ġload": 5227,
      "çĹķ": 5228,
      "Ġcold": 5229,
      "èģĶåĲĪ": 5230,
      "Ġmeasured": 5231,
      "å®īæİĴ": 5232,
      "Ġparticular": 5233,
      "Ġnumbers": 5234,
      "æº¶è§£": 5235,
      "Ġteam": 5236,
      "å·¦åı³": 5237,
      "Ġstopped": 5238,
      "Ġprogram": 5239,
      "Ġinteractions": 5240,
      "Ġestimate": 5241,
      "Ġstatistical": 5242,
      "Ġradiation": 5243,
      "Ġprevent": 5244,
      "å°ģéĹŃ": 5245,
      "Ġswit": 5246,
      "Ġvector": 5247,
      "æĭĵæīĳ": 5248,
      "Ġgalax": 5249,
      "ç¼ĸè¯ĳåĻ¨": 5250,
      "ifferent": 5251,
      "æķıæĦŁ": 5252,
      "ä¼½åĪ©çķ¥": 5253,
      "21": 5254,
      "CP": 5255,
      "II": 5256,
      "SA": 5257,
      "efore": 5258,
      "hy": 5259,
      "ware": 5260,
      "ying": 5261,
      "çļĦåĬĽ": 5262,
      "çļĦåŁºåĽł": 5263,
      "çļĦæķ°åŃ¦": 5264,
      "çļĦèĽĭçĻ½è´¨": 5265,
      "Ġtext": 5266,
      "Ġsym": 5267,
      "å®ĺ": 5268,
      "arl": 5269,
      "Ġbene": 5270,
      "rogen": 5271,
      "Ġold": 5272,
      "Ġnarrow": 5273,
      "Ġlanguage": 5274,
      "è¾Ĩ": 5275,
      "è¿Ļæĺ¯": 5276,
      "Ġtook": 5277,
      "used": 5278,
      "å¤ļæł·": 5279,
      "Ġhum": 5280,
      "Ġstored": 5281,
      "åıĳæĺİ": 5282,
      "åħ¶ä¸ŃçļĦ": 5283,
      "å¿ĺ": 5284,
      "Ġconserv": 5285,
      "æĽ´å¼º": 5286,
      "èµĽ": 5287,
      "æ²¹": 5288,
      "å¾Īå°ı": 5289,
      "è·³": 5290,
      "Ġchain": 5291,
      "Ġwho": 5292,
      "Ġru": 5293,
      "åį´åı¯èĥ½": 5294,
      "Ġcoordin": 5295,
      "äºĮåįģ": 5296,
      "ç¬¬ä¸ī": 5297,
      "Ġshape": 5298,
      "Ġcontrib": 5299,
      "ç©ºéĹ´çļĦ": 5300,
      "Ġmeet": 5301,
      "åħ¬åı¸": 5302,
      "åľ°çĲĥä¸Ĭ": 5303,
      "èº«ä½ĵ": 5304,
      "éĢĤçĶ¨äºİ": 5305,
      "åĲĦä¸ª": 5306,
      "æĸ¹ç¨ĭç»Ħ": 5307,
      "ãĢįï¼Ī": 5308,
      "ĠPl": 5309,
      "ĠPro": 5310,
      "èĲ¥": 5311,
      "éļ¾ä»¥": 5312,
      "Ġgraph": 5313,
      "æł¸ç³ĸä½ĵ": 5314,
      "æľ¯è¯Ń": 5315,
      "Ġweather": 5316,
      "é»Ħ": 5317,
      "ä¿®å¤į": 5318,
      "Ġactivity": 5319,
      "åįĩé«ĺ": 5320,
      "ç¼ĸç¨ĭ": 5321,
      "Ġnearby": 5322,
      "åķ¶": 5323,
      "çĸ¾": 5324,
      "çĸı": 5325,
      "Ġdescribe": 5326,
      "æ°¨éħ¸": 5327,
      "Ġobservations": 5328,
      "è´¨åŃĲæķ°": 5329,
      "Ġplanet": 5330,
      "ä»Ĭå¤©": 5331,
      "ä¹Łå°±æĺ¯è¯´": 5332,
      "ropy": 5333,
      "æıĴåħ¥": 5334,
      "åıįåĲĳä¼łæĴŃ": 5335,
      "Ġseemed": 5336,
      "Ġnegative": 5337,
      "èļĢ": 5338,
      "based": 5339,
      "eep": 5340,
      "ll": 5341,
      "pro": 5342,
      "§åķ¶": 5343,
      "Ġä»ĸ": 5344,
      "Ġä¸ºäºĨ": 5345,
      "çļĦåĪĨåŃĲ": 5346,
      "erical": 5347,
      "å¤¹": 5348,
      "ata": 5349,
      "Ġcause": 5350,
      "alf": 5351,
      "æĸ¥": 5352,
      "ä¸įåŃĺåľ¨": 5353,
      "ä¼Ĭ": 5354,
      "Ġbar": 5355,
      "ished": 5356,
      "Ġfast": 5357,
      "åĪĨæĪĲ": 5358,
      "ä»¥å¤ĸ": 5359,
      "Ġrev": 5360,
      "çºł": 5361,
      "è¿ĩåº¦": 5362,
      "åĲİæľŁ": 5363,
      "çĶµæ±ł": 5364,
      "çŃĳ": 5365,
      "æĮ¡": 5366,
      "Ġconvers": 5367,
      "éħ®": 5368,
      "æĽ´ä¸º": 5369,
      "æľĢé«ĺ": 5370,
      "æ²ĥ": 5371,
      "æ¨¡æĿ¿": 5372,
      "æ´ŀ": 5373,
      "âĢĿï¼Ī": 5374,
      "emperature": 5375,
      "å¹³è¡Į": 5376,
      "å¢Ļ": 5377,
      "éĶĢ": 5378,
      "å½ĵä¸Ń": 5379,
      "Ġrates": 5380,
      "resh": 5381,
      "åħīåŃĲ": 5382,
      "ĠAs": 5383,
      "çľĭä¼¼": 5384,
      "æ±¡": 5385,
      "è¿ĺéľĢè¦ģ": 5386,
      "æĶ¹åĸĦ": 5387,
      "è¯ģå®ŀ": 5388,
      "ĠIts": 5389,
      "ç¢į": 5390,
      "Ġquarks": 5391,
      "è¯Ńä¹ī": 5392,
      "äºĭåĬ¡": 5393,
      "ĠCont": 5394,
      "ç®ĢåĮĸ": 5395,
      "æİ¨æĸŃ": 5396,
      "çº¦ç¿": 5397,
      "åŃ¦ä¹łçİĩ": 5398,
      "apor": 5399,
      "èĩªçĦ¶éĢīæĭ©": 5400,
      "Ġdatas": 5401,
      "ĠLaboratory": 5402,
      "Ġprobab": 5403,
      "çħ§çīĩ": 5404,
      "æĲº": 5405,
      "Ġactiv": 5406,
      "ç¬¬äºĮå¤©": 5407,
      "Ġadded": 5408,
      "èħº": 5409,
      "Ġsignals": 5410,
      "è´Ŀå°Ķ": 5411,
      "åįıè°ĥ": 5412,
      "Ġcrit": 5413,
      "éģįåİĨ": 5414,
      "Ġseparate": 5415,
      "ç¿»è¯ĳ": 5416,
      "Ġmulti": 5417,
      "éĢĶå¾Ħ": 5418,
      "æł¡åĩĨ": 5419,
      "Ġpreserv": 5420,
      "æŃ»äº¡": 5421,
      "Ġmissing": 5422,
      "åĺ§åķ¶": 5423,
      "Ġbroad": 5424,
      "çŃīä½įåŁºåĽł": 5425,
      "çº¦ç¿°": 5426,
      "ai": 5427,
      "apt": 5428,
      "bs": 5429,
      "ground": 5430,
      "lated": 5431,
      "man": 5432,
      "èŃ": 5433,
      "Ġ,": 5434,
      "çļĦåĮĸåŃ¦": 5435,
      "çļĦçĶŁçī©": 5436,
      "çļĦæĢ»": 5437,
      "çļĦå¹³åĿĩ": 5438,
      "Ġtarg": 5439,
      "ination": 5440,
      "Ġsum": 5441,
      "åŃŁ": 5442,
      "ä¸Ģåı¥": 5443,
      "æĺ¯ä»İ": 5444,
      "ä¹Ļ": 5445,
      "itational": 5446,
      "ä¼¤": 5447,
      "ä¼ĳ": 5448,
      "ä¸ºä¸Ģ": 5449,
      "åı¯ç§¯": 5450,
      "åı¯éĢĨ": 5451,
      "æĢ¥": 5452,
      "åĪĨè¾¨": 5453,
      "åĲĮä¸Ģç§į": 5454,
      "ash": 5455,
      "ä¼ļä½¿": 5456,
      "ä¼ļåıĳçĶŁ": 5457,
      "Ġlin": 5458,
      "èĢĮæĪĲ": 5459,
      "Ġher": 5460,
      "å¹¶è¡Į": 5461,
      "éĩįç»Ħ": 5462,
      "èĩªåıĳ": 5463,
      "å¾Ĺå¤ļ": 5464,
      "Ġmaxim": 5465,
      "å¼ĢæĶ¾": 5466,
      "å¯¼çĶµ": 5467,
      "æĹ¶éĹ´åĨħ": 5468,
      "æłĩéĩı": 5469,
      "è½¬åĬ¨": 5470,
      "å·®åĪ«": 5471,
      "æĦıæĢĿ": 5472,
      "è¾ĥé«ĺ": 5473,
      "å¤Ħäºİ": 5474,
      "èĦĤ": 5475,
      "Ġshift": 5476,
      "æĶ¹åıĺäºĨ": 5477,
      "odynam": 5478,
      "å¹¶ä¸įä¸Ģå®ļ": 5479,
      "äºĴè¡¥": 5480,
      "æİ¨å¯¼": 5481,
      "èį¯": 5482,
      "èįī": 5483,
      "ä¸īç»´": 5484,
      "Ġdiss": 5485,
      "äººå·¥ç¥ŀç»ıç½ĳç»ľ": 5486,
      "ä¿®æŃ£": 5487,
      "Ġmeasurements": 5488,
      "é¥±": 5489,
      "Ġmagnitude": 5490,
      "ç¼ºéĻ·": 5491,
      "Ġkeys": 5492,
      "Ġeffective": 5493,
      "è£ħç½®": 5494,
      "å»¶ä¼¸": 5495,
      "ä¸ĵéĹ¨": 5496,
      "ubl": 5497,
      "Ġscientific": 5498,
      "æİ¢æµĭ": 5499,
      "Ġcryst": 5500,
      "èĹ»": 5501,
      "æ¬§æ´²": 5502,
      "æľºæ¢°èĥ½": 5503,
      "Ġidentical": 5504,
      "Ġideal": 5505,
      "å®¢æĪ·": 5506,
      "Ġtasks": 5507,
      "ĠQu": 5508,
      "Ġaltern": 5509,
      "æ°¸è¿ľ": 5510,
      "Ġexactly": 5511,
      "Ġpositive": 5512,
      "Ġextremely": 5513,
      "äº¤äºĴä½ľçĶ¨": 5514,
      "é¸Ł": 5515,
      "Ġimmediately": 5516,
      "é½Ĳ": 5517,
      "bits": 5518,
      "ffer": 5519,
      "pH": 5520,
      "side": 5521,
      "wor": 5522,
      "âĨ": 5523,
      "å´": 5524,
      "ĠæľĢ": 5525,
      "ĠâĢĶ": 5526,
      "ä¸°": 5527,
      "çļĦåĲĳéĩı": 5528,
      "çļĦåħ³ç³»": 5529,
      "çļĦçī¹å¾ģ": 5530,
      "çļĦéĽĨåĲĪ": 5531,
      "Ġtype": 5532,
      "ones": 5533,
      "åĲ¹": 5534,
      "Ġsl": 5535,
      "æĹħ": 5536,
      "Ġfund": 5537,
      "å¼¦": 5538,
      "åĪĨæķ£": 5539,
      "è¡į": 5540,
      "è´Ń": 5541,
      "çĲĨåŃ¦": 5542,
      "éĻ¢": 5543,
      "Ġstop": 5544,
      "çĽ¸éĤ»": 5545,
      "éĢļéģĵ": 5546,
      "æĽ´æľī": 5547,
      "éĥ½åľ¨": 5548,
      "åĬłæ³ķ": 5549,
      "åĨħæł¸": 5550,
      "Ġmach": 5551,
      "æµ·å²¸": 5552,
      "ecton": 5553,
      "duction": 5554,
      "ä»¶äºĭ": 5555,
      "ç¦ı": 5556,
      "éķ¿æĹ¶éĹ´": 5557,
      "Ġnecess": 5558,
      "åį´èĥ½": 5559,
      "æķ°æį®éĽĨ": 5560,
      "æ±ĩ": 5561,
      "è¾ĥå¤§": 5562,
      "Ġsearch": 5563,
      "ç»ĨèĥŀçļĦ": 5564,
      "å®¶éĩĮ": 5565,
      "éĿŀéĩĳå±ŀ": 5566,
      "å½¢æĪĲäºĨ": 5567,
      "âĪĩ": 5568,
      "èĦĬ": 5569,
      "Ġunit": 5570,
      "å¼ķåıĳ": 5571,
      "åıĳçİ°çļĦ": 5572,
      "è§Ħå®ļ": 5573,
      "aving": 5574,
      "ientists": 5575,
      "äº¤åıī": 5576,
      "ä»įåı¯èĥ½": 5577,
      "å»ºçŃĳ": 5578,
      "èĢĮæĺ¯åľ¨": 5579,
      "è¥¿æ´ĭ": 5580,
      "é¦Ļ": 5581,
      "astic": 5582,
      "çĲĨè§£æĪĲ": 5583,
      "Ġlocation": 5584,
      "Ġrequest": 5585,
      "é©¬åħĭ": 5586,
      "Ġampl": 5587,
      "æĻ¶æł¼": 5588,
      "Ġminim": 5589,
      "èĴ¸æ°Ķ": 5590,
      "Ġmovement": 5591,
      "Ġexperiment": 5592,
      "ecause": 5593,
      "çĵ¶": 5594,
      "éļĲèĹı": 5595,
      "Ġmethods": 5596,
      "Ġharder": 5597,
      "è¯¾ç¨ĭ": 5598,
      "point": 5599,
      "imensional": 5600,
      "Ġseismic": 5601,
      "åĢ¾åĲĳ": 5602,
      "Ġgeometry": 5603,
      "åİŁåŃĲåºıæķ°": 5604,
      "arlier": 5605,
      "æĲºå¸¦": 5606,
      "åŃŁå¾·å°Ķ": 5607,
      ":=": 5608,
      "time": 5609,
      "uper": 5610,
      "xi": 5611,
      "¡èĲ": 5612,
      "çĴ": 5613,
      "Ġion": 5614,
      "ĮçĶŁ": 5615,
      "çļĦç§ĳåŃ¦": 5616,
      "çļĦæīĢæľī": 5617,
      "çļĦåıĳå±ķ": 5618,
      "Ġten": 5619,
      "Ġcertain": 5620,
      "æĺ¯çłĶç©¶": 5621,
      "any": 5622,
      "oriz": 5623,
      "alle": 5624,
      "Ġmedi": 5625,
      "åĩī": 5626,
      "Ġbest": 5627,
      "å¹Ķ": 5628,
      "Ġwrit": 5629,
      "Ġfoc": 5630,
      "åįļ": 5631,
      "èĢ¦": 5632,
      "Ġreach": 5633,
      "Ġreference": 5634,
      "æĪĲåĳĺ": 5635,
      "æĪĲæŃ£æ¯Ķ": 5636,
      "æ³¡": 5637,
      "ç¨į": 5638,
      "æ¯«": 5639,
      "Ġstra": 5640,
      "ä¾µ": 5641,
      "åı¯ä»¥æĺ¯": 5642,
      "ild": 5643,
      "æ²¸": 5644,
      "è¶£": 5645,
      "åħ³èģĶ": 5646,
      "çī¹çĤ¹": 5647,
      "æ°´åĪĨ": 5648,
      "æŃ£åľ¨": 5649,
      "æµ·åºķ": 5650,
      "Ġalmost": 5651,
      "åħĥç´łåĳ¨æľŁè¡¨": 5652,
      "ç»ĵæŀĦåĴĮ": 5653,
      "çľĭä¸į": 5654,
      "Ġengine": 5655,
      "å°ĳæķ°": 5656,
      "action": 5657,
      "åıĸå¾Ĺ": 5658,
      "ç£ģéĢļ": 5659,
      "åħ±æĮ¯": 5660,
      "å¹¶ä¸įä¼ļ": 5661,
      "ç½ĳè·¯": 5662,
      "è§ĦåĪĴ": 5663,
      "å¤±æķĪ": 5664,
      "ĠRNA": 5665,
      "è§Ĵèī²": 5666,
      "åĨĻæĪĲ": 5667,
      "ä¼ĺåħĪ": 5668,
      "æħ§": 5669,
      "ĠLe": 5670,
      "èµĦè®¯": 5671,
      "å¼ķåĬĽè´¨éĩı": 5672,
      "æĮ¯å¹ħ": 5673,
      "ä¿®é¥°": 5674,
      "Ġè¿Ļä¸Ģ": 5675,
      "Ġè¿Ļæł·": 5676,
      "æĻºæħ§": 5677,
      "Ġpoor": 5678,
      "åĬ©äºİ": 5679,
      "é©¬ä¸Ĭ": 5680,
      "Ġstronger": 5681,
      "çĪ¶": 5682,
      "Ġadditional": 5683,
      "æ¿Ģæ´»": 5684,
      "åĸľ": 5685,
      "è¶ĭåĲĳ": 5686,
      "Ġfinite": 5687,
      "Ġlimits": 5688,
      "åįłæį®": 5689,
      "é¡µéĿ¢": 5690,
      "Ġscales": 5691,
      "...": 5692,
      "Ġgradients": 5693,
      "é²ģ": 5694,
      "Ġfluid": 5695,
      "Ġprecise": 5696,
      "çİ»çĴ": 5697,
      "Ġoutcome": 5698,
      "åĪłéĻ¤": 5699,
      "åħ¬åħĥåīį": 5700,
      "çº¤ç»´": 5701,
      "Ġglobal": 5702,
      "encies": 5703,
      "çİ»çĴĥ": 5704,
      "94": 5705,
      "PAC": 5706,
      "aus": 5707,
      "ever": 5708,
      "gest": 5709,
      "lim": 5710,
      "met": 5711,
      "rig": 5712,
      "µĮ": 5713,
      "åµĮ": 5714,
      "ç¯": 5715,
      "éŀ": 5716,
      "Ġè¯¥": 5717,
      "Ġçİ°ä»£": 5718,
      "ĠÂ°": 5719,
      "Ġå°½ç®¡": 5720,
      "çļĦå®ŀéªĮ": 5721,
      "Ġsort": 5722,
      "ä¸įçŃīäºİ": 5723,
      "Ġpage": 5724,
      "Ġdra": 5725,
      "Ġdays": 5726,
      "ä¸ªäºº": 5727,
      "Ġwind": 5728,
      "åŃ¦ä¸Ń": 5729,
      "æ°¦": 5730,
      "æ°¯": 5731,
      "æī«": 5732,
      "Ġearlier": 5733,
      "åıĺå½¢": 5734,
      "åıĺå¼Ĥ": 5735,
      "å¤§è¥¿æ´ĭ": 5736,
      "èĢĮåľ¨": 5737,
      "åĲİéĿ¢": 5738,
      "Ġhyd": 5739,
      "Ġstandard": 5740,
      "çĶµè·¯": 5741,
      "è¡¨è¿°": 5742,
      "æĶ¿": 5743,
      "ç§įç¾¤": 5744,
      "idden": 5745,
      "åĲĳå¤ĸ": 5746,
      "ols": 5747,
      "æ°ĶæĹĭ": 5748,
      "Ġproject": 5749,
      "æŀĦå»º": 5750,
      "åĿļ": 5751,
      "çº¿ç´¢": 5752,
      "Ġexchan": 5753,
      "åı¯èĥ½æĢ§": 5754,
      "éķ§": 5755,
      "Ġforms": 5756,
      "antum": 5757,
      "çľĭä½ľ": 5758,
      "çľŁçļĦ": 5759,
      "ighb": 5760,
      "è±Ĩ": 5761,
      "æķ´çĲĨ": 5762,
      "æĮĩçļĦæĺ¯": 5763,
      "åĪ«äºº": 5764,
      "æŀģåľ°": 5765,
      "æŀģå°ı": 5766,
      "Ġintrodu": 5767,
      "Ġresid": 5768,
      "è¿ĲåĬ¨å®ļå¾ĭ": 5769,
      "æºĲäºİ": 5770,
      "æĴĳ": 5771,
      "èĳ¡èĲ": 5772,
      "Ġelectromagnetic": 5773,
      "åģıå¾®åĪĨæĸ¹ç¨ĭ": 5774,
      "åĪĨå¸ĥå¼ı": 5775,
      "ĠOne": 5776,
      "Ġtempor": 5777,
      "Ġactually": 5778,
      "Ġpoints": 5779,
      "Ġregular": 5780,
      "è¡¨è¾¾å¼ı": 5781,
      "Ġsolid": 5782,
      "éªĮè¯ģéĽĨ": 5783,
      "æ²¿çĿĢ": 5784,
      "Ġocc": 5785,
      "Ġjo": 5786,
      "ç¡¬ä»¶": 5787,
      "Ġaccumul": 5788,
      "Ġextra": 5789,
      "Ġatomic": 5790,
      "åģ¶çĦ¶": 5791,
      "Ġprotons": 5792,
      "è®°å¿Ĩä½ĵ": 5793,
      "åĳĬè¯ī": 5794,
      "Ġfactor": 5795,
      "Ġstatistics": 5796,
      "ç¹ģæ®ĸ": 5797,
      "Ġdiscovered": 5798,
      "åĳĪçİ°": 5799,
      "Ġremoved": 5800,
      "èģļåĲĪéħ¶": 5801,
      "pecially": 5802,
      "é»ĺè®¤": 5803,
      "Ġhappen": 5804,
      "Ġespecially": 5805,
      "èĳ¡èĲĦ": 5806,
      "),": 5807,
      "99": 5808,
      "ble": 5809,
      "ccess": 5810,
      "dt": 5811,
      "iel": 5812,
      "oy": 5813,
      "xy": 5814,
      "Ġ6": 5815,
      "Ġterms": 5816,
      "inc": 5817,
      "rete": 5818,
      "Ġcac": 5819,
      "æĺ¯ä»¥": 5820,
      "æĺ¯æľĢ": 5821,
      "æĺ¯è¯¯åĮº": 5822,
      "æľīçĶ¨": 5823,
      "Ġpack": 5824,
      "Ġwrong": 5825,
      "ä»¥ä¸ĭçļĦ": 5826,
      "çĽĴ": 5827,
      "æµĨ": 5828,
      "ä¼ļåĦ¿": 5829,
      "Ġlab": 5830,
      "å¤§èĩ´": 5831,
      "çĶŁåŃĺ": 5832,
      "ä¸Ĭæľī": 5833,
      "å¤ļå±Ĥ": 5834,
      "åĲİèĢħ": 5835,
      "åĩºåıĳ": 5836,
      "åıĳå°Ħ": 5837,
      "åıĳå¸ĥ": 5838,
      "iments": 5839,
      "ç´«": 5840,
      "ä¹Łåı¯": 5841,
      "idge": 5842,
      "éĽ¾": 5843,
      "term": 5844,
      "å½¢æĢģ": 5845,
      "els": 5846,
      "å®ĥæĺ¯": 5847,
      "æ¸Ĺ": 5848,
      "osite": 5849,
      "æ´¾": 5850,
      "ember": 5851,
      "æ¬¢": 5852,
      "å¹³æ´ĭ": 5853,
      "Ġneighb": 5854,
      "plied": 5855,
      "æķ°æį®ç»ĵæŀĦ": 5856,
      "çľĭè§ģ": 5857,
      "å·¥ä¸ļ": 5858,
      "è¾ĥå°ı": 5859,
      "æ³¢çļĦ": 5860,
      "acing": 5861,
      "äºĮç»´": 5862,
      "ocks": 5863,
      "Ġshaking": 5864,
      "ä½İæ¸©": 5865,
      "å»ī": 5866,
      "è®¤è¯Ĩ": 5867,
      "é¢ĦæľŁ": 5868,
      "åľ°çĲĥè¡¨éĿ¢": 5869,
      "å¤ªç©º": 5870,
      "å¤ªå¹³æ´ĭ": 5871,
      "åĬŁçİĩ": 5872,
      "åĿĩåĢ¼": 5873,
      "æ¡¥": 5874,
      "çº¦ä¸º": 5875,
      "Ġdifferently": 5876,
      "Ġspin": 5877,
      "å®ŀéªĮå®¤": 5878,
      "Ġtrain": 5879,
      "Ġpercent": 5880,
      "æķ£å°Ħ": 5881,
      "åıĪç§°": 5882,
      "å¤ªéĺ³ç³»": 5883,
      "éļıæľºåıĺéĩı": 5884,
      "Ġyou": 5885,
      "rying": 5886,
      "Ġothers": 5887,
      "Ġapplying": 5888,
      "æ¹¾": 5889,
      "éĢłæĪĲçļĦ": 5890,
      "åıĮèŀºæĹĭ": 5891,
      "åķ¸": 5892,
      "çīĩæ®µ": 5893,
      "Ġcomputer": 5894,
      "Ġsetting": 5895,
      "æ¹¿åº¦": 5896,
      "Ġstudies": 5897,
      "äºīè®º": 5898,
      "Ġmechanical": 5899,
      "Ġmechanisms": 5900,
      "Ġspecific": 5901,
      "çĻ¾ä¸ĩ": 5902,
      "è®¯æģ¯": 5903,
      "éĴĪå¯¹": 5904,
      "Ġlevels": 5905,
      "èģĶç³»èµ·æĿ¥": 5906,
      "Ġunderstanding": 5907,
      "Ġmathem": 5908,
      "å¹¿ä¹īçĽ¸å¯¹è®º": 5909,
      "Ġrecords": 5910,
      "Ġlayer": 5911,
      "Ġlayers": 5912,
      "Ġquestions": 5913,
      "uracy": 5914,
      "Ġpopulation": 5915,
      "Ġvolcanic": 5916,
      "å°ļæľª": 5917,
      "è¢«è®¤ä¸ºæĺ¯": 5918,
      "Ġangular": 5919,
      "èĻļæĭŁ": 5920,
      "Ġpropag": 5921,
      "ĠPhysics": 5922,
      "è¿ĶåĽŀ": 5923,
      "çŁ¢éĩı": 5924,
      "çĭŃä¹īçĽ¸å¯¹è®º": 5925,
      "Ġtarget": 5926,
      "é¥±åĴĮ": 5927,
      "35": 5928,
      "After": 5929,
      "FS": 5930,
      "IC": 5931,
      "NS": 5932,
      "hood": 5933,
      "miss": 5934,
      "pr": 5935,
      "Ġ5": 5936,
      "ĠçĶ±": 5937,
      "ĠéĢļå¸¸": 5938,
      "çļĦåĢ¼": 5939,
      "çļĦé«ĺ": 5940,
      "çļĦåĬŁèĥ½": 5941,
      "inary": 5942,
      "Ġsk": 5943,
      "å®¡": 5944,
      "ä¸ĢåįĬ": 5945,
      "Ġmere": 5946,
      "ither": 5947,
      "Ġposition": 5948,
      "ä¼´": 5949,
      "Ġdest": 5950,
      "Ġdynam": 5951,
      "Ġfull": 5952,
      "åį±": 5953,
      "lement": 5954,
      "è´§": 5955,
      "èĢĮéĿŀ": 5956,
      "Ġhalf": 5957,
      "çĽ¸å¯¹äºİ": 5958,
      "å¸¸çĶ¨çļĦ": 5959,
      "stra": 5960,
      "eli": 5961,
      "å¤įæķ°": 5962,
      "ä½Ĩå®ĥ": 5963,
      "æĬĬä¸Ģä¸ª": 5964,
      "Ġview": 5965,
      "å¥ı": 5966,
      "ç§¯ç´¯": 5967,
      "æİ¥åı£": 5968,
      "ä¼łæĦŁ": 5969,
      "æıĲéĨĴ": 5970,
      "æ±Ĳ": 5971,
      "Ġselect": 5972,
      "èī¾": 5973,
      "äº§çĶŁäºĨ": 5974,
      "Ġshar": 5975,
      "å°Ħçº¿": 5976,
      "è¶Ĭå¤ļ": 5977,
      "åıĳçĶŁçļĦ": 5978,
      "è®°ä¸º": 5979,
      "å®ļä¹īåŁŁ": 5980,
      "åĽ¾çģµ": 5981,
      "ibr": 5982,
      "Ġleaves": 5983,
      "äº¤æµģ": 5984,
      "Ġinterval": 5985,
      "èİ«": 5986,
      "éĤ£æł·": 5987,
      "æ¸©åº¦åĴĮ": 5988,
      "Ġdisturb": 5989,
      "å±ķå¼Ģ": 5990,
      "å®Įåħ¨ä¸įåĲĮçļĦ": 5991,
      "rents": 5992,
      "çº§ç»ĵæŀĦ": 5993,
      "è¯ķåĽ¾": 5994,
      "Ġrain": 5995,
      "Ġremember": 5996,
      "Ġproducing": 5997,
      "æŁĵèī²è´¨": 5998,
      "Ġreco": 5999,
      "Ġindex": 6000,
      "èĴĻ": 6001,
      "ç¬¬äºĮå®ļå¾ĭ": 6002,
      "Ġmeaning": 6003,
      "Ġinstrum": 6004,
      "Ġsuperconducting": 6005,
      "Ġerrors": 6006,
      "è¿Ļæł·çļĦ": 6007,
      "Ġfailure": 6008,
      "æ½®æ±Ĳ": 6009,
      "èĢģå¸Ī": 6010,
      "Ġrepeatedly": 6011,
      "åŃ£èĬĤ": 6012,
      "Ġidea": 6013,
      "Ġwavelength": 6014,
      "ypot": 6015,
      "Ġupdate": 6016,
      "åĢŁçĶ±": 6017,
      "Ġrisk": 6018,
      "åĲ¯åĬ¨": 6019,
      "Ġclear": 6020,
      "ansion": 6021,
      "Ġsometimes": 6022,
      "Ġrapidly": 6023,
      "Ġreached": 6024,
      "ä¸Ļéħ®": 6025,
      "allel": 6026,
      "AB": 6027,
      "flow": 6028,
      "Ġåı¦å¤ĸ": 6029,
      "çļĦçĽ®æłĩ": 6030,
      "Ġtable": 6031,
      "Ġtecton": 6032,
      "Ġast": 6033,
      "åĲī": 6034,
      "Ġsent": 6035,
      "Ġpubl": 6036,
      "åĩŃ": 6037,
      "Ġbus": 6038,
      "ä¸ªæķ°": 6039,
      "å¯¿": 6040,
      "ici": 6041,
      "icon": 6042,
      "æĹ¶ä»£": 6043,
      "çİĭ": 6044,
      "åĮĸåĴĮ": 6045,
      "çº²": 6046,
      "è¿Ļä¸¤ä¸ª": 6047,
      "éĻĮçĶŁ": 6048,
      "è¿ĩçļĦ": 6049,
      "çĽ¸æ¯Ķ": 6050,
      "ä½ľåĬŁ": 6051,
      "Ġbel": 6052,
      "ä¸ĭä¸Ģä¸ª": 6053,
      "æĽ´ä½İ": 6054,
      "åİŁæł¸": 6055,
      "çĤ¸": 6056,
      "ching": 6057,
      "éģµ": 6058,
      "æ°´çļĦ": 6059,
      "ection": 6060,
      "å¤ĸå±Ĥ": 6061,
      "Ġwhole": 6062,
      "è°¨": 6063,
      "Ġsufficient": 6064,
      "izing": 6065,
      "æĮĩå®ļ": 6066,
      "èĦī": 6067,
      "Ġunus": 6068,
      "Ġcomposition": 6069,
      "ä½İäºİ": 6070,
      "Ġlead": 6071,
      "Ġroute": 6072,
      "Ġobs": 6073,
      "åĲįåŃĹ": 6074,
      "æĶ¶éĽĨ": 6075,
      "Ġparts": 6076,
      "Ġclim": 6077,
      "åįģåĪĨ": 6078,
      "åĳ¨æľŁæĢ§": 6079,
      "Ġeveryone": 6080,
      "Ġdecre": 6081,
      "æ°¢ç¦»åŃĲ": 6082,
      "åı¶ç»¿": 6083,
      "æ¿Ģåıĳ": 6084,
      "åįĹæŀģ": 6085,
      "Ġmainly": 6086,
      "Ġmaintain": 6087,
      "Ġresearchers": 6088,
      "Ġtokens": 6089,
      "Ġflux": 6090,
      "Ġcentral": 6091,
      "Ġcircu": 6092,
      "Ġprecision": 6093,
      "Ġupdates": 6094,
      "Ġstreet": 6095,
      "Ġsomething": 6096,
      "Ġbias": 6097,
      "âŁ©": 6098,
      "Ġrarely": 6099,
      "èĵĿ": 6100,
      "Ġfundam": 6101,
      "Ġmerely": 6102,
      "ä¼łæĦŁåĻ¨": 6103,
      "100": 6104,
      "Ar": 6105,
      "BM": 6106,
      "Before": 6107,
      "Elect": 6108,
      "SO": 6109,
      "Sc": 6110,
      "Two": 6111,
      "ares": 6112,
      "mv": 6113,
      "mer": 6114,
      "off": 6115,
      "ton": 6116,
      "the": 6117,
      "water": 6118,
      "æ§": 6119,
      "ĠX": 6120,
      "Ġä»¥": 6121,
      "ĠâĨĴ": 6122,
      "çļĦåŃĲ": 6123,
      "çļĦè§£": 6124,
      "çļĦæĢ§è´¨": 6125,
      "inite": 6126,
      "ä½ł": 6127,
      "Ġsed": 6128,
      "åĬª": 6129,
      "ä¸įåıªæĺ¯": 6130,
      "æľīè®¸å¤ļ": 6131,
      "å¹ķ": 6132,
      "åı¯å¯¼": 6133,
      "åŃ¦æľ¯": 6134,
      "ä¼ļæĬĬ": 6135,
      "Ġlif": 6136,
      "å·§": 6137,
      "å¤ļæ¬¡": 6138,
      "åľ°åĽ¾": 6139,
      "Ġhoriz": 6140,
      "çİ°ä»Ĭ": 6141,
      "Ġbelow": 6142,
      "äººéĥ½": 6143,
      "æĮ¤": 6144,
      "éĢļçĶ¨": 6145,
      "æľĢå¤ļ": 6146,
      "ä¹ĭä¸Ń": 6147,
      "è¡Įç¨ĭ": 6148,
      "æ°Ķæµģ": 6149,
      "æ°Ķåİĭ": 6150,
      "Ġprote": 6151,
      "ifies": 6152,
      "é«ĺäºİ": 6153,
      "çĦ¦": 6154,
      "rier": 6155,
      "Ġforces": 6156,
      "Ġnotice": 6157,
      "æĹ¶éĹ´å¤įæĿĤåº¦": 6158,
      "resents": 6159,
      "artment": 6160,
      "åİŁåŃĲéĩı": 6161,
      "åĩłç§į": 6162,
      "Ġselection": 6163,
      "æ¶¡": 6164,
      "ä½ľçĶ¨çļĦ": 6165,
      "äºĮéĺ¶": 6166,
      "è®¾ç½®": 6167,
      "pth": 6168,
      "æĺ¾å¾®": 6169,
      "çī©çĲĨéĩı": 6170,
      "Ġrocks": 6171,
      "ä¸īè§Ĵ": 6172,
      "éĢĤçĶ¨": 6173,
      "Ġscience": 6174,
      "æĥ³æ³ķ": 6175,
      "èĭ¥å¹²": 6176,
      "è¶³ä»¥": 6177,
      "æĹ©æĻ¨": 6178,
      "ä¼ĺåĬ¿": 6179,
      "æĭīæĸ¯": 6180,
      "Ġgradu": 6181,
      "Ġoutside": 6182,
      "ä¸ļåĬ¡": 6183,
      "Ġrepresents": 6184,
      "Ġpost": 6185,
      "Ġworked": 6186,
      "æĳĦ": 6187,
      "è¯»åıĸ": 6188,
      "èĴĤ": 6189,
      "ç¼ºå°ĳ": 6190,
      "Ġparallel": 6191,
      "plications": 6192,
      "requency": 6193,
      "è¶ħå¯¼ä½ĵ": 6194,
      "ledge": 6195,
      "Ġaccuracy": 6196,
      "Ġcausal": 6197,
      "å¼¹æĢ§": 6198,
      "å¼¹ç°": 6199,
      "äº¿å¹´åīį": 6200,
      "Ġproperty": 6201,
      "æĶ¾å°ĦæĢ§åĲĮä½įç´ł": 6202,
      "Ġbackground": 6203,
      "Ġprogress": 6204,
      "Ġgravitational": 6205,
      "æĦŁçŁ¥æľº": 6206,
      "Ġrotation": 6207,
      "Ġfamiliar": 6208,
      "è¿ģç§»": 6209,
      "è¡£æľį": 6210,
      "Ġpractical": 6211,
      "å¼¯æĽ²": 6212,
      "Ġdataset": 6213,
      "èĢ¦åĲĪ": 6214,
      "iciency": 6215,
      "å¼¹ç°§": 6216,
      "ob": 6217,
      "of": 6218,
      "tical": 6219,
      "vari": 6220,
      "Ġä¸įåĲĮ": 6221,
      "Ġè¡¨ç¤º": 6222,
      "ĠæľīäºĽ": 6223,
      "çļĦåºĶçĶ¨": 6224,
      "çļĦå¤§å°ı": 6225,
      "çļĦå·¥ä½ľ": 6226,
      "Ġaction": 6227,
      "reg": 6228,
      "ä½³": 6229,
      "Ġsin": 6230,
      "Ġslight": 6231,
      "ener": 6232,
      "ä¸Ģå°ı": 6233,
      "æĺ¯å°Ĩ": 6234,
      "orre": 6235,
      "æĪı": 6236,
      "Ġmist": 6237,
      "æľīå¤ļ": 6238,
      "æľīåĬ©äºİ": 6239,
      "Ġpast": 6240,
      "Ġwarning": 6241,
      "Ġfore": 6242,
      "Ġfood": 6243,
      "Ġfloor": 6244,
      "åı¯åľ¨": 6245,
      "åı¯åĪĨä¸º": 6246,
      "åįİ": 6247,
      "æĹ¶åĪ»": 6248,
      "æĪĲçĨŁ": 6249,
      "çī©ä»¶": 6250,
      "è´¦": 6251,
      "ä¼ļå½¢æĪĲ": 6252,
      "ä¼ļå¢ŀåĬł": 6253,
      "å¤§åŃ¦": 6254,
      "çĶŁæ®ĸ": 6255,
      "Ġhidden": 6256,
      "Ġstability": 6257,
      "struct": 6258,
      "æĽ´å¤§çļĦ": 6259,
      "æľĢè¿ĳ": 6260,
      "ä½¿åħ¶": 6261,
      "ä¹ĭåĴĮ": 6262,
      "è¢«è§Ĩä¸º": 6263,
      "ä½įæķ°": 6264,
      "åĵ¥": 6265,
      "æ°´æ»´": 6266,
      "å¹´åĲİ": 6267,
      "Ġexpen": 6268,
      "Ġexternal": 6269,
      "èĥ¶": 6270,
      "éĶħ": 6271,
      "Ġdepth": 6272,
      "æıĲåįĩ": 6273,
      "åıĺåĮĸçİĩ": 6274,
      "è¾ĥä¸º": 6275,
      "ç«ĭæĸ¹": 6276,
      "åŃĺåľ¨äºİ": 6277,
      "åıĸä»£": 6278,
      "ĠCo": 6279,
      "åıĳçİ°äºĨ": 6280,
      "anding": 6281,
      "å±ŀæĢ§": 6282,
      "Ġevents": 6283,
      "rupt": 6284,
      "æ¢ħ": 6285,
      "ĠDifferent": 6286,
      "åģıæĮ¯": 6287,
      "èĳĹä½ľ": 6288,
      "é¢ĳç¹ģ": 6289,
      "æ·±æµ·": 6290,
      "èģļéĽĨ": 6291,
      "Ġsmo": 6292,
      "æĻ®åĭĴ": 6293,
      "Ġoverall": 6294,
      "è§Ĥå¯ŁèĢħ": 6295,
      "Ġrepair": 6296,
      "Ġexpansion": 6297,
      "Ġcreates": 6298,
      "Ġcreating": 6299,
      "å¹²æī°": 6300,
      "å¡Ķ": 6301,
      "å¸ĮæľĽ": 6302,
      "å½Ĵçº³": 6303,
      "åı¤ä»£": 6304,
      "Ġcapt": 6305,
      "éĿĻçĶµ": 6306,
      "éĢıæĺİ": 6307,
      "Ġnumerical": 6308,
      "åı¶æĸ¯": 6309,
      "Ġinstant": 6310,
      "éĻĦè¿ĳçļĦ": 6311,
      "è´Ŀåı¶æĸ¯": 6312,
      "äºīè®®": 6313,
      "è½¬æį¢ä¸º": 6314,
      "culation": 6315,
      "å¸Ĥåľº": 6316,
      "Ġconnected": 6317,
      "Ġchoices": 6318,
      "Ġexpected": 6319,
      "Ġsteps": 6320,
      "Ġstream": 6321,
      "çĶ²åŁº": 6322,
      "Ġmonth": 6323,
      "ä¿Ŀå®ĪåĬĽ": 6324,
      "èİ±å¸ĥå°¼èĮ¨": 6325,
      "Ġnatural": 6326,
      "Ġdetails": 6327,
      "æĹģè¾¹": 6328,
      "Ġrule": 6329,
      "çĸ¾çĹħ": 6330,
      "èĳ¡èĲĦç³ĸ": 6331,
      "32": 6332,
      "Ne": 6333,
      "com": 6334,
      "efficient": 6335,
      "position": 6336,
      "ted": 6337,
      "yond": 6338,
      "æĩ": 6339,
      "çļĦæķ°éĩı": 6340,
      "ä»ĳ": 6341,
      "è¿ª": 6342,
      "Ġsit": 6343,
      "Ġmill": 6344,
      "Ġmark": 6345,
      "éĢĥ": 6346,
      "ingu": 6347,
      "Ġwindow": 6348,
      "åĪĨæķ°": 6349,
      "ä»¥æĿ¥": 6350,
      "çĶ¨åĪ°": 6351,
      "æĪĲæŀľ": 6352,
      "Ġnet": 6353,
      "ä¼ļå¯¼èĩ´": 6354,
      "çº¹": 6355,
      "Ġlist": 6356,
      "éĹ´éļĶ": 6357,
      "åľ°å¹Ķ": 6358,
      "Ġhome": 6359,
      "æ³ķåĽ½": 6360,
      "åı¯ä»¥ä»İ": 6361,
      "åı¯ä»¥ä½¿çĶ¨": 6362,
      "åı¯ä»¥å°Ĩ": 6363,
      "éĺĪ": 6364,
      "Ġconcept": 6365,
      "Ġgiv": 6366,
      "ames": 6367,
      "åıªéľĢè¦ģ": 6368,
      "æŁ¯": 6369,
      "æ´ģ": 6370,
      "çº¿ç¨ĭ": 6371,
      "åĪĻç§°": 6372,
      "è·ĳ": 6373,
      "rie": 6374,
      "æĬĬå®ĥ": 6375,
      "Ġmap": 6376,
      "æµ·åķ¸": 6377,
      "Ġnotic": 6378,
      "è°Ī": 6379,
      "resp": 6380,
      "åħīçļĦ": 6381,
      "ĠAd": 6382,
      "ĠSh": 6383,
      "çľŁç©º": 6384,
      "aced": 6385,
      "acility": 6386,
      "è®¾æĸ½": 6387,
      "çĻ½å¤©": 6388,
      "Ġunits": 6389,
      "ç¢İ": 6390,
      "è®¤çŁ¥": 6391,
      "ç§ĳåŃ¦çĲĨè®º": 6392,
      "èĬĤå¥ı": 6393,
      "195": 6394,
      "ibration": 6395,
      "æ±Ĥå¯¼": 6396,
      "å¹¶ä¸įçŃīäºİ": 6397,
      "æ»¤": 6398,
      "åĩıå°ı": 6399,
      "ä¾ĿéĿł": 6400,
      "çģ°": 6401,
      "åįĬè¡°": 6402,
      "åįĬå°ıæĹ¶": 6403,
      "æľªå¿ħ": 6404,
      "ç»ĪæŃ¢": 6405,
      "å¤ªéĺ³çļĦ": 6406,
      "çĽ®æłĩåĢ¼": 6407,
      "ä»ħå½ĵ": 6408,
      "ĠWe": 6409,
      "Ġreducing": 6410,
      "éĩıåŃĲæĢģ": 6411,
      "çŁŃæļĤ": 6412,
      "èĮĥåĽ´åĨħ": 6413,
      "Ġdecay": 6414,
      "Ġmatters": 6415,
      "Ġsolution": 6416,
      "éĺŁåĪĹ": 6417,
      "Ġcontrolled": 6418,
      "Ġlikely": 6419,
      "Ġsimpl": 6420,
      "Ġcrust": 6421,
      "Ġcaused": 6422,
      "ä¸ŃåŃĲæķ°": 6423,
      "Ġbuild": 6424,
      "åģ¶å°Ķ": 6425,
      "Ġprediction": 6426,
      "çıł": 6427,
      "Ġconverg": 6428,
      "æ½®æ¹¿": 6429,
      "æī¿æĭħ": 6430,
      "å¨ģå»ī": 6431,
      "Ġmatrix": 6432,
      "Ġnetworks": 6433,
      "å·¨å¤§": 6434,
      "æīĢéľĢçļĦ": 6435,
      "Ġinputs": 6436,
      "cosity": 6437,
      "Ġarrived": 6438,
      "Ġdomain": 6439,
      "Ġassociated": 6440,
      "èĩªçĦ¶çķĮä¸Ń": 6441,
      "Ġfilter": 6442,
      "Ġmessage": 6443,
      "Ġtheorem": 6444,
      "Ġcommunication": 6445,
      "æī«æıı": 6446,
      "Ġoccup": 6447,
      "Ġslightly": 6448,
      "åįĬè¡°æľŁ": 6449,
      "Ax": 6450,
      "En": 6451,
      "ST": 6452,
      "Un": 6453,
      "equ": 6454,
      "mall": 6455,
      "rite": 6456,
      "Ġä¸Ń": 6457,
      "Ġir": 6458,
      "Ġç»Ĩèĥŀ": 6459,
      "Ġæµ·æ´ĭ": 6460,
      "ä¸ĥ": 6461,
      "çļĦçĬ¶æĢģ": 6462,
      "çļĦæĥħåĨµ": 6463,
      "çļĦæķ°åĢ¼": 6464,
      "åħ¼": 6465,
      "ç»ĺ": 6466,
      "Ġcame": 6467,
      "ä¸Ģç²Ĵ": 6468,
      "alse": 6469,
      "ä¸įçŃīå¼ı": 6470,
      "Ġdem": 6471,
      "Ġdiv": 6472,
      "Ġfav": 6473,
      "lex": 6474,
      "æ³°": 6475,
      "ceed": 6476,
      "ç®Ń": 6477,
      "Ġhist": 6478,
      "Ġhypot": 6479,
      "ä¹Łåľ¨": 6480,
      "ray": 6481,
      "rams": 6482,
      "è½Ń": 6483,
      "æĽ´éļ¾": 6484,
      "æĽ´æİ¥è¿ĳ": 6485,
      "ä¹ĭä¸Ĭ": 6486,
      "åī§": 6487,
      "å¾Īé«ĺ": 6488,
      "å¾Īå¤§çļĦ": 6489,
      "æ¸Ķ": 6490,
      "oses": 6491,
      "è¿Ľåİ»": 6492,
      "å¤įåĲĪ": 6493,
      "å¤ĸçķĮ": 6494,
      "Ġwhose": 6495,
      "åħ¥åı£": 6496,
      "éķ¿çļĦ": 6497,
      "å¤©ç©º": 6498,
      "å®Įç¾İ": 6499,
      "çĻ»": 6500,
      "è¾ĥå°ĳ": 6501,
      "Ġend": 6502,
      "åĮĸåŃ¦åħĥç´ł": 6503,
      "ä¸»é¢ĺ": 6504,
      "éĵľ": 6505,
      "èĥ½éĩıå®ĪæģĴ": 6506,
      "æ±Ĥåĩº": 6507,
      "è§ģçļĦ": 6508,
      "ç¥ĸ": 6509,
      "Ġdistant": 6510,
      "åĽ´ç»ķ": 6511,
      "Ġrelation": 6512,
      "å±ķç¤º": 6513,
      "å®Įåħ¨çĽ¸åĲĮ": 6514,
      "çľŁæŃ£çļĦ": 6515,
      "aps": 6516,
      "ĠBecause": 6517,
      "èģļåıĺ": 6518,
      "å¹³è¡¡ä½įç½®": 6519,
      "è§Ĥå¯ŁåĪ°": 6520,
      "ç¾¤ä½ĵ": 6521,
      "èı²": 6522,
      "Ġsurround": 6523,
      "Ġcolor": 6524,
      "Ġmagma": 6525,
      "çī©çĲĨåŃ¦èĢħ": 6526,
      "æĳĨ": 6527,
      "åıĹåĪ°çļĦ": 6528,
      "ĠInst": 6529,
      "è¯ģæĺİäºĨ": 6530,
      "Ġvariance": 6531,
      "Ġcorresp": 6532,
      "æī©å¤§": 6533,
      "Ġcomputation": 6534,
      "ç±»åŀĭçļĦ": 6535,
      "Ġconfidence": 6536,
      "Ġeasy": 6537,
      "è¯Ħä»·": 6538,
      "çļĦæľĢå°ı": 6539,
      "åħħåĪĨ": 6540,
      "Ġinspect": 6541,
      "Ġslower": 6542,
      "Ġallows": 6543,
      "Ġnuclear": 6544,
      "æĳ©å°Ķ": 6545,
      "Ġclassical": 6546,
      "Ġrelatively": 6547,
      "æĺłå°ĦåĪ°": 6548,
      "å¼ĹéĩĮ": 6549,
      "å¯ĨçłģåŃĲ": 6550,
      "Ġcomponent": 6551,
      "çĳŁ": 6552,
      "é¾Ļ": 6553,
      "Ġpolar": 6554,
      "åħ´è¶£": 6555,
      "çĪĨçĤ¸": 6556,
      "Ġderivative": 6557,
      "è¸ª": 6558,
      "Ġbreak": 6559,
      "Ġinitial": 6560,
      "ĠAcceler": 6561,
      "Ġtrue": 6562,
      "æ±¡æŁĵ": 6563,
      "Ġprobabilities": 6564,
      "ä¸Ļéħ®éħ¸": 6565,
      "Ġfundamental": 6566,
      "Ġgradually": 6567,
      "ched": 6568,
      "fort": 6569,
      "iol": 6570,
      "ope": 6571,
      "Ġ|": 6572,
      "ĠçĽ®åīį": 6573,
      "çļĦä¾ĭåŃĲ": 6574,
      "rec": 6575,
      "ativity": 6576,
      "Ġsa": 6577,
      "Ġsil": 6578,
      "ä¹ı": 6579,
      "åľ¨æ°´": 6580,
      "ä¸įåı¯èĥ½": 6581,
      "çīĮ": 6582,
      "ising": 6583,
      "è¯¦": 6584,
      "Ġwant": 6585,
      "åĪĨå¼Ģ": 6586,
      "çĽĨ": 6587,
      "Ġrevers": 6588,
      "Ġreplication": 6589,
      "æīĩ": 6590,
      "çī©åĵģ": 6591,
      "æ³Ħ": 6592,
      "ç³Ĭ": 6593,
      "è¡¨å±Ĥ": 6594,
      "éĺħ": 6595,
      "æĮĳ": 6596,
      "éĢļä¿¡": 6597,
      "æĭį": 6598,
      "Ġones": 6599,
      "æľĢå®¹æĺĵ": 6600,
      "è¢ĭ": 6601,
      "æīĢåıĹ": 6602,
      "è¢«çĶ¨äºİ": 6603,
      "å®ŀæĹ¶": 6604,
      "è¡ĮçļĦ": 6605,
      "è¡ĮåĬ¨": 6606,
      "è®ºæĸĩ": 6607,
      "çĤ¹åĴĮ": 6608,
      "å¾Īå¥½": 6609,
      "osen": 6610,
      "æŃ£æĺ¯": 6611,
      "æµ·æµª": 6612,
      "Ġrules": 6613,
      "ploy": 6614,
      "artic": 6615,
      "è¿ĲçĶ¨": 6616,
      "æĦıå¤ĸ": 6617,
      "è¿ĺåĮħæĭ¬": 6618,
      "è¾ĥå¤§çļĦ": 6619,
      "è¾ĥå°ıçļĦ": 6620,
      "Ġsug": 6621,
      "Ġsuitable": 6622,
      "ĠSe": 6623,
      "ĠSome": 6624,
      "è¯´æ³ķ": 6625,
      "pty": 6626,
      "çĿ¡": 6627,
      "NASA": 6628,
      "Ġcompares": 6629,
      "éĵ¶": 6630,
      "çŁ©éĺµA": 6631,
      "Ġsoil": 6632,
      "æ·¡": 6633,
      "æŀģæĢ§": 6634,
      "èĥ½éĩıçļĦ": 6635,
      "éĴ±": 6636,
      "è¾¾å°Ķæĸĩ": 6637,
      "åħ±è½Ń": 6638,
      "Ġusual": 6639,
      "åĲ«ä¹ī": 6640,
      "åĽŀæĿ¥": 6641,
      "Ġrough": 6642,
      "æİ¨åĩº": 6643,
      "æİ¨è®º": 6644,
      "Ġintermedi": 6645,
      "Ġsched": 6646,
      "åħĭæĸ¯": 6647,
      "Ġclosed": 6648,
      "Ġadding": 6649,
      "éģĹä¼łåŃ¦": 6650,
      "oking": 6651,
      "æĹ¥å¿Ĺ": 6652,
      "Ġdatab": 6653,
      "ĠHigh": 6654,
      "Ġsurv": 6655,
      "Ġactual": 6656,
      "æŁĵèī²ä½ĵçļĦ": 6657,
      "Ġpoly": 6658,
      "åĪĩçº¿": 6659,
      "Ġcurrents": 6660,
      "æ¹ĸ": 6661,
      "åĪĴåĪĨ": 6662,
      "ç¼ºä¹ı": 6663,
      "inux": 6664,
      "æĢĿèĢĥ": 6665,
      "åı¯ä»¥çĶ¨æĿ¥": 6666,
      "åĪĽå»º": 6667,
      "çļĦæľĢå¤§": 6668,
      "è´¹ç±³": 6669,
      "æĹ©æľŁçļĦ": 6670,
      "Ġunique": 6671,
      "Ġsupports": 6672,
      "åĩĿèģļ": 6673,
      "Ġprim": 6674,
      "é²ľ": 6675,
      "Ġdelay": 6676,
      "Ġchoice": 6677,
      "éĺ²æŃ¢": 6678,
      "æĸľçİĩ": 6679,
      "Ġcomplexity": 6680,
      "Ġneutrons": 6681,
      "çŀ¬éĹ´": 6682,
      "é¾Ħ": 6683,
      "Ġwaiting": 6684,
      "Ġagainst": 6685,
      "Ġatmosphere": 6686,
      "Ġresources": 6687,
      "Ġconvex": 6688,
      "çģŃç»Ŀ": 6689,
      "åĸľæ¬¢": 6690,
      "å¯¿åĳ½": 6691,
      "éĺĪåĢ¼": 6692,
      "95": 6693,
      "Al": 6694,
      "As": 6695,
      "dden": 6696,
      "oper": 6697,
      "Ġå¦Ĥ": 6698,
      "ĠåİŁåŃĲ": 6699,
      "Ĺä½Ļ": 6700,
      "ï¼Įâĭ¯": 6701,
      "çļĦæĸ°": 6702,
      "çļĦå½¢æĪĲ": 6703,
      "çļĦçī©ä½ĵ": 6704,
      "çļĦä¸ľè¥¿": 6705,
      "inding": 6706,
      "ä»¿": 6707,
      "atives": 6708,
      "Ġsal": 6709,
      "ancy": 6710,
      "å°ĺ": 6711,
      "Ġbatter": 6712,
      "è¯¸": 6713,
      "Ġfalse": 6714,
      "æĿ°": 6715,
      "æĿĨ": 6716,
      "åŃ¦ä¼ļ": 6717,
      "åŃĲéĽĨ": 6718,
      "åĨĹä½Ļ": 6719,
      "å®ļéĩı": 6720,
      "å®ļä½į": 6721,
      "å¤§èĦĳ": 6722,
      "å¤§è§Ħæ¨¡": 6723,
      "omers": 6724,
      "åĩºæĿ¥çļĦ": 6725,
      "åı¯ä»¥çĶ±": 6726,
      "å¿Ļ": 6727,
      "Ġconcur": 6728,
      "æĽ´å¥½": 6729,
      "æľĢå¤§çļĦ": 6730,
      "åİŁåĪĻ": 6731,
      "Ġglu": 6732,
      "Ġgases": 6733,
      "Ġgood": 6734,
      "è®¡æķ°": 6735,
      "ä¹ĭä¸º": 6736,
      "èĩªæĹĭ": 6737,
      "å¾Ĺåĩº": 6738,
      "åŀĴ": 6739,
      "éļ§": 6740,
      "ĠTo": 6741,
      "æŀĦè±¡": 6742,
      "åı¯èĥ½åľ¨": 6743,
      "å¤įåĲĪçī©": 6744,
      "ä¸¤æĿ¡": 6745,
      "åīįæıĲ": 6746,
      "Ġdead": 6747,
      "Ġcomes": 6748,
      "å¤ĸçº¿": 6749,
      "è°Ĳ": 6750,
      "åĪĹè¡¨": 6751,
      "æıĲç¤º": 6752,
      "çłĶç©¶çļĦ": 6753,
      "æ¯ıå¹´": 6754,
      "Ġsuccess": 6755,
      "Ġsudden": 6756,
      "çĽ´è§ī": 6757,
      "åħ·å¤ĩ": 6758,
      "çĲĨè®ºä¸Ĭ": 6759,
      "å°Ĩåħ¶": 6760,
      "æĮĩéĴĪ": 6761,
      "sequ": 6762,
      "è¶Ĭé«ĺ": 6763,
      "orth": 6764,
      "é£İéĢŁ": 6765,
      "odes": 6766,
      "ç¾§": 6767,
      "ç®Ģç§°": 6768,
      "Ġrout": 6769,
      "åħ¶ä»ĸçļĦ": 6770,
      "Ġspect": 6771,
      "çģ¾": 6772,
      "ä¸įèĥ½åıª": 6773,
      "Ġdispl": 6774,
      "çİ¯å¢ĥä¸Ń": 6775,
      "èĭ±éĩĮ": 6776,
      "Ġefficiency": 6777,
      "æĶ¯æĴĳ": 6778,
      "Ġlost": 6779,
      "å¹²çĩ": 6780,
      "ä¸ĸçºªçļĦ": 6781,
      "äººç±»çļĦ": 6782,
      "çī©çĲĨåŃ¦å®¶": 6783,
      "ificant": 6784,
      "è¡¨çİ°ä¸º": 6785,
      "å¾Ģå¾Ģæ¯Ķ": 6786,
      "Ġexplan": 6787,
      "Ġkept": 6788,
      "çĸĳ": 6789,
      "çĸĹ": 6790,
      "plicated": 6791,
      "Ġdistributions": 6792,
      "Ġdistributed": 6793,
      "Ġremained": 6794,
      "åĪĨåĪ«æĺ¯": 6795,
      "Ġmechanics": 6796,
      "Ġpaths": 6797,
      "Ġoperation": 6798,
      "Ġoperating": 6799,
      "atching": 6800,
      "Ġphysics": 6801,
      "Ġexperience": 6802,
      "äº®åº¦": 6803,
      "Ġlimited": 6804,
      "åĽłæŀľåħ³ç³»": 6805,
      "Ġfactors": 6806,
      "éº»": 6807,
      "Ġeventually": 6808,
      "æ¼Ĥç§»": 6809,
      "Ġrecord": 6810,
      "Ġsamples": 6811,
      "çľŁæł¸çĶŁçī©": 6812,
      "Ġturned": 6813,
      "æ¡£æ¡Ī": 6814,
      "åĵ²åŃ¦å®¶": 6815,
      "çĽĳçĿ£åŃ¦ä¹ł": 6816,
      "âĮĬ": 6817,
      "è¾ħåĬ©": 6818,
      "æĦıè¯ĨåĪ°": 6819,
      "Ġdisappeared": 6820,
      "Ġfeedback": 6821,
      "Ġexecution": 6822,
      "æ¾³": 6823,
      "Ġbarrier": 6824,
      "Ġconversation": 6825,
      "Ġexpensive": 6826,
      "å¹²çĩ¥": 6827,
      "Ch": 6828,
      "NI": 6829,
      "bo": 6830,
      "cal": 6831,
      "oving": 6832,
      "ring": 6833,
      "tes": 6834,
      "thesis": 6835,
      "uation": 6836,
      "xn": 6837,
      "Ġ4": 6838,
      "Ġign": 6839,
      "çļĦç©ºéĹ´": 6840,
      "çļĦéħ¶": 6841,
      "çļĦè§£éĩĬ": 6842,
      "çļĦåĮºåŁŁ": 6843,
      "çļĦä»·åĢ¼": 6844,
      "åĪº": 6845,
      "Ġsqu": 6846,
      "enced": 6847,
      "ä¸Ģå±Ĥ": 6848,
      "ä¸Ģä¼ļåĦ¿": 6849,
      "order": 6850,
      "ä¸įåĪ°": 6851,
      "Ġmis": 6852,
      "itation": 6853,
      "Ġdro": 6854,
      "Ġbased": 6855,
      "åĪĨåĮĸ": 6856,
      "éĩıçº²": 6857,
      "ä»¥ä¸ĬçļĦ": 6858,
      "Ġnight": 6859,
      "Ġland": 6860,
      "ä¸Ĭæĸ¹": 6861,
      "äºĨå¾Īå¤ļ": 6862,
      "è´¨å¿ĥ": 6863,
      "çĶµè´Ł": 6864,
      "æį·": 6865,
      "çĽ¸è¿ŀ": 6866,
      "åĲĪå¹¶": 6867,
      "åı¯ä»¥æĬĬ": 6868,
      "ç®ĹåŃĲ": 6869,
      "oll": 6870,
      "éĽħ": 6871,
      "çŃīåĲĮ": 6872,
      "å¾ĹæĽ´": 6873,
      "æł¸ç§į": 6874,
      "Ġprove": 6875,
      "å®ĥåľ¨": 6876,
      "å¹´é¾Ħ": 6877,
      "é«ĺæĸ¯": 6878,
      "æĻ°": 6879,
      "éĩĮéĿ¢": 6880,
      "ä¸¤ä¾§": 6881,
      "åīįåĲİ": 6882,
      "ä¼łå¯¼": 6883,
      "çĥ¦": 6884,
      "ç²ī": 6885,
      "æķ°æį®çļĦ": 6886,
      "ç»ĨèĥŀåĪĨè£Ĥ": 6887,
      "Ġcore": 6888,
      "Ġareas": 6889,
      "çĥŃå®¹": 6890,
      "æĮĩä»¤": 6891,
      "Ġunre": 6892,
      "Ġcompared": 6893,
      "Ġshif": 6894,
      "Ġsoft": 6895,
      "çĶµåŃĲçļĦ": 6896,
      "è´¨éĩıåĴĮ": 6897,
      "æĸ¹æ³ķæĺ¯": 6898,
      "åĨįæ¬¡": 6899,
      "è§ĦèĮĥ": 6900,
      "ired": 6901,
      "ogn": 6902,
      "Ġspent": 6903,
      "å¯ĨåĪĩ": 6904,
      "å¿ħçĦ¶": 6905,
      "æĥ³èµ·": 6906,
      "ĠMe": 6907,
      "Ġwords": 6908,
      "æłĳçļĦ": 6909,
      "ĠBut": 6910,
      "æĭīæł¼": 6911,
      "æģĴå®ļ": 6912,
      "è¿ľç¦»": 6913,
      "Ġeffort": 6914,
      "éĹ¨åı£": 6915,
      "Ġreport": 6916,
      "Ġexpress": 6917,
      "èİ·åıĸ": 6918,
      "æ¸ħæĻ°": 6919,
      "åģľçķĻ": 6920,
      "åĨ°ç®±": 6921,
      "ä¹ĺä»¥": 6922,
      "Ġmetal": 6923,
      "åı¤å¸ĮèħĬ": 6924,
      "ĠThat": 6925,
      "ç½Ĺé©¬": 6926,
      "æĬ½æł·": 6927,
      "ç»ĻåĩºäºĨ": 6928,
      "ä¸ĵä¸ļ": 6929,
      "èĩªçĶ±èĥ½": 6930,
      "æµĭè¯ķéĽĨ": 6931,
      "æĬĺåıł": 6932,
      "è½»æĿ¾": 6933,
      "Ġbuilding": 6934,
      "Ġexperiments": 6935,
      "gener": 6936,
      "bitr": 6937,
      "Ġprinc": 6938,
      "æ²³æµģ": 6939,
      "çĽ¸å½ĵäºİ": 6940,
      "Ġavoid": 6941,
      "Ġmolecular": 6942,
      "Ġcalcul": 6943,
      "Ġdrive": 6944,
      "Ġhaz": 6945,
      "Ġexplains": 6946,
      "Ġgroups": 6947,
      "æ°¸ä¹ħ": 6948,
      "è¾¨è¯Ĩ": 6949,
      "Ġdevice": 6950,
      "Ġcount": 6951,
      "çĶŁæĢģç³»ç»Ł": 6952,
      "Ġoutcomes": 6953,
      "çŀ¬æĹ¶": 6954,
      "åĮ»åŃ¦": 6955,
      "Ġmicroscopic": 6956,
      "Ġholes": 6957,
      "Ġdomin": 6958,
      "æ®ĭå·®": 6959,
      "âĮĭ": 6960,
      "Ġalgorithms": 6961,
      "Ġpairs": 6962,
      "oxide": 6963,
      "Ġconstraints": 6964,
      "è¿ĩæ¸¡éĩĳå±ŀ": 6965,
      "ĠOnce": 6966,
      "Ġprior": 6967,
      "riction": 6968,
      "æģ°å¥½": 6969,
      "Ġcatal": 6970,
      "å¸¦çĶµç²ĴåŃĲ": 6971,
      "Ġconservation": 6972,
      "Ġsediment": 6973,
      "Ġsmooth": 6974,
      "ĠAccelerator": 6975,
      "Ġsuggest": 6976,
      "01": 6977,
      "33": 6978,
      "During": 6979,
      "Ep": 6980,
      "To": 6981,
      "dy": 6982,
      "mar": 6983,
      "ned": 6984,
      "ouse": 6985,
      "rid": 6986,
      "èĶ": 6987,
      "ĠZ": 6988,
      "ĠçłĶç©¶": 6989,
      "ĠæīĢæľī": 6990,
      "Ġä»£è¡¨": 6991,
      "ĠéļıçĿĢ": 6992,
      "ĠéĻ¤äºĨ": 6993,
      "çļĦç»Łè®¡": 6994,
      "çļĦè§ĤçĤ¹": 6995,
      "çļĦæĥħå½¢": 6996,
      "energy": 6997,
      "è®¢": 6998,
      "ä¹Į": 6999,
      "ä¸įçĶ¨": 7000,
      "ä¼ŀ": 7001,
      "éĢ¸": 7002,
      "Ġfill": 7003,
      "roph": 7004,
      "åı¯çĶ¨äºİ": 7005,
      "çĶ¨éĢĶ": 7006,
      "Ġrefer": 7007,
      "Ġreverse": 7008,
      "æ³Ĭ": 7009,
      "ä¼ļéļı": 7010,
      "uster": 7011,
      "é¢Ī": 7012,
      "åĬ¨åĬĽ": 7013,
      "Ġhis": 7014,
      "åĩºéĹ¨": 7015,
      "Ġbeyond": 7016,
      "ä¹Łç§°ä¸º": 7017,
      "äººä½ĵ": 7018,
      "ä¸ĭæĸ¹": 7019,
      "ä¸ĭéĿ¢": 7020,
      "Ġconv": 7021,
      "æĽ´æ·±": 7022,
      "ç®Ĺæľ¯": 7023,
      "æıŃ": 7024,
      "ï¼ļâĢľ": 7025,
      "æľºä¼ļ": 7026,
      "heric": 7027,
      "æ¨¡ç³Ĭ": 7028,
      "é«ĺéĢŁ": 7029,
      "åĿ¡": 7030,
      "Ġexoplan": 7031,
      "abl": 7032,
      "èĥ¡": 7033,
      "ument": 7034,
      "ä¸¤ç±»": 7035,
      "å¯¼èĪª": 7036,
      "ç¼Ŀ": 7037,
      "çĥ§": 7038,
      "è¿ĺåı¯ä»¥": 7039,
      "èĭı": 7040,
      "ĠTheir": 7041,
      "åħ¨å±Ģ": 7042,
      "ĠSuper": 7043,
      "çĲĨè®ºä¸Ń": 7044,
      "éĻįè§£": 7045,
      "éĵħ": 7046,
      "å¸¦æĿ¥çļĦ": 7047,
      "èģĮ": 7048,
      "Ġcontent": 7049,
      "å¦Ĥæŀľåıª": 7050,
      "åıĳçĶŁäºĨ": 7051,
      "åĪ©äºļ": 7052,
      "Ġqubits": 7053,
      "acts": 7054,
      "èĪĴ": 7055,
      "190": 7056,
      "Ġeval": 7057,
      "çº¿æĢ§ç»ĦåĲĪ": 7058,
      "èĥ½å¤Łåľ¨": 7059,
      "è°ĥçĶ¨": 7060,
      "èĩ³ä»Ĭ": 7061,
      "ransform": 7062,
      "éĢĤå½ĵ": 7063,
      "ä¾Ŀçħ§": 7064,
      "æĦŁåºĶ": 7065,
      "Ġdistingu": 7066,
      "å»ºè®®": 7067,
      "Ġtrade": 7068,
      "çľŁæŃ£éľĢè¦ģ": 7069,
      "Ġadv": 7070,
      "éĢīæĭ©æĢ§": 7071,
      "æ¶ĪéĻ¤": 7072,
      "Ġ10": 7073,
      "ĠFacility": 7074,
      "Ġphone": 7075,
      "èĭ±å°º": 7076,
      "Ġvalid": 7077,
      "ä»ħä»ħ": 7078,
      "Ġdecisions": 7079,
      "Ġarbitr": 7080,
      "æķ°åĢ¼åĪĨæŀĲ": 7081,
      "ä¼łæĴŃéĢŁåº¦": 7082,
      "è¯»èĢħ": 7083,
      "ç¾İæ´²": 7084,
      "Ġhighly": 7085,
      "Ġdescribed": 7086,
      "å²©æµĨ": 7087,
      "ç¬¬äºĮä¸ª": 7088,
      "åĪļå¼Ģå§ĭ": 7089,
      "åį¡å°Ķ": 7090,
      "ç±»ä¼¼äºİ": 7091,
      "è´Ŀæł¼": 7092,
      "Ġsomeone": 7093,
      "æŀĦæĪĲçļĦ": 7094,
      "çľĭèµ·æĿ¥åĥı": 7095,
      "Ġflows": 7096,
      "Ġmechanism": 7097,
      "åĭĴè´Ŀæł¼": 7098,
      "ended": 7099,
      "Ġcharged": 7100,
      "Ġfluct": 7101,
      "logn": 7102,
      "Ġcenter": 7103,
      "Ġgrowth": 7104,
      "Ġapproximately": 7105,
      "å¯¹ç§°æĢ§": 7106,
      "Ġcells": 7107,
      "å°¤åħ¶æĺ¯": 7108,
      "èĤ¡èĦ±æ°§æł¸ç³ĸæł¸éħ¸": 7109,
      "çĽ¸åºĶçļĦ": 7110,
      "å¡«åħħ": 7111,
      "Ġbright": 7112,
      "Ġsunlight": 7113,
      "é¢Ĺç²Ĵ": 7114,
      "Ġlearned": 7115,
      "Ġkinetic": 7116,
      "Ġincluding": 7117,
      "ĠResearch": 7118,
      "èĲ¥åħ»": 7119,
      "Ġcritical": 7120,
      "æ¯«ç±³": 7121,
      "Ġhydrogen": 7122,
      "Ġmathemat": 7123,
      "æĩĤ": 7124,
      "83": 7125,
      "Im": 7126,
      "One": 7127,
      "bran": 7128,
      "dimensional": 7129,
      "fitting": 7130,
      "frequency": 7131,
      "know": 7132,
      "ov": 7133,
      "oes": 7134,
      "sion": 7135,
      "temperature": 7136,
      "wise": 7137,
      "åª": 7138,
      "éī": 7139,
      "ĠY": 7140,
      "ĠçŁ©éĺµ": 7141,
      "ĠNASA": 7142,
      "çļĦæł¸å¿ĥ": 7143,
      "åıĭ": 7144,
      "Ġtren": 7145,
      "åº·": 7146,
      "æľīä»·åĢ¼": 7147,
      "Ġdimens": 7148,
      "èĥ½åľ¨": 7149,
      "ison": 7150,
      "åĴĮæ°´": 7151,
      "æłĸ": 7152,
      "è´µ": 7153,
      "Ġlast": 7154,
      "æĸ¹éĺµ": 7155,
      "unch": 7156,
      "åĲİæŀľ": 7157,
      "Ġstore": 7158,
      "çĽ¸è¿ĳ": 7159,
      "æĪĸåħ¶ä»ĸ": 7160,
      "æĭĸ": 7161,
      "æľĢå¥½": 7162,
      "åģ¥": 7163,
      "æŃ¤ç±»": 7164,
      "èĩªæĪĳ": 7165,
      "Ġproced": 7166,
      "å¾Īå°ıçļĦ": 7167,
      "éĥ½éľĢè¦ģ": 7168,
      "ç±»çļĦ": 7169,
      "ç½²": 7170,
      "åĬłæĿĥ": 7171,
      "å°±åı¯èĥ½": 7172,
      "ume": 7173,
      "Ġmac": 7174,
      "ä»İä¸Ģä¸ª": 7175,
      "æµģéĩı": 7176,
      "æĹ¶éĹ´åĴĮ": 7177,
      "åĪĹå¤«": 7178,
      "è½¬è¯ĳ": 7179,
      "æķ°æį®åĪĨå¸ĥ": 7180,
      "æ²¡æľīä»»ä½ķ": 7181,
      "æĹłæľº": 7182,
      "Ġcour": 7183,
      "ä½ľçĶ¨åľ¨": 7184,
      "äºĮèĢħ": 7185,
      "çĶŁçī©ä½ĵçļĦ": 7186,
      "å·²è¢«": 7187,
      "Ġcompression": 7188,
      "éģĵè·¯": 7189,
      "æŀģå¤§": 7190,
      "åħ¬åħ±": 7191,
      "197": 7192,
      "Ġheating": 7193,
      "ĠElect": 7194,
      "åĲ«éĩı": 7195,
      "éĶ®ç»ĵ": 7196,
      "åĩıå¼±": 7197,
      "æł¹æľ¬": 7198,
      "åħ¶ä¸Ńä¸Ģä¸ª": 7199,
      "ĠMore": 7200,
      "çĭĹ": 7201,
      "è®Ńç»ĥæķ°æį®": 7202,
      "éģĹä¼łçī©è´¨": 7203,
      "éģĹä¼łä¿¡æģ¯": 7204,
      "åĽºæĢģ": 7205,
      "ellar": 7206,
      "è´Łè½½": 7207,
      "çĲĨè§£ä¸º": 7208,
      "æ¤ħ": 7209,
      "èĦ±æ°§æł¸ç³ĸæł¸éħ¸åºıåĪĹ": 7210,
      "ç¼©å°ı": 7211,
      "åĽºå®ļçļĦ": 7212,
      "Ġapplications": 7213,
      "versity": 7214,
      "Ġmagnet": 7215,
      "æľīæĹ¶ä¼ļ": 7216,
      "è½¨è¿¹": 7217,
      "éĺ»åĬĽ": 7218,
      "åĽĽä¸ª": 7219,
      "åĽĽç§į": 7220,
      "Ġobjective": 7221,
      "æ³ĽåĮĸ": 7222,
      "ä¿ĿæĮģä¸įåıĺ": 7223,
      "åĸ·": 7224,
      "Ġapproach": 7225,
      "ĠScientists": 7226,
      "Ġentropy": 7227,
      "Ġblock": 7228,
      "ç¡¬ä½ĵ": 7229,
      "Ġconcern": 7230,
      "éĻįæ°´éĩı": 7231,
      "Ġallowed": 7232,
      "Ġspecies": 7233,
      "Ġspecial": 7234,
      "Ġpaper": 7235,
      "Ġknowledge": 7236,
      "Ġbuilt": 7237,
      "Ġtests": 7238,
      "Ġconverts": 7239,
      "ç´§å¯Ĩ": 7240,
      "Ġappeared": 7241,
      "è¯ºè´Ŀå°Ķ": 7242,
      "æĥ¯æĢ§åıĤèĢĥç³»": 7243,
      "Ġelement": 7244,
      "æ´»æĢ§ä½įçĤ¹": 7245,
      "Ġcirculation": 7246,
      "osphere": 7247,
      "å£«å¨ģ": 7248,
      "æľĹæĹ¥": 7249,
      "äºĭå®ŀä¸Ĭ": 7250,
      "Ġpreserve": 7251,
      "Ġrelease": 7252,
      "âŁ¨": 7253,
      "Ġconsistency": 7254,
      "Ġdevelopment": 7255,
      "Ġalgorithm": 7256,
      "åĨ¬å¤©": 7257,
      "æ´»åĮĸèĥ½": 7258,
      "Ġcontinue": 7259,
      "ç»¼åĲĪ": 7260,
      "Ġmaximum": 7261,
      "é©¬åħĭå£«å¨ģ": 7262,
      "Ġminimum": 7263,
      "iconduct": 7264,
      "Ġsufficiently": 7265,
      "æ³Ħæ¼ı": 7266,
      "Ġintermediate": 7267,
      "ï¼Įâĭ¯ï¼Į": 7268,
      "æĭīæł¼æľĹæĹ¥": 7269,
      "æıŃç¤º": 7270,
      ")ãĢģ": 7271,
      "26": 7272,
      "64": 7273,
      "Linux": 7274,
      "OH": 7275,
      "On": 7276,
      "PI": 7277,
      "Pl": 7278,
      "faces": 7279,
      "iver": 7280,
      "mas": 7281,
      "oks": 7282,
      "son": 7283,
      "vious": 7284,
      "ze": 7285,
      "âĬ": 7286,
      "å¦": 7287,
      "ĠÌ": 7288,
      "ĠæĪĸ": 7289,
      "Ġri": 7290,
      "ĠåĪĨåŃĲ": 7291,
      "ĠåŁºåĽł": 7292,
      "Ġåģĩè®¾": 7293,
      "Ġæ¯Ķå¦Ĥ": 7294,
      "çļĦåŃĺåľ¨": 7295,
      "Ġtree": 7296,
      "onding": 7297,
      "rees": 7298,
      "ç»³": 7299,
      "heck": 7300,
      "ä¸Ģä¸ĭ": 7301,
      "æĺ¯ä¸į": 7302,
      "ording": 7303,
      "åľ¨æŃ¤": 7304,
      "æľīçĿĢ": 7305,
      "Ġpie": 7306,
      "ä¼ı": 7307,
      "Ġbos": 7308,
      "Ġways": 7309,
      "Ġfit": 7310,
      "ä¸ŃæľĢ": 7311,
      "ä¸Ńè¢«": 7312,
      "æĹ¶ç©º": 7313,
      "æĹ¶æīį": 7314,
      "ctions": 7315,
      "Ġeither": 7316,
      "åıĺæķ°": 7317,
      "å¤§å¤ļ": 7318,
      "è¿ĻæĹ¶": 7319,
      "omen": 7320,
      "ä¸Ĭçº¿": 7321,
      "å¤ļçļĦ": 7322,
      "å¤ļå¹´": 7323,
      "åŁ¹": 7324,
      "æĿ¥çľĭ": 7325,
      "åľ°éĵģ": 7326,
      "è¿ĩäºİ": 7327,
      "åĩºçīĪ": 7328,
      "åħ¶ä½Ļ": 7329,
      "ä½ľèĢħ": 7330,
      "ç§įåŃĲ": 7331,
      "å¸¸çĶ¨äºİ": 7332,
      "åı¯ä»¥åĪ©çĶ¨": 7333,
      "æĪĸå¤ļä¸ª": 7334,
      "ulations": 7335,
      "æĽ´èĥ½": 7336,
      "tern": 7337,
      "eles": 7338,
      "éģ¥": 7339,
      "éģŃ": 7340,
      "æ°´èĴ¸æ°Ķ": 7341,
      "ä»£ä»·": 7342,
      "å¤įçİ°": 7343,
      "åįķæ¬¡": 7344,
      "æĬĬæīĢæľī": 7345,
      "ç§°ä¹ĭä¸º": 7346,
      "Ġvapor": 7347,
      "éĩĮåħĭ": 7348,
      "Ġalign": 7349,
      "Ġrat": 7350,
      "Ġasked": 7351,
      "ç¼ļ": 7352,
      "éķ¿éĵ¾": 7353,
      "ä¸ŃçļĦä¸Ģä¸ª": 7354,
      "çĽ´å¾Ħ": 7355,
      "æ¶¨": 7356,
      "æ¶Į": 7357,
      "âĪŀ": 7358,
      "è¿ŀéĢļ": 7359,
      "è®°ä½ľ": 7360,
      "è®°åı·": 7361,
      "ä¼¼çĦ¶": 7362,
      "å¹¶ä¸įèĩªåĬ¨": 7363,
      "ava": 7364,
      "æĸ¹åĲĳçļĦ": 7365,
      "è°ĥæŁ¥": 7366,
      "Ġinterv": 7367,
      "Ġinterest": 7368,
      "ä»įæľī": 7369,
      "å¿ĥçĲĨ": 7370,
      "ä¾ĿçĦ¶": 7371,
      "ç¥¨": 7372,
      "åĲįè¯į": 7373,
      "Ġrelates": 7374,
      "æķ£çĥŃ": 7375,
      "aken": 7376,
      "Ġworks": 7377,
      "Ġadapt": 7378,
      "æ¶Īè´¹": 7379,
      "ç¡®å®ļçļĦ": 7380,
      "éļ¾åº¦": 7381,
      "æĺİæĺ¾çļĦ": 7382,
      "Ġloop": 7383,
      "Ġrecur": 7384,
      "è½¦è¾Ĩ": 7385,
      "æĿĥéĻĲ": 7386,
      "Ġprocessing": 7387,
      "Ġequation": 7388,
      "ç»Ŀç¼ĺ": 7389,
      "version": 7390,
      "æĿŁç¼ļ": 7391,
      "Ġsolar": 7392,
      "æ³¨æĦıåĪ°": 7393,
      "åĲĮæł·çļĦ": 7394,
      "çļĦåľ°åĮº": 7395,
      "Ġsets": 7396,
      "Ġapproac": 7397,
      "åħ³éĶ®åŃĹ": 7398,
      "çľĭåĪ°çļĦ": 7399,
      "cell": 7400,
      "åħħçĶµ": 7401,
      "çĽĲåº¦": 7402,
      "åįıè®®": 7403,
      "ä¼ĺåĮĸåĻ¨": 7404,
      "Ġcauses": 7405,
      "åľ°åĮºçļĦ": 7406,
      "Ġestabl": 7407,
      "Ġfailed": 7408,
      "Ġnucleus": 7409,
      "Ġprotect": 7410,
      "Ġrepresentations": 7411,
      "Ġdefined": 7412,
      "Ġdiag": 7413,
      "Ġstores": 7414,
      "æ¸¸æĪı": 7415,
      "Ġestimates": 7416,
      "Ġthermodynam": 7417,
      "Ġapproximation": 7418,
      "æĬķåħ¥": 7419,
      "è¿ĽåĮĸè®º": 7420,
      "Ġexpectation": 7421,
      "Ġseconds": 7422,
      "Ġconcentr": 7423,
      "Ġaffects": 7424,
      "éħµç´ł": 7425,
      "è¿½æ±Ĥ": 7426,
      "Ġgreat": 7427,
      "èŀįåĮĸ": 7428,
      "ç°ĩ": 7429,
      "Ġelse": 7430,
      "Ġproducts": 7431,
      "Ġreplace": 7432,
      "Ġperfectly": 7433,
      "æ²īç§¯çī©": 7434,
      "å±ıå¹ķ": 7435,
      "æ¢¯åº¦ä¸ĭéĻįæ³ķ": 7436,
      "Ġservice": 7437,
      "This": 7438,
      "åĪĨè¾¨çİĩ": 7439,
      "è´Ńä¹°": 7440,
      "Ġfocus": 7441,
      "åį±éĻ©": 7442,
      "strap": 7443,
      "Ġpublic": 7444,
      "æĺ¾å¾®éķľ": 7445,
      "Ġhistory": 7446,
      "åªĴ": 7447,
      ")]": 7448,
      "65": 7449,
      "87": 7450,
      "Com": 7451,
      "arent": 7452,
      "des": 7453,
      "keli": 7454,
      "©¹": 7455,
      "è©¹": 7456,
      "Ġåı¯ä»¥": 7457,
      "çļĦæ³¢": 7458,
      "çļĦçİ¯å¢ĥ": 7459,
      "è¿Ī": 7460,
      "è¿Ŀ": 7461,
      "å®£": 7462,
      "Ġcut": 7463,
      "Ġcra": 7464,
      "Ġcases": 7465,
      "orter": 7466,
      "åľ¨ä¸Ģ": 7467,
      "ä¸įå¿ħ": 7468,
      "æľīåĪ©": 7469,
      "éĢ¼": 7470,
      "Ġdense": 7471,
      "åĽ½æķ°": 7472,
      "Ġfri": 7473,
      "Ġflex": 7474,
      "ä¸ŃæĢ§": 7475,
      "æ³¥": 7476,
      "å¤§èĩªçĦ¶": 7477,
      "å¤§å¹ħ": 7478,
      "Ġthin": 7479,
      "æĿ¥è§£éĩĬ": 7480,
      "etition": 7481,
      "åĲİæīį": 7482,
      "åĲİåĨį": 7483,
      "Ġhab": 7484,
      "å±ī": 7485,
      "Ġstayed": 7486,
      "åıĳéħµ": 7487,
      "ots": 7488,
      "ott": 7489,
      "ä½ľåĵģ": 7490,
      "åĬĽéĩı": 7491,
      "ä¹ŁéľĢè¦ģ": 7492,
      "ä¸ĭéĽ¨": 7493,
      "æĪĸç§°": 7494,
      "urther": 7495,
      "æľĢåħĪ": 7496,
      "éĩįè¯ķ": 7497,
      "ä¹ĭæ¯Ķ": 7498,
      "ä¹ĭæīĢä»¥": 7499,
      "éĥ½å¾Ī": 7500,
      "éļĨ": 7501,
      "éģ®": 7502,
      "åıªåī©": 7503,
      "æ°´å¾ªçİ¯": 7504,
      "æĦ¿": 7505,
      "è¿Ľå±ķ": 7506,
      "æŃ£çĶµèį·": 7507,
      "éĶĭ": 7508,
      "ä¸¤ç²Ĵ": 7509,
      "Ġdep": 7510,
      "Ġdeformation": 7511,
      "Ġcomplicated": 7512,
      "Ġnothing": 7513,
      "æµģåĲĳ": 7514,
      "å½ĵä¸Ķ": 7515,
      "Ġright": 7516,
      "plies": 7517,
      "åĩłåĳ¨": 7518,
      "åį´åĽłä¸º": 7519,
      "åį´è®©": 7520,
      "èµ·çĤ¹": 7521,
      "å±Ĥäºĳ": 7522,
      "æ±¤": 7523,
      "éĹ®é¢ĺæĹ¶": 7524,
      "ç»ĨèĥŀåĨħ": 7525,
      "Ġcode": 7526,
      "ĠSp": 7527,
      "ĠSmall": 7528,
      "è¯´è¯Ŀ": 7529,
      "ç§ĳæĬĢ": 7530,
      "éĢļå¸¸æ¯Ķ": 7531,
      "åĽłä¸ºå®ĥ": 7532,
      "åıįåºĶçļĦ": 7533,
      "æĮĩç¤º": 7534,
      "éĻįæ¸©": 7535,
      "æ¦Ĥæĭ¬": 7536,
      "ival": 7537,
      "æ·Ģ": 7538,
      "å§ĭç»Ī": 7539,
      "è¯ŃéŁ³": 7540,
      "æĸĩç«ł": 7541,
      "ç®Ĺæ³ķåľ¨": 7542,
      "è®°æ³ķ": 7543,
      "åĩºçİ°äºĨ": 7544,
      "å¹¶ä¸įä¿Ŀè¯ģ": 7545,
      "ĠEach": 7546,
      "æ»ļ": 7547,
      "åģļåĩº": 7548,
      "Ġrole": 7549,
      "è¿Ľè¡ĮçļĦ": 7550,
      "ĠRel": 7551,
      "cessive": 7552,
      "æ£µ": 7553,
      "ĠMod": 7554,
      "å¢ŀåĬłäºĨ": 7555,
      "èĻ«": 7556,
      "Ġtransition": 7557,
      "ä¸»è¦ģçļĦ": 7558,
      "åģıå¯¼æķ°": 7559,
      "though": 7560,
      "è§£éĩĬäºĨ": 7561,
      "ĠOS": 7562,
      "å¾ĹåĪ°çļĦ": 7563,
      "èĭ±æĸĩ": 7564,
      "éĻ¤ä»¥": 7565,
      "æ¯ıä¸ªäºº": 7566,
      "ç»Łè®¡åŃ¦": 7567,
      "å¹³åĿĩåĢ¼": 7568,
      "åºķå±Ĥ": 7569,
      "è¿ŀç»ŃçļĦ": 7570,
      "ç¢³éħ¸": 7571,
      "æķ°éĩıçļĦ": 7572,
      "éĩįå¤įæĢ§": 7573,
      "ä¾Ŀèµĸäºİ": 7574,
      "åĳ³éģĵ": 7575,
      "åĲĮä½įç´łçļĦ": 7576,
      "ä¾¿å®ľ": 7577,
      "Ġbehind": 7578,
      "åľ°éľĩæ³¢": 7579,
      "Ġgenerate": 7580,
      "Ġmattered": 7581,
      "ometers": 7582,
      "æ³¨æĦıçļĦæĺ¯": 7583,
      "åĩłä¹İæ²¡æľī": 7584,
      "coun": 7585,
      "çĶµç£ģåľº": 7586,
      "å¤©æ°Ķé¢ĦæĬ¥": 7587,
      "æĬ½å±ī": 7588,
      "Ġmembran": 7589,
      "Ġhelped": 7590,
      "è´¨åŃĲåĴĮ": 7591,
      "Ġembed": 7592,
      "Ġeasily": 7593,
      "Ġcontained": 7594,
      "ç²¾ç¡®çļĦ": 7595,
      "Ġplanets": 7596,
      "è½½æµģ": 7597,
      "Ġcontinued": 7598,
      "æĴŀåĩ»": 7599,
      "æįŁå¤±åĩ½æķ°": 7600,
      "Ġoceanic": 7601,
      "çªĹåı£": 7602,
      "Ġdioxide": 7603,
      "æľīæľºçī©": 7604,
      "åľĨåĳ¨": 7605,
      "Ġelectricity": 7606,
      "Ġexisting": 7607,
      "å·¨å¤§çļĦ": 7608,
      "Ġshows": 7609,
      "Ġshowed": 7610,
      "åĲĪéĢĤçļĦ": 7611,
      "Ġrises": 7612,
      "Ġclean": 7613,
      "Ġtrees": 7614,
      "Ġinclude": 7615,
      "Ġpositions": 7616,
      "åį·ç§¯": 7617,
      "Ġfraction": 7618,
      "Ġmonit": 7619,
      "Ġperiodic": 7620,
      "é»İæĽ¼ç§¯åĪĨ": 7621,
      "èİ±å¸ĥå°¼åħ¹": 7622,
      "Ġfeatures": 7623,
      "Ġtypes": 7624,
      "åī¯æľ¬": 7625,
      "Ġdiscrete": 7626,
      "èĤĮèĤī": 7627,
      "Ġgalaxies": 7628,
      "Ġbeneath": 7629,
      "Ġhuman": 7630,
      "ä¸°å¯Į": 7631,
      "æĹħè¡Į": 7632,
      "Ġstrain": 7633,
      "ä¾µèļĢ": 7634,
      "åµĮåħ¥": 7635,
      "ç¯ĩ": 7636,
      "Ġsharp": 7637,
      "Ġnoticed": 7638,
      "Ġgluons": 7639,
      "Ġprinciple": 7640,
      "å½ĵä¸Ķä»ħå½ĵ": 7641,
      ".âĢĿ": 7642,
      "97": 7643,
      "Ad": 7644,
      "Le": 7645,
      "UPAC": 7646,
      "Why": 7647,
      "eper": 7648,
      "hat": 7649,
      "iation": 7650,
      "ler": 7651,
      "lass": 7652,
      "ping": 7653,
      "run": 7654,
      "where": 7655,
      "yf": 7656,
      "¬å¦Ĥ": 7657,
      "Ġ&": 7658,
      "Ġæµ·": 7659,
      "Ġå°Ĩ": 7660,
      "Ġess": 7661,
      "Įåĳ": 7662,
      "çļĦåıį": 7663,
      "çļĦä¸įæĺ¯": 7664,
      "ream": 7665,
      "å¤¸": 7666,
      "ats": 7667,
      "Ġser": 7668,
      "Ġsays": 7669,
      "åľ¨åħ¶": 7670,
      "å°¿": 7671,
      "ä¸įå°ĳ": 7672,
      "Ġphen": 7673,
      "Ġdig": 7674,
      "æķ°çĽ®": 7675,
      "isible": 7676,
      "Ġfile": 7677,
      "åĴĮä¸Ģä¸ª": 7678,
      "çĽĽ": 7679,
      "åŃĲèĬĤçĤ¹": 7680,
      "æĪĲäºĨ": 7681,
      "ä¼ļæĺ¾èĳĹ": 7682,
      "å¤§æ´ĭ": 7683,
      "ä½ĵåĨħ": 7684,
      "è¿Ļå°±æĺ¯": 7685,
      "èĢĮäº§çĶŁ": 7686,
      "ä¸Ģä¸ªäºº": 7687,
      "ä¸Ģä¸ªåĩ½æķ°": 7688,
      "èĩĤ": 7689,
      "unction": 7690,
      "åĲİéªĮ": 7691,
      "Ġstellar": 7692,
      "åıĳçĶµ": 7693,
      "åıĳéĢģ": 7694,
      "å¸¸ä¼ļ": 7695,
      "å¸¸è¢«": 7696,
      "åı¯ä»¥å¸®åĬ©": 7697,
      "iling": 7698,
      "æĽ´éĩįè¦ģ": 7699,
      "idth": 7700,
      "åŁºåĩĨ": 7701,
      "åŁºåºķ": 7702,
      "çŃīäºº": 7703,
      "æł¸èģļåıĺ": 7704,
      "éĥ½è¢«": 7705,
      "é«ĺåİĭ": 7706,
      "Ġexten": 7707,
      "istry": 7708,
      "å°±æľī": 7709,
      "ä»£æĽ¿": 7710,
      "åįķçº¯": 7711,
      "æ¬¾": 7712,
      "Ġmaps": 7713,
      "åīįèĢħ": 7714,
      "Ġcome": 7715,
      "ç¼ł": 7716,
      "éħ¸ç¢±": 7717,
      "åĩłç§Ĵ": 7718,
      "è¿ĺæ²¡": 7719,
      "ĠShe": 7720,
      "è¯ģä¼ª": 7721,
      "éĿŀè´Ł": 7722,
      "æ¸©å®¤": 7723,
      "ç½®ä¿¡": 7724,
      "Ġchance": 7725,
      "rons": 7726,
      "Ġquery": 7727,
      "è®¤åı¯": 7728,
      "åį³ä¸º": 7729,
      "åıĸåĢ¼": 7730,
      "ç»´æķ°": 7731,
      "æĸĩæ¡£": 7732,
      "åħ¬è½¬": 7733,
      "åĽ¾ä¸Ń": 7734,
      "ĠEm": 7735,
      "åħ³ç³»çļĦ": 7736,
      "åĽŀå®¶": 7737,
      "Ġroad": 7738,
      "è°ĥåº¦": 7739,
      "æİ¨æµĭ": 7740,
      "Ġinterface": 7741,
      "ä»įèĥ½": 7742,
      "å®ŀéªĮä¸Ń": 7743,
      "Ġobvious": 7744,
      "æĶ¶çĽĬ": 7745,
      "ĠPer": 7746,
      "éĵ¾æİ¥": 7747,
      "ĠBy": 7748,
      "æĹ¥æľ¬": 7749,
      "ä»Ģä¹ĪæĹ¶åĢĻ": 7750,
      "Ġincom": 7751,
      "ĠOcean": 7752,
      "å¾·åĽ½": 7753,
      "é¦Ĩ": 7754,
      "Ġimply": 7755,
      "ä¸ĢèĪ¬çļĦ": 7756,
      "è§Ĩé¢ĳ": 7757,
      "é¢ĨåŁŁä¸Ń": 7758,
      "æ¤Ń": 7759,
      "ĠWith": 7760,
      "ç»Łè®¡éĩı": 7761,
      "Ġexpon": 7762,
      "Ġexpression": 7763,
      "çŁŃæľŁ": 7764,
      "Ġdecomp": 7765,
      "æĬĢå·§": 7766,
      "æĳĬ": 7767,
      "Ġsuperposition": 7768,
      "æ¼ĶåĮĸè®º": 7769,
      "Ġexplos": 7770,
      "Ġ)=": 7771,
      "Ġincreased": 7772,
      "Ġneeds": 7773,
      "åºĵä»ĳ": 7774,
      "åĩłä¸ªæľĪ": 7775,
      "æŃ£ç¡®çļĦ": 7776,
      "uclear": 7777,
      "ä¸ĵæ³¨": 7778,
      "åĬ¨çī©çļĦ": 7779,
      "éĥ½ä¼ļå½±åĵį": 7780,
      "Ġconcl": 7781,
      "åı¦ä¸Ģæĸ¹éĿ¢": 7782,
      "çļĦæķ°æį®ç»ĵæŀĦ": 7783,
      "Ġattract": 7784,
      "åŃ£é£İ": 7785,
      "Ġcharges": 7786,
      "Ġcombine": 7787,
      "Ġordered": 7788,
      "Ġcooling": 7789,
      "Ġdependence": 7790,
      "æ°¨åŁºéħ¸åºıåĪĹ": 7791,
      "Ġorganisms": 7792,
      "Ġreflected": 7793,
      "Ġdiscover": 7794,
      "æ±½è½¦": 7795,
      "Ġprevious": 7796,
      "Ġdevices": 7797,
      "åĺĮåĳ": 7798,
      "Ġframe": 7799,
      "å§Ĩæĸ¯": 7800,
      "Ġmicro": 7801,
      "Ġrevealed": 7802,
      "Ġreceived": 7803,
      "æ¨ªåĲĳ": 7804,
      "ä¿ĥè¿Ľ": 7805,
      "éĻįéĽ¨éĩı": 7806,
      "Ġatmospheric": 7807,
      "ä¸¢å¤±": 7808,
      "Ġeruption": 7809,
      "Ġcompletely": 7810,
      "Ġdamage": 7811,
      "NADH": 7812,
      "Ġreliable": 7813,
      "Ġdegrees": 7814,
      "Ġdistinct": 7815,
      "èŃ¬å¦Ĥ": 7816,
      "Ġmachine": 7817,
      "çĵ¶é¢Ī": 7818,
      "æŀģå°ıåĢ¼": 7819,
      "æ¸ĹéĢı": 7820,
      "åĽ¾çģµæľº": 7821,
      "Ġastron": 7822,
      "çİĭæĺŁ": 7823,
      "Ġfluctu": 7824,
      "Ġphenomen": 7825,
      "åĺĮåĳ¤": 7826,
      "27": 7827,
      "38": 7828,
      "45": 7829,
      "98": 7830,
      "DOS": 7831,
      "HT": 7832,
      "gment": 7833,
      "iences": 7834,
      "min": 7835,
      "mat": 7836,
      "sin": 7837,
      "upl": 7838,
      "war": 7839,
      "®æ¼Ķ": 7840,
      "Ġ[": 7841,
      "Ġåı¯": 7842,
      "Ġåıį": 7843,
      "Ġç§ĳåŃ¦": 7844,
      "Ġåħ¶ä»ĸ": 7845,
      "ĠãĢĮ": 7846,
      "ĠæīĢä»¥": 7847,
      "Ġåį³ä½¿": 7848,
      "Ġåı¦ä¸Ģç§į": 7849,
      "çļĦæĿ¡ä»¶": 7850,
      "çļĦæ¸©åº¦": 7851,
      "çļĦéĢīæĭ©": 7852,
      "çļĦèĮĥåĽ´": 7853,
      "çļĦè·Ŀç¦»": 7854,
      "çļĦDNA": 7855,
      "çļĦä¹ĺç§¯": 7856,
      "Ġax": 7857,
      "inations": 7858,
      "äºĪ": 7859,
      "onds": 7860,
      "æľĭ": 7861,
      "Ġsense": 7862,
      "Ġcust": 7863,
      "Ġcrow": 7864,
      "ends": 7865,
      "ä¸Ģä»¶": 7866,
      "ä¸Ģé¡¹": 7867,
      "ä¸Ģå¥Ĺ": 7868,
      "éĩİ": 7869,
      "anced": 7870,
      "æĹ±": 7871,
      "ä¸įåľ¨": 7872,
      "Ġpul": 7873,
      "Ġbody": 7874,
      "èĥ½å¸¦": 7875,
      "Ġfart": 7876,
      "åĴĮæ¨¡åŀĭ": 7877,
      "åı¯ä¿¡": 7878,
      "åĨĮ": 7879,
      "å½©": 7880,
      "æī®æ¼Ķ": 7881,
      "å®ļç§¯åĪĨ": 7882,
      "âĢĸ": 7883,
      "å¯¹æ¯Ķ": 7884,
      "å¯¹çħ§": 7885,
      "æİĪ": 7886,
      "åľ°çĤ¹": 7887,
      "ety": 7888,
      "åĲİä¼ļ": 7889,
      "è¦ģä¹Ī": 7890,
      "ote": 7891,
      "otic": 7892,
      "åĬĽä¸İ": 7893,
      "raining": 7894,
      "éħĴ": 7895,
      "æĭĶ": 7896,
      "åĲĳä¸Ĭ": 7897,
      "æīĢäº§çĶŁçļĦ": 7898,
      "olute": 7899,
      "å½¢åıĺ": 7900,
      "æı¡": 7901,
      "å®ĥèĥ½": 7902,
      "éĥ½ä¸į": 7903,
      "éĥ¨ç½²": 7904,
      "osyn": 7905,
      "çº¿åľĪ": 7906,
      "åĪĻä¸º": 7907,
      "åĪĻä¼ļ": 7908,
      "åŃĺåıĸ": 7909,
      "çķ´": 7910,
      "ç»ĦåĪĨ": 7911,
      "Ġitem": 7912,
      "éĶķ": 7913,
      "ä¾ĭå¤ĸ": 7914,
      "æľŁéĹ´": 7915,
      "å¼ĢéĶĢ": 7916,
      "å½ĵåľ°": 7917,
      "æĹ¶éĹ´å°ºåº¦": 7918,
      "Ġasks": 7919,
      "irm": 7920,
      "éľĢè¦ģçļĦ": 7921,
      "ĠAl": 7922,
      "ĠAr": 7923,
      "æłĩé¢ĺ": 7924,
      "èµ·å§ĭ": 7925,
      "çľĭæĪĲ": 7926,
      "å±Ĥçº§": 7927,
      "æ±ī": 7928,
      "è¿ĺåľ¨": 7929,
      "è¿ĺæ²¡æľī": 7930,
      "Ġcoefficient": 7931,
      "å®¶åħ·": 7932,
      "å¾®æ³¢": 7933,
      "ocation": 7934,
      "èĦĨ": 7935,
      "Ġcompress": 7936,
      "æĶ¾åĪ°": 7937,
      "ĠIm": 7938,
      "éĢŁåº¦åĴĮ": 7939,
      "å¼ºçļĦ": 7940,
      "å¼ºéħ¸": 7941,
      "çĶµåŃĲå¯¹": 7942,
      "éĴ»": 7943,
      "äºĭçī©": 7944,
      "æ¼ł": 7945,
      "Ġintended": 7946,
      "irect": 7947,
      "åĽŀæĶ¶": 7948,
      "Ġplates": 7949,
      "åı·åħĥç´ł": 7950,
      "ideo": 7951,
      "åİĭå¼º": 7952,
      "Ġdoor": 7953,
      "èº«ä»½": 7954,
      "æİĴéĻ¤": 7955,
      "ç»ĥä¹ł": 7956,
      "ĠRandom": 7957,
      "Ġmodul": 7958,
      "æĦŁåıĹ": 7959,
      "åĮħæĭ¬äºĨ": 7960,
      "Ġclos": 7961,
      "ä¸»è¦ģçĶ±": 7962,
      "ĠBe": 7963,
      "æ¦ĤçİĩåĪĨå¸ĥ": 7964,
      "Ġunderlying": 7965,
      "éĩįæĸ°åĪĨéħį": 7966,
      "çķĻä¸ĭçļĦ": 7967,
      "éŁ¦": 7968,
      "è¿ľå¤Ħ": 7969,
      "äººå·¥æĻºæħ§": 7970,
      "æł·æľ¬éĩı": 7971,
      "å¤§æ°Ķä¸Ń": 7972,
      "åĵªä¸ª": 7973,
      "åĪĩæį¢": 7974,
      "Ġarise": 7975,
      "æīĭæ®µ": 7976,
      "åıªæľīåľ¨": 7977,
      "Ġstructural": 7978,
      "Ġindic": 7979,
      "åĮħåĲ«äºĨ": 7980,
      "Ġequations": 7981,
      "Ġregul": 7982,
      "èµ°åĪ°": 7983,
      "Ġapplied": 7984,
      "åıĮæĸ¹": 7985,
      "æ°¢éĶ®": 7986,
      "Ġafterno": 7987,
      "changed": 7988,
      "hemistry": 7989,
      "æĥ¯éĩı": 7990,
      "Ġconstruct": 7991,
      "ç±»ä¼¼çļĦ": 7992,
      "Ġbuffer": 7993,
      "ä¸¥è°¨": 7994,
      "è¾¾åĪ°å¹³è¡¡": 7995,
      "Ġempty": 7996,
      "Ġfunctions": 7997,
      "anging": 7998,
      "è¡¥åħħ": 7999,
      "Ġanaly": 8000,
      "Ġunivers": 8001,
      "Ġprotoc": 8002,
      "Ġfrequencies": 8003,
      "Ġidentify": 8004,
      "Ġcombines": 8005,
      "Ġideas": 8006,
      "Ġnormally": 8007,
      "å¥ĩå¼Ĥ": 8008,
      "Ġreflects": 8009,
      "Ġgrows": 8010,
      "Ġremove": 8011,
      "åı¯è§ģåħī": 8012,
      "æīĢè°ĵçļĦ": 8013,
      "æĭĨæĪĲ": 8014,
      "Ġfaults": 8015,
      "Ġopposite": 8016,
      "Ġinterpretation": 8017,
      "åĨ»ç»ĵ": 8018,
      "Ġdrift": 8019,
      "Ġcosmic": 8020,
      "æ²ŁéĢļ": 8021,
      "Ġengineering": 8022,
      "Ġexchange": 8023,
      "Ġcache": 8024,
      "mission": 8025,
      "Ġremembered": 8026,
      "variance": 8027,
      "Ġconvergence": 8028,
      "ç¥ĸåħĪ": 8029,
      "Ġsaid": 8030,
      "Ġdatabase": 8031,
      "éº»çĥ¦": 8032,
      "Ġshifts": 8033,
      "ĠSuperconduct": 8034,
      "Ġmacroscopic": 8035,
      "kelihood": 8036,
      "Ġmembrane": 8037,
      ")âĮĭ": 8038,
      "86": 8039,
      "BS": 8040,
      "Con": 8041,
      "ER": 8042,
      "Em": 8043,
      "GP": 8044,
      "Pro": 8045,
      "Res": 8046,
      "ees": 8047,
      "la": 8048,
      "lations": 8049,
      "pri": 8050,
      "rast": 8051,
      "vent": 8052,
      "é¼": 8053,
      "Ġç»´": 8054,
      "Ġill": 8055,
      "Ġå®ĥä»¬": 8056,
      "ä¸¹": 8057,
      "çļĦçĤ¹": 8058,
      "çļĦçŁ©éĺµ": 8059,
      "çļĦè¾ĵåħ¥": 8060,
      "çļĦç©ºæ°Ķ": 8061,
      "çļĦæłĩåĩĨ": 8062,
      "çļĦçī¹å¾ģåĢ¼": 8063,
      "çļĦéĿ¢ç§¯": 8064,
      "ino": 8065,
      "Ġspl": 8066,
      "åŃ¤": 8067,
      "head": 8068,
      "ä¸Ģéģĵ": 8069,
      "æĺ¯å¯¹": 8070,
      "ories": 8071,
      "åľ¨æķ°åŃ¦": 8072,
      "Ġmel": 8073,
      "iter": 8074,
      "ital": 8075,
      "æľīæīĢ": 8076,
      "Ġdoc": 8077,
      "Ġdry": 8078,
      "Ġbond": 8079,
      "åĮĻ": 8080,
      "ises": 8081,
      "Ġwin": 8082,
      "Ġwall": 8083,
      "Ġfurther": 8084,
      "åĴĮçİ¯å¢ĥ": 8085,
      "åĪĨå±Ĥ": 8086,
      "æĹ¶ä¼ļ": 8087,
      "åŃĲæłĳ": 8088,
      "Ġrepe": 8089,
      "enter": 8090,
      "Ġnow": 8091,
      "Ġla": 8092,
      "åİħ": 8093,
      "çĶŁçĲĨ": 8094,
      "Ġthir": 8095,
      "è¿Ļä¹Łæĺ¯": 8096,
      "Ġtoday": 8097,
      "ç³Ļ": 8098,
      "Ġhund": 8099,
      "Ġhole": 8100,
      "å±ĭ": 8101,
      "çĶµæŀģ": 8102,
      "çĽ¸å®¹": 8103,
      "åı¯ä»¥åĩıå°ĳ": 8104,
      "éĺĲ": 8105,
      "ä¸ĭä¸ĢæŃ¥": 8106,
      "å¹¶å°Ĩ": 8107,
      "ully": 8108,
      "èµ¶": 8109,
      "uration": 8110,
      "æľĢä½³": 8111,
      "Ġgain": 8112,
      "çĤİ": 8113,
      "olve": 8114,
      "ä¹ĭä¸ĭ": 8115,
      "Ġmoist": 8116,
      "é«ĺç»´": 8117,
      "çº¿ç²Ĵ": 8118,
      "åı¯èĥ½åĩºçİ°": 8119,
      "è¿ĽæŃ¥": 8120,
      "æµĭåº¦": 8121,
      "æµĭå®ļ": 8122,
      "ä»£çĲĨ": 8123,
      "ries": 8124,
      "ription": 8125,
      "çķħ": 8126,
      "Ġorient": 8127,
      "æĥł": 8128,
      "Ġchrom": 8129,
      "Ġchild": 8130,
      "Ġchosen": 8131,
      "Ġdeeper": 8132,
      "ç§¯äºĳ": 8133,
      "å¯¼åĩ½æķ°": 8134,
      "Ġrise": 8135,
      "éľĢè¦ģæĽ´": 8136,
      "éľĢè¦ģåĲĮæĹ¶": 8137,
      "åħīçħ§": 8138,
      "æıĲåıĸ": 8139,
      "antic": 8140,
      "è¾ĥé«ĺçļĦ": 8141,
      "ively": 8142,
      "ç»ĨèĥŀèĨľ": 8143,
      "è®¡ç®Ĺåĩº": 8144,
      "åĮħè£ħ": 8145,
      "ä¸»è§Ĥ": 8146,
      "åıįåºĶä¸Ń": 8147,
      "Ġunchanged": 8148,
      "Ġcompact": 8149,
      "Ġshare": 8150,
      "å¸¦èµ°": 8151,
      "æĶ¾è¿Ľ": 8152,
      "å°Ķæĸ¯": 8153,
      "allen": 8154,
      "è·¯éĿ¢": 8155,
      "æ·»": 8156,
      "è¿ĩç¨ĭçļĦ": 8157,
      "é£İåĬĽ": 8158,
      "èĪ°": 8159,
      "èĽĭçĻ½éħ¶": 8160,
      "çī©çĲĨæĢ§è´¨": 8161,
      "çī©ä½ĵåľ¨": 8162,
      "Ġhead": 8163,
      "åľ°çĲĥä¸ĬçļĦ": 8164,
      "åıĤè§ģ": 8165,
      "åıĤçħ§": 8166,
      "æīįä¼ļ": 8167,
      "Ġaccept": 8168,
      "ç¨³æĢģ": 8169,
      "æºĲèĩª": 8170,
      "äº¤éĢļ": 8171,
      "åģĩå®ļ": 8172,
      "Ġspaces": 8173,
      "å¤įæĿĤæĢ§": 8174,
      "Ġmodes": 8175,
      "æī¾åĩº": 8176,
      "ä¸įèĥ½çĽ´æİ¥": 8177,
      "ĠDe": 8178,
      "ustain": 8179,
      "ĠNetwor": 8180,
      "åĨĻåħ¥": 8181,
      "æ¶ĪåĮĸ": 8182,
      "åįģä¹Ŀ": 8183,
      "æľªæĿ¥çļĦ": 8184,
      "ĠHow": 8185,
      "ç²ĴåŃĲçļĦ": 8186,
      "å¤ªéĺ³é£İ": 8187,
      "æ¦Ĥçİĩè®º": 8188,
      "Ġkm": 8189,
      "Ġvalu": 8190,
      "å¹³è¡¡å¸¸æķ°": 8191,
      "éĺ¶å¯¼æķ°": 8192,
      "Ġreprodu": 8193,
      "æĿĲæĸĻçļĦ": 8194,
      "ç©ºæ°Ķä¸ŃçļĦ": 8195,
      "ç¢³åİŁåŃĲ": 8196,
      "Ġrecogn": 8197,
      "çĽ¸åħ³æĢ§": 8198,
      "åĩıå°ĳäºĨ": 8199,
      "çīĽé¡¿è¿ĲåĬ¨å®ļå¾ĭ": 8200,
      "åıĳå±ķåĩº": 8201,
      "Ġhash": 8202,
      "æ°§åĮĸè¿ĺåİŁ": 8203,
      "å¯¼èĩ´äºĨ": 8204,
      "é¥®": 8205,
      "Ġformed": 8206,
      "Ġformation": 8207,
      "Ġ)ï¼Į": 8208,
      "Ġsolve": 8209,
      "å±±èĦī": 8210,
      "å»ºç«ĭåľ¨": 8211,
      "Ġvisit": 8212,
      "Ġviscosity": 8213,
      "Ġsignificant": 8214,
      "Ġconfirm": 8215,
      "Ġconsider": 8216,
      "Ġentang": 8217,
      "æĤĸ": 8218,
      "åĢįä½ĵ": 8219,
      "å·¥ç¨ĭåŃ¦": 8220,
      "Ġpowerful": 8221,
      "Ġdiffusion": 8222,
      "Ġrepresentation": 8223,
      "åĩĨç¡®çļĦ": 8224,
      "åķĨä¸ļ": 8225,
      "Ġplasmas": 8226,
      "Ġpersist": 8227,
      "å²©çŁ³åľĪ": 8228,
      "ĠUnder": 8229,
      "æľĢå°ıåĢ¼": 8230,
      "æĬķå½±": 8231,
      "Ġsources": 8232,
      "äº²åĴĮ": 8233,
      "åī©ä½Ļ": 8234,
      "Ġfollows": 8235,
      "æĽ¾ç»ı": 8236,
      "å±ħæ°ĳ": 8237,
      "çº¬åº¦åľ°åĮº": 8238,
      "Ġcontinuously": 8239,
      "ä¸¾ä¾ĭ": 8240,
      "Ġabsorb": 8241,
      "ç²Ĺç³Ļ": 8242,
      "å¹ĤçŃī": 8243,
      "Ġresource": 8244,
      "éĴ¥åĮĻ": 8245,
      "è¿«ä½¿": 8246,
      "Ġefficiently": 8247,
      "Ġstationary": 8248,
      "Ġsemiconduct": 8249,
      "Ġisolated": 8250,
      "åľ°ä¸ĭæ°´": 8251,
      "éª¨æŀ¶": 8252,
      "çĹķè¿¹": 8253,
      "Ġswitching": 8254,
      "å¤ļæł·æĢ§": 8255,
      "äºĮåįģä¸ĸçºª": 8256,
      "Ġreview": 8257,
      "ä¼ĳæģ¯": 8258,
      "ĠQuantum": 8259,
      "å´©": 8260,
      "Ġlife": 8261,
      "orrect": 8262,
      "Ġgiven": 8263,
      "Ġfavor": 8264,
      "Ġroutine": 8265,
      "çŃīåĲĮäºİ": 8266,
      "Ġdistinguish": 8267,
      "æľĭåıĭ": 8268,
      "Ġfarther": 8269,
      ",âĢĿ": 8270,
      "2000": 8271,
      "AN": 8272,
      "IBM": 8273,
      "MS": 8274,
      "Qu": 8275,
      "Rn": 8276,
      "Te": 8277,
      "be": 8278,
      "cape": 8279,
      "gers": 8280,
      "mal": 8281,
      "mit": 8282,
      "mass": 8283,
      "yl": 8284,
      "Ġ8": 8285,
      "ĠâĢĿ": 8286,
      "Ġæ¬¡": 8287,
      "Ġä¸ĬçļĦ": 8288,
      "Ġä»ĸä»¬": 8289,
      "ĠéļıåĲİ": 8290,
      "Ġ:=": 8291,
      "çļĦä¸ĢäºĽ": 8292,
      "çļĦå¯¼æķ°": 8293,
      "çļĦå·®å¼Ĥ": 8294,
      "erior": 8295,
      "atial": 8296,
      "ä½©": 8297,
      "Ġsaf": 8298,
      "Ġseries": 8299,
      "Ġsustain": 8300,
      "åĬ±": 8301,
      "åľ¨æŁĲäºĽ": 8302,
      "ä¸įå¤Ł": 8303,
      "Ġmut": 8304,
      "Ġmid": 8305,
      "Ġpen": 8306,
      "ards": 8307,
      "Ġbur": 8308,
      "Ġbran": 8309,
      "è¯±": 8310,
      "Ġfract": 8311,
      "Ġfully": 8312,
      "icit": 8313,
      "åĪĨéļĶ": 8314,
      "æłĪ": 8315,
      "let": 8316,
      "ä¸ŃæīĢ": 8317,
      "çĶ¨äºĨ": 8318,
      "å½»": 8319,
      "å¸Ŀ": 8320,
      "æŃ§": 8321,
      "æŃĮ": 8322,
      "åĮĸçŁ³": 8323,
      "Ġnames": 8324,
      "åİĤ": 8325,
      "Ġoffer": 8326,
      "omial": 8327,
      "ï¼īï¼Ľ": 8328,
      "ï¼īâĢĶ": 8329,
      "åĲİç»§": 8330,
      "ä¸İåħ¶ä»ĸ": 8331,
      "å¦ĤåĲĮ": 8332,
      "åĲĪåĬĽ": 8333,
      "åı¯ä»¥å¾ĹåĪ°": 8334,
      "ä¹Łè¢«": 8335,
      "ä¹Łä¸įä¼ļ": 8336,
      "å¹¶éĢļè¿ĩ": 8337,
      "æľĢå¿«": 8338,
      "åŁºåĽ¢": 8339,
      "Ġgap": 8340,
      "olar": 8341,
      "olved": 8342,
      "éĽ¹": 8343,
      "å¼ıåŃ¦ä¹ł": 8344,
      "å®ŀä¾ĭ": 8345,
      "èĩªåıĺéĩı": 8346,
      "å¾Ĺå¤ª": 8347,
      "chit": 8348,
      "Ġprom": 8349,
      "igen": 8350,
      "iff": 8351,
      "iform": 8352,
      "æŁĶ": 8353,
      "ades": 8354,
      "ably": 8355,
      "abul": 8356,
      "abol": 8357,
      "èĥ°": 8358,
      "ç©ºçĻ½": 8359,
      "åĪĻæľī": 8360,
      "æŃ£äº¤": 8361,
      "å¤įä¹ł": 8362,
      "åŃĺæ´»": 8363,
      "Ġforward": 8364,
      "Ġviol": 8365,
      "æµ·åºĬ": 8366,
      "Ġchallen": 8367,
      "åīįéĿ¢": 8368,
      "å¤ĸè§Ĥ": 8369,
      "ä»ĸåľ¨": 8370,
      "irt": 8371,
      "åĩłæ¬¡": 8372,
      "åį´æ²¡æľī": 8373,
      "æķ°æį®åĴĮ": 8374,
      "æ¯ıä¸ĢæŃ¥": 8375,
      "çľĭåĩº": 8376,
      "æĶ¹è¿Ľ": 8377,
      "Ġsec": 8378,
      "Ġseaf": 8379,
      "Ġcoast": 8380,
      "ä½ľçĶ¨äºİ": 8381,
      "å¾®çĶŁçī©": 8382,
      "åĻ¨å®ĺ": 8383,
      "éļıä¹ĭ": 8384,
      "çĿĽ": 8385,
      "ä¹ĭéĹ´åŃĺåľ¨": 8386,
      "æº¯": 8387,
      "Ġunne": 8388,
      "éĵº": 8389,
      "Ġshorter": 8390,
      "å¢ŀéĩı": 8391,
      "ĠIs": 8392,
      "ç«ĭåį³": 8393,
      "èī²ç´ł": 8394,
      "ront": 8395,
      "å¦Ĥæŀľæ²¡æľī": 8396,
      "è·¯åı£": 8397,
      "åŃĺåľ¨ä¸Ģä¸ª": 8398,
      "Ġque": 8399,
      "åį³åı¯": 8400,
      "çĶµåŃĲä¼łéĢĴ": 8401,
      "éĴł": 8402,
      "åħ¬çº¦": 8403,
      "åħ¬äº¤": 8404,
      "ĠCal": 8405,
      "Ġusers": 8406,
      "æķ°åŃ¦çļĦ": 8407,
      "ĠEven": 8408,
      "æııè¿°äºĨ": 8409,
      "Ġleak": 8410,
      "Ġlets": 8411,
      "Ġleaving": 8412,
      "çº¿æĢ§æĸ¹ç¨ĭç»Ħ": 8413,
      "è¿Ļç§įçİ°è±¡": 8414,
      "éĤ£éĩĮ": 8415,
      "è§ĴéĢŁåº¦": 8416,
      "æ¸©åº¦åıĺåĮĸ": 8417,
      "èĤ¤": 8418,
      "thing": 8419,
      "åĥıæĺ¯": 8420,
      "èĩªçĦ¶çİ°è±¡": 8421,
      "ĠBro": 8422,
      "Ġ17": 8423,
      "æĭīä¸ģ": 8424,
      "aging": 8425,
      "Ġimpossible": 8426,
      "å½¢å¼ıåĮĸ": 8427,
      "èĦ±ç¦»": 8428,
      "éĹ¨æį·": 8429,
      "Ġè¿Ļç±»": 8430,
      "ç»§æī¿": 8431,
      "ermions": 8432,
      "æĿĥè¡¡": 8433,
      "åıªæľīä¸Ģä¸ª": 8434,
      "åĬŁèĥ½çļĦ": 8435,
      "ä¼°ç®Ĺ": 8436,
      "é©¬æĸ¯": 8437,
      "è§£åĨ³æĸ¹æ¡Ī": 8438,
      "èĲ½ä¸ĭ": 8439,
      "ç¼©çŁŃ": 8440,
      "å®ĮæĪĲçļĦ": 8441,
      "åı¤åħ¸": 8442,
      "ä»ĭéĿ¢": 8443,
      "Ġbehave": 8444,
      "æ°§åĮĸçī©": 8445,
      "æ··åĲĪçī©": 8446,
      "è¾ĵåĩºåĢ¼": 8447,
      "ç¼ºçĤ¹": 8448,
      "Ġcarry": 8449,
      "ãĢĭï¼Ī": 8450,
      "è½¯ä½ĵ": 8451,
      "Ġobservation": 8452,
      "åĮĹåįĬçĲĥ": 8453,
      "è¶ĭäºİ": 8454,
      "æĤ¬": 8455,
      "å°½éĩı": 8456,
      "è½½ä½ĵ": 8457,
      "è¡ĮæĺŁçļĦ": 8458,
      "ä¸įç¡®å®ļåº¦": 8459,
      "Ġteach": 8460,
      "Ġaccording": 8461,
      "ĠStandard": 8462,
      "Ġspecified": 8463,
      "Ġzone": 8464,
      "Ġbuildings": 8465,
      "äº¿å¹´": 8466,
      "åģ¶æŀģ": 8467,
      "Ġpredictions": 8468,
      "Ġconvert": 8469,
      "æī¿è®¤": 8470,
      "Ġcooled": 8471,
      "Ġcosts": 8472,
      "Ġstopping": 8473,
      "Ġprograms": 8474,
      "Ġreading": 8475,
      "æļĸæµģ": 8476,
      "Ġcalibration": 8477,
      "äºĶåĪĨéĴŁ": 8478,
      "çľ¼çĿĽ": 8479,
      "æ¼Ĥåıĺ": 8480,
      "ĠUni": 8481,
      "Ġcapacit": 8482,
      "scale": 8483,
      "itted": 8484,
      "åħ»æ®ĸ": 8485,
      "Ġenvironmental": 8486,
      "çĳŀ": 8487,
      "çĨŁæĤīçļĦ": 8488,
      "Ġamounts": 8489,
      "Ġpopulations": 8490,
      "Ġfamily": 8491,
      "ä¼Ĺå¤ļ": 8492,
      "cule": 8493,
      "æ²Ļæ¼ł": 8494,
      "Ġconductivity": 8495,
      "Ġreturned": 8496,
      "Ġtrip": 8497,
      "Ġinvolves": 8498,
      "å¯¹è§Ĵçº¿": 8499,
      "æŃ£åĪĻé¡¹": 8500,
      "çĪĨåıĳ": 8501,
      "aneously": 8502,
      "Ġeruptions": 8503,
      "Ġlatency": 8504,
      "çĮľæĥ³": 8505,
      "Ġhours": 8506,
      "é»ıåº¦": 8507,
      "Ġedge": 8508,
      "ootstrap": 8509,
      "çŁ¿çī©": 8510,
      "èĳĹåĲįçļĦ": 8511,
      "Ġmeeting": 8512,
      "ç¼ĸç¨ĭè¯Ńè¨Ģ": 8513,
      "ä¹ĻéĨ": 8514,
      "è½¬åĬ¨æĥ¯éĩı": 8515,
      "ield": 8516,
      "xygen": 8517,
      "Ġobserve": 8518,
      "Ġclimate": 8519,
      "åħ¼å®¹": 8520,
      "Ġsurrounding": 8521,
      "éĺħè¯»": 8522,
      "è©¹å§Ĩæĸ¯": 8523,
      "è½½æµģåŃĲ": 8524,
      "Ġessential": 8525,
      "HTTP": 8526,
      "Ġafternoon": 8527,
      "æ·»åĬł": 8528,
      "Ġvaluable": 8529,
      "Ġseafloor": 8530,
      "Ġunnecess": 8531,
      "éĹ¨æį·åĪĹå¤«": 8532,
      "%ãĢĤ": 8533,
      "DP": 8534,
      "If": 8535,
      "IUPAC": 8536,
      "TA": 8537,
      "bra": 8538,
      "body": 8539,
      "dle": 8540,
      "gments": 8541,
      "hav": 8542,
      "lor": 8543,
      "mm": 8544,
      "och": 8545,
      "oud": 8546,
      "set": 8547,
      "tention": 8548,
      "¹æŀľ": 8549,
      "Ġå®ŀéªĮ": 8550,
      "ĠéĻ¤": 8551,
      "ĠæĪĳä»¬": 8552,
      "Ġå¾®ç§¯åĪĨ": 8553,
      "ĥåľ": 8554,
      "çļĦåĨħ": 8555,
      "çļĦéķ¿åº¦": 8556,
      "çļĦå·¥åħ·": 8557,
      "çļĦçī¹æĢ§": 8558,
      "Ġtakes": 8559,
      "Ġtend": 8560,
      "äº¨": 8561,
      "åĪĢ": 8562,
      "åĲŀ": 8563,
      "reement": 8564,
      "ç»ª": 8565,
      "æĺĤ": 8566,
      "å®Ĺ": 8567,
      "Ġcity": 8568,
      "ending": 8569,
      "ä¸Ģå®¶": 8570,
      "ä¸Ģéĺ¶": 8571,
      "ä¸Ģä»½": 8572,
      "æĺ¯ä»Ģä¹Ī": 8573,
      "orque": 8574,
      "æĪ´": 8575,
      "ä¸įèµ·": 8576,
      "itud": 8577,
      "Ġpip": 8578,
      "Ġpull": 8579,
      "Ġdin": 8580,
      "Ġbag": 8581,
      "Ġbase": 8582,
      "Ġwrite": 8583,
      "Ġfac": 8584,
      "Ġflo": 8585,
      "Ġfour": 8586,
      "åı¯å°Ĩ": 8587,
      "èĢĲ": 8588,
      "åĨĽ": 8589,
      "å¸ķ": 8590,
      "è´ª": 8591,
      "è´´": 8592,
      "åĲĮäºĭ": 8593,
      "Ġnature": 8594,
      "ä¼ļéĢłæĪĲ": 8595,
      "Ġlies": 8596,
      "Ġthous": 8597,
      "ä½ĵçİ°": 8598,
      "omic": 8599,
      "ä¸Ģä¸ªå°ı": 8600,
      "ä¸ĬéĻĲ": 8601,
      "éĿ©": 8602,
      "æİĮ": 8603,
      "åľ°ä¸Ń": 8604,
      "åľ°çĲĨ": 8605,
      "åľ°æł¸": 8606,
      "è¿ĩå¤ļ": 8607,
      "è¿ĩæĿ¥": 8608,
      "çĶµèĥ½": 8609,
      "çĶµæ¢¯": 8610,
      "çĽ¸åıĺ": 8611,
      "ä½ľçļĦ": 8612,
      "Ġbeam": 8613,
      "ç§įåħĥç´ł": 8614,
      "å¸¸å¾®åĪĨæĸ¹ç¨ĭ": 8615,
      "åı¯ä»¥è¡¨ç¤º": 8616,
      "äººä¸º": 8617,
      "ä¸ĭä¸Ģæ¬¡": 8618,
      "ä¸ĭéĿ¢çļĦ": 8619,
      "å¹¶ä»¥": 8620,
      "ils": 8621,
      "iles": 8622,
      "æĽ´å¥½çļĦ": 8623,
      "ided": 8624,
      "idges": 8625,
      "urally": 8626,
      "æľĢä½İ": 8627,
      "Ġget": 8628,
      "åģ¿": 8629,
      "æīĢå¾Ĺ": 8630,
      "å®ŀä½ĵ": 8631,
      "æŃ¤å¤ĸ": 8632,
      "çĤ¹çĶµèį·": 8633,
      "chron": 8634,
      "æ°Ķåĳ³": 8635,
      "Ġproport": 8636,
      "ï¼ļâĪ«": 8637,
      "åŀĥåľ": 8638,
      "å¾Īéĩįè¦ģ": 8639,
      "éĥ½è¦ģ": 8640,
      "ç½ķ": 8641,
      "æ°´éĿ¢": 8642,
      "ading": 8643,
      "çº¿æ®µ": 8644,
      "åı¯èĥ½çļĦ": 8645,
      "åı¯èĥ½è¢«": 8646,
      "åĬłå¯Ĩ": 8647,
      "åĪĻåľ¨": 8648,
      "åĪĻç§°ä¸º": 8649,
      "ump": 8650,
      "ä½Ĩä¸įèĥ½": 8651,
      "å¢¨": 8652,
      "åīįè¿Ľ": 8653,
      "å¼ĢæĻ®åĭĴ": 8654,
      "ç¡®å®ŀ": 8655,
      "åį´ä¸į": 8656,
      "æ±ŀ": 8657,
      "æĶ¹æĪĲ": 8658,
      "èĭ·": 8659,
      "èĭ¹æŀľ": 8660,
      "æĹłè®º": 8661,
      "Ġcovered": 8662,
      "ĠSystem": 8663,
      "å¾®ç²Ĵ": 8664,
      "èīº": 8665,
      "æ¸©å¸¦": 8666,
      "çŁ©å½¢": 8667,
      "å§Ķ": 8668,
      "ocabul": 8669,
      "iving": 8670,
      "ä½İé¢ĳ": 8671,
      "æĶ¾å¼ĥ": 8672,
      "å°Ķä¼¯çī¹": 8673,
      "èī²çļĦ": 8674,
      "åĲĳéĩıv": 8675,
      "ç©ºéĹ´å¤įæĿĤåº¦": 8676,
      "æį¢æĪĲ": 8677,
      "ortun": 8678,
      "åħĪæĬĬ": 8679,
      "éĴį": 8680,
      "éĴĻ": 8681,
      "ç£ģæĢ§": 8682,
      "åħ±çĶ¨": 8683,
      "1980": 8684,
      "é¢Ħè¨Ģ": 8685,
      "æ±Ĥå¾Ĺ": 8686,
      "å¹¶ä¸įä»£è¡¨": 8687,
      "åģļçļĦ": 8688,
      "ruction": 8689,
      "ç¨³å®ļåĲĮä½įç´ł": 8690,
      "ä¸¤ä¸ªçī©ä½ĵ": 8691,
      "æİĴæĸ¥": 8692,
      "ĠRep": 8693,
      "åŃĹç¬¦": 8694,
      "å¼ĤæŀĦ": 8695,
      "Ġrelativity": 8696,
      "è®Ńç»ĥæł·æľ¬": 8697,
      "Ġtransformation": 8698,
      "ä¸»è¦ģæĺ¯": 8699,
      "cont": 8700,
      "æĵįçºµ": 8701,
      "ĠNuclear": 8702,
      "èĩªçĦ¶è¯Ńè¨Ģ": 8703,
      "ç®Ģåįķåľ°": 8704,
      "Ġ16": 8705,
      "Ġphases": 8706,
      "Ġsystematic": 8707,
      "ç¡®å®ļæĢ§": 8708,
      "å¾ĹåĪ°äºĨ": 8709,
      "çĭ¬çī¹": 8710,
      "éĽ¶çĤ¹": 8711,
      "æĮ¯åŃĲ": 8712,
      "è§Ĥå¯ŁåĪ°çļĦ": 8713,
      "éĢĴå¢ŀ": 8714,
      "Ġlocations": 8715,
      "Ġsurpr": 8716,
      "Ġsurfaces": 8717,
      "Ġrecom": 8718,
      "Ġworking": 8719,
      "Ġparticip": 8720,
      "Ġ200": 8721,
      "åģľä¸ĭæĿ¥": 8722,
      "èĲ½åľ¨": 8723,
      "Ġequal": 8724,
      "è¯Ńè¨Ģæ¨¡åŀĭ": 8725,
      "ç»Ŀå¤§å¤ļæķ°": 8726,
      "Ġevening": 8727,
      "Ġexplo": 8728,
      "æįŁèĢĹ": 8729,
      "éĶĻè¯¯çļĦ": 8730,
      "ç½Ĺä¼¯çī¹": 8731,
      "Ġcare": 8732,
      "plex": 8733,
      "plete": 8734,
      "ç¨ĭåº¦ä¸Ĭ": 8735,
      "èħĲ": 8736,
      "æº¶è´¨": 8737,
      "ä»İèĢĮå½¢æĪĲ": 8738,
      "ĠGood": 8739,
      "ç¼ĵåĨ²": 8740,
      "åĩłä¸ªäºº": 8741,
      "Ġvolume": 8742,
      "ä¸ĵå®¶": 8743,
      "Ġsuperconductor": 8744,
      "ä¸ĢçĽ´åľ¨": 8745,
      "åĪĨåĪ«ä¸º": 8746,
      "Ġpredic": 8747,
      "æķħäºĭ": 8748,
      "Ġpathways": 8749,
      "Ġpages": 8750,
      "Ġcausing": 8751,
      "Ġzones": 8752,
      "eady": 8753,
      "åı°æ¹¾": 8754,
      "Ġabsolute": 8755,
      "Ġunderstood": 8756,
      "Ġseparated": 8757,
      "æľĢå¤§åĢ¼": 8758,
      "Ġcombinations": 8759,
      "Ġordering": 8760,
      "æľįåĬ¡åĻ¨": 8761,
      "åĪĿå§ĭåĮĸ": 8762,
      "éļľç¢į": 8763,
      "è·¨è¶Ĭ": 8764,
      "Ġexisted": 8765,
      "ç¨Ģæľī": 8766,
      "åıĳè¡¨äºĨ": 8767,
      "Ġbegins": 8768,
      "çľŁæł¸ç»Ĩèĥŀ": 8769,
      "è¿½è¸ª": 8770,
      "Ġgoal": 8771,
      "Ġkeeps": 8772,
      "æĬĳåĪ¶åīĤ": 8773,
      "æ¡ĮéĿ¢": 8774,
      "Ġsubstant": 8775,
      "Ġvectors": 8776,
      "Ġä¸ĢèĪ¬æĿ¥è¯´": 8777,
      "è¾ħéħ¶": 8778,
      "Ġcopper": 8779,
      "æķ£åĪĹåĩ½æķ°": 8780,
      "Ġpriv": 8781,
      "Ġwalk": 8782,
      "çĨĶçĤ¹": 8783,
      "Ġsymmet": 8784,
      "ĠPlate": 8785,
      "Ġmultiplication": 8786,
      "Ġcrystal": 8787,
      "è¡įå°Ħ": 8788,
      "Ġmedium": 8789,
      "æ²¸çĤ¹": 8790,
      "éķ§ç³»": 8791,
      "Ġintroduce": 8792,
      "Ġneighbor": 8793,
      "åįĹæŀģæ´²": 8794,
      "æ§½": 8795,
      "Ġprotein": 8796,
      "æ¶¡æĹĭ": 8797,
      "Ġposterior": 8798,
      "Ġmonths": 8799,
      "ç®Ńå¤´": 8800,
      "ĠInstead": 8801,
      "Ġbattery": 8802,
      "åĪºæ¿Ģ": 8803,
      "çĶµè´ŁæĢ§": 8804,
      "ä¹Įæĸ¯": 8805,
      "Ġmathematical": 8806,
      "éī´": 8807,
      "Ġapproaches": 8808,
      "è¿Ŀåıį": 8809,
      "éĢ¼è¿ĳ": 8810,
      "åĽ½æķ°åŃ¦å®¶": 8811,
      "æ¤ŃåľĨ": 8812,
      "Ġexponential": 8813,
      "osynthesis": 8814,
      "åŀĥåľ¾": 8815,
      "ocabulary": 8816,
      "58": 8817,
      "61": 8818,
      "62": 8819,
      "69": 8820,
      "74": 8821,
      "75": 8822,
      "ED": 8823,
      "Ex": 8824,
      "Gra": 8825,
      "QL": 8826,
      "bust": 8827,
      "cles": 8828,
      "cast": 8829,
      "fåĮº": 8830,
      "got": 8831,
      "ius": 8832,
      "land": 8833,
      "rin": 8834,
      "sing": 8835,
      "âĩ": 8836,
      "é¿": 8837,
      "ĠæĹ¶": 8838,
      "Ġur": 8839,
      "ĠçĤ¹": 8840,
      "ĠåĮĸåŃ¦": 8841,
      "Ġæ¯ıä¸ª": 8842,
      "ĠçĲĨè§£": 8843,
      "Ġåı¦ä¸Ģä¸ª": 8844,
      "Ġäººå·¥æĻºèĥ½": 8845,
      "Ġå¤§å¤ļæķ°": 8846,
      "ĠÃĹ": 8847,
      "ĸåķ": 8848,
      "çļĦæµĭéĩı": 8849,
      "çļĦæĵįä½ľ": 8850,
      "çļĦèĦ±æ°§æł¸ç³ĸæł¸éħ¸": 8851,
      "çļĦåĪĨç±»": 8852,
      "çļĦåľ°éľĩ": 8853,
      "çļĦç¨ĭåº¦": 8854,
      "çļĦè¡Įä¸º": 8855,
      "Ġterm": 8856,
      "Ġtake": 8857,
      "åĪ·": 8858,
      "æĺ¥": 8859,
      "Ġsection": 8860,
      "Ġcase": 8861,
      "ä¸Ģæľ¬": 8862,
      "ä¸Ģå¹´": 8863,
      "æĺ¯çĶ¨": 8864,
      "åºŁ": 8865,
      "orph": 8866,
      "åľ¨çłĶç©¶": 8867,
      "åľ¨è¿Ļä¸ª": 8868,
      "åľ¨çī¹å®ļ": 8869,
      "ä¸įå®¹æĺĵ": 8870,
      "Ġpur": 8871,
      "Ġposs": 8872,
      "ç§ģ": 8873,
      "aring": 8874,
      "Ġdram": 8875,
      "æķ°åĴĮ": 8876,
      "Ġbes": 8877,
      "Ġbed": 8878,
      "Ġband": 8879,
      "Ġbinary": 8880,
      "Ġbott": 8881,
      "èĥ½è¢«": 8882,
      "åĴĸåķ": 8883,
      "Ġfive": 8884,
      "ä¸ºæŃ¢": 8885,
      "åı¯å¤«": 8886,
      "Ġinform": 8887,
      "Ġinference": 8888,
      "Ġinert": 8889,
      "æīŃ": 8890,
      "åĲĮæºĲ": 8891,
      "å®ļåĿĢ": 8892,
      "Ġnull": 8893,
      "åıĺå°ı": 8894,
      "å¤§éĥ¨ä»½": 8895,
      "å·Ŀ": 8896,
      "Ġthresh": 8897,
      "uth": 8898,
      "å¤ļå¾·": 8899,
      "æĿ¥åĽŀ": 8900,
      "åĲİéĿ¢çļĦ": 8901,
      "åĲİæīįåıĳçİ°": 8902,
      "Ġsteady": 8903,
      "imin": 8904,
      "çĽ¸å¹²": 8905,
      "ä¸ĭèĲ½": 8906,
      "æĽ´ç¨³å®ļ": 8907,
      "æĽ´åı¯éĿł": 8908,
      "vern": 8909,
      "åİŁæĿ¥": 8910,
      "éĩįå¤§": 8911,
      "éĩįçĤ¹": 8912,
      "è¢«åıĳçİ°": 8913,
      "æı´": 8914,
      "å®ŀè·": 8915,
      "è¡Įç§©": 8916,
      "amiliar": 8917,
      "åĢ¼åŁŁ": 8918,
      "é«ĺé¢ĳ": 8919,
      "Ġexists": 8920,
      "Ġexcessive": 8921,
      "abil": 8922,
      "gebra": 8923,
      "åįķè°ĥ": 8924,
      "å¹³åı°": 8925,
      "Ġvocabulary": 8926,
      "æµ·ä¸Ĭ": 8927,
      "æµ·æĭĶ": 8928,
      "æł·åĵģ": 8929,
      "åħ¥å°Ħ": 8930,
      "åĪĹç§©": 8931,
      "ĠATP": 8932,
      "æłĩå¿Ĺ": 8933,
      "è½¬åĲĳ": 8934,
      "è½¬ç½®": 8935,
      "è½¬åıĺæĪĲ": 8936,
      "æ¯ıæĿ¡": 8937,
      "è¾ĥå¼±": 8938,
      "ç»Ĩèĥŀå£ģ": 8939,
      "Ġcovariance": 8940,
      "æ¶µ": 8941,
      "ä½¿çĶ¨äºĨ": 8942,
      "å°ĳäºĨ": 8943,
      "å°ĳéĩıçļĦ": 8944,
      "acific": 8945,
      "è®¾å®ļ": 8946,
      "çĬ¯": 8947,
      "çĥŃæ°´": 8948,
      "ocial": 8949,
      "èĬ¬": 8950,
      "å°Ĩä¼ļ": 8951,
      "èĦı": 8952,
      "Ġunf": 8953,
      "Ġuniform": 8954,
      "Ġshap": 8955,
      "æŁĲä¸ĢçĤ¹": 8956,
      "ä¸Ģç§įç§°ä¸º": 8957,
      "è¶Ĭå¥½": 8958,
      "ç©ºéĹ´ä¸ŃçļĦ": 8959,
      "åŃĺåľ¨çĿĢ": 8960,
      "Ġquality": 8961,
      "å¸ĥæĸ¯": 8962,
      "é£İåĲĳ": 8963,
      "ffic": 8964,
      "ç£ģçŁ©": 8965,
      "ä¼¼ä¹İ": 8966,
      "é¢ĦåħĪ": 8967,
      "Ġuser": 8968,
      "Ġresolution": 8969,
      "æĿĤäº¤": 8970,
      "åģļæ³ķ": 8971,
      "åģļåĬŁ": 8972,
      "æĢ»ç»ĵ": 8973,
      "opes": 8974,
      "äºĴåĬ¨": 8975,
      "èĩ³äºİ": 8976,
      "Ġspatial": 8977,
      "æİĴå¸ĥ": 8978,
      "è¿Ļç§įæĥħåĨµä¸ĭ": 8979,
      "ĠMany": 8980,
      "Ġperme": 8981,
      "çĬ¶æĢģçļĦ": 8982,
      "ĠPri": 8983,
      "apse": 8984,
      "å®ĥä»¬åľ¨": 8985,
      "ĠDep": 8986,
      "Ġcluster": 8987,
      "åģıç§»": 8988,
      "åģıå¥½": 8989,
      "é©»": 8990,
      "éĵ¾çļĦ": 8991,
      "ç¥ŀè¯Ŀ": 8992,
      "ĠFacts": 8993,
      "å¤ªéĺ³è¾Ĳå°Ħ": 8994,
      "çĽ®æłĩåĩ½æķ°": 8995,
      "å½¢å¼ıçļĦ": 8996,
      "æľ¬èº«çļĦ": 8997,
      "Ġexpand": 8998,
      "çŁŃçļĦ": 8999,
      "çŁŃæĹ¶éĹ´": 9000,
      "rices": 9001,
      "Ġcollection": 9002,
      "äºļçĥŃå¸¦": 9003,
      "ç¼ĸåĨĻ": 9004,
      "é©¬å°Ķ": 9005,
      "åĨ°éĽ¹": 9006,
      "Ġequival": 9007,
      "å½Ĵä¸Ģ": 9008,
      "Ġexplicit": 9009,
      "ç½Ĺæĸ¯": 9010,
      "Ġgeneration": 9011,
      "éĿĻæĢģ": 9012,
      "æĽ²éĿ¢": 9013,
      "æľīæĹ¶åĢĻ": 9014,
      "æ··æĿĤ": 9015,
      "Ġheld": 9016,
      "æĿ¥èĩªäºİ": 9017,
      "æľĢåĲİä¸Ģä¸ª": 9018,
      "éĢıéķľ": 9019,
      "éĺ»ç¢į": 9020,
      "æ¤įçī©çļĦ": 9021,
      "èħ¾": 9022,
      "è¾¹çķĮæĿ¡ä»¶": 9023,
      "ä¹¦ä¸Ń": 9024,
      "æ²¿èĳĹ": 9025,
      "Ġremaining": 9026,
      "Ġappropri": 9027,
      "æķ°ç»Ħä¸Ń": 9028,
      "Ġfinding": 9029,
      "Ġimages": 9030,
      "æİ¢è®¨": 9031,
      "åįłçĶ¨": 9032,
      "åįıåĬ©": 9033,
      "è¡¥åģ¿": 9034,
      "çŁ©éĺµçļĦç§©": 9035,
      "Ġproviding": 9036,
      "ä»ĭè´¨çļĦ": 9037,
      "è½¬æį¢æĪĲ": 9038,
      "Ġcorrelations": 9039,
      "éĹŃåĲĪ": 9040,
      "éĩįåĬĽåľº": 9041,
      "Ġphysic": 9042,
      "å¹ħåº¦": 9043,
      "âĢ¦âĢ¦": 9044,
      "åŃĺåĤ¨ç©ºéĹ´": 9045,
      "èĪªè¡Į": 9046,
      "ä¸įä»ħæĺ¯": 9047,
      "Ġdefin": 9048,
      "Ġappears": 9049,
      "åİĨåı²ä¸Ĭ": 9050,
      "æµªè´¹": 9051,
      "âī¥": 9052,
      "å®½åº¦": 9053,
      "ĠRepeated": 9054,
      "Ġhardware": 9055,
      "Ġcollisions": 9056,
      "Ġbook": 9057,
      "æł¸èĭ·éħ¸åºıåĪĹ": 9058,
      "Ġgroundwater": 9059,
      "Ġopened": 9060,
      "Ġtreated": 9061,
      "åĽ½éĻħåįķä½į": 9062,
      "æľ¬è´¨ä¸Ĭ": 9063,
      "éĿĻæŃ¢è´¨éĩı": 9064,
      "æ½ľåľ¨": 9065,
      "Ġsounded": 9066,
      "æľĢæĹ©çļĦ": 9067,
      "Ġhappens": 9068,
      "è·ĥè¿ģ": 9069,
      "Ġreaches": 9070,
      "æŃ£åĪĻåĮĸ": 9071,
      "æķ£åĪĹè¡¨": 9072,
      "èĲ¨åħĭ": 9073,
      "Ġcharacteristic": 9074,
      "Ġisolation": 9075,
      "äºĮåħĥæłĳ": 9076,
      "ç¬Ķè®°": 9077,
      "Ġdistinction": 9078,
      "çĩĥçĥ§": 9079,
      "Ġheavy": 9080,
      "Ġgalaxy": 9081,
      "âĨ¦": 9082,
      "Ġnecessarily": 9083,
      "ç´«å¤ĸçº¿": 9084,
      "Ġdisturbances": 9085,
      "éģµå¾ª": 9086,
      "åı¶ç»¿ä½ĵ": 9087,
      "Ġcircuit": 9088,
      "Unix": 9089,
      "Ġhypothesis": 9090,
      "è¯¦ç»Ĩ": 9091,
      "Ġwanted": 9092,
      "article": 9093,
      "æ·¡æ°´": 9094,
      "Ġroughly": 9095,
      "åĩĿèģļæĢģ": 9096,
      "Ġexplanation": 9097,
      "èĶ½": 9098,
      "èĪĴæľį": 9099,
      "Ġarbitrary": 9100,
      "åŃ¤ç«ĭ": 9101,
      "Ġdocument": 9102,
      "æĤĸè®º": 9103,
      "chitect": 9104,
      "åľ°ä¸Ńæµ·": 9105,
      "åĴĸåķ¡": 9106,
      "å®ŀè·µ": 9107,
      "118": 9108,
      "43": 9109,
      "89": 9110,
[...]
