{
  "version": "1.0",
  "truncation": null,
  "padding": null,
  "added_tokens": [
    {
      "id": 0,
      "content": "<|pad|>",
      "single_word": false,
      "lstrip": false,
      "rstrip": false,
      "normalized": false,
      "special": true
    },
    {
      "id": 1,
      "content": "<|unk|>",
      "single_word": false,
      "lstrip": false,
      "rstrip": false,
      "normalized": false,
      "special": true
    },
    {
      "id": 2,
      "content": "<|bos|>",
      "single_word": false,
      "lstrip": false,
      "rstrip": false,
      "normalized": false,
      "special": true
    },
    {
      "id": 3,
      "content": "<|eos|>",
      "single_word": false,
      "lstrip": false,
      "rstrip": false,
      "normalized": false,
      "special": true
    }
  ],
  "normalizer": {
    "type": "Sequence",
    "normalizers": [
      {
        "type": "NFKC"
      }
    ]
  },
  "pre_tokenizer": {
    "type": "ByteLevel",
    "add_prefix_space": false,
    "trim_offsets": true,
    "use_regex": true
  },
  "post_processor": {
    "type": "TemplateProcessing",
    "single": [
      {
        "SpecialToken": {
          "id": "<|bos|>",
          "type_id": 0
        }
      },
      {
        "Sequence": {
          "id": "A",
          "type_id": 0
        }
      },
      {
        "SpecialToken": {
          "id": "<|eos|>",
          "type_id": 0
        }
      }
    ],
    "pair": [
      {
        "Sequence": {
          "id": "A",
          "type_id": 0
        }
      },
      {
        "Sequence": {
          "id": "B",
          "type_id": 1
        }
      }
    ],
    "special_tokens": {
      "<|bos|>": {
        "id": "<|bos|>",
        "ids": [
          2
        ],
        "tokens": [
          "<|bos|>"
        ]
      },
      "<|eos|>": {
        "id": "<|eos|>",
        "ids": [
          3
        ],
        "tokens": [
          "<|eos|>"
        ]
      }
    }
  },
  "decoder": {
    "type": "ByteLevel",
    "add_prefix_space": true,
    "trim_offsets": true,
    "use_regex": true
  },
  "model": {
    "type": "BPE",
    "dropout": null,
    "unk_token": "<|unk|>",
    "continuing_subword_prefix": null,
    "end_of_word_suffix": null,
    "fuse_unk": false,
    "byte_fallback": false,
    "ignore_merges": false,
    "vocab": {
      "<|pad|>": 0,
      "<|unk|>": 1,
      "<|bos|>": 2,
      "<|eos|>": 3,
      "!": 4,
      "\"": 5,
      "#": 6,
      "$": 7,
      "%": 8,
      "&": 9,
      "'": 10,
      "(": 11,
      ")": 12,
      "*": 13,
      "+": 14,
      ",": 15,
      "-": 16,
      ".": 17,
      "/": 18,
      "0": 19,
      "1": 20,
      "2": 21,
      "3": 22,
      "4": 23,
      "5": 24,
      "6": 25,
      "7": 26,
      "8": 27,
      "9": 28,
      ":": 29,
      ";": 30,
      "<": 31,
      "=": 32,
      ">": 33,
      "?": 34,
      "@": 35,
      "A": 36,
      "B": 37,
      "C": 38,
      "D": 39,
      "E": 40,
      "F": 41,
      "G": 42,
      "H": 43,
      "I": 44,
      "J": 45,
      "K": 46,
      "L": 47,
      "M": 48,
      "N": 49,
      "O": 50,
      "P": 51,
      "Q": 52,
      "R": 53,
      "S": 54,
      "T": 55,
      "U": 56,
      "V": 57,
      "W": 58,
      "X": 59,
      "Y": 60,
      "Z": 61,
      "[": 62,
      "\\": 63,
      "]": 64,
      "^": 65,
      "_": 66,
      "`": 67,
      "a": 68,
      "b": 69,
      "c": 70,
      "d": 71,
      "e": 72,
      "f": 73,
      "g": 74,
      "h": 75,
      "i": 76,
      "j": 77,
      "k": 78,
      "l": 79,
      "m": 80,
      "n": 81,
      "o": 82,
      "p": 83,
      "q": 84,
      "r": 85,
      "s": 86,
      "t": 87,
      "u": 88,
      "v": 89,
      "w": 90,
      "x": 91,
      "y": 92,
      "z": 93,
      "{": 94,
      "|": 95,
      "}": 96,
      "~": 97,
      "¡": 98,
      "¢": 99,
      "£": 100,
      "¤": 101,
      "¥": 102,
      "¦": 103,
      "§": 104,
      "¨": 105,
      "©": 106,
      "ª": 107,
      "«": 108,
      "¬": 109,
      "®": 110,
      "¯": 111,
      "°": 112,
      "±": 113,
      "²": 114,
      "³": 115,
      "´": 116,
      "µ": 117,
      "¶": 118,
      "·": 119,
      "¸": 120,
      "¹": 121,
      "º": 122,
      "»": 123,
      "¼": 124,
      "½": 125,
      "¾": 126,
      "¿": 127,
      "À": 128,
      "Á": 129,
      "Â": 130,
      "Ã": 131,
      "Ä": 132,
      "Å": 133,
      "Æ": 134,
      "Ç": 135,
      "È": 136,
      "É": 137,
      "Ê": 138,
      "Ë": 139,
      "Ì": 140,
      "Í": 141,
      "Î": 142,
      "Ï": 143,
      "Ð": 144,
      "Ñ": 145,
      "Ò": 146,
      "Ó": 147,
      "Ô": 148,
      "Õ": 149,
      "Ö": 150,
      "×": 151,
      "Ø": 152,
      "Ù": 153,
      "Ú": 154,
      "Û": 155,
      "Ü": 156,
      "Ý": 157,
      "Þ": 158,
      "ß": 159,
      "à": 160,
      "á": 161,
      "â": 162,
      "ã": 163,
      "ä": 164,
      "å": 165,
      "æ": 166,
      "ç": 167,
      "è": 168,
      "é": 169,
      "ê": 170,
      "ë": 171,
      "ì": 172,
      "í": 173,
      "î": 174,
      "ï": 175,
      "ð": 176,
      "ñ": 177,
      "ò": 178,
      "ó": 179,
      "ô": 180,
      "õ": 181,
      "ö": 182,
      "÷": 183,
      "ø": 184,
      "ù": 185,
      "ú": 186,
      "û": 187,
      "ü": 188,
      "ý": 189,
      "þ": 190,
      "ÿ": 191,
      "Ā": 192,
      "ā": 193,
      "Ă": 194,
      "ă": 195,
      "Ą": 196,
      "ą": 197,
      "Ć": 198,
      "ć": 199,
      "Ĉ": 200,
      "ĉ": 201,
      "Ċ": 202,
      "ċ": 203,
      "Č": 204,
      "č": 205,
      "Ď": 206,
      "ď": 207,
      "Đ": 208,
      "đ": 209,
      "Ē": 210,
      "ē": 211,
      "Ĕ": 212,
      "ĕ": 213,
      "Ė": 214,
      "ė": 215,
      "Ę": 216,
      "ę": 217,
      "Ě": 218,
      "ě": 219,
      "Ĝ": 220,
      "ĝ": 221,
      "Ğ": 222,
      "ğ": 223,
      "Ġ": 224,
      "ġ": 225,
      "Ģ": 226,
      "ģ": 227,
      "Ĥ": 228,
      "ĥ": 229,
      "Ħ": 230,
      "ħ": 231,
      "Ĩ": 232,
      "ĩ": 233,
      "Ī": 234,
      "ī": 235,
      "Ĭ": 236,
      "ĭ": 237,
      "Į": 238,
      "į": 239,
      "İ": 240,
      "ı": 241,
      "Ĳ": 242,
      "ĳ": 243,
      "Ĵ": 244,
      "ĵ": 245,
      "Ķ": 246,
      "ķ": 247,
      "ĸ": 248,
      "Ĺ": 249,
      "ĺ": 250,
      "Ļ": 251,
      "ļ": 252,
      "Ľ": 253,
      "ľ": 254,
      "Ŀ": 255,
      "ŀ": 256,
      "Ł": 257,
      "ł": 258,
      "Ń": 259,
      "on": 260,
      "Ġa": 261,
      "Ġt": 262,
      "re": 263,
      "in": 264,
      "at": 265,
      "Ġc": 266,
      "er": 267,
      "Ġs": 268,
      "Ġth": 269,
      "en": 270,
      "es": 271,
      "is": 272,
      "ion": 273,
      "ä¸": 274,
      "an": 275,
      "al": 276,
      "or": 277,
      "it": 278,
      "Ġd": 279,
      "Ġm": 280,
      "ãĢ": 281,
      "Ġp": 282,
      "ar": 283,
      "Ġb": 284,
      "Ġthe": 285,
      "ãĢĤ": 286,
      "Ġan": 287,
      "ct": 288,
      "åı": 289,
      "ing": 290,
      "le": 291,
      "Ġre": 292,
      "Ġf": 293,
      "ro": 294,
      "Ġw": 295,
      "ic": 296,
      "us": 297,
      "Ġin": 298,
      "ed": 299,
      "Ġo": 300,
      "Ġand": 301,
      "ation": 302,
      "Ġis": 303,
      "ent": 304,
      "çļ": 305,
      "çļĦ": 306,
      "Ġe": 307,
      "om": 308,
      "Ġn": 309,
      "åĪ": 310,
      "ç»": 311,
      "åĲ": 312,
      "æľ": 313,
      "Ġcon": 314,
      "Ġto": 315,
      "as": 316,
      "ly": 317,
      "è¿": 318,
      "Ġbe": 319,
      "ce": 320,
      "Ġthat": 321,
      "Ġst": 322,
      "he": 323,
      "Ġl": 324,
      "im": 325,
      "ä»": 326,
      "å¤": 327,
      "åħ": 328,
      "éĩ": 329,
      "æķ": 330,
      "å®": 331,
      "ut": 332,
      "ä½": 333,
      "ul": 334,
      "çĶ": 335,
      "åº": 336,
      "id": 337,
      "un": 338,
      "æĺ": 339,
      "è®": 340,
      "ot": 341,
      "ĥ½": 342,
      "ra": 343,
      "ve": 344,
      "åĬ": 345,
      "use": 346,
      "ä¸į": 347,
      "et": 348,
      "éĢ": 349,
      "Ġon": 350,
      "èĥ½": 351,
      "Ġcan": 352,
      "st": 353,
      "il": 354,
      "Ġof": 355,
      "æķ°": 356,
      "Ġh": 357,
      "Ġcom": 358,
      "åĴ": 359,
      "åĴĮ": 360,
      "åı¯": 361,
      "äº": 362,
      "Ġwh": 363,
      "Ġpro": 364,
      "æĪ": 365,
      "ä¼": 366,
      "è¯": 367,
      "qu": 368,
      "Ġde": 369,
      "åľ": 370,
      "ist": 371,
      "æĸ": 372,
      "ĠT": 373,
      "æĹ": 374,
      "éĩı": 375,
      "if": 376,
      "ch": 377,
      "åŃ": 378,
      "ity": 379,
      "am": 380,
      "æĺ¯": 381,
      "ate": 382,
      "æĢ": 383,
      "Ġal": 384,
      "Ġor": 385,
      "åĮ": 386,
      "ab": 387,
      "è§": 388,
      "ĠA": 389,
      "Ġg": 390,
      "ä¸Ģ": 391,
      "æŀ": 392,
      "ver": 393,
      "ge": 394,
      "åĽ": 395,
      "çİ": 396,
      "Ġbec": 397,
      "ig": 398,
      "res": 399,
      "ow": 400,
      "Ġmo": 401,
      "ãĢģ": 402,
      "ol": 403,
      "å¸": 404,
      "åº¦": 405,
      "pl": 406,
      "el": 407,
      "Ġex": 408,
      "å¹": 409,
      "ction": 410,
      "ter": 411,
      "ä¹": 412,
      "åĪĨ": 413,
      "åĩ": 414,
      "æł": 415,
      "ith": 416,
      "è¡": 417,
      "å°": 418,
      "éĹ": 419,
      "ur": 420,
      "ause": 421,
      "åľ¨": 422,
      "æĹ¶": 423,
      "æĿ": 424,
      "Ġnot": 425,
      "iz": 426,
      "ri": 427,
      "åĲĮ": 428,
      "orm": 429,
      "Ġme": 430,
      "um": 431,
      "Ġma": 432,
      "Ġch": 433,
      "å¯": 434,
      "å¼": 435,
      "Ġv": 436,
      "Ġbecause": 437,
      "åĨ": 438,
      "çĽ": 439,
      "Ġr": 440,
      "fe": 441,
      "ĠI": 442,
      "åıĺ": 443,
      "çĶ¨": 444,
      "å¾": 445,
      "æį": 446,
      "os": 447,
      "ical": 448,
      "æľī": 449,
      "Ġcomp": 450,
      "Ġwith": 451,
      "ds": 452,
      "å½": 453,
      "åĮĸ": 454,
      "Ġse": 455,
      "her": 456,
      "pt": 457,
      "ren": 458,
      "Ġun": 459,
      "Ġne": 460,
      "ition": 461,
      "ment": 462,
      "å®ļ": 463,
      "der": 464,
      "è¦": 465,
      "Ġas": 466,
      "æĪĲ": 467,
      "pe": 468,
      "ä¸ª": 469,
      "ke": 470,
      "ä»¥": 471,
      "æŃ": 472,
      "pen": 473,
      "è¦ģ": 474,
      "ces": 475,
      "æİ": 476,
      "æĢ§": 477,
      "est": 478,
      "ä¼ļ": 479,
      "Ġuse": 480,
      "Ġit": 481,
      "èĢ": 482,
      "æµ": 483,
      "ck": 484,
      "ç»ĵ": 485,
      "du": 486,
      "ations": 487,
      "ure": 488,
      "è¾": 489,
      "æ³": 490,
      "so": 491,
      "é¢": 492,
      "ç§": 493,
      "å·": 494,
      "åį": 495,
      "æĬ": 496,
      "ive": 497,
      "ä¸Ń": 498,
      "ĠS": 499,
      "rom": 500,
      "ain": 501,
      "éĻ": 502,
      "em": 503,
      "ĠThe": 504,
      "å¸¸": 505,
      "ant": 506,
      "æį®": 507,
      "Ġid": 508,
      "è¿ĩ": 509,
      "Ġare": 510,
      "ile": 511,
      "ç¨": 512,
      "Ġus": 513,
      "ers": 514,
      "çī": 515,
      "ä¿": 516,
      "æĽ": 517,
      "ç³": 518,
      "åĽł": 519,
      "éĹ´": 520,
      "Ġdif": 521,
      "ill": 522,
      "éĢļ": 523,
      "art": 524,
      "Ġchan": 525,
      "çĲ": 526,
      "ç³»": 527,
      "Ġfa": 528,
      "åı¯ä»¥": 529,
      "feren": 530,
      "ies": 531,
      "è´": 532,
      "iv": 533,
      "Ġdo": 534,
      "Ġfrom": 535,
      "Ġsh": 536,
      "Ġco": 537,
      "ä½ĵ": 538,
      "ä¸º": 539,
      "åºĶ": 540,
      "Ġres": 541,
      "Ġalso": 542,
      "è®¡": 543,
      "å¹¶": 544,
      "Ġfor": 545,
      "Ġap": 546,
      "æŀľ": 547,
      "æĽ´": 548,
      "Ġint": 549,
      "Ġwhile": 550,
      "åħ³": 551,
      "æĶ": 552,
      "Ġdepen": 553,
      "Ġcont": 554,
      "ĠTh": 555,
      "è§£": 556,
      "Ġone": 557,
      "ay": 558,
      "Ġhe": 559,
      "åĬ¨": 560,
      "çĲĨ": 561,
      "Ġen": 562,
      "ated": 563,
      "ans": 564,
      "æī": 565,
      "åı¯èĥ½": 566,
      "ir": 567,
      "å¤§": 568,
      "çİĩ": 569,
      "ps": 570,
      "Ġdifferen": 571,
      "and": 572,
      "æľ¬": 573,
      "ally": 574,
      "dition": 575,
      "åĪ°": 576,
      "æĪĸ": 577,
      "æĸ¹": 578,
      "Ġstill": 579,
      "éļ": 580,
      "æķ°æį®": 581,
      "ç»Ł": 582,
      "å¤ļ": 583,
      "rib": 584,
      "åĲĪ": 585,
      "éĩį": 586,
      "ire": 587,
      "ance": 588,
      "å¿": 589,
      "Ġsam": 590,
      "ult": 591,
      "æĮ": 592,
      "æ¨": 593,
      "ä¸İ": 594,
      "Ġsu": 595,
      "å¯¹": 596,
      "çľ": 597,
      "¦Ĥ": 598,
      "æ¨¡": 599,
      "ort": 600,
      "çĶµ": 601,
      "able": 602,
      "åŀ": 603,
      "èĢĮ": 604,
      "Ġob": 605,
      "çº": 606,
      "Ġdist": 607,
      "æı": 608,
      "ble": 609,
      "ful": 610,
      "åİ": 611,
      "éľ": 612,
      "erv": 613,
      "mon": 614,
      "çĽ¸": 615,
      "Ġwhen": 616,
      "è¡¨": 617,
      "Ġdat": 618,
      "åĢ": 619,
      "Ġac": 620,
      "çĶŁ": 621,
      "Ġdoes": 622,
      "ract": 623,
      "Ġwhe": 624,
      "Ġim": 625,
      "ence": 626,
      "form": 627,
      "åĵ": 628,
      "åŀĭ": 629,
      "per": 630,
      "å®ŀ": 631,
      "Ġstr": 632,
      "Ġle": 633,
      "de": 634,
      "ility": 635,
      "reas": 636,
      "äºİ": 637,
      "Ġtr": 638,
      "Ġrel": 639,
      "çŃ": 640,
      "ä¸įåĲĮ": 641,
      "æľº": 642,
      "éľĢ": 643,
      "ç®": 644,
      "Ġdes": 645,
      "Ġuseful": 646,
      "oun": 647,
      "ç¨ĭ": 648,
      "åĲİ": 649,
      "ore": 650,
      "oc": 651,
      "èĩ": 652,
      "out": 653,
      "çİ°": 654,
      "Ġpo": 655,
      "Ġcondition": 656,
      "Ġmod": 657,
      "ple": 658,
      "åĲĳ": 659,
      "çī©": 660,
      "ine": 661,
      "ect": 662,
      "æĬĬ": 663,
      "ial": 664,
      "int": 665,
      "Ġfact": 666,
      "åģ": 667,
      "åŃĲ": 668,
      "æŁ": 669,
      "pro": 670,
      "igh": 671,
      "imit": 672,
      "ign": 673,
      "ary": 674,
      "Ġlimit": 675,
      "chan": 676,
      "Ġmat": 677,
      "Ġcommon": 678,
      "ea": 679,
      "åĬĽ": 680,
      "ĠIt": 681,
      "ding": 682,
      "ice": 683,
      "Ġby": 684,
      "ä»¶": 685,
      "cy": 686,
      "å·®": 687,
      "è´¨": 688,
      "Ġdifferent": 689,
      "ç©": 690,
      "ions": 691,
      "Ġconc": 692,
      "è¿Ļ": 693,
      "å¤į": 694,
      "æł·": 695,
      "ism": 696,
      "yst": 697,
      "ari": 698,
      "éľĢè¦ģ": 699,
      "Ġab": 700,
      "Ġso": 701,
      "Ġmodel": 702,
      "è½": 703,
      "æľĢ": 704,
      "æĭ": 705,
      "age": 706,
      "ä¾": 707,
      "ges": 708,
      "ates": 709,
      "Ġat": 710,
      "éĿ": 711,
      "åŃ¦": 712,
      "Ġbut": 713,
      "é«": 714,
      "lect": 715,
      "ens": 716,
      "é«ĺ": 717,
      "åĩº": 718,
      "æ°": 719,
      "Ġinter": 720,
      "åĢ¼": 721,
      "æ¨¡åŀĭ": 722,
      "éª": 723,
      "Ġev": 724,
      "åįķ": 725,
      "åıĳ": 726,
      "serv": 727,
      "ability": 728,
      "Ġval": 729,
      "éĥ": 730,
      "éĥ¨": 731,
      "Ġtra": 732,
      "å±": 733,
      "åŃĺ": 734,
      "ystem": 735,
      "Ġca": 736,
      "ork": 737,
      "Ġdepends": 738,
      "ten": 739,
      "Ġmore": 740,
      "Ġdata": 741,
      "Ġreal": 742,
      "æ¯": 743,
      "ong": 744,
      "Ġpre": 745,
      "æģ": 746,
      "æµĭ": 747,
      "Ġtrans": 748,
      "å¢": 749,
      "ĠF": 750,
      "cess": 751,
      "ç¡": 752,
      "ä¸ĭ": 753,
      "ization": 754,
      "èµ": 755,
      "Ġpract": 756,
      "pa": 757,
      "ther": 758,
      "Ġmechan": 759,
      "ç«": 760,
      "ĠIn": 761,
      "ĠC": 762,
      "åĪ¶": 763,
      "æłĩ": 764,
      "port": 765,
      "è¡Į": 766,
      "æ³ķ": 767,
      "åĬł": 768,
      "plic": 769,
      "Ġsystem": 770,
      "all": 771,
      "RO": 772,
      "éĶ": 773,
      "ä½¿": 774,
      "Ġunder": 775,
      "éªĮ": 776,
      "è¶": 777,
      "ĠThis": 778,
      "æĢģ": 779,
      "ç³»ç»Ł": 780,
      "LE": 781,
      "od": 782,
      "Ġform": 783,
      "Ġper": 784,
      "éĹ®": 785,
      "Ġconditions": 786,
      "ys": 787,
      "ä¿¡": 788,
      "ĠW": 789,
      "éļı": 790,
      "åıĺåĮĸ": 791,
      "uct": 792,
      "vel": 793,
      "åĵį": 794,
      "ug": 795,
      "Ġsc": 796,
      "ä¸Ģä¸ª": 797,
      "è°": 798,
      "Ġidea": 799,
      "Ġhel": 800,
      "éĺ": 801,
      "ä½į": 802,
      "éĢŁ": 803,
      "ting": 804,
      "æİ¥": 805,
      "Ġad": 806,
      "uld": 807,
      "Ġcompar": 808,
      "³å®ļ": 809,
      "ç½": 810,
      "åıį": 811,
      "Ġall": 812,
      "æĿ¡": 813,
      "å¼ı": 814,
      "cept": 815,
      "çŃī": 816,
      "ass": 817,
      "é¢ĺ": 818,
      "Ġqu": 819,
      "Ġset": 820,
      "Ġrequ": 821,
      "gy": 822,
      "ĠO": 823,
      "Ġro": 824,
      "ress": 825,
      "ake": 826,
      "ud": 827,
      "fect": 828,
      "ç»ĵæŀľ": 829,
      "ould": 830,
      "æŀĦ": 831,
      "Ġprodu": 832,
      "ind": 833,
      "åıª": 834,
      "Ġthis": 835,
      "çł": 836,
      "ome": 837,
      "Ġoften": 838,
      "å¹³": 839,
      "ĠB": 840,
      "è®¾": 841,
      "è¯ģ": 842,
      "åĿ": 843,
      "å°ı": 844,
      "æĶ¹": 845,
      "av": 846,
      "ä¸Ĭ": 847,
      "è¯¯": 848,
      "æ¸": 849,
      "éĽ": 850,
      "ison": 851,
      "are": 852,
      "Ġcomparison": 853,
      "å½±": 854,
      "ient": 855,
      "æĦ": 856,
      "CT": 857,
      "æŃ£": 858,
      "åŁ": 859,
      "ä¹Ł": 860,
      "arb": 861,
      "ç»Ħ": 862,
      "ä½Ĩ": 863,
      "Ġobserv": 864,
      "æĿ¥": 865,
      "éĢļå¸¸": 866,
      "ç®Ĺ": 867,
      "å½±åĵį": 868,
      "æĸ°": 869,
      "Ġmechanism": 870,
      "Ġhas": 871,
      "ELE": 872,
      "Ġthan": 873,
      "ç¡®": 874,
      "te": 875,
      "æŃ¤": 876,
      "éĹ®é¢ĺ": 877,
      "ELECT": 878,
      "Ġhow": 879,
      "Ġdesc": 880,
      "åĻ": 881,
      "ugh": 882,
      "ä¹ĭ": 883,
      "Ġman": 884,
      "Ġinc": 885,
      "ffect": 886,
      "Ġke": 887,
      "ust": 888,
      "ä½ľ": 889,
      "Ġrem": 890,
      "Ġout": 891,
      "ution": 892,
      "Ġshould": 893,
      "Ġha": 894,
      "åİŁ": 895,
      "Ġcl": 896,
      "ess": 897,
      "ç§į": 898,
      "very": 899,
      "å¢ŀ": 900,
      "ep": 901,
      "çŁ": 902,
      "ergy": 903,
      "æķĪ": 904,
      "Ġmeas": 905,
      "æĿ¡ä»¶": 906,
      "çķ": 907,
      "çĤ": 908,
      "Ġgen": 909,
      "Ġgra": 910,
      "åĳ": 911,
      "è·": 912,
      "Ġdec": 913,
      "Ġsame": 914,
      "ack": 915,
      "éĥ½": 916,
      "Ġche": 917,
      "ROM": 918,
      "Ġmist": 919,
      "Ġneed": 920,
      "ĠFROM": 921,
      "ne": 922,
      "åĮº": 923,
      "å½¢": 924,
      "åºı": 925,
      "ide": 926,
      "å¦Ĥ": 927,
      "Ġpl": 928,
      "çľĭ": 929,
      "Ġpractice": 930,
      "Ġredu": 931,
      "èĩª": 932,
      "ink": 933,
      "Ġits": 934,
      "ous": 935,
      "åī": 936,
      "Ġdire": 937,
      "Ġcons": 938,
      "Ġhelps": 939,
      "Ġass": 940,
      "Ġchanges": 941,
      "ency": 942,
      "éĩĬ": 943,
      "Ġinto": 944,
      "åħĪ": 945,
      "çĤ¹": 946,
      "Ġtim": 947,
      "ures": 948,
      "ative": 949,
      "å°ĳ": 950,
      "æ±": 951,
      "æĸŃ": 952,
      "ĠSELECT": 953,
      "åħ¥": 954,
      "Ġchange": 955,
      "Ġabout": 956,
      "æµģ": 957,
      "Ġmistake": 958,
      "ize": 959,
      "Ġpoint": 960,
      "Ġdet": 961,
      "ç¼": 962,
      "ics": 963,
      "éķ": 964,
      "Ġdescrib": 965,
      "ä»İ": 966,
      "Ġresult": 967,
      "ular": 968,
      "ä¸įæĺ¯": 969,
      "ctions": 970,
      "Ġenergy": 971,
      "ç»ĵæŀĦ": 972,
      "arge": 973,
      "Ġtrain": 974,
      "Ġconcept": 975,
      "Ġstruct": 976,
      "Ġanal": 977,
      "æ¦Ĥ": 978,
      "Ġrec": 979,
      "Ġbeh": 980,
      "å®ĥ": 981,
      "up": 982,
      "è¿ĺ": 983,
      "è¿ĳ": 984,
      "blem": 985,
      "è°ĥ": 986,
      "Ġvari": 987,
      "Ġnearb": 988,
      "Ġnearby": 989,
      "ors": 990,
      "ject": 991,
      "th": 992,
      "çº¿": 993,
      "æıı": 994,
      "Ġwhereas": 995,
      "Ġlo": 996,
      "æ¯Ķ": 997,
      "ual": 998,
      "ER": 999,
      "Ńç»": 1000,
      "ad": 1001,
      "è®Ńç»": 1002,
      "æŁ¥": 1003,
      "è®Ńç»ĥ": 1004,
      "ard": 1005,
      "çľŁ": 1006,
      "usion": 1007,
      "ç´": 1008,
      "éĻĲ": 1009,
      "Ġappro": 1010,
      "ç¦": 1011,
      "ä¿Ŀ": 1012,
      "éķ¿": 1013,
      "æıĲ": 1014,
      "ptim": 1015,
      "åĨħ": 1016,
      "ically": 1017,
      "è§£éĩĬ": 1018,
      "Ġfre": 1019,
      "Ġmany": 1020,
      "The": 1021,
      "erm": 1022,
      "Ġconf": 1023,
      "è¿°": 1024,
      "ually": 1025,
      "å®¹": 1026,
      "ç¦»": 1027,
      "Ġar": 1028,
      "ip": 1029,
      "Ġelect": 1030,
      "oth": 1031,
      "åĪĻ": 1032,
      "Ġproblem": 1033,
      "ents": 1034,
      "åĽłæŃ¤": 1035,
      "éģ": 1036,
      "æııè¿°": 1037,
      "è½¬": 1038,
      "è§Ĥ": 1039,
      "lo": 1040,
      "è¾ĵ": 1041,
      "ros": 1042,
      "ç»Ń": 1043,
      "Ġorder": 1044,
      "ell": 1045,
      "åĻ¨": 1046,
      "QL": 1047,
      "è¾ĥ": 1048,
      "ight": 1049,
      "kes": 1050,
      "åĲ¦": 1051,
      "æĶ¹åıĺ": 1052,
      "Ġpart": 1053,
      "å¾Ĺ": 1054,
      "Ġstat": 1055,
      "ach": 1056,
      "ä¸įèĥ½": 1057,
      "åľ°": 1058,
      "ken": 1059,
      "Ġover": 1060,
      "åĬ¡": 1061,
      "fore": 1062,
      "æĺİ": 1063,
      "les": 1064,
      "é¡": 1065,
      "Ġsim": 1066,
      "âĢ": 1067,
      "andom": 1068,
      "se": 1069,
      "åıĤ": 1070,
      "Ġoptim": 1071,
      "èĥ": 1072,
      "Ġwork": 1073,
      "éĢļè¿ĩ": 1074,
      "Ġvalu": 1075,
      "æķ´": 1076,
      "put": 1077,
      "ory": 1078,
      "å¤Ł": 1079,
      "å¸ĥ": 1080,
      "æ±Ĥ": 1081,
      "Ġpar": 1082,
      "Ġgener": 1083,
      "Ġtime": 1084,
      "äºĽ": 1085,
      "Ġdistrib": 1086,
      "ather": 1087,
      "arn": 1088,
      "½æķ°": 1089,
      "Ġtest": 1090,
      "åĩ½æķ°": 1091,
      "è®º": 1092,
      "ĠSQL": 1093,
      "Ġsm": 1094,
      "å¯¼": 1095,
      "ä¼ł": 1096,
      "æł·æľ¬": 1097,
      "Ġmis": 1098,
      "ert": 1099,
      "Ġloc": 1100,
      "Ġmay": 1101,
      "Ġspe": 1102,
      "åħ·": 1103,
      "Ġtraining": 1104,
      "ific": 1105,
      "ible": 1106,
      "par": 1107,
      "æľŁ": 1108,
      "Ġnum": 1109,
      "ç©¶": 1110,
      "ç«ĭ": 1111,
      "ib": 1112,
      "Ġonly": 1113,
      "ath": 1114,
      "Ġcle": 1115,
      "éĢī": 1116,
      "ound": 1117,
      "åĪĨå¸ĥ": 1118,
      "çłĶ": 1119,
      "æĦı": 1120,
      "çłĶç©¶": 1121,
      "çĬ": 1122,
      "Ġdepend": 1123,
      "éĢŁåº¦": 1124,
      "Ġer": 1125,
      "çĬ¶": 1126,
      "Ġfrequ": 1127,
      "åħ¨": 1128,
      "Ġeffect": 1129,
      "ä½İ": 1130,
      "formation": 1131,
      "low": 1132,
      "ä¸¤": 1133,
      "Ġprob": 1134,
      "ç¤": 1135,
      "Ġact": 1136,
      "ph": 1137,
      "ä¹ĭéĹ´": 1138,
      "æĹ¶éĹ´": 1139,
      "ĠN": 1140,
      "Ġprocess": 1141,
      "å¼º": 1142,
      "ĠE": 1143,
      "ns": 1144,
      "Ġem": 1145,
      "Ġthink": 1146,
      "und": 1147,
      "æģ¯": 1148,
      "éļıæľº": 1149,
      "Ġrandom": 1150,
      "Ġsepar": 1151,
      "Ġra": 1152,
      "Ġanalys": 1153,
      "gn": 1154,
      "æ²": 1155,
      "Ġreg": 1156,
      "Ġrelations": 1157,
      "ç¤º": 1158,
      "Ġconst": 1159,
      "ments": 1160,
      "ç§¯": 1161,
      "æ³¢": 1162,
      "arg": 1163,
      "è¿Ľ": 1164,
      "Ġcheck": 1165,
      "Ġdescribes": 1166,
      "ç±": 1167,
      "Ġwhether": 1168,
      "ise": 1169,
      "ase": 1170,
      "lu": 1171,
      "èĥ½å¤Ł": 1172,
      "ç»ı": 1173,
      "Ġbet": 1174,
      "ä»£": 1175,
      "æĸ¹åĲĳ": 1176,
      "æĮģ": 1177,
      "Ġmatter": 1178,
      "Ġdistin": 1179,
      "Ġhave": 1180,
      "çĥ": 1181,
      "Ġmet": 1182,
      "è§Ħ": 1183,
      "çĽ´": 1184,
      "Ġconcl": 1185,
      "åīį": 1186,
      "æº": 1187,
      "Ġthro": 1188,
      "Ġfi": 1189,
      "åħ¶": 1190,
      "åıĸ": 1191,
      "å®Į": 1192,
      "æĺ¯åĲ¦": 1193,
      "ç±»": 1194,
      "åĩı": 1195,
      "Ġrep": 1196,
      "è¿Ĳ": 1197,
      "ç©º": 1198,
      "Ġsetting": 1199,
      "Ġthrough": 1200,
      "ich": 1201,
      "Ġrequire": 1202,
      "åĿĩ": 1203,
      "Ġsmall": 1204,
      "Ġrelationsh": 1205,
      "omes": 1206,
      "ross": 1207,
      "åĲĮæĹ¶": 1208,
      "Ġacc": 1209,
      "æ¬": 1210,
      "åħ±": 1211,
      "Ġstrong": 1212,
      "åĪ¤": 1213,
      "Ġlarge": 1214,
      "çĶ±": 1215,
      "åĽłä¸º": 1216,
      "Ġsub": 1217,
      "Ġcor": 1218,
      "Ġno": 1219,
      "ĠAt": 1220,
      "Ġincreas": 1221,
      "To": 1222,
      "ç»Ĩ": 1223,
      "ount": 1224,
      "Ġwhy": 1225,
      "Ġcomple": 1226,
      "Ġelectr": 1227,
      "fer": 1228,
      "åĩĨ": 1229,
      "estion": 1230,
      "ä¸ŃçļĦ": 1231,
      "å¹¶ä¸į": 1232,
      "ĠThat": 1233,
      "æ¦Ĥçİĩ": 1234,
      "ĠH": 1235,
      "æŀĲ": 1236,
      "åħ³ç³»": 1237,
      "Ġevery": 1238,
      "Ġrather": 1239,
      "è®¡ç®Ĺ": 1240,
      "åŁº": 1241,
      "Ġassum": 1242,
      "çĬ¶æĢģ": 1243,
      "å¤±": 1244,
      "æĺ¾": 1245,
      "çİ¯": 1246,
      "pos": 1247,
      "ä¼ĺ": 1248,
      "Ġdistinction": 1249,
      "Ġrepres": 1250,
      "ç¨³å®ļ": 1251,
      "æŁĲ": 1252,
      "plication": 1253,
      "Ġanalysis": 1254,
      "ĠM": 1255,
      "Ġlearn": 1256,
      "ä¿¡æģ¯": 1257,
      "pect": 1258,
      "ating": 1259,
      "éĻį": 1260,
      "æ¸©": 1261,
      "å¢ŀåĬł": 1262,
      "wo": 1263,
      "xim": 1264,
      "Ġfun": 1265,
      "rol": 1266,
      "Ġmeasure": 1267,
      "IN": 1268,
      "pre": 1269,
      "ĠP": 1270,
      "é¢Ħ": 1271,
      "æ¢": 1272,
      "çĦ": 1273,
      "ast": 1274,
      "åĽŀ": 1275,
      "åĪ¤æĸŃ": 1276,
      "è®©": 1277,
      "Ġwhich": 1278,
      "ior": 1279,
      "è¿ŀ": 1280,
      "Ġlimits": 1281,
      "çĦ¶": 1282,
      "æĻ": 1283,
      "ä¾Ŀ": 1284,
      "Ġj": 1285,
      "ater": 1286,
      "Ġfin": 1287,
      "åıĺéĩı": 1288,
      "æĭ©": 1289,
      "Ġhigh": 1290,
      "ç½®": 1291,
      "Ġoutc": 1292,
      "éĢīæĭ©": 1293,
      "amet": 1294,
      "æİ§": 1295,
      "ä½¿çĶ¨": 1296,
      "ç»Łè®¡": 1297,
      "Ġconclusion": 1298,
      "æ£": 1299,
      "æĺŁ": 1300,
      "Ġstructure": 1301,
      "con": 1302,
      "Ġcol": 1303,
      "Ġpos": 1304,
      "æĹł": 1305,
      "éĽĨ": 1306,
      "æ¬¡": 1307,
      "val": 1308,
      "Ġback": 1309,
      "åıĹ": 1310,
      "å¤ĸ": 1311,
      "åĨį": 1312,
      "åģĩ": 1313,
      "fic": 1314,
      "Ġcre": 1315,
      "Ġinformation": 1316,
      "Ġstud": 1317,
      "è¿ĩç¨ĭ": 1318,
      "æīĢ": 1319,
      "Ġtwo": 1320,
      "åĪ«": 1321,
      "Ġk": 1322,
      "ä»»": 1323,
      "èĥ½éĩı": 1324,
      "æį¢": 1325,
      "Ġerr": 1326,
      "Ġinde": 1327,
      "äº§": 1328,
      "å¾Ī": 1329,
      "Ġusually": 1330,
      "çī¹": 1331,
      "å¦Ĥæŀľ": 1332,
      "æİ¨": 1333,
      "éĿ¢": 1334,
      "çĥŃ": 1335,
      "æĸĩ": 1336,
      "Ġobject": 1337,
      "è¡¨ç¤º": 1338,
      "åģı": 1339,
      "æ£Ģ": 1340,
      "Ġwe": 1341,
      "Ġnam": 1342,
      "å¤Ħ": 1343,
      "Ġparamet": 1344,
      "Ġprobability": 1345,
      "pon": 1346,
      "Ġexpl": 1347,
      "act": 1348,
      "æ´": 1349,
      "Ġsign": 1350,
      "Ġcontrol": 1351,
      "Ġimport": 1352,
      "Ġbehav": 1353,
      "ply": 1354,
      "Ġaut": 1355,
      "æ°Ķ": 1356,
      "HER": 1357,
      "ber": 1358,
      "Ġequ": 1359,
      "åĪĨæŀĲ": 1360,
      "æĿĤ": 1361,
      "åİĭ": 1362,
      "HERE": 1363,
      "æĥ": 1364,
      "Ġdis": 1365,
      "å¼Ĥ": 1366,
      "å·¥": 1367,
      "éĻħ": 1368,
      "éħ": 1369,
      "åĨ³å®ļ": 1370,
      "çĲĨè§£": 1371,
      "op": 1372,
      "we": 1373,
      "ature": 1374,
      "arth": 1375,
      "ulation": 1376,
      "å°±": 1377,
      "ace": 1378,
      "Ġmem": 1379,
      "di": 1380,
      "Ġam": 1381,
      "Ġremain": 1382,
      "ĠD": 1383,
      "Ġother": 1384,
      "ential": 1385,
      "Ġdesign": 1386,
      "Ġthen": 1387,
      "Ġmakes": 1388,
      "åĪ©": 1389,
      "ĠWHERE": 1390,
      "æ¶": 1391,
      "åıĤæķ°": 1392,
      "ration": 1393,
      "ason": 1394,
      "Ġcontin": 1395,
      "åŃĺåľ¨": 1396,
      "ite": 1397,
      "urren": 1398,
      "èĢħ": 1399,
      "åıįåºĶ": 1400,
      "idence": 1401,
      "è®°": 1402,
      "Ġvalid": 1403,
      "ging": 1404,
      "Ġfe": 1405,
      "ä¼¼": 1406,
      "Ġmake": 1407,
      "çĽ®": 1408,
      "å®ŀéĻħ": 1409,
      "Ġlocal": 1410,
      "éĢĤ": 1411,
      "Ġgro": 1412,
      "Ġcaus": 1413,
      "Ġtem": 1414,
      "Ġrepe": 1415,
      "ized": 1416,
      "ä½ľçĶ¨": 1417,
      "'s": 1418,
      "ines": 1419,
      "Ġsize": 1420,
      "Ġkeep": 1421,
      "¢«": 1422,
      "è¢«": 1423,
      "ower": 1424,
      "å½¢æĪĲ": 1425,
      "æŀģ": 1426,
      "å¾Ģ": 1427,
      "Ġseparate": 1428,
      "Ġimportant": 1429,
      "Ġmult": 1430,
      "elf": 1431,
      "æŃ¥": 1432,
      "èµĸ": 1433,
      "ä¾Ŀèµĸ": 1434,
      "æ·": 1435,
      "Ġest": 1436,
      "Ġup": 1437,
      "ined": 1438,
      "Ġprov": 1439,
      "ives": 1440,
      "è·¯": 1441,
      "å¤ĦçĲĨ": 1442,
      "Ġline": 1443,
      "ä¼°": 1444,
      "ä¹ī": 1445,
      "work": 1446,
      "åıĳçĶŁ": 1447,
      "Ġnet": 1448,
      "äºĭ": 1449,
      "irst": 1450,
      "yn": 1451,
      "º«": 1452,
      "èº«": 1453,
      "Ġreason": 1454,
      "èĩ´": 1455,
      "ci": 1456,
      "ho": 1457,
      "æ®": 1458,
      "Ġsur": 1459,
      "Ġnorm": 1460,
      "Ġway": 1461,
      "äºĨ": 1462,
      "Ġrate": 1463,
      "è¶Ĭ": 1464,
      "çĿ": 1465,
      "other": 1466,
      "Ġlevel": 1467,
      "ks": 1468,
      "vers": 1469,
      "åĨ³": 1470,
      "åľº": 1471,
      "éĶ®": 1472,
      "Ġstatist": 1473,
      "åģĩè®¾": 1474,
      "Ġbehavior": 1475,
      "èĬ": 1476,
      "way": 1477,
      "xt": 1478,
      "åĪĹ": 1479,
      "è¡¡": 1480,
      "ty": 1481,
      "å¿ĥ": 1482,
      "Ġbetwe": 1483,
      "Ġfunction": 1484,
      "Ġbetween": 1485,
      "ward": 1486,
      "yp": 1487,
      "Ġmean": 1488,
      "èģ": 1489,
      "red": 1490,
      "atically": 1491,
      "Ġstate": 1492,
      "åĩºçİ°": 1493,
      "Ġdistribution": 1494,
      "In": 1495,
      "Ġcell": 1496,
      "Ġsol": 1497,
      "als": 1498,
      "æ³¨": 1499,
      "çķĮ": 1500,
      "dient": 1501,
      "ou": 1502,
      "ĠR": 1503,
      "ases": 1504,
      "etic": 1505,
      "å±Ĥ": 1506,
      "Ġbecomes": 1507,
      "og": 1508,
      "Ġintu": 1509,
      "ç½ĳ": 1510,
      "Ġaver": 1511,
      "ä»į": 1512,
      "è¯ķ": 1513,
      "own": 1514,
      "Ġsee": 1515,
      "Ġsampl": 1516,
      "Ġreduce": 1517,
      "Ġrepresent": 1518,
      "±¡": 1519,
      "è±¡": 1520,
      "Ġmass": 1521,
      "Ġacross": 1522,
      "Ġdirection": 1523,
      "Qu": 1524,
      "Ġstart": 1525,
      "Ġresults": 1526,
      "äº§çĶŁ": 1527,
      "Ġcontinu": 1528,
      "èĬĤ": 1529,
      "å¥": 1530,
      "æĶ¾": 1531,
      "æ°´": 1532,
      "æºĲ": 1533,
      "ç©ºéĹ´": 1534,
      "ie": 1535,
      "Ġpr": 1536,
      "è¯¢": 1537,
      "é¢ĳ": 1538,
      "ç§»": 1539,
      "éĩįè¦ģ": 1540,
      "Ġperform": 1541,
      "Ġsettings": 1542,
      "ĠOne": 1543,
      "Ġrepeated": 1544,
      "ç²": 1545,
      "Ġser": 1546,
      "Ġbound": 1547,
      "è´¨éĩı": 1548,
      "èµ·": 1549,
      "Ġsystems": 1550,
      "ertain": 1551,
      "Ġfiel": 1552,
      "Ġupd": 1553,
      "pend": 1554,
      "æŁ¥è¯¢": 1555,
      "Ġname": 1556,
      "Ġspa": 1557,
      "å¤įæĿĤ": 1558,
      "å±Ģ": 1559,
      "éĶĻ": 1560,
      "Ġdeterm": 1561,
      "çĿĢ": 1562,
      "oy": 1563,
      "çī©ä½ĵ": 1564,
      "ced": 1565,
      "ry": 1566,
      "ä¸Ģå®ļ": 1567,
      "æģĴ": 1568,
      "ram": 1569,
      "ify": 1570,
      "Ġeven": 1571,
      "ision": 1572,
      "Ġexam": 1573,
      "å½ĵ": 1574,
      "åĲĳéĩı": 1575,
      "Ġestim": 1576,
      "ffic": 1577,
      "å»": 1578,
      "æĢ»": 1579,
      "ose": 1580,
      "è¾¾": 1581,
      "å¤ļä¸ª": 1582,
      "Ġgradient": 1583,
      "Ġmulti": 1584,
      "çĭ": 1585,
      "ä¸»": 1586,
      "Ġcomb": 1587,
      "Ġexp": 1588,
      "ä¹ł": 1589,
      "Ġcho": 1590,
      "pret": 1591,
      "Ġdef": 1592,
      "è§ģ": 1593,
      "æĮĩ": 1594,
      "çĽ®æłĩ": 1595,
      "Ġph": 1596,
      "Ġinf": 1597,
      "Ġinput": 1598,
      "Ġbefore": 1599,
      "åĬ¿": 1600,
      "Ġnew": 1601,
      "Ġcost": 1602,
      "åŃ¦ä¹ł": 1603,
      "Ġitself": 1604,
      "æ¸©åº¦": 1605,
      "Ġoutcome": 1606,
      "åĪ©çĶ¨": 1607,
      "è®¸": 1608,
      "otential": 1609,
      "ĠAS": 1610,
      "ä¹Ī": 1611,
      "Ġcore": 1612,
      "å¿ħ": 1613,
      "Ġerror": 1614,
      "Ġpath": 1615,
      "Ġbi": 1616,
      "æµĭéĩı": 1617,
      "ĠAn": 1618,
      "oss": 1619,
      "ç®Ģ": 1620,
      "Ġvalues": 1621,
      "åħ·æľī": 1622,
      "cc": 1623,
      "ves": 1624,
      "Ġag": 1625,
      "Ġboth": 1626,
      "è®¾è®¡": 1627,
      "Ġapproxim": 1628,
      "Ġclean": 1629,
      "Ġanother": 1630,
      "éĽ¶": 1631,
      "fter": 1632,
      "Ġsens": 1633,
      "Ġgu": 1634,
      "Ġsample": 1635,
      "perature": 1636,
      "Question": 1637,
      "Ġder": 1638,
      "ç»ľ": 1639,
      "Ġlong": 1640,
      "Ġclass": 1641,
      "æİ§åĪ¶": 1642,
      "Ġtre": 1643,
      "ç»Ī": 1644,
      "ploy": 1645,
      "Ġconcepts": 1646,
      "For": 1647,
      "Ġpotential": 1648,
      "Ġrea": 1649,
      "çĽ¸åħ³": 1650,
      "Ġscal": 1651,
      "çĭ¬": 1652,
      "æ¼": 1653,
      "Ġoper": 1654,
      "äºº": 1655,
      "å·²": 1656,
      "Ġproduct": 1657,
      "è¾ĵåħ¥": 1658,
      "Ġcorre": 1659,
      "Ġautom": 1660,
      "nal": 1661,
      "Ġmust": 1662,
      "å¼Ģ": 1663,
      "Ġinterpret": 1664,
      "æ¯ı": 1665,
      "Ġpartic": 1666,
      "Ġrelationship": 1667,
      "ç½ĳç»ľ": 1668,
      "ier": 1669,
      "é£": 1670,
      "å¯Ł": 1671,
      "ä½įç½®": 1672,
      "å¹³åĿĩ": 1673,
      "gth": 1674,
      "ĠY": 1675,
      "åı·": 1676,
      "ithm": 1677,
      "å¼ķ": 1678,
      "éĿŀ": 1679,
      "èĥŀ": 1680,
      "ç»Ĩèĥŀ": 1681,
      "Ġlinear": 1682,
      "Ġnetwork": 1683,
      "Ġsup": 1684,
      "ç´ł": 1685,
      "è§Ĥå¯Ł": 1686,
      "æ²¡": 1687,
      "ä»»åĬ¡": 1688,
      "ons": 1689,
      "ivity": 1690,
      "rete": 1691,
      "Ġmain": 1692,
      "çľŁå®ŀ": 1693,
      "Ġworks": 1694,
      "ler": 1695,
      "ç¢": 1696,
      "Ġcompare": 1697,
      "Ġcleaner": 1698,
      "å£": 1699,
      "Ġz": 1700,
      "Ġtemperature": 1701,
      "èį": 1702,
      "its": 1703,
      "Ġocc": 1704,
      "Ġcomplex": 1705,
      "Ġmind": 1706,
      "å½ķ": 1707,
      "éĩįå¤į": 1708,
      "ĠWh": 1709,
      "Ġproduce": 1710,
      "Ġè§£éĩĬ": 1711,
      "Ġmot": 1712,
      "æĺĵ": 1713,
      "æĶ¶": 1714,
      "éĥ¨åĪĨ": 1715,
      "ĠYou": 1716,
      "Ġent": 1717,
      "Ģä¹Ī": 1718,
      "omet": 1719,
      "ä»Ģä¹Ī": 1720,
      "Ġwithout": 1721,
      "éªĮè¯ģ": 1722,
      "Ġobserved": 1723,
      "Ġintuition": 1724,
      "din": 1725,
      "èĳ": 1726,
      "ality": 1727,
      "Ġpredi": 1728,
      "åŁŁ": 1729,
      "çĽ´æİ¥": 1730,
      "åĩıå°ĳ": 1731,
      "Ġspace": 1732,
      "tic": 1733,
      "ĠG": 1734,
      "Ġafter": 1735,
      "çļĦæĺ¯": 1736,
      "ä½ķ": 1737,
      "Ġunc": 1738,
      "Ġmin": 1739,
      "ational": 1740,
      "imens": 1741,
      "åĬ©": 1742,
      "åĽ¾": 1743,
      "Ġcomput": 1744,
      "çĽ¸åĲĮ": 1745,
      "çº¿æĢ§": 1746,
      "æ²¡æľī": 1747,
      "izes": 1748,
      "Ġneeds": 1749,
      "âĢľ": 1750,
      "âĢĿ": 1751,
      "èĳĹ": 1752,
      "round": 1753,
      "ention": 1754,
      "Ġmagn": 1755,
      "Ġspec": 1756,
      "æĺ¾èĳĹ": 1757,
      "ĠU": 1758,
      "Ġpres": 1759,
      "uring": 1760,
      "Ġunderst": 1761,
      "Ġconsist": 1762,
      "Ġlearning": 1763,
      "Ġderiv": 1764,
      "arant": 1765,
      "Ġfirst": 1766,
      "Ġnormal": 1767,
      "Ġguarant": 1768,
      "Ġguarante": 1769,
      "Ġran": 1770,
      "æĸ¹æ³ķ": 1771,
      "å¿«": 1772,
      "Ġuncertain": 1773,
      "Ġisol": 1774,
      "åħī": 1775,
      "Ġvol": 1776,
      "ptions": 1777,
      "Ġusers": 1778,
      "æľ¬èº«": 1779,
      "Ġstable": 1780,
      "å®¹æĺĵ": 1781,
      "ap": 1782,
      "ext": 1783,
      "Ġav": 1784,
      "Ġsome": 1785,
      "Ġli": 1786,
      "Ġsequ": 1787,
      "çŁ¥": 1788,
      "pendent": 1789,
      "00": 1790,
      "ail": 1791,
      "cing": 1792,
      "è¯Ń": 1793,
      "æ¢¯": 1794,
      "wer": 1795,
      "å§": 1796,
      "ĠJ": 1797,
      "inal": 1798,
      "Ġins": 1799,
      "Ġmodels": 1800,
      "ĠBY": 1801,
      "urrent": 1802,
      "tal": 1803,
      "itu": 1804,
      "itive": 1805,
      "Ġexper": 1806,
      "Ġident": 1807,
      "Ġparameters": 1808,
      "Ġcent": 1809,
      "æĸĻ": 1810,
      "å°Ħ": 1811,
      "Ġorders": 1812,
      "Ġaverage": 1813,
      ";.": 1814,
      "gor": 1815,
      "ious": 1816,
      "è¾¹": 1817,
      "æĮ¯": 1818,
      "Ġmeasures": 1819,
      "ç®Ģåįķ": 1820,
      "Ġmotion": 1821,
      "led": 1822,
      "Ġperformance": 1823,
      "æ¢¯åº¦": 1824,
      "ç»´": 1825,
      "ural": 1826,
      "å¾®": 1827,
      "Ġinte": 1828,
      "ec": 1829,
      "vect": 1830,
      "è¿ĲåĬ¨": 1831,
      "éĻįä½İ": 1832,
      "ading": 1833,
      "£ģ": 1834,
      "Ġ(": 1835,
      "ero": 1836,
      "arch": 1837,
      "Ġtoken": 1838,
      "çº§": 1839,
      "ä¾ĭ": 1840,
      "ices": 1841,
      "oment": 1842,
      "str": 1843,
      "æĪ·": 1844,
      "æĮī": 1845,
      "Ġautomatically": 1846,
      "bal": 1847,
      "get": 1848,
      "ia": 1849,
      "æ»": 1850,
      "ider": 1851,
      "Ġforce": 1852,
      "Ġgeneral": 1853,
      "Ġfrequent": 1854,
      "ways": 1855,
      "ish": 1856,
      "ities": 1857,
      "Ġgre": 1858,
      "çĶ¨äºİ": 1859,
      "æĦŁ": 1860,
      "Ġobservation": 1861,
      "æ¯Ķè¾ĥ": 1862,
      "èĮ": 1863,
      "Ġè¿Ļ": 1864,
      "atch": 1865,
      "Ġloss": 1866,
      "éĢł": 1867,
      "Ġmatters": 1868,
      "é¢ĳçİĩ": 1869,
      "èĮĥ": 1870,
      "bit": 1871,
      "Ġcoun": 1872,
      "èĢĮä¸įæĺ¯": 1873,
      "pac": 1874,
      "Token": 1875,
      "çĭ¬ç«ĭ": 1876,
      "king": 1877,
      "not": 1878,
      "ough": 1879,
      "ws": 1880,
      "åĤ": 1881,
      "Ġret": 1882,
      "æİĴ": 1883,
      "å®ŀéªĮ": 1884,
      "Ġevidence": 1885,
      "åıĹåĪ°": 1886,
      "reg": 1887,
      "Ġconver": 1888,
      "ables": 1889,
      "Ġcontain": 1890,
      "ä¾Ľ": 1891,
      "è®°å½ķ": 1892,
      "æ®µ": 1893,
      "éĶĻè¯¯": 1894,
      "LL": 1895,
      "ULL": 1896,
      "face": 1897,
      "oint": 1898,
      "ue": 1899,
      "èĻ": 1900,
      "ç¡®å®ļ": 1901,
      "éģĵ": 1902,
      "Ġmeasurement": 1903,
      "Ġuncertainty": 1904,
      "ins": 1905,
      "Ġtheir": 1906,
      "Ġcannot": 1907,
      "æĪĲæľ¬": 1908,
      "Ġapplication": 1909,
      "Ġcapac": 1910,
      "Ġbias": 1911,
      "Ġoccur": 1912,
      "ied": 1913,
      "åħĥ": 1914,
      "éĢĴ": 1915,
      "Ġconcrete": 1916,
      "Ġplan": 1917,
      "OIN": 1918,
      "æĵ": 1919,
      "Ġthere": 1920,
      "ä¼°è®¡": 1921,
      "å§ĭ": 1922,
      "Ġif": 1923,
      "one": 1924,
      "Ġusing": 1925,
      "Ġstrongly": 1926,
      "Ġkn": 1927,
      "ang": 1928,
      "Ġlay": 1929,
      "åĽ´": 1930,
      "è¶³": 1931,
      "è¯¯å·®": 1932,
      "æıĲä¾Ľ": 1933,
      "ynam": 1934,
      "å±Ģéĥ¨": 1935,
      "Ġsuch": 1936,
      "Ġadd": 1937,
      "Ġproblems": 1938,
      "Ġfield": 1939,
      "imension": 1940,
      "Ġeas": 1941,
      "åĽº": 1942,
      "ä¸¤ä¸ª": 1943,
      "Ġzero": 1944,
      "åŃĹ": 1945,
      "è§Ĵ": 1946,
      "å°º": 1947,
      "åĽłæŀľ": 1948,
      "Ġimpro": 1949,
      "å·®å¼Ĥ": 1950,
      "æľĢç»Ī": 1951,
      "åħ±åĲĮ": 1952,
      "fficient": 1953,
      "ood": 1954,
      "Ġcal": 1955,
      "éĢĲ": 1956,
      "Ġfail": 1957,
      "Ġpractical": 1958,
      "ĠCO": 1959,
      "ressure": 1960,
      "Ġassumptions": 1961,
      "Ġindependent": 1962,
      "arthqu": 1963,
      "Ġvect": 1964,
      "Ġinflu": 1965,
      "Ġexperim": 1966,
      "gorithm": 1967,
      "Ġlow": 1968,
      "è¯Ħ": 1969,
      "Ġoptimization": 1970,
      "éħį": 1971,
      "å£°": 1972,
      "ving": 1973,
      "æĴ": 1974,
      "ç£ģ": 1975,
      "Ġext": 1976,
      "å¸¸è§ģ": 1977,
      "çī©è´¨": 1978,
      "å¢ĥ": 1979,
      "å¹³è¡¡": 1980,
      "å¾ĹåĪ°": 1981,
      "ĠNULL": 1982,
      "æ´»": 1983,
      "ĠJOIN": 1984,
      "Ġinteg": 1985,
      "NT": 1986,
      "UNT": 1987,
      "ĠL": 1988,
      "ull": 1989,
      "Ġprog": 1990,
      "Ġheat": 1991,
      "æīĢæľī": 1992,
      "Ġamount": 1993,
      "iew": 1994,
      "Ġpower": 1995,
      "Ġthey": 1996,
      "lec": 1997,
      "ides": 1998,
      "Ġuser": 1999,
      "ç«¯": 2000,
      "çŁ©": 2001,
      "Ġrecor": 2002,
      "Ġvalue": 2003,
      "çİ¯å¢ĥ": 2004,
      "Ġvalidation": 2005,
      "Ġguarantee": 2006,
      "rop": 2007,
      "ä»·": 2008,
      "éĩĮ": 2009,
      "åĬŁ": 2010,
      "Ġalgorithm": 2011,
      "Ġorig": 2012,
      "æĿĥ": 2013,
      "ç»ĵåĲĪ": 2014,
      "ç»ĵè®º": 2015,
      "othes": 2016,
      "å®Įåħ¨": 2017,
      "Ġcreate": 2018,
      "ypothes": 2019,
      "å¥½": 2020,
      "ires": 2021,
      "lection": 2022,
      "åĲĮä¸Ģ": 2023,
      "Ġris": 2024,
      "Ġreli": 2025,
      "ç¨ĭåº¦": 2026,
      "Ġprec": 2027,
      "Ġrequires": 2028,
      "Ġsurface": 2029,
      "Ġsequence": 2030,
      "ub": 2031,
      "è¯´": 2032,
      "æİ¥è¿ĳ": 2033,
      "Ġtotal": 2034,
      "Ġatt": 2035,
      "æłĩåĩĨ": 2036,
      "Ġapproach": 2037,
      "Ġelectric": 2038,
      "ä¼ĺåĮĸ": 2039,
      "ts": 2040,
      "³çĿĢ": 2041,
      "æķ°éĩı": 2042,
      "ä¸Ģèĩ´": 2043,
      "åį´": 2044,
      "éĩįæĸ°": 2045,
      "Ġallow": 2046,
      "çķ¥": 2047,
      "åĳ³çĿĢ": 2048,
      "Ġneeded": 2049,
      "çľŁæŃ£": 2050,
      "æĦıåĳ³çĿĢ": 2051,
      "ores": 2052,
      "®åĬ©": 2053,
      "éĵ": 2054,
      "Ġaffect": 2055,
      "Ġmoment": 2056,
      "å¸®åĬ©": 2057,
      "æĿĲ": 2058,
      "å¾Ħ": 2059,
      "æĸ¹å¼ı": 2060,
      "Ġused": 2061,
      "å¤§éĩı": 2062,
      "æľºåĪ¶": 2063,
      "Ġpop": 2064,
      "ç¼ĵ": 2065,
      "æĿĲæĸĻ": 2066,
      "arly": 2067,
      "ules": 2068,
      "Ġuses": 2069,
      "Ġchanging": 2070,
      "é¡º": 2071,
      "é¢Ħæµĭ": 2072,
      "Ġreasoning": 2073,
      "å¾ĭ": 2074,
      "æįŁ": 2075,
      "æĽ´æĸ°": 2076,
      "ç®Ĺæ³ķ": 2077,
      "è¿ŀç»Ń": 2078,
      "Ġjud": 2079,
      "å°ºåº¦": 2080,
      "æ¡": 2081,
      "Ġtas": 2082,
      "Ġtarg": 2083,
      "Ġbu": 2084,
      "Ġearthqu": 2085,
      "æī¾": 2086,
      "veloc": 2087,
      "æķĪåºĶ": 2088,
      "Ġreduces": 2089,
      "Ġdirect": 2090,
      "è¿ĳä¼¼": 2091,
      "ä¹ĭéĹ´çļĦ": 2092,
      "Ġtarget": 2093,
      "bers": 2094,
      "part": 2095,
      "irc": 2096,
      "ploye": 2097,
      "ĠCOUNT": 2098,
      "ä¸įä¼ļ": 2099,
      "Ġrot": 2100,
      "Ġdistribut": 2101,
      "Ġemploye": 2102,
      "åıĸåĨ³": 2103,
      "åıĸåĨ³äºİ": 2104,
      "li": 2105,
      "ral": 2106,
      "Ġexist": 2107,
      "Ġexpect": 2108,
      "Ġview": 2109,
      "pens": 2110,
      "éĿł": 2111,
      "ä¹Łåı¯èĥ½": 2112,
      "Ġmisle": 2113,
      "itude": 2114,
      "gment": 2115,
      "me": 2116,
      "ping": 2117,
      "§è¡Į": 2118,
      "Ġveloc": 2119,
      "oring": 2120,
      "èĥ½åĬĽ": 2121,
      "äºĴ": 2122,
      "urce": 2123,
      "æī§è¡Į": 2124,
      "Ġspeed": 2125,
      "Ġsupport": 2126,
      "gan": 2127,
      "ran": 2128,
      "Ġver": 2129,
      "ery": 2130,
      "è®¤": 2131,
      "stra": 2132,
      "å¯Ĩ": 2133,
      "Ġrespon": 2134,
      "Ġformul": 2135,
      "ĠUn": 2136,
      "Ġoriginal": 2137,
      "eps": 2138,
      "Ġcirc": 2139,
      "ç»Ļ": 2140,
      "old": 2141,
      "Ġrelated": 2142,
      "èµĦ": 2143,
      "aves": 2144,
      "ä¿ĿæĮģ": 2145,
      "æŁĲä¸ª": 2146,
      "èģĶ": 2147,
      "é¡ºåºı": 2148,
      "ground": 2149,
      "ness": 2150,
      "Ġduring": 2151,
      "Ġtoo": 2152,
      "æł¸": 2153,
      "ä¿®": 2154,
      "åħ³éĶ®": 2155,
      "Ġgraph": 2156,
      "Ġconsider": 2157,
      "æ··": 2158,
      "è®¸å¤ļ": 2159,
      "Ġproducts": 2160,
      "erial": 2161,
      "ars": 2162,
      "Ġref": 2163,
      "Ġide": 2164,
      "åĵª": 2165,
      "é¡»": 2166,
      "å¿ħé¡»": 2167,
      "é£İ": 2168,
      "Ġbal": 2169,
      "æľª": 2170,
      "æıĲé«ĺ": 2171,
      "Ġconstra": 2172,
      "Ġserious": 2173,
      "cle": 2174,
      "çª": 2175,
      "Ġ1": 2176,
      "Ġy": 2177,
      "åıĬ": 2178,
      "Ġmolec": 2179,
      "åĮĸåŃ¦": 2180,
      "çº¦": 2181,
      "æĭŁ": 2182,
      "Ġartic": 2183,
      "Ġmemory": 2184,
      "æĵį": 2185,
      "Ġvelocity": 2186,
      "Ġeach": 2187,
      "ä»ĸ": 2188,
      "Ġhypothes": 2189,
      "Ġdepart": 2190,
      "olog": 2191,
      "çĶ¨æĪ·": 2192,
      "Ġdifferences": 2193,
      "æµĭè¯ķ": 2194,
      "Ġquant": 2195,
      "æ£ĢæŁ¥": 2196,
      "æ¶Ī": 2197,
      "èµ·æĿ¥": 2198,
      "åĲ«": 2199,
      "Ġtoget": 2200,
      "äº¤": 2201,
      "çĲĥ": 2202,
      "Ġlea": 2203,
      "ä¿¡åı·": 2204,
      "çłģ": 2205,
      "è¯ģæį®": 2206,
      "åĨħéĥ¨": 2207,
      "Ġnumber": 2208,
      "Ġnoise": 2209,
      "åģıå·®": 2210,
      "æĵįä½ľ": 2211,
      "Ġtogether": 2212,
      "åĨĻ": 2213,
      "èĢĮæĺ¯": 2214,
      "åįķä½į": 2215,
      "è¯¯åĮº": 2216,
      "ç´¢": 2217,
      "Ġexplain": 2218,
      "ips": 2219,
      "è¯Ĩ": 2220,
      "åĪĨåŃĲ": 2221,
      "izer": 2222,
      "Ġunit": 2223,
      "åºĶçĶ¨": 2224,
      "Ġincreases": 2225,
      "vari": 2226,
      "Ġorgan": 2227,
      "åĮħ": 2228,
      "ĠAs": 2229,
      "èĢĥ": 2230,
      "Ġapplic": 2231,
      "Ġmaterial": 2232,
      "Ġtransform": 2233,
      "Ġsimple": 2234,
      "Ġfrequency": 2235,
      "Ġunderstand": 2236,
      "è¾¹çķĮ": 2237,
      "Ġmisleading": 2238,
      "uch": 2239,
      "ength": 2240,
      "alary": 2241,
      "Ġdom": 2242,
      "Ġla": 2243,
      "å¸¦": 2244,
      "Ġapply": 2245,
      "çľĭåĪ°": 2246,
      "ç¼©": 2247,
      "éĻĲåĪ¶": 2248,
      "Ġbackground": 2249,
      "Ġweight": 2250,
      "èį·": 2251,
      "Ġconserv": 2252,
      "ression": 2253,
      "Ġlog": 2254,
      "Ġsampling": 2255,
      "ç¾": 2256,
      "Ġang": 2257,
      "edi": 2258,
      "çļĦå½±åĵį": 2259,
      "åºĵ": 2260,
      "è·¯å¾Ħ": 2261,
      "gine": 2262,
      "Ġcases": 2263,
      "åħį": 2264,
      "ember": 2265,
      "iron": 2266,
      "Ġconstant": 2267,
      "Ġformula": 2268,
      "NA": 2269,
      "erical": 2270,
      "Ġmuch": 2271,
      "ç»§": 2272,
      "cean": 2273,
      "éĩĩ": 2274,
      "vex": 2275,
      "Ġge": 2276,
      "æł¹": 2277,
      "å¾ģ": 2278,
      "cks": 2279,
      "è´Ł": 2280,
      "è¡¨çİ°": 2281,
      "æ¸ħ": 2282,
      "ç»ĦåĲĪ": 2283,
      "Ġremember": 2284,
      "èĩªåĬ¨": 2285,
      "åħ¶ä»ĸ": 2286,
      "æĻ¯": 2287,
      "æĮĩæłĩ": 2288,
      "ĠUnder": 2289,
      "sc": 2290,
      "viron": 2291,
      "èĭ": 2292,
      "ering": 2293,
      "æĢ§èĥ½": 2294,
      "è¡¨è¾¾": 2295,
      "éĺµ": 2296,
      "Ġkey": 2297,
      "Ġhap": 2298,
      "Ġnumbers": 2299,
      "Ġstarting": 2300,
      "ura": 2301,
      "Ġpressure": 2302,
      "Ġbas": 2303,
      "Ġwater": 2304,
      "Ġnon": 2305,
      "Ġstand": 2306,
      "è¦ģæ±Ĥ": 2307,
      "Ġevent": 2308,
      "éķ¿æľŁ": 2309,
      "è¾ĵåĩº": 2310,
      "Ġrelationships": 2311,
      "Ġposition": 2312,
      "çī¹å¾ģ": 2313,
      "hods": 2314,
      "å»º": 2315,
      "ĠAny": 2316,
      "nect": 2317,
      "çĻ": 2318,
      "atter": 2319,
      "Ġthem": 2320,
      "Ġtheore": 2321,
      "æķ°åĢ¼": 2322,
      "ift": 2323,
      "ä¸Ģç§į": 2324,
      "Ġshow": 2325,
      "Ġenviron": 2326,
      "Ġmethods": 2327,
      "æĥħ": 2328,
      "Ġapplications": 2329,
      "Ġapplying": 2330,
      "akes": 2331,
      "cies": 2332,
      "itting": 2333,
      "Ġfil": 2334,
      "olution": 2335,
      "rix": 2336,
      "ption": 2337,
      "æ³¢åĬ¨": 2338,
      "èĮĥåĽ´": 2339,
      "Ġvery": 2340,
      "atic": 2341,
      "Ġpri": 2342,
      "å¿µ": 2343,
      "è·Ŀ": 2344,
      "Ġcontinuous": 2345,
      "çŁ©éĺµ": 2346,
      "è¯´æĺİ": 2347,
      "ages": 2348,
      "mun": 2349,
      "Ġ>": 2350,
      "encies": 2351,
      "æķ£": 2352,
      "verse": 2353,
      "è¿Ļç§į": 2354,
      "Ġinternal": 2355,
      "ç²¾": 2356,
      "éĵ¾": 2357,
      "Ġreso": 2358,
      "å¤©": 2359,
      "å®ļä¹ī": 2360,
      "ä¸ºä»Ģä¹Ī": 2361,
      "Ġrelative": 2362,
      "Ġcorrect": 2363,
      "Ġjudgment": 2364,
      "ule": 2365,
      "Ġconnect": 2366,
      "ä¸įç¡®å®ļ": 2367,
      "Ġproper": 2368,
      "que": 2369,
      "åħ³æ³¨": 2370,
      "éļ¾": 2371,
      "çİ°è±¡": 2372,
      "Ġtransfer": 2373,
      "arger": 2374,
      "åĤ¨": 2375,
      "ç»§ç»Ń": 2376,
      "Ġstates": 2377,
      "Ġlab": 2378,
      "å½Ĵ": 2379,
      "Ġarea": 2380,
      "Ġappe": 2381,
      "Ġstudy": 2382,
      "Ġprogram": 2383,
      "Ġsp": 2384,
      "Ġslow": 2385,
      "Ġred": 2386,
      "ä»¬": 2387,
      "ute": 2388,
      "Ġdev": 2389,
      "æł¼": 2390,
      "Ġvariable": 2391,
      "Ġincrease": 2392,
      "Ġcausal": 2393,
      "Ġemployees": 2394,
      "UP": 2395,
      "gen": 2396,
      "è¿ľ": 2397,
      "å®Ī": 2398,
      "æµ·": 2399,
      "arily": 2400,
      "å®Įæķ´": 2401,
      "(*": 2402,
      "çĸ": 2403,
      "Ġsing": 2404,
      "Ġfol": 2405,
      "Ġnat": 2406,
      "celer": 2407,
      "äºĮ": 2408,
      "abil": 2409,
      "Ġasks": 2410,
      "ä¼ļå½±åĵį": 2411,
      "ference": 2412,
      "ROUP": 2413,
      "Ġoutput": 2414,
      "Ġmiss": 2415,
      "è¿ŀæİ¥": 2416,
      "Ġimprove": 2417,
      "åĵªäºĽ": 2418,
      "(*)": 2419,
      "TP": 2420,
      "ave": 2421,
      "equ": 2422,
      "ove": 2423,
      "rely": 2424,
      "Ġdynam": 2425,
      "aries": 2426,
      "åı¦": 2427,
      "å¤ª": 2428,
      "Ġglo": 2429,
      "å¤§å°ı": 2430,
      "Ġdifference": 2431,
      "Ġobservations": 2432,
      "Ġhash": 2433,
      "çķĻ": 2434,
      "å¾Ģå¾Ģ": 2435,
      "Ġupdates": 2436,
      "ĠGROUP": 2437,
      "ç¬": 2438,
      "ree": 2439,
      "Ġvis": 2440,
      "æĬ½": 2441,
      "Ġdatab": 2442,
      "è¿ĻäºĽ": 2443,
      "è¶ħ": 2444,
      "æķ´ä½ĵ": 2445,
      "åĽºå®ļ": 2446,
      "Ġhappens": 2447,
      "è¯į": 2448,
      "ä¼ļè®©": 2449,
      "çĶµèį·": 2450,
      "Ġacceler": 2451,
      "éĺ»": 2452,
      "åĮºåĪĨ": 2453,
      "Ġprot": 2454,
      "Ġalways": 2455,
      "Ġmove": 2456,
      "Ġexec": 2457,
      "ractical": 2458,
      "éĺ³": 2459,
      "Ġgrav": 2460,
      "å¯¼æķ°": 2461,
      "Ġnumerical": 2462,
      "Ġassume": 2463,
      "éĢĤåĲĪ": 2464,
      "Ġparticular": 2465,
      "Ġconsistency": 2466,
      "ç¾¤": 2467,
      "èĭ¥": 2468,
      "ape": 2469,
      "point": 2470,
      "lying": 2471,
      "idual": 2472,
      "æĿŁ": 2473,
      "æĢ§è´¨": 2474,
      "çĶµåŃĲ": 2475,
      "produ": 2476,
      "Ġmatrix": 2477,
      "è½¨": 2478,
      "Ġinterval": 2479,
      "Ġprev": 2480,
      "Ġbehind": 2481,
      "ä¿Ŀè¯ģ": 2482,
      "èĥĮ": 2483,
      "åħ·ä½ĵ": 2484,
      "æŀģéĻĲ": 2485,
      "Ġprior": 2486,
      "rit": 2487,
      "Ġcurrent": 2488,
      "Ġfoc": 2489,
      "ately": 2490,
      "åĻª": 2491,
      "neath": 2492,
      "Ġfix": 2493,
      "ä¸»è¦ģ": 2494,
      "Ġpopulation": 2495,
      "Ġfocus": 2496,
      "æļ": 2497,
      "Ġterm": 2498,
      "Ġinst": 2499,
      "Ġchain": 2500,
      "éĶģ": 2501,
      "Ġstudies": 2502,
      "Ġmultiple": 2503,
      "Ġpredict": 2504,
      "imensional": 2505,
      "æįŁå¤±": 2506,
      "bed": 2507,
      "åħ¬": 2508,
      "Ġmost": 2509,
      "Ġmeans": 2510,
      "åĨµ": 2511,
      "Ġabs": 2512,
      "å±ķ": 2513,
      "Ġchem": 2514,
      "æ¦Ĥå¿µ": 2515,
      "Ġsamples": 2516,
      "dinary": 2517,
      "Ġhypothesis": 2518,
      "Ġamon": 2519,
      "atives": 2520,
      "Ġbeg": 2521,
      "Ġordinary": 2522,
      "Ġselect": 2523,
      "Ġselection": 2524,
      "Ġcontext": 2525,
      "ä½įæķ°": 2526,
      "Ġpla": 2527,
      "Ġsignal": 2528,
      "Ġrecords": 2529,
      "Ġrisk": 2530,
      "uracy": 2531,
      "Ġstandard": 2532,
      "Ġamong": 2533,
      "of": 2534,
      "Ġflow": 2535,
      "ental": 2536,
      "Ġstability": 2537,
      "ching": 2538,
      "Ġsearch": 2539,
      "é¢Ŀ": 2540,
      "åįĩ": 2541,
      "çŃĸ": 2542,
      "Ġaddition": 2543,
      "Ġdirections": 2544,
      "è½¬åĮĸ": 2545,
      "Ġaccuracy": 2546,
      "Ġprovide": 2547,
      "æģĴæĺŁ": 2548,
      "Ġmomentum": 2549,
      "æĥħåĨµ": 2550,
      "Ġind": 2551,
      "ified": 2552,
      "å¸Į": 2553,
      "Ġdetect": 2554,
      "Ġprocesses": 2555,
      "Ġindex": 2556,
      "Ġparameter": 2557,
      "Ġexample": 2558,
      "èµĦæºĲ": 2559,
      "å®ĪæģĴ": 2560,
      "ged": 2561,
      "och": 2562,
      "Ġthose": 2563,
      "Ġbl": 2564,
      "Ġflu": 2565,
      "Ġele": 2566,
      "Ġhand": 2567,
      "ateg": 2568,
      "Ġorbit": 2569,
      "Ġcharge": 2570,
      "ç§ĳ": 2571,
      "ĠBut": 2572,
      "ç»ĦæĪĲ": 2573,
      "ĠPractical": 2574,
      "Ġboundary": 2575,
      "Ġtherefore": 2576,
      "Ġinfluence": 2577,
      "çªģ": 2578,
      "Ġdomain": 2579,
      "åĻªå£°": 2580,
      "Ġsum": 2581,
      "åĪĴ": 2582,
      "Ġlarger": 2583,
      "ched": 2584,
      "ĠAns": 2585,
      "veral": 2586,
      "Ġenough": 2587,
      "çĽ¸å¯¹": 2588,
      "ä¼łæĴ": 2589,
      "ĠEarth": 2590,
      "ç§¯åĪĨ": 2591,
      "æĻ®": 2592,
      "Ġsense": 2593,
      "Ġtreat": 2594,
      "Ġderivative": 2595,
      "Ġcapacity": 2596,
      "Ġvector": 2597,
      "ç¼ĵåŃĺ": 2598,
      "ological": 2599,
      "ĠAnswer": 2600,
      "ä¼łæĴŃ": 2601,
      "Ġfind": 2602,
      "Ġless": 2603,
      "Ġbecome": 2604,
      "ples": 2605,
      "ç¨ĭåºı": 2606,
      "Ġadj": 2607,
      "å½¢å¼ı": 2608,
      "Ġtests": 2609,
      "Ġremains": 2610,
      "Ġstatistics": 2611,
      "Ġcells": 2612,
      "gineering": 2613,
      "Ġes": 2614,
      "Ġdi": 2615,
      "Ġsteps": 2616,
      "åı¯éĿł": 2617,
      "ensity": 2618,
      "æ°§": 2619,
      "ĠCare": 2620,
      "Ġconfusion": 2621,
      "Ġcomplete": 2622,
      "Ġdetermines": 2623,
      "Ġinputs": 2624,
      "åŃ¦ä¹łçİĩ": 2625,
      "Ġextre": 2626,
      "Ġideas": 2627,
      "variance": 2628,
      "æł¹æį®": 2629,
      "ĠUnderneath": 2630,
      "Wh": 2631,
      "ning": 2632,
      "Ġed": 2633,
      "ä¸¥": 2634,
      "Ġpatter": 2635,
      "Ġconvex": 2636,
      "è¯»": 2637,
      "soci": 2638,
      "ĠSt": 2639,
      "å»¶": 2640,
      "Ġenvironment": 2641,
      "Ġlabel": 2642,
      "Ġglobal": 2643,
      "run": 2644,
      "Ġu": 2645,
      "æľºæ¢": 2646,
      "æľĢä¼ĺ": 2647,
      "è¶ĭ": 2648,
      "Ġquery": 2649,
      "åİŁåŃĲ": 2650,
      "éģĹ": 2651,
      "ä¼łéĢĴ": 2652,
      "Ġeffects": 2653,
      "Ġcoll": 2654,
      "Ġcomplexity": 2655,
      "Ġfilter": 2656,
      "æľºæ¢°": 2657,
      "ric": 2658,
      "èī": 2659,
      "ances": 2660,
      "Ġwaves": 2661,
      "æĺł": 2662,
      "Ġalter": 2663,
      "eli": 2664,
      "ä¹ĺ": 2665,
      "Ġseveral": 2666,
      "å¯¹åºĶ": 2667,
      "è¿ĺè¦ģ": 2668,
      "è°ĥæķ´": 2669,
      "Ġvariables": 2670,
      "Ġoptimum": 2671,
      "ç²Ĵ": 2672,
      "Ġnormalization": 2673,
      "Ġsingle": 2674,
      "rans": 2675,
      "èİ": 2676,
      "çļĦæķ°æį®": 2677,
      "ompos": 2678,
      "hem": 2679,
      "åĬĽåŃ¦": 2680,
      "æĿ¡ä»¶ä¸ĭ": 2681,
      "Ġloo": 2682,
      "Ġbetter": 2683,
      "ĠHow": 2684,
      "æŁĲäºĽ": 2685,
      "æĹłæ³ķ": 2686,
      "Ġgrow": 2687,
      "Ġstatistical": 2688,
      "Ġdetermine": 2689,
      "Ġtheorem": 2690,
      "èİ·": 2691,
      "An": 2692,
      "å²": 2693,
      "Ġmon": 2694,
      "Ġinit": 2695,
      "åĪĩ": 2696,
      "åĲį": 2697,
      "istic": 2698,
      "Ġhelp": 2699,
      "åıªæĺ¯": 2700,
      "åĮºéĹ´": 2701,
      "Ġassign": 2702,
      "Ġdescribe": 2703,
      "åĨħåŃĺ": 2704,
      "Ġexamples": 2705,
      "Ġinterpreted": 2706,
      "ç¢³": 2707,
      "çº¦æĿŁ": 2708,
      "è·Ŀç¦»": 2709,
      "eous": 2710,
      "lish": 2711,
      "åĥ": 2712,
      "ä¸Ķ": 2713,
      "Ġlater": 2714,
      "ä½Ļ": 2715,
      "Ġcompon": 2716,
      "æĸ¹å·®": 2717,
      "çĶŁæĪĲ": 2718,
      "éĺ¶": 2719,
      "èģļ": 2720,
      "Ġagg": 2721,
      "éĿŀå¸¸": 2722,
      "èĻĳ": 2723,
      "Ġlayers": 2724,
      "åĥı": 2725,
      "Ġreve": 2726,
      "æľį": 2727,
      "ä¸Ģæ¬¡": 2728,
      "ĠIf": 2729,
      "Ġassoci": 2730,
      "Ġreson": 2731,
      "åĬ¨éĩı": 2732,
      "çĽ¸äºĴ": 2733,
      "Ġtransport": 2734,
      "ç¡Ģ": 2735,
      "çŃīäºİ": 2736,
      "Ġpoints": 2737,
      "Ġstatus": 2738,
      "å¯¼èĩ´": 2739,
      "åŁºç¡Ģ": 2740,
      "äºĭä»¶": 2741,
      "Ġagain": 2742,
      "ĠWhat": 2743,
      "Ġcomputation": 2744,
      "èĢĥèĻĳ": 2745,
      "æħ": 2746,
      "Ġreprodu": 2747,
      "Ġocean": 2748,
      "å®ī": 2749,
      "å¾ª": 2750,
      "æľīéĻĲ": 2751,
      "æŃ¢": 2752,
      "åį³": 2753,
      "Ġshort": 2754,
      "éļľ": 2755,
      "Ġunderlying": 2756,
      "æ¸Ĳ": 2757,
      "æŃ£ç¡®": 2758,
      "Ġclear": 2759,
      "è¿Ľè¡Į": 2760,
      "æĮģç»Ń": 2761,
      "Ġstatement": 2762,
      "æ¼ı": 2763,
      "Ġdirectly": 2764,
      "è½¨éģĵ": 2765,
      "ost": 2766,
      "ock": 2767,
      "tage": 2768,
      "è£": 2769,
      "atures": 2770,
      "ordin": 2771,
      "è¿Ł": 2772,
      "igher": 2773,
      "Ġuni": 2774,
      "Ġneg": 2775,
      "æķ°æį®åºĵ": 2776,
      "å¤ļå°ĳ": 2777,
      "åĳ¨": 2778,
      "Ġdecompos": 2779,
      "å¦Ĥä½ķ": 2780,
      "Ġstructures": 2781,
      "Ġfinal": 2782,
      "Ġdisc": 2783,
      "æ»¡": 2784,
      "Ġattention": 2785,
      "lation": 2786,
      "isions": 2787,
      "Ġdeep": 2788,
      "å¯¹æķ°": 2789,
      "Ġconcer": 2790,
      "åĮºåŁŁ": 2791,
      "Ġanaly": 2792,
      "åĿĩåĢ¼": 2793,
      "åĩĨç¡®": 2794,
      "æĥ³": 2795,
      "Ġchoos": 2796,
      "Ġscale": 2797,
      "Ġdevi": 2798,
      "bedding": 2799,
      "æĻ®éĢļ": 2800,
      "AV": 2801,
      "ac": 2802,
      "ven": 2803,
      "¨Ģ": 2804,
      "è¨Ģ": 2805,
      "Ġtyp": 2806,
      "Ġcy": 2807,
      "Ġcross": 2808,
      "Ġdown": 2809,
      "Ġearly": 2810,
      "è§Ĩ": 2811,
      "ĠIN": 2812,
      "æľīåħ³": 2813,
      "ä»¥åıĬ": 2814,
      "å¿½": 2815,
      "ä¸ĭéĻį": 2816,
      "ä¸ĬçļĦ": 2817,
      "Ġsmaller": 2818,
      "éĿ¢ç§¯": 2819,
      "Ġrange": 2820,
      "è¯Ńè¨Ģ": 2821,
      "Ġprecision": 2822,
      "Ġgeomet": 2823,
      "å²©": 2824,
      "Ġinitial": 2825,
      "Be": 2826,
      "oid": 2827,
      "åıł": 2828,
      "aset": 2829,
      "Ġstep": 2830,
      "å®ĩ": 2831,
      "è®¿": 2832,
      "Ġquestion": 2833,
      "ĠON": 2834,
      "Ġkeys": 2835,
      "è·¨": 2836,
      "Ġdecay": 2837,
      "åºıåĪĹ": 2838,
      "åħĪéªĮ": 2839,
      "Ġreco": 2840,
      "Ġactiv": 2841,
      "Ġisolation": 2842,
      "Ġcentral": 2843,
      "Ġlaw": 2844,
      "Ġaggreg": 2845,
      "¥ŀ": 2846,
      "atory": 2847,
      "alu": 2848,
      "æľĽ": 2849,
      "Ġtop": 2850,
      "Ġcommun": 2851,
      "izing": 2852,
      "Ġmaxim": 2853,
      "Ġdiffer": 2854,
      "Ġdataset": 2855,
      "è¿Ļä¸ª": 2856,
      "Ġevalu": 2857,
      "plicit": 2858,
      "è¯ģæĺİ": 2859,
      "Ġconfidence": 2860,
      "æº¶": 2861,
      "æ£ĢéªĮ": 2862,
      "Ġprovides": 2863,
      "Ġreactions": 2864,
      "å·²ç»ı": 2865,
      "Ġisolated": 2866,
      "Ġeasier": 2867,
      "Ġtask": 2868,
      "æĭŁåĲĪ": 2869,
      "éĩĩæł·": 2870,
      "Ġchemical": 2871,
      "èİ·å¾Ĺ": 2872,
      "èĪ": 2873,
      "Ġrely": 2874,
      "Ġnull": 2875,
      "Ġwhat": 2876,
      "éĩıåŃĲ": 2877,
      "ternal": 2878,
      "peci": 2879,
      "Ġusual": 2880,
      "Ġresist": 2881,
      "çĶµåľº": 2882,
      "Ġwhere": 2883,
      "Ġforms": 2884,
      "æĿ¥èĩª": 2885,
      "åİŁåĽł": 2886,
      "çŁŃ": 2887,
      "åľ°çĲĥ": 2888,
      "èĬĤçĤ¹": 2889,
      "ä¾ĭå¦Ĥ": 2890,
      "Ġknown": 2891,
      "Ġexecution": 2892,
      "Ġespeci": 2893,
      "Ġextreme": 2894,
      "Ġconcerns": 2895,
      "Ġespecially": 2896,
      "action": 2897,
      "ties": 2898,
      "çĹ": 2899,
      "é¦": 2900,
      "aneous": 2901,
      "Ġbatch": 2902,
      "edy": 2903,
      "ä¸ĢæŃ¥": 2904,
      "åı¯ä»¥åľ¨": 2905,
      "å¹¶ä¸įæĺ¯": 2906,
      "Ġappl": 2907,
      "Ġvariation": 2908,
      "è§Ħå¾ĭ": 2909,
      "Ġsignific": 2910,
      "åľºæĻ¯": 2911,
      "Ġupdate": 2912,
      "æ¯ıä¸ª": 2913,
      "Ġminim": 2914,
      "éĢĲæ¸Ĳ": 2915,
      "Ġdepartment": 2916,
      "keli": 2917,
      "ru": 2918,
      "to": 2919,
      "Ġ'": 2920,
      "åĲ¸": 2921,
      "idation": 2922,
      "erves": 2923,
      "Ġaccess": 2924,
      "ä¸Ĭä¸ĭ": 2925,
      "æĸ°çļĦ": 2926,
      "éķ¿åº¦": 2927,
      "è§Ħæ¨¡": 2928,
      "Ġboundaries": 2929,
      "Ġapproximation": 2930,
      "Ġoperations": 2931,
      "Ġmagnitude": 2932,
      "Ġavail": 2933,
      "Ġgreedy": 2934,
      "Ġarticles": 2935,
      "Ġproperties": 2936,
      "Ġfollow": 2937,
      "Ġfixed": 2938,
      "Ġadjust": 2939,
      "keliho": 2940,
      "dimensional": 2941,
      "èĲ": 2942,
      "Ġcity": 2943,
      "Ġsalary": 2944,
      "Ġtherm": 2945,
      "ene": 2946,
      "Ġpers": 2947,
      "ime": 2948,
      "Ġalone": 2949,
      "åĩł": 2950,
      "æĢ§åĴĮ": 2951,
      "Ġshare": 2952,
      "Ġcoordin": 2953,
      "çĲĨè®º": 2954,
      "æī¹": 2955,
      "çĶŁçī©": 2956,
      "Ġcommonly": 2957,
      "ibility": 2958,
      "Ġmeth": 2959,
      "Ġsubst": 2960,
      "Ġoutcomes": 2961,
      "Ġbackward": 2962,
      "Ġphys": 2963,
      "å»¶è¿Ł": 2964,
      "ç²ĴåŃĲ": 2965,
      "åį³ä½¿": 2966,
      "oot": 2967,
      "ĠV": 2968,
      "Ġcar": 2969,
      "arm": 2970,
      "Ġans": 2971,
      "Ġreport": 2972,
      "Ġwa": 2973,
      "ication": 2974,
      "çļĦæ¦Ĥçİĩ": 2975,
      "Ġlower": 2976,
      "Ġhigher": 2977,
      "å¹ħ": 2978,
      "Ġrates": 2979,
      "Ġrule": 2980,
      "æľīæķĪ": 2981,
      "çī©çĲĨ": 2982,
      "pag": 2983,
      "Ġsystematic": 2984,
      "éģ¿": 2985,
      "ç±»åĪ«": 2986,
      "Ġexpress": 2987,
      "Ġreaction": 2988,
      "èī²": 2989,
      "å¿½çķ¥": 2990,
      "ft": 2991,
      "èĤ": 2992,
      "èĨ": 2993,
      "ream": 2994,
      "Ġbest": 2995,
      "è®¢": 2996,
      "åĽłç´ł": 2997,
      "åĢĻ": 2998,
      "åĲİçļĦ": 2999,
      "åıĳçİ°": 3000,
      "åĳ½": 3001,
      "åĳĺ": 3002,
      "ç¼ĸ": 3003,
      "ä»İèĢĮ": 3004,
      "Ġvariance": 3005,
      "åħ±æĮ¯": 3006,
      "Ġrepresents": 3007,
      "Ġkin": 3008,
      "Ġcombin": 3009,
      "Ġaddress": 3010,
      "Ġverify": 3011,
      "strap": 3012,
      "Ġreflect": 3013,
      "çĻ½": 3014,
      "å¤ªéĺ³": 3015,
      "æ»¡è¶³": 3016,
      "ä¸Ĭä¸ĭæĸĩ": 3017,
      "ootstrap": 3018,
      "ç¥ŀ": 3019,
      "ģè®¸": 3020,
      "orage": 3021,
      "Ġrece": 3022,
      "rodu": 3023,
      "Ġinv": 3024,
      "Ġop": 3025,
      "entence": 3026,
      "è¿½": 3027,
      "ä»ħ": 3028,
      "åħģè®¸": 3029,
      "æķħ": 3030,
      "ilib": 3031,
      "rium": 3032,
      "å¯»": 3033,
      "çŃĶ": 3034,
      "Ġscore": 3035,
      "ĠOn": 3036,
      "arbon": 3037,
      "è§ĦåĪĻ": 3038,
      "è¿Ĳè¡Į": 3039,
      "Ġsubject": 3040,
      "Ġelectron": 3041,
      "ING": 3042,
      "Ġequilib": 3043,
      "Ġestimate": 3044,
      "angu": 3045,
      "Ġbuil": 3046,
      "æĬ½æł·": 3047,
      "å¾ªçİ¯": 3048,
      "AVING": 3049,
      "kelihood": 3050,
      "Ġmethod": 3051,
      "Ġequilibrium": 3052,
      "NER": 3053,
      "che": 3054,
      "ox": 3055,
      "ups": 3056,
      "é©": 3057,
      "alse": 3058,
      "Ġfl": 3059,
      "Ġgives": 3060,
      "resh": 3061,
      "å¹¿": 3062,
      "æł¡": 3063,
      "ries": 3064,
      "åĨ²": 3065,
      "æĬ¤": 3066,
      "Ġenc": 3067,
      "åĵĪ": 3068,
      "æľĢå¤§": 3069,
      "è¡Įä¸º": 3070,
      "è½¬æį¢": 3071,
      "Ġgenerally": 3072,
      "Ġtesting": 3073,
      "å¿«éĢŁ": 3074,
      "ä¸įç¡®å®ļæĢ§": 3075,
      "Ġgravity": 3076,
      "ç¥ŀç»ı": 3077,
      "actions": 3078,
      "tle": 3079,
      "Ġfast": 3080,
      "Ġox": 3081,
      "Ġstorage": 3082,
      "ĠAV": 3083,
      "çĶµåĬ¿": 3084,
      "æľºåĻ¨": 3085,
      "ä¿ĿçķĻ": 3086,
      "phas": 3087,
      "Ġemphas": 3088,
      "éĢłæĪĲ": 3089,
      "Ġplanet": 3090,
      "Ġearthquakes": 3091,
      "ç§ĳåŃ¦": 3092,
      "Ġsumm": 3093,
      "éģ¿åħį": 3094,
      "è®¢åįķ": 3095,
      "æķħéļľ": 3096,
      "ag": 3097,
      "Ġcur": 3098,
      "Ġsched": 3099,
      "ä¸ļ": 3100,
      "Ġdr": 3101,
      "Ġdiv": 3102,
      "åĪĿ": 3103,
      "å®Ļ": 3104,
      "urces": 3105,
      "rength": 3106,
      "éĻ¤": 3107,
      "ants": 3108,
      "ival": 3109,
      "æĽ´å®¹æĺĵ": 3110,
      "Ġintrodu": 3111,
      "Ġengineering": 3112,
      "Ġlimited": 3113,
      "å±ŀ": 3114,
      "æ´ĭ": 3115,
      "å·¥ç¨ĭ": 3116,
      "æ¶²": 3117,
      "Ġprim": 3118,
      "å¤įæĿĤåº¦": 3119,
      "Ġdefin": 3120,
      "Ġlike": 3121,
      "Ġoccurs": 3122,
      "Ġexperiments": 3123,
      "Ġexpectation": 3124,
      "æħ¢": 3125,
      "å®ĩå®Ļ": 3126,
      "åĵĪå¸Į": 3127,
      "ues": 3128,
      "çģ": 3129,
      "é»": 3130,
      "Ġ2": 3131,
      "read": 3132,
      "erve": 3133,
      "ands": 3134,
      "Ġbro": 3135,
      "Ġfalse": 3136,
      "Ġlength": 3137,
      "Ġprove": 3138,
      "osp": 3139,
      "å®ļçĲĨ": 3140,
      "ä¸Ńå¿ĥ": 3141,
      "è¿ĩåº¦": 3142,
      "ĠThen": 3143,
      "æ¨¡å¼ı": 3144,
      "Ġpoly": 3145,
      "Ġlimiting": 3146,
      "è½½": 3147,
      "éĿĻ": 3148,
      "Ġconsum": 3149,
      "Ġsimply": 3150,
      "ibration": 3151,
      "ä¸¤èĢħ": 3152,
      "Ġpositive": 3153,
      "Ġampl": 3154,
      "Ġfeed": 3155,
      "æ³¨æĦı": 3156,
      "Ġvoltage": 3157,
      "ropout": 3158,
      "Ġconstraint": 3159,
      "åĮħåĲ«": 3160,
      "fitting": 3161,
      "sible": 3162,
      "Ġpass": 3163,
      "Ġreach": 3164,
      "Ġfar": 3165,
      "ick": 3166,
      "Ġlink": 3167,
      "è¯¥": 3168,
      "Ġdel": 3169,
      "ä¸Ģç»Ħ": 3170,
      "æĪĲç«ĭ": 3171,
      "ä¼ļå¢ŀåĬł": 3172,
      "æī©": 3173,
      "åĲĪçĲĨ": 3174,
      "Ġatom": 3175,
      "Ġrows": 3176,
      "éĢļå¸¸éľĢè¦ģ": 3177,
      "Ġactive": 3178,
      "æ°´å¹³": 3179,
      "æĢ»ä½ĵ": 3180,
      "Ġinterpretation": 3181,
      "Ġmagnetic": 3182,
      "Ġspecific": 3183,
      "ç´¢å¼ķ": 3184,
      "Ġpatterns": 3185,
      "è®¿éĹ®": 3186,
      "èĦ": 3187,
      "Ġcase": 3188,
      "Ġcarbon": 3189,
      "Ġreplication": 3190,
      "ç»ĩ": 3191,
      "ä¸įæĸŃ": 3192,
      "Ġhide": 3193,
      "è¡°": 3194,
      "Ġrun": 3195,
      "Ġrules": 3196,
      "åįı": 3197,
      "Ġfault": 3198,
      "çĶµæµģ": 3199,
      "dered": 3200,
      "ĠOR": 3201,
      "ç´¯": 3202,
      "åıĤä¸İ": 3203,
      "è¿Ľåħ¥": 3204,
      "Ġaccum": 3205,
      "Ġobjects": 3206,
      "Ġmemor": 3207,
      "Ġfeatures": 3208,
      "å½ĵåīį": 3209,
      "Ġalgorithms": 3210,
      "Ġreliability": 3211,
      "ä¸Ģèĩ´æĢ§": 3212,
      "ä¿®æĶ¹": 3213,
      "Ġmolecular": 3214,
      "Ġlook": 3215,
      "åĳ¨æľŁ": 3216,
      "NS": 3217,
      "One": 3218,
      "can": 3219,
      "¢å¤į": 3220,
      "èĽ": 3221,
      "ĭçĻ½": 3222,
      "Ġsentence": 3223,
      "ences": 3224,
      "used": 3225,
      "Ġep": 3226,
      "æķı": 3227,
      "raph": 3228,
      "Ġpropag": 3229,
      "ä¸ĢçĤ¹": 3230,
      "respon": 3231,
      "Ġmoves": 3232,
      "ument": 3233,
      "Ġmaint": 3234,
      "éĻ©": 3235,
      "å¹¶åıĳ": 3236,
      "æĽ´å¤ļ": 3237,
      "æĶ¯": 3238,
      "ayes": 3239,
      "éļĶ": 3240,
      "Ġimbal": 3241,
      "æģ¢å¤į": 3242,
      "ĠCom": 3243,
      "ç»Ħç»ĩ": 3244,
      "æĺİç¡®": 3245,
      "æĺİæĺ¾": 3246,
      "ĠHAVING": 3247,
      "åŁºåĽł": 3248,
      "Ġerrors": 3249,
      "æİĴåºı": 3250,
      "æ¡Ī": 3251,
      "Ġrotation": 3252,
      "Ġresource": 3253,
      "Ġacceleration": 3254,
      "anguage": 3255,
      "ĠAVG": 3256,
      "èĽĭçĻ½": 3257,
      "cop": 3258,
      "¿Ģ": 3259,
      "æ¿Ģ": 3260,
      "end": 3261,
      "ancy": 3262,
      "Ġdia": 3263,
      "Ġrest": 3264,
      "aster": 3265,
      "ifies": 3266,
      "Ġexact": 3267,
      "å¹´": 3268,
      "Ġseism": 3269,
      "ä¸ŃéĹ´": 3270,
      "åı¯ä»¥éĢļè¿ĩ": 3271,
      "Ġtimes": 3272,
      "Ġprobabil": 3273,
      "ä»£è¡¨": 3274,
      "Ġincreasing": 3275,
      "Ġfinite": 3276,
      "Ġvalidity": 3277,
      "è¯Ħä¼°": 3278,
      "æĿĥéĩį": 3279,
      "ĠINNER": 3280,
      "çĹħ": 3281,
      "DER": 3282,
      "ares": 3283,
      "ruct": 3284,
      "çħ": 3285,
      "Ġsort": 3286,
      "Ġsound": 3287,
      "Ġwind": 3288,
      "place": 3289,
      "åıĺæį¢": 3290,
      "æĬĺ": 3291,
      "æĽ²": 3292,
      "Ġsuc": 3293,
      "ored": 3294,
      "è§Ĥæµĭ": 3295,
      "Ġregions": 3296,
      "Ġcombines": 3297,
      "Ġavoid": 3298,
      "Ġangular": 3299,
      "Ġbegins": 3300,
      "å®īåħ¨": 3301,
      "çħ§": 3302,
      "cl": 3303,
      "ved": 3304,
      "rea": 3305,
      "Ġfram": 3306,
      "Ġfaster": 3307,
      "Ġinequ": 3308,
      "Ġlat": 3309,
      "Ġlight": 3310,
      "Ġdevel": 3311,
      "æµĵ": 3312,
      "æīį": 3313,
      "ody": 3314,
      "Ġperi": 3315,
      "Ġscores": 3316,
      "ception": 3317,
      "Ġrequest": 3318,
      "å¢ŀéķ¿": 3319,
      "lock": 3320,
      "roscop": 3321,
      "arning": 3322,
      "Ġchecked": 3323,
      "ç»ıè¿ĩ": 3324,
      "çī¹å®ļ": 3325,
      "æ·±": 3326,
      "äºĭåĬ¡": 3327,
      "Ġestimates": 3328,
      "Ġcenter": 3329,
      "Ġnatural": 3330,
      "Ġdatabase": 3331,
      "æľįåĬ¡": 3332,
      "Before": 3333,
      "Ġresistance": 3334,
      "å¯»æī¾": 3335,
      "éļĶç¦»": 3336,
      "Ġful": 3337,
      "Ġinstr": 3338,
      "Ġel": 3339,
      "Ġtoward": 3340,
      "Ġordered": 3341,
      "åĪĨè§£": 3342,
      "Ġmach": 3343,
      "Ġunits": 3344,
      "ä¸ºéĽ¶": 3345,
      "èĩªçĦ¶": 3346,
      "Ġlock": 3347,
      "Ġoverall": 3348,
      "Ġregion": 3349,
      "Ġstronger": 3350,
      "Ġcorrespon": 3351,
      "Ġearthquake": 3352,
      "é£İéĻ©": 3353,
      "Ġappear": 3354,
      "åħ¬å¼ı": 3355,
      "Ġcomponents": 3356,
      "Ġsummar": 3357,
      "FT": 3358,
      "count": 3359,
      "ially": 3360,
      "Ġtext": 3361,
      "Ġpub": 3362,
      "Ġstop": 3363,
      "å¤ĩ": 3364,
      "è§ī": 3365,
      "olic": 3366,
      "Ġcovariance": 3367,
      "éļĲ": 3368,
      "å¯¹è±¡": 3369,
      "eak": 3370,
      "Ġinterm": 3371,
      "LEFT": 3372,
      "Ġmeasurements": 3373,
      "æīĢä»¥": 3374,
      "åģıç¦»": 3375,
      "Ġprice": 3376,
      "Ġnetworks": 3377,
      "Ġderivatives": 3378,
      "Ġinspect": 3379,
      "Ġfailure": 3380,
      "Ġconservation": 3381,
      "Ġdynamic": 3382,
      "åı¦ä¸Ģä¸ª": 3383,
      "éģĹä¼ł": 3384,
      "Ġphysical": 3385,
      "Ġoppos": 3386,
      "ĠORDER": 3387,
      "TTP": 3388,
      "line": 3389,
      "çĨ": 3390,
      "ese": 3391,
      "Ġmic": 3392,
      "ingu": 3393,
      "Ġstrength": 3394,
      "here": 3395,
      "æĹ¥": 3396,
      "Ġchar": 3397,
      "Ġsecon": 3398,
      "Ġnear": 3399,
      "ç®¡": 3400,
      "Ġdifferenti": 3401,
      "Ġsimpl": 3402,
      "ification": 3403,
      "Ġregular": 3404,
      "ç±»åŀĭ": 3405,
      "Ġfinding": 3406,
      "çĲĨè§£æĪĲ": 3407,
      "Ġrepeatedly": 3408,
      "Ġdefined": 3409,
      "Ġvolcan": 3410,
      "Ġdistributions": 3411,
      "Ġsupports": 3412,
      "å»ºç«ĭ": 3413,
      "ily": 3414,
      "por": 3415,
      "tical": 3416,
      "Ġtables": 3417,
      "Ġrele": 3418,
      "Ġfall": 3419,
      "çļĦéĩįè¦ģ": 3420,
      "éĩĳ": 3421,
      "ä¸įåıĺ": 3422,
      "Ġonce": 3423,
      "olds": 3424,
      "Ġexternal": 3425,
      "å¹²": 3426,
      "åĪĨä½įæķ°": 3427,
      "ĠIS": 3428,
      "Ġwithin": 3429,
      "Ġfav": 3430,
      "å¤§çļĦ": 3431,
      "Ġimply": 3432,
      "Ġtrue": 3433,
      "ä¸įåĲĮçļĦ": 3434,
      "èĩ³": 3435,
      "åģļ": 3436,
      "Ġconcent": 3437,
      "æŃ£æĢģ": 3438,
      "Ġconfused": 3439,
      "æ²¿": 3440,
      "å¹¶ä¸įæĦıåĳ³çĿĢ": 3441,
      "è¿ĩç¨ĭä¸Ń": 3442,
      "Ġfields": 3443,
      "å¼ķåĬĽ": 3444,
      "Ġcapacit": 3445,
      "Ġknow": 3446,
      "Ġresponse": 3447,
      "è¯ĨåĪ«": 3448,
      "è½¬åĮĸä¸º": 3449,
      "æĥħåĨµä¸ĭ": 3450,
      "æ°§åĮĸ": 3451,
      "inguish": 3452,
      "Ġcat": 3453,
      "alle": 3454,
      "Ġprote": 3455,
      "æĹĭ": 3456,
      "ches": 3457,
      "amount": 3458,
      "Ġdistinguish": 3459,
      "Ġsource": 3460,
      "Ġmechanical": 3461,
      "Ġclos": 3462,
      "æł·æľ¬éĩı": 3463,
      "ç»Łè®¡éĩı": 3464,
      "Ġcontrols": 3465,
      "éħ¸": 3466,
      "ç§»åĬ¨": 3467,
      "Ġrank": 3468,
      "Ġapproaches": 3469,
      "Ġindiv": 3470,
      "ategory": 3471,
      "Ġminimum": 3472,
      "jor": 3473,
      "rast": 3474,
      "éĤ": 3475,
      "Ġcategory": 3476,
      "order": 3477,
      "level": 3478,
      "Ġwrit": 3479,
      "åħ¸": 3480,
      "æĸ¯": 3481,
      "Ġexcess": 3482,
      "Ġshift": 3483,
      "åħ³äºİ": 3484,
      "è§£åĨ³": 3485,
      "æĭ¥": 3486,
      "éļıåĲİ": 3487,
      "Ġdecisions": 3488,
      "Ġdetail": 3489,
      "ç¼º": 3490,
      "Ġlearned": 3491,
      "ä¼¼çĦ¶": 3492,
      "Ġidentify": 3493,
      "regist": 3494,
      "åħĥç´ł": 3495,
      "ç»Ļåĩº": 3496,
      "Ġprogramm": 3497,
      "Ġredund": 3498,
      "ç¬¦": 3499,
      "Ġaccumul": 3500,
      "allel": 3501,
      "apt": 3502,
      "inding": 3503,
      "Ġwell": 3504,
      "çļĦç»ĵæŀľ": 3505,
      "ä½ı": 3506,
      "rain": 3507,
      "Ġhum": 3508,
      "éĹ¨": 3509,
      "Ġmajor": 3510,
      "çĽ²": 3511,
      "æĸ¹ç¨ĭ": 3512,
      "éľĢæ±Ĥ": 3513,
      "ĠCon": 3514,
      "Ġscient": 3515,
      "Ġconfoun": 3516,
      "Ġstatic": 3517,
      "Ġradi": 3518,
      "ç¨³å®ļæĢ§": 3519,
      "Ġprin": 3520,
      "Ġcalibration": 3521,
      "è¶ĭåĬ¿": 3522,
      "Ġmonit": 3523,
      "æł¡åĩĨ": 3524,
      "æµĵåº¦": 3525,
      "agn": 3526,
      "pot": 3527,
      "Ġmedi": 3528,
      "Ġread": 3529,
      "Ġefficient": 3530,
      "Ġdeploy": 3531,
      "åĪĨéħį": 3532,
      "åľ¨ä¸įåĲĮ": 3533,
      "Ġcompos": 3534,
      "ç§°": 3535,
      "åı¯ä»¥å¸®åĬ©": 3536,
      "å¤§æ°Ķ": 3537,
      "Ġpoor": 3538,
      "Ġpost": 3539,
      "åĵįåºĶ": 3540,
      "åĿĢ": 3541,
      "Ġdecreas": 3542,
      "æµģä½ĵ": 3543,
      "Ġparallel": 3544,
      "ç»ĨèĬĤ": 3545,
      "åĽŀçŃĶ": 3546,
      "åİĭç¼©": 3547,
      "å¼Ĥå¸¸": 3548,
      "version": 3549,
      "Ġrepresentations": 3550,
      "Ġexpans": 3551,
      "Ġchoice": 3552,
      "Ġcalc": 3553,
      "Ġbalance": 3554,
      "scill": 3555,
      "çŃĸçķ¥": 3556,
      "éĺ¶æ®µ": 3557,
      "Ġanswer": 3558,
      "SC": 3559,
      "pri": 3560,
      "ware": 3561,
      "Ġthing": 3562,
      "ids": 3563,
      "æĹ©": 3564,
      "igen": 3565,
      "Ġsem": 3566,
      "æ³Ľ": 3567,
      "è¿ĩæĭŁåĲĪ": 3568,
      "iled": 3569,
      "ç¨³": 3570,
      "å®ŀçİ°": 3571,
      "å¤įçİ°": 3572,
      "Ġtransition": 3573,
      "åĬłéĢŁåº¦": 3574,
      "é¡¹": 3575,
      "Ġmiscon": 3576,
      "Ġconstruct": 3577,
      "astic": 3578,
      "æ£Ģæµĭ": 3579,
      "Ġgradients": 3580,
      "Ġchoices": 3581,
      "æ¼Ĥ": 3582,
      "ĠWhen": 3583,
      "Ġunderstood": 3584,
      "Ġconsistent": 3585,
      "Ġcount": 3586,
      "Ġretur": 3587,
      "Ġreliable": 3588,
      "æµ·æ´ĭ": 3589,
      "Ġnegative": 3590,
      "Ġemphasizes": 3591,
      "æķıæĦŁ": 3592,
      "Ġimbalance": 3593,
      "Ġmisconception": 3594,
      "bra": 3595,
      "ix": 3596,
      "less": 3597,
      "ym": 3598,
      "Ġä¸Ģä¸ª": 3599,
      "Ġserv": 3600,
      "iss": 3601,
      "Ġwas": 3602,
      "Ġinert": 3603,
      "ä¸įåı¯": 3604,
      "ä¸įä»ħ": 3605,
      "Ġhy": 3606,
      "Ġcomments": 3607,
      "Ġwho": 3608,
      "æĺ¯è¯¯åĮº": 3609,
      "æłĳ": 3610,
      "Ġmap": 3611,
      "Ġnecess": 3612,
      "éĻĦ": 3613,
      "Ġdiffic": 3614,
      "åĬ¨æĢģ": 3615,
      "Ġimple": 3616,
      "éĢŁçİĩ": 3617,
      "Ġproduces": 3618,
      "åīįæıĲ": 3619,
      "Ġequival": 3620,
      "å°±æĺ¯": 3621,
      "Ġgroups": 3622,
      "Ġphase": 3623,
      "Ġtasks": 3624,
      "Ġdistributed": 3625,
      "Ġtreatment": 3626,
      "ä¸¥æł¼": 3627,
      "èģļåĲĪ": 3628,
      "è¡°åĩı": 3629,
      "Ġhuman": 3630,
      "priate": 3631,
      "Ġdifficult": 3632,
      "CP": 3633,
      "ĠLEFT": 3634,
      "Ĳæłĩ": 3635,
      "requ": 3636,
      "Ġcause": 3637,
      "Ġthresh": 3638,
      "Ġwor": 3639,
      "ilar": 3640,
      "Ġalge": 3641,
      "Ġgo": 3642,
      "å¼±": 3643,
      "Ġresolution": 3644,
      "ribut": 3645,
      "Ġfactor": 3646,
      "æĭĨ": 3647,
      "odes": 3648,
      "udes": 3649,
      "åĿĲæłĩ": 3650,
      "æĿ¥çļĦ": 3651,
      "åİŁå§ĭ": 3652,
      "Ġreducing": 3653,
      "æľŁæľĽ": 3654,
      "Ġfrequencies": 3655,
      "Ġrare": 3656,
      "Ġfunctions": 3657,
      "Ġpossible": 3658,
      "Ġauth": 3659,
      "Ġvectors": 3660,
      "æł¸å¿ĥ": 3661,
      "åĲ¸æĶ¶": 3662,
      "Ġdevelop": 3663,
      "Ġprogramming": 3664,
      "Ġalgebra": 3665,
      "ax": 3666,
      "Ġcr": 3667,
      "Ġmed": 3668,
      "åı¥": 3669,
      "Ġrepa": 3670,
      "ä»ĭ": 3671,
      "ulations": 3672,
      "Ġalong": 3673,
      "plit": 3674,
      "çĽĸ": 3675,
      "Ġcompares": 3676,
      "è´Ŀ": 3677,
      "Ġcontrast": 3678,
      "Ġtrade": 3679,
      "çł´": 3680,
      "æĿ¥æºĲ": 3681,
      "Ġinclu": 3682,
      "å¢ŀå¤§": 3683,
      "çŁ³": 3684,
      "åīĤ": 3685,
      "Ġappropriate": 3686,
      "Ġworking": 3687,
      "Ġdependencies": 3688,
      "æĸĩæľ¬": 3689,
      "Ġsignals": 3690,
      "Ġnormally": 3691,
      "Ġintegr": 3692,
      "ä»·åĢ¼": 3693,
      "Ġaffects": 3694,
      "range": 3695,
      "Ġleak": 3696,
      "Ġleads": 3697,
      "Ġadditional": 3698,
      "Ġintermedi": 3699,
      "Ġregularization": 3700,
      "Ġindividual": 3701,
      "registration": 3702,
      "Ġsemant": 3703,
      "éĻĦè¿ĳ": 3704,
      "SELECT": 3705,
      "ling": 3706,
      "Ġdimension": 3707,
      "Ġstored": 3708,
      "éĢĨ": 3709,
      "äº«": 3710,
      "è¯·": 3711,
      "æľīåºı": 3712,
      "Ġshape": 3713,
      "æĽ´é«ĺ": 3714,
      "Ġcontent": 3715,
      "è¡ĮæĺŁ": 3716,
      "Ġstructural": 3717,
      "åħ±äº«": 3718,
      "Ġcolum": 3719,
      "ciple": 3720,
      "ĠRe": 3721,
      "Ġintegration": 3722,
      "ropy": 3723,
      "Ġallows": 3724,
      "Ġcirculation": 3725,
      "ç²¾ç¡®": 3726,
      "Ġgeometry": 3727,
      "Ġaggregate": 3728,
      "Ġcommunication": 3729,
      "ä¸ļåĬ¡": 3730,
      "Ġsuccess": 3731,
      "Ġprinciple": 3732,
      "ST": 3733,
      "back": 3734,
      "pid": 3735,
      "rics": 3736,
      "rices": 3737,
      "¨è®º": 3738,
      "å¡": 3739,
      "ination": 3740,
      "ince": 3741,
      "Ġspre": 3742,
      "Ġsomet": 3743,
      "itivity": 3744,
      "è®¨è®º": 3745,
      "raction": 3746,
      "Ġexplicit": 3747,
      "åĪĨç»Ħ": 3748,
      "çĶµåİĭ": 3749,
      "è¡¨éĿ¢": 3750,
      "Ġfactors": 3751,
      "åŃĺåĤ¨": 3752,
      "Ġadapt": 3753,
      "Ġrock": 3754,
      "å°ıçļĦ": 3755,
      "Ġplate": 3756,
      "ç¦»åŃĲ": 3757,
      "Ġactivity": 3758,
      "å¼ºåº¦": 3759,
      "Ġrapid": 3760,
      "å®ĮæĪĲ": 3761,
      "åŁºæľ¬": 3762,
      "å¾Īå¤ļ": 3763,
      "Ġnames": 3764,
      "Ġgroup": 3765,
      "Ġapproximately": 3766,
      "Ġlikelihood": 3767,
      "Ġinside": 3768,
      "Ġlayer": 3769,
      "èģĶç³»": 3770,
      "Ġpositions": 3771,
      "Ġplaus": 3772,
      "é¢Ŀå¤ĸ": 3773,
      "Ġunique": 3774,
      "Ġmaximum": 3775,
      "èĲ½": 3776,
      "Ġdefinition": 3777,
      "roscopic": 3778,
      "Ġsecond": 3779,
      "Ġfavor": 3780,
      "Ġexpansion": 3781,
      "FS": 3782,
      "cos": 3783,
      "mit": 3784,
      "Ġ5": 3785,
      "Ġ=": 3786,
      "ĠéļıåĲİ": 3787,
      "Ġax": 3788,
      "ati": 3789,
      "åı¶": 3790,
      "Ġwould": 3791,
      "Ġweak": 3792,
      "Ġstores": 3793,
      "Ġstock": 3794,
      "ä¸ĢæĿ¡": 3795,
      "Ġexten": 3796,
      "ç§©": 3797,
      "Ġdistance": 3798,
      "åģľ": 3799,
      "Ġmathem": 3800,
      "ead": 3801,
      "è¿ĺéľĢè¦ģ": 3802,
      "Ġeffective": 3803,
      "Ġactual": 3804,
      "Ġchecks": 3805,
      "Ġpathways": 3806,
      "Ġexperimental": 3807,
      "çĸ«": 3808,
      "Ġselected": 3809,
      "Ġchoosing": 3810,
      "é¦Ī": 3811,
      "Ġinequality": 3812,
      "Ġexcessive": 3813,
      "Ġimplement": 3814,
      "aking": 3815,
      "ection": 3816,
      "fs": 3817,
      "ucle": 3818,
      "orque": 3819,
      "Ġbene": 3820,
      "Ġnucle": 3821,
      "è¿ģ": 3822,
      "imes": 3823,
      "Ġproced": 3824,
      "æĺ¯åľ¨": 3825,
      "æľīæĹ¶": 3826,
      "çİ°ä»£": 3827,
      "ĠWe": 3828,
      "Ġassess": 3829,
      "åĨħå®¹": 3830,
      "Ġfree": 3831,
      "Ġelectrom": 3832,
      "ĠEn": 3833,
      "åĽłä¸ºå®ĥ": 3834,
      "Ġjo": 3835,
      "Ġwere": 3836,
      "Ġweather": 3837,
      "acter": 3838,
      "åİĭåĬĽ": 3839,
      "Ġcausation": 3840,
      "åĩºçİ°çļĦ": 3841,
      "ä»įçĦ¶": 3842,
      "Ġtrees": 3843,
      "Ġpresent": 3844,
      "éĢĲæŃ¥": 3845,
      "Ġexisting": 3846,
      "å¯Ĩåº¦": 3847,
      "æĺłå°Ħ": 3848,
      "Ġaltern": 3849,
      "Ġcycle": 3850,
      "Ġprimary": 3851,
      "Ġconstraints": 3852,
      "Ġperiod": 3853,
      "Ġcatal": 3854,
      "Ġredundancy": 3855,
      "è¯·æ±Ĥ": 3856,
      "ld": 3857,
      "åĸ": 3858,
      "æĳ": 3859,
      "Ġsa": 3860,
      "ale": 3861,
      "Ġdest": 3862,
      "åıĪ": 3863,
      "Ġreact": 3864,
      "Ġreplace": 3865,
      "åĲĦ": 3866,
      "Ġbel": 3867,
      "Ġlanguage": 3868,
      "under": 3869,
      "ä¸įä¸Ģå®ļ": 3870,
      "æĪĳ": 3871,
      "åŃ¤": 3872,
      "è®¡åĪĴ": 3873,
      "æĽ´å®Įæķ´": 3874,
      "æķ°æį®åĪĨå¸ĥ": 3875,
      "Ġsuit": 3876,
      "åİĨ": 3877,
      "change": 3878,
      "ç«ł": 3879,
      "åħĪçľĭ": 3880,
      "Ġdetection": 3881,
      "Ġpartial": 3882,
      "åľ°åĿĢ": 3883,
      "Ġsimilar": 3884,
      "éĽĨåĲĪ": 3885,
      "Ġrepresentation": 3886,
      "Ġmultiplication": 3887,
      "Ġcontains": 3888,
      "è®¤ä¸º": 3889,
      "Ġarticle": 3890,
      "Ġtransformations": 3891,
      "Ġapplies": 3892,
      "Ġavailable": 3893,
      "Ġcarry": 3894,
      "Ġreflects": 3895,
      "Ġprobabilities": 3896,
      "requency": 3897,
      "UM": 3898,
      "den": 3899,
      "dro": 3900,
      "kn": 3901,
      "æĲ": 3902,
      "Ġte": 3903,
      "ä¸ī": 3904,
      "Ġdam": 3905,
      "imate": 3906,
      "uning": 3907,
      "Ġhold": 3908,
      "ample": 3909,
      "Ġmoving": 3910,
      "æĬĹ": 3911,
      "åĲİç»Ń": 3912,
      "å¤įåĪ¶": 3913,
      "æĭ¬": 3914,
      "Ġque": 3915,
      "Ġclose": 3916,
      "æķĪçİĩ": 3917,
      "åĳĬ": 3918,
      "ä¿ĿåŃĺ": 3919,
      "Ġembedding": 3920,
      "Ġregul": 3921,
      "åħ¶ä¸Ń": 3922,
      "Ġaccur": 3923,
      "Ġelectrons": 3924,
      "Ġjoint": 3925,
      "æĺŁç³»": 3926,
      "Ġobjective": 3927,
      "Ġsurv": 3928,
      "ograph": 3929,
      "éĽ¶åģĩè®¾": 3930,
      "Ġoperation": 3931,
      "å·²æľī": 3932,
      "Ġgeneralization": 3933,
      "Ġmolecules": 3934,
      "Ġunderstanding": 3935,
      "Ġ>=": 3936,
      "å±ķå¼Ģ": 3937,
      "Ġdeviations": 3938,
      "åĪĿå§ĭ": 3939,
      "agnetic": 3940,
      "underst": 3941,
      "åŃ¤ç«ĭ": 3942,
      "St": 3943,
      "fers": 3944,
      "ian": 3945,
      "éĴ": 3946,
      "Ġtorque": 3947,
      "ata": 3948,
      "Ġdri": 3949,
      "Ġbr": 3950,
      "Ġbrea": 3951,
      "éĢı": 3952,
      "ists": 3953,
      "istent": 3954,
      "pec": 3955,
      "éª¤": 3956,
      "åĪ¶éĢł": 3957,
      "çŃīå¼ı": 3958,
      "ĠBayes": 3959,
      "ä¹Łæĺ¯": 3960,
      "ä¹ĭä¸Ģ": 3961,
      "Ġdecide": 3962,
      "éĥ½åı¯èĥ½": 3963,
      "éĩĬæĶ¾": 3964,
      "Ġbehave": 3965,
      "Ġmisunderst": 3966,
      "å¼ºè°ĥ": 3967,
      "æ°ĶåĢĻ": 3968,
      "Ġtempor": 3969,
      "æŃ¥éª¤": 3970,
      "æ¼Ķ": 3971,
      "ledge": 3972,
      "Ġrespons": 3973,
      "Ġelement": 3974,
      "Why": 3975,
      "Ġreveal": 3976,
      "Ġagainst": 3977,
      "Ġsignificant": 3978,
      "Ġlatency": 3979,
      "æĹĭè½¬": 3980,
      "æĭ¥æľī": 3981,
      "Ġnecessarily": 3982,
      "ader": 3983,
      "kens": 3984,
      "ron": 3985,
      "Īæľ¬": 3986,
      "ĪåĢ¼": 3987,
      "Ġaround": 3988,
      "Ġsyn": 3989,
      "Ġdensity": 3990,
      "Ġpa": 3991,
      "Ġreference": 3992,
      "row": 3993,
      "Ġdeg": 3994,
      "åįģ": 3995,
      "çīĪæľ¬": 3996,
      "Ġcode": 3997,
      "Ġhere": 3998,
      "åİ»": 3999,
      "æľĢå°ı": 4000,
      "åįķä¸Ģ": 4001,
      "éĺĪåĢ¼": 4002,
      "Ġsets": 4003,
      "æķĪæŀľ": 4004,
      "å®¹éĩı": 4005,
      "ä¸įèĥ½åıª": 4006,
      "Ġoverfitting": 4007,
      "èĥĢ": 4008,
      "Ġsmo": 4009,
      "Ġprocessing": 4010,
      "Ġmetrics": 4011,
      "Ġothers": 4012,
      "Ġprediction": 4013,
      "Ġpreserve": 4014,
      "ecause": 4015,
      "ç£ģåľº": 4016,
      "Ġprecise": 4017,
      "åĤ¨åŃĺ": 4018,
      "Ġabsor": 4019,
      "Ġflux": 4020,
      "Ġgrowth": 4021,
      "Ġassignment": 4022,
      "Ġframe": 4023,
      "æīįèĥ½": 4024,
      "OT": 4025,
      "cent": 4026,
      "mosp": 4027,
      "vant": 4028,
      "¬åĮĸ": 4029,
      "Ġign": 4030,
      "Ġthree": 4031,
      "rob": 4032,
      "Ġwarm": 4033,
      "Ġindu": 4034,
      "Ġhot": 4035,
      "urs": 4036,
      "æŃ»": 4037,
      "æİ¢": 4038,
      "ä¼ļæĶ¹åıĺ": 4039,
      "è¾ĳ": 4040,
      "æĬ¥": 4041,
      "Ġintensity": 4042,
      "Ġheav": 4043,
      "åıĺåĮĸçİĩ": 4044,
      "è°±": 4045,
      "åıįé¦Ī": 4046,
      "åıªèĥ½": 4047,
      "ĠBecause": 4048,
      "è®¾å¤ĩ": 4049,
      "Ġmechanisms": 4050,
      "Ġarbit": 4051,
      "çĽ´è§ī": 4052,
      "value": 4053,
      "æĸĩç«ł": 4054,
      "urrency": 4055,
      "åĤ¬åĮĸ": 4056,
      "Ġconverg": 4057,
      "Ġconverts": 4058,
      "åŃĹæ®µ": 4059,
      "Ġvisible": 4060,
      "Ġconvexity": 4061,
      "æĶ¯æĮģ": 4062,
      "Ġplausible": 4063,
      "æĪĳä»¬": 4064,
      "Ġarbitr": 4065,
      "lor": 4066,
      "salary": 4067,
      "tain": 4068,
      "çŀ": 4069,
      "Ġsat": 4070,
      "enance": 4071,
      "orre": 4072,
      "Ġdropout": 4073,
      "ark": 4074,
      "Ġfull": 4075,
      "ç»Ŀ": 4076,
      "Ġtokens": 4077,
      "æķĽ": 4078,
      "stream": 4079,
      "æĺ¯ä¸Ģç§į": 4080,
      "æŀ¶": 4081,
      "urally": 4082,
      "ocol": 4083,
      "Ġadds": 4084,
      "åıįå¤į": 4085,
      "Ġrow": 4086,
      "Ġroot": 4087,
      "åĿı": 4088,
      "å®ĥä»¬": 4089,
      "è°ĥåº¦": 4090,
      "ç¦»æķ£": 4091,
      "Ġactually": 4092,
      "éļıæľºåıĺéĩı": 4093,
      "è®¡ç®Ĺæľº": 4094,
      "æİ¨å¹¿": 4095,
      "æ°Ķä½ĵ": 4096,
      "æĥ¯": 4097,
      "Ġaverages": 4098,
      "Ġsensitivity": 4099,
      "å·²çŁ¥": 4100,
      "Ġcorrel": 4101,
      "æĶ¶æķĽ": 4102,
      "Ġentire": 4103,
      "éªĮè¯ģéĽĨ": 4104,
      "è¯Ńä¹ī": 4105,
      "Ġidentical": 4106,
      "å¥½çļĦ": 4107,
      "Ġexpected": 4108,
      "Ġconserved": 4109,
      "Ġshows": 4110,
      "ç²¾åº¦": 4111,
      "Ġindexes": 4112,
      "çĽ¸äºĴä½ľçĶ¨": 4113,
      "Ġkinetic": 4114,
      "Ġlinks": 4115,
      "Ġmachine": 4116,
      "Ġinertia": 4117,
      "Ġhydro": 4118,
      "Ġsemantics": 4119,
      "çŀ¬": 4120,
      "efficient": 4121,
      "fit": 4122,
      "ogy": 4123,
      "time": 4124,
      "wor": 4125,
      "¤åħ¶": 4126,
      "¨èĥĢ": 4127,
      "Ĺä½Ļ": 4128,
      "rec": 4129,
      "Ġmer": 4130,
      "Ġmut": 4131,
      "è¿Ķ": 4132,
      "Ġlit": 4133,
      "ä¸įç¨³å®ļ": 4134,
      "Ġproof": 4135,
      "å°¤åħ¶": 4136,
      "Ġmaps": 4137,
      "åĨĹä½Ļ": 4138,
      "çĽĳ": 4139,
      "estions": 4140,
      "å¸¸çĶ¨äºİ": 4141,
      "Ġresidual": 4142,
      "æĸ¹æ¡Ī": 4143,
      "Ġsufficient": 4144,
      "orth": 4145,
      "åĵģ": 4146,
      "çŃ¾": 4147,
      "åĢ¼å¾Ĺ": 4148,
      "Ġcaching": 4149,
      "Ġquestions": 4150,
      "åĿĹ": 4151,
      "ç»ĵæŀĦåĴĮ": 4152,
      "Ġlocks": 4153,
      "oundary": 4154,
      "Ġeru": 4155,
      "validation": 4156,
      "æŀģç«¯": 4157,
      "Ġdefines": 4158,
      "Ġparticip": 4159,
      "âĢĿ,": 4160,
      "æĮ¯å¹ħ": 4161,
      "è§Ĵåº¦": 4162,
      "Ġbalan": 4163,
      "Ġangle": 4164,
      "åħįçĸ«": 4165,
      "Ġresources": 4166,
      "Ġappears": 4167,
      "æļĤ": 4168,
      "Ġterms": 4169,
      "Ġadjustment": 4170,
      "èĨ¨èĥĢ": 4171,
      "Ġdelay": 4172,
      "Ġwindow": 4173,
      "Ġopposite": 4174,
      "Ġknowledge": 4175,
      "çĽ²æ³ķ": 4176,
      "Ġrepair": 4177,
      "Ġleakage": 4178,
      "Ġsometimes": 4179,
      "Ġaxis": 4180,
      "Ġsmooth": 4181,
      "Bootstrap": 4182,
      "»è¾ĳ": 4183,
      "Ġage": 4184,
      "eries": 4185,
      "Ġthese": 4186,
      "Ġant": 4187,
      "Ġinverse": 4188,
      "çļĦçĲĨè§£": 4189,
      "ç»ķ": 4190,
      "åħħ": 4191,
      "åºķ": 4192,
      "éĢ»è¾ĳ": 4193,
      "æķ°åŃĹ": 4194,
      "Ġhid": 4195,
      "quare": 4196,
      "Ġdead": 4197,
      "ably": 4198,
      "å¹Ĥ": 4199,
      "åľ¨äºİ": 4200,
      "æĿ¿": 4201,
      "rict": 4202,
      "åĲĮæł·": 4203,
      "ume": 4204,
      "Ġunkn": 4205,
      "é¢Ĩ": 4206,
      "åįĬ": 4207,
      "å¸¸æķ°": 4208,
      "æĽ¿": 4209,
      "è´£": 4210,
      "aylor": 4211,
      "Ġheap": 4212,
      "Ġmatrices": 4213,
      "é«ĺåº¦": 4214,
      "åįķè°ĥ": 4215,
      "Ġpreregistration": 4216,
      "plicated": 4217,
      "Ġalloc": 4218,
      "arer": 4219,
      "ç¡®è®¤": 4220,
      "Ġordering": 4221,
      "Ġclearer": 4222,
      "ĠNOT": 4223,
      "Ġrarely": 4224,
      "è¿Ľä¸ĢæŃ¥": 4225,
      "æİ¨æĸŃ": 4226,
      "Ġexplo": 4227,
      "Ġexplan": 4228,
      "åİĭå¼º": 4229,
      "å·¥åħ·": 4230,
      "Ġcontinuity": 4231,
      "å¸¸è§ģè¯¯åĮº": 4232,
      "ä¼ĺåĮĸåĻ¨": 4233,
      "Ġexists": 4234,
      "Ġdepartments": 4235,
      "äº¤æį¢": 4236,
      "Ġedge": 4237,
      "lished": 4238,
      "Ġinvol": 4239,
      "é©±": 4240,
      "Ġdrift": 4241,
      "Ġepoch": 4242,
      "æĽ²çº¿": 4243,
      "æ³ĽåĮĸ": 4244,
      "Ġaccurate": 4245,
      "pr": 4246,
      "¹éħį": 4247,
      "iness": 4248,
      "erior": 4249,
      "Ġsal": 4250,
      "Ġrev": 4251,
      "Ġfore": 4252,
      "Ġoscill": 4253,
      "åĮ¹éħį": 4254,
      "ä¸Ģéĥ¨åĪĨ": 4255,
      "ology": 4256,
      "els": 4257,
      "term": 4258,
      "å¾ħ": 4259,
      "rent": 4260,
      "Ġuncon": 4261,
      "empot": 4262,
      "Ġforces": 4263,
      "åĲĪéĢĤ": 4264,
      "çĶµè·¯": 4265,
      "åģ¶": 4266,
      "è°¢": 4267,
      "Ġrob": 4268,
      "æŃ£å¸¸": 4269,
      "æŃ£åĪĻ": 4270,
      "Ġincl": 4271,
      "çľĭèµ·æĿ¥": 4272,
      "æķ´ä¸ª": 4273,
      "æĦıä¹ī": 4274,
      "çłĶç©¶èĢħ": 4275,
      "ä¸¤ç§į": 4276,
      "ä»£è°¢": 4277,
      "Ġrequired": 4278,
      "å¹¶ä¸įä¸Ģå®ļ": 4279,
      "å¤±æķĪ": 4280,
      "Ġcauses": 4281,
      "versal": 4282,
      "Ġpaths": 4283,
      "Ġcompared": 4284,
      "ĠWhy": 4285,
      "ç»´æĬ¤": 4286,
      "Ġbasis": 4287,
      "Ġnaturally": 4288,
      "Ġassociated": 4289,
      "Ġresonant": 4290,
      "Ġcombinations": 4291,
      "Ġintroduce": 4292,
      "Ġ20": 4293,
      "Ġstopping": 4294,
      "Ġposterior": 4295,
      "è¿ģç§»": 4296,
      "IST": 4297,
      "cape": 4298,
      "earch": 4299,
      "åł": 4300,
      "Ġill": 4301,
      "Ġå®ĥ": 4302,
      "Ġå¦Ĥæŀľ": 4303,
      "ond": 4304,
      "Ġtit": 4305,
      "Ġcos": 4306,
      "ording": 4307,
      "Ġbus": 4308,
      "Ġany": 4309,
      "lex": 4310,
      "Ġflex": 4311,
      "Ġeigen": 4312,
      "ceed": 4313,
      "æķ°åŃ¦": 4314,
      "æĢĿ": 4315,
      "åĩ¸": 4316,
      "å°½": 4317,
      "Ġmerely": 4318,
      "æľīæľº": 4319,
      "éĢļä¿¡": 4320,
      "åı¯ä»¥çĶ¨": 4321,
      "Ġend": 4322,
      "Ġobs": 4323,
      "çº¢": 4324,
      "Ġsoil": 4325,
      "æľĢåĲİ": 4326,
      "Ġatmosp": 4327,
      "Ġcache": 4328,
      "uctu": 4329,
      "éĺŁ": 4330,
      "ä¹Łä¼ļ": 4331,
      "éĹ®é¢ĺæĹ¶": 4332,
      "Ġremove": 4333,
      "though": 4334,
      "æ¯Ķä¾ĭ": 4335,
      "Ġoptimizer": 4336,
      "éļıæľºæ³¢åĬ¨": 4337,
      "Ġseparated": 4338,
      "ç»ıå¸¸": 4339,
      "æĹłåħ³": 4340,
      "å¤ĸéĥ¨": 4341,
      "ä»»ä½ķ": 4342,
      "Ġequations": 4343,
      "ä½ľçĶ¨åĬĽ": 4344,
      "Ġsolution": 4345,
      "Ġspecial": 4346,
      "åıĹåĪ°çļĦ": 4347,
      "æĴŀ": 4348,
      "Ġcircu": 4349,
      "æ··æĿĤ": 4350,
      "Ġsearches": 4351,
      "Ġelements": 4352,
      "è¯»åıĸ": 4353,
      "å²©çŁ³": 4354,
      "åıłåĬł": 4355,
      "è·¨è¶Ĭ": 4356,
      "Ġperspect": 4357,
      "Ġfluctu": 4358,
      "Ġfeedback": 4359,
      "Ġfuller": 4360,
      "è¿ĶåĽŀ": 4361,
      "é¢ĨåŁŁ": 4362,
      "Ġbusiness": 4363,
      "Com": 4364,
      "PI": 4365,
      "ll": 4366,
      "rate": 4367,
      "tra": 4368,
      "Ġtren": 4369,
      "Ġmess": 4370,
      "omal": 4371,
      "omial": 4372,
      "stract": 4373,
      "Ġhar": 4374,
      "ĠTrans": 4375,
      "Ġalread": 4376,
      "Ġgal": 4377,
      "pling": 4378,
      "ription": 4379,
      "è¾Ĳ": 4380,
      "Ġidempot": 4381,
      "è´¥": 4382,
      "Ġcover": 4383,
      "å¯¹äºİ": 4384,
      "çĶµç£ģ": 4385,
      "çĶŁæĢģ": 4386,
      "åģ¥": 4387,
      "Ġconcurrency": 4388,
      "Ġabove": 4389,
      "åįķä¸ª": 4390,
      "éĥ¨ç½": 4391,
      "éĥ¨éĹ¨": 4392,
      "ĠFirst": 4393,
      "ç«ŀ": 4394,
      "åıįæĺł": 4395,
      "åİŁæĿ¥çļĦ": 4396,
      "å¢ŀå¼º": 4397,
      "è¿ĺä¼ļ": 4398,
      "è°ĥçĶ¨": 4399,
      "è°ĥæİ§": 4400,
      "è°ĥèĬĤ": 4401,
      "Ġelectro": 4402,
      "ä¼łè¾ĵ": 4403,
      "Ġelectrical": 4404,
      "å¤±è´¥": 4405,
      "pose": 4406,
      "åĽŀå½Ĵ": 4407,
      "Ġcreated": 4408,
      "æİ¨çĲĨ": 4409,
      "Ġmeaning": 4410,
      "ffici": 4411,
      "è¾¾åĪ°": 4412,
      "åĬ¿èĥ½": 4413,
      "Tokenizer": 4414,
      "Ġeasy": 4415,
      "Ġdatabases": 4416,
      "Ġprotect": 4417,
      "Ġblinding": 4418,
      "Ġassociation": 4419,
      "Ġdownstream": 4420,
      "Ġevaluation": 4421,
      "Ġexpressed": 4422,
      "åĳĺå·¥": 4423,
      "æ³¨æĦıåĬĽ": 4424,
      "Ġpropagation": 4425,
      "èĽĭçĻ½è´¨": 4426,
      "Ġseismic": 4427,
      "çĨµ": 4428,
      "Ġdeployment": 4429,
      "Ġequivalent": 4430,
      "Ġthreshold": 4431,
      "ä»ĭè´¨": 4432,
      "è´Ŀåı¶": 4433,
      "Ġinclude": 4434,
      "Ġperiodic": 4435,
      "Ġalready": 4436,
      "éĥ¨ç½²": 4437,
      "è´Ŀåı¶æĸ¯": 4438,
      "for": 4439,
      "mer": 4440,
      "nomial": 4441,
      "°æĴŀ": 4442,
      "æ¤": 4443,
      "Ġåľ¨": 4444,
      "Ġtang": 4445,
      "ä¸¢": 4446,
      "Ġpi": 4447,
      "Ġtheory": 4448,
      "Ġanomal": 4449,
      "Ġbeen": 4450,
      "Ġbeing": 4451,
      "Ġlif": 4452,
      "å®¢": 4453,
      "uling": 4454,
      "ets": 4455,
      "quid": 4456,
      "æĢİ": 4457,
      "Ġgood": 4458,
      "åĽ°": 4459,
      "Ġmoder": 4460,
      "åĪĨç±»": 4461,
      "åľ¨å®ŀéĻħ": 4462,
      "åĲĮä¸Ģä¸ª": 4463,
      "åĨ°": 4464,
      "åı¯ä»¥åĩıå°ĳ": 4465,
      "Ġresearch": 4466,
      "åħ³èģĶ": 4467,
      "å®ŀæķ°": 4468,
      "åĲİéªĮ": 4469,
      "Ġconditioning": 4470,
      "Ġabstract": 4471,
      "ç¡¬": 4472,
      "ç³»ç»ŁçļĦ": 4473,
      "Ġperfect": 4474,
      "Ġquick": 4475,
      "ç§įç¾¤": 4476,
      "è½¬åĬ¨": 4477,
      "åħ¨å±Ģ": 4478,
      "ä¼ĺåħĪ": 4479,
      "éĢīæĭ©æĢ§": 4480,
      "å¾Īå¤§": 4481,
      "å°±èĥ½": 4482,
      "åĨ³çŃĸ": 4483,
      "Ġcosts": 4484,
      "ç¢°æĴŀ": 4485,
      "Ġentropy": 4486,
      "æ»¤": 4487,
      "Ġgreat": 4488,
      "è¶³å¤Ł": 4489,
      "Ġye": 4490,
      "æµĭè¯ķéĽĨ": 4491,
      "è´Łè´£": 4492,
      "Ġrelatively": 4493,
      "Ġinstant": 4494,
      "ĠStart": 4495,
      "Ġreveals": 4496,
      "åĩłä½ķ": 4497,
      "Ġshared": 4498,
      "åĨ²çªģ": 4499,
      "Ġamplitude": 4500,
      "Ġatomic": 4501,
      "Ġmaintain": 4502,
      "ĠComb": 4503,
      "Ġcharacter": 4504,
      "Ġcomposition": 4505,
      "Ġintermediate": 4506,
      "Ġjointly": 4507,
      "é©±åĬ¨": 4508,
      "fficiency": 4509,
      "Ġanomalies": 4510,
      "Ġquickly": 4511,
      "aps": 4512,
      "bran": 4513,
      "ned": 4514,
      "vent": 4515,
      "ªå¿ĥ": 4516,
      "åķ": 4517,
      "èĹ": 4518,
      "Ġ0": 4519,
      "ĳåĪ¶": 4520,
      "ĵæī": 4521,
      "ļèĩ³": 4522,
      "Ġtable": 4523,
      "ator": 4524,
      "Ġsitu": 4525,
      "Ġmarg": 4526,
      "åı£": 4527,
      "Ġinference": 4528,
      "çļĦåĪ¤æĸŃ": 4529,
      "çĶļèĩ³": 4530,
      "ä¸įåĨį": 4531,
      "ä¸įå¿ħ": 4532,
      "Ġcomplicated": 4533,
      "æĹ¢": 4534,
      "ifferen": 4535,
      "Ġmaking": 4536,
      "osen": 4537,
      "Ġneural": 4538,
      "æĬĳåĪ¶": 4539,
      "ĠSUM": 4540,
      "illions": 4541,
      "åı¯ä»¥åħĪ": 4542,
      "è´ªå¿ĥ": 4543,
      "iven": 4544,
      "Ġcool": 4545,
      "æĽ´å¤§": 4546,
      "anding": 4547,
      "æķ°æį®çļĦ": 4548,
      "åĲĪæĪĲ": 4549,
      "éĩįåĬĽ": 4550,
      "åĢį": 4551,
      "è¿Ļæł·": 4552,
      "æĭĵæī": 4553,
      "Ġquality": 4554,
      "Ġsettle": 4555,
      "Ġkeeps": 4556,
      "Ġplans": 4557,
      "æµģåĬ¨": 4558,
      "ä»İå®ŀéĻħ": 4559,
      "åħ¨éĥ¨": 4560,
      "è¿Ľç¨ĭ": 4561,
      "ç©ºæ°Ķ": 4562,
      "ç½®ä¿¡": 4563,
      "æĹłéĻĲ": 4564,
      "æĸĩä»¶": 4565,
      "Ġexplor": 4566,
      "è®°ä½ı": 4567,
      "é£Ł": 4568,
      "Ġcomputational": 4569,
      "Ġpreserves": 4570,
      "Ġgreater": 4571,
      "æłĩåĩĨè¯¯": 4572,
      "Ġpopulations": 4573,
      "Ġquantity": 4574,
      "è¡¨çİ°åĩº": 4575,
      "æľºæ¢°èĥ½": 4576,
      "Ġanalyz": 4577,
      "Ġpolynomial": 4578,
      "Ġcorresponds": 4579,
      "Ġsummarized": 4580,
      "Ġmonitoring": 4581,
      "Ġelectromagnetic": 4582,
      "æĬ¥åĳĬ": 4583,
      "Ġarbitrary": 4584,
      "åłĨ": 4585,
      "æĭĵæīĳ": 4586,
      "DNA": 4587,
      "Norm": 4588,
      "ĨçĽĸ": 4589,
      "Ġslo": 4590,
      "alization": 4591,
      "Ġreverse": 4592,
      "Ġflo": 4593,
      "usions": 4594,
      "iders": 4595,
      "èĥ½åĲ¦": 4596,
      "åı¯çĶ¨": 4597,
      "å°Ķ": 4598,
      "urb": 4599,
      "Ġchrom": 4600,
      "åĨĮ": 4601,
      "Ġsea": 4602,
      "pture": 4603,
      "è¦ĨçĽĸ": 4604,
      "æĪĲåĬŁ": 4605,
      "æĢ§åĪĨæŀĲ": 4606,
      "ä¼ļåĩºçİ°": 4607,
      "æ³Ħ": 4608,
      "å¹¶ä¸įèĥ½": 4609,
      "å¿Ĩ": 4610,
      "Ġtrig": 4611,
      "é«ĺæķĪ": 4612,
      "velength": 4613,
      "Ġadding": 4614,
      "Ġqueries": 4615,
      "åıªæľī": 4616,
      "æµģéĩı": 4617,
      "ellar": 4618,
      "æ²ī": 4619,
      "Ġregression": 4620,
      "Ġmetab": 4621,
      "Ġaccording": 4622,
      "Ġcreates": 4623,
      "çĥŃåĬĽåŃ¦": 4624,
      "Ġdiss": 4625,
      "ĠDNA": 4626,
      "è®°å¿Ĩ": 4627,
      "Ġgrows": 4628,
      "æ³¨åĨĮ": 4629,
      "äººä½ĵ": 4630,
      "æ¯ıæ¬¡": 4631,
      "Ġpredictions": 4632,
      "çº¿æĢ§æĹłåħ³": 4633,
      "struct": 4634,
      "èĻ½": 4635,
      "æłĩåĩĨåĮĸ": 4636,
      "Ġ100": 4637,
      "ç¬¬": 4638,
      "Ġfiltering": 4639,
      "Ġextremely": 4640,
      "Ġwait": 4641,
      "ç´¯ç§¯": 4642,
      "Ġdiagn": 4643,
      "Ġrapidly": 4644,
      "è¾Ĳå°Ħ": 4645,
      "Ġpict": 4646,
      "ifferent": 4647,
      "frequency": 4648,
      "ov": 4649,
      "Ġtend": 4650,
      "inite": 4651,
      "arri": 4652,
      "Ġwr": 4653,
      "çļĦä¿¡æģ¯": 4654,
      "åĪļ": 4655,
      "Ġhist": 4656,
      "ĠTaylor": 4657,
      "uration": 4658,
      "Ġvary": 4659,
      "åĨ·": 4660,
      "æľīäºĽ": 4661,
      "åĮĸåĴĮ": 4662,
      "Ġseve": 4663,
      "Ġunion": 4664,
      "å®ļå¾ĭ": 4665,
      "ĠSe": 4666,
      "ç³»æķ°": 4667,
      "åı¯ä»¥è¡¨ç¤º": 4668,
      "iving": 4669,
      "Ġshar": 4670,
      "Ġaccept": 4671,
      "çī©ç§į": 4672,
      "Ġlimitation": 4673,
      "è½´": 4674,
      "åĩºåıĳ": 4675,
      "Ġevolution": 4676,
      "Ġcare": 4677,
      "odynam": 4678,
      "çŃīå¾ħ": 4679,
      "éĢļå¸¸æ¯Ķ": 4680,
      "æĿ¡ä»¶æĶ¹åıĺ": 4681,
      "Ġconfli": 4682,
      "è¾ĥå°ı": 4683,
      "ä»£çłģ": 4684,
      "Ġconclusions": 4685,
      "Ġhighly": 4686,
      "ä»»æĦı": 4687,
      "éħ¶": 4688,
      "éĢĤåºĶ": 4689,
      "Ġintuitive": 4690,
      "ä»įåı¯èĥ½": 4691,
      "æĶ¾å¤§": 4692,
      "Ġseries": 4693,
      "Ġminor": 4694,
      "åĽ¾åĥı": 4695,
      "Ġliquid": 4696,
      "å¾®å°ı": 4697,
      "Ġallowing": 4698,
      "æľªçŁ¥": 4699,
      "Ġmaterials": 4700,
      "Ġweights": 4701,
      "Ġcontinuously": 4702,
      "Ġconnectivity": 4703,
      "Ġmissing": 4704,
      "Ġmovement": 4705,
      "Ġplaces": 4706,
      "Ġlabels": 4707,
      "ä¹ĺæ³ķ": 4708,
      "Ġwavelength": 4709,
      "è¿½æ±Ĥ": 4710,
      "Ġrelease": 4711,
      "raining": 4712,
      "Ġconfounding": 4713,
      "Ġradiation": 4714,
      "Ġcalcul": 4715,
      "Ġauthor": 4716,
      "Ġdevelopment": 4717,
      "Ġregulatory": 4718,
      "price": 4719,
      "Ġincludes": 4720,
      "Ġtitle": 4721,
      "Ġharder": 4722,
      "Ġsituation": 4723,
      "èĻ½çĦ¶": 4724,
      "Ġconflict": 4725,
      "ESC": 4726,
      "des": 4727,
      "pir": 4728,
      "ted": 4729,
      "¾Ħ": 4730,
      "Ġice": 4731,
      "Ġmix": 4732,
      "Ġinform": 4733,
      "Ġefficiency": 4734,
      "Ġstar": 4735,
      "Ġstation": 4736,
      "Ġstack": 4737,
      "Ġstars": 4738,
      "rag": 4739,
      "ä¸įçŃīäºİ": 4740,
      "éĢģ": 4741,
      "Ġholds": 4742,
      "æĹ§": 4743,
      "Ġchosen": 4744,
      "æľīåĬ©": 4745,
      "Ġunre": 4746,
      "èĢĹ": 4747,
      "Ġfailed": 4748,
      "çĲĨæĥ³": 4749,
      "æī°": 4750,
      "æī¿": 4751,
      "ditional": 4752,
      "Ġstrateg": 4753,
      "ounds": 4754,
      "Ġfacts": 4755,
      "ä¸ĭçļĦ": 4756,
      "æłĩçŃ¾": 4757,
      "åĬłåħ¥": 4758,
      "Ġformation": 4759,
      "Ġperm": 4760,
      "Ġpercent": 4761,
      "éĺ²": 4762,
      "ç»ĵæŀľçļĦ": 4763,
      "Ġclient": 4764,
      "æķĪåº¦": 4765,
      "Ġgene": 4766,
      "Ġraw": 4767,
      "æ³¢éķ¿": 4768,
      "é¢Ħæ³¨åĨĮ": 4769,
      "Ġstudent": 4770,
      "å·¥ä½ľ": 4771,
      "Ġfeas": 4772,
      "Ġscales": 4773,
      "çŁ¥éģĵ": 4774,
      "çŁ¥è¯Ĩ": 4775,
      "Ġinsert": 4776,
      "Ġtokenizer": 4777,
      "Ġgeneralized": 4778,
      "è§ĴåĬ¨éĩı": 4779,
      "åĬŁèĥ½": 4780,
      "Ġprotocol": 4781,
      "Ġdecomposition": 4782,
      "æĬ½æł·åĪĨå¸ĥ": 4783,
      "Ġmemorize": 4784,
      "åħ¸åŀĭ": 4785,
      "Ġintegrals": 4786,
      "cosity": 4787,
      "çļĦçĲĨè§£æĺ¯": 4788,
      "Ġexplanation": 4789,
      "Ġperspective": 4790,
      "Ġgreatly": 4791,
      "ĠCombined": 4792,
      "èĹı": 4793,
      "æ³Ħæ¼ı": 4794,
      "Ġintuitively": 4795,
      "æľīåĬ©äºİ": 4796,
      "Ġstrategies": 4797,
      "En": 4798,
      "aging": 4799,
      "did": 4800,
      "ger": 4801,
      "mbedding": 4802,
      "ner": 4803,
      "åĶ": 4804,
      "Ġversion": 4805,
      "ĤçĽ´": 4806,
      "Ġair": 4807,
      "inary": 4808,
      "Ġsplit": 4809,
      "çļĦèĥ½éĩı": 4810,
      "å¤´": 4811,
      "Ġcandid": 4812,
      "è¯Ŀ": 4813,
      "åľŁ": 4814,
      "åĪĨæ¸ħ": 4815,
      "Ġunchan": 4816,
      "æĪĲä¸º": 4817,
      "Ġshaking": 4818,
      "Ġresol": 4819,
      "è§£æŀĲ": 4820,
      "ç»Łä¸Ģ": 4821,
      "çĶµå®¹": 4822,
      "åŀĤçĽ´": 4823,
      "éľĩ": 4824,
      "Ġacid": 4825,
      "Ġimage": 4826,
      "Ġconditional": 4827,
      "åįķçĭ¬": 4828,
      "Ġtransaction": 4829,
      "Ġsystematically": 4830,
      "åıĺåĮĸçļĦ": 4831,
      "å½¢çĬ¶": 4832,
      "æ±ł": 4833,
      "Ġarise": 4834,
      "ä¼łæĦŁ": 4835,
      "ĠEx": 4836,
      "Ġanalyses": 4837,
      "Ġequal": 4838,
      "ĠDESC": 4839,
      "å¥Ĺ": 4840,
      "å½ĵæĪĲ": 4841,
      "Ġestimation": 4842,
      "Ġtreated": 4843,
      "Ġcounts": 4844,
      "æıĲä¾ĽäºĨ": 4845,
      "è¯Ħè®º": 4846,
      "æ´»åĬ¨": 4847,
      "Ġrotational": 4848,
      "Ġoutputs": 4849,
      "ä¸¥éĩį": 4850,
      "Ġactivation": 4851,
      "Ġactivations": 4852,
      "Ġthermal": 4853,
      "éļĲèĹı": 4854,
      "Ġwhole": 4855,
      "çł´åĿı": 4856,
      "Ġmathemat": 4857,
      "æ¼ĶåĮĸ": 4858,
      "Ġconvergence": 4859,
      "æļĤæĹ¶": 4860,
      "Ġgalax": 4861,
      "åķĨ": 4862,
      "Ġfeasible": 4863,
      "Re": 4864,
      "eper": 4865,
      "ij": 4866,
      "lap": 4867,
      "xample": 4868,
      "Ġion": 4869,
      "ones": 4870,
      "Ġtri": 4871,
      "rexample": 4872,
      "Ġsquare": 4873,
      "isf": 4874,
      "alf": 4875,
      "Ġnut": 4876,
      "åĪ»": 4877,
      "idth": 4878,
      "ä¸įåŃĺåľ¨": 4879,
      "etics": 4880,
      "Ġdeeper": 4881,
      "ampling": 4882,
      "éĹŃ": 4883,
      "çīĩ": 4884,
      "åºĶè¯¥": 4885,
      "åĬ¨èĥ½": 4886,
      "æīĭ": 4887,
      "å¤ļç§į": 4888,
      "éĩįè¯ķ": 4889,
      "éĩįéĩĩæł·": 4890,
      "ecton": 4891,
      "éľĢè¦ģéĩįæĸ°": 4892,
      "Ġsoft": 4893,
      "æ°¸": 4894,
      "Ġinteractions": 4895,
      "éĶĢ": 4896,
      "terexample": 4897,
      "Ġincom": 4898,
      "åĮºåĪ«": 4899,
      "èĩªèº«": 4900,
      "æµģç¨ĭ": 4901,
      "Ġrecurren": 4902,
      "thes": 4903,
      "Ġload": 4904,
      "Ġoverlap": 4905,
      "åĩ½æķ°åľ¨": 4906,
      "Ġspect": 4907,
      "åıĸåĢ¼": 4908,
      "å¹¶ä¸įèĩªåĬ¨": 4909,
      "çĥŃéĩı": 4910,
      "Ġcontrolled": 4911,
      "Ġmembran": 4912,
      "Ġdesigns": 4913,
      "æ¶ī": 4914,
      "Ġestab": 4915,
      "è¡¡éĩı": 4916,
      "ä¸»é¢ĺ": 4917,
      "Ġlonger": 4918,
      "Ġscalar": 4919,
      "Ġoperating": 4920,
      "è§Ĥå¯ŁåĪ°": 4921,
      "å¾®è§Ĥ": 4922,
      "Ġfrequently": 4923,
      "æĦŁåºĶ": 4924,
      "Ġcounterexample": 4925,
      "Ġinfluences": 4926,
      "Ġprogress": 4927,
      "Ġrecord": 4928,
      "æ¶Īæģ¯": 4929,
      "çĻ¾": 4930,
      "å¤©ä½ĵ": 4931,
      "Ġconnected": 4932,
      "è¶ħè¿ĩ": 4933,
      "Ġintervals": 4934,
      "Ġprevent": 4935,
      "èĥĮåĲİ": 4936,
      "When": 4937,
      "Ġenvironmental": 4938,
      "Ġtopological": 4939,
      "Ġbuild": 4940,
      "linear": 4941,
      "Ġconcentration": 4942,
      "Ġwritten": 4943,
      "Ġmedical": 4944,
      "Ġsuitable": 4945,
      "Ġresponses": 4946,
      "recall": 4947,
      "å¹ĤçŃī": 4948,
      "Ġunknown": 4949,
      "æĢİæł·": 4950,
      "Ġslope": 4951,
      "Ġinformative": 4952,
      "ä¼łæĦŁåĻ¨": 4953,
      "Ġnutri": 4954,
      "bs": 4955,
      "dri": 4956,
      "ygen": 4957,
      "Ġä½Ĩ": 4958,
      "ators": 4959,
      "Ġcertain": 4960,
      "Ġcrit": 4961,
      "Ġself": 4962,
      "oriz": 4963,
      "ories": 4964,
      "Ġbur": 4965,
      "Ġbarri": 4966,
      "Ġrevers": 4967,
      "Ġwill": 4968,
      "Ġnodes": 4969,
      "Ġconne": 4970,
      "Ġstellar": 4971,
      "utions": 4972,
      "chn": 4973,
      "ä¸ĢæĹ": 4974,
      "è¡¥": 4975,
      "åľ¨åħ·ä½ĵ": 4976,
      "Ġrati": 4977,
      "Ġneigh": 4978,
      "Ġnext": 4979,
      "ä¼ļæĺ¾èĳĹ": 4980,
      "duct": 4981,
      "ä¸Ńä½įæķ°": 4982,
      "Ġdiffers": 4983,
      "çĶµæ±ł": 4984,
      "Ġobtain": 4985,
      "çĽ¸è¿ĳ": 4986,
      "Ġleast": 4987,
      "Ġdifferently": 4988,
      "è¿Ļä¸Ģ": 4989,
      "Ġtransformation": 4990,
      "Ġdecision": 4991,
      "åī¯": 4992,
      "å°ĳéĩı": 4993,
      "è¿ĺåİŁ": 4994,
      "Ġloop": 4995,
      "Ġarri": 4996,
      "æııè¿°åįķä½į": 4997,
      "å¯¼ä½ĵ": 4998,
      "Ġdependence": 4999,
      "Ġregulation": 5000,
      "ĠHTTP": 5001,
      "Ġcollection": 5002,
      "weight": 5003,
      "Ġfeature": 5004,
      "Ġdirectional": 5005,
      "Ġcombine": 5006,
      "Ġexpression": 5007,
      "Ġinfinite": 5008,
      "èį¡": 5009,
      "Ġspecified": 5010,
      "Ġvolume": 5011,
      "èĻļ": 5012,
      "Ġviewed": 5013,
      "ä¿®å¤į": 5014,
      "Ġgraphs": 5015,
      "Ġquantum": 5016,
      "åĲ«ä¹ī": 5017,
      "Ġnonlinear": 5018,
      "Ġeventually": 5019,
      "Ġdynamics": 5020,
      "åĮºåĪĨçļĦæĺ¯": 5021,
      "Ġorbital": 5022,
      "Ġdiscrete": 5023,
      "Ġchooses": 5024,
      "Ġinitialization": 5025,
      "Ġrecovery": 5026,
      "ç¼ĸçłģ": 5027,
      "éĿĻæŃ¢": 5028,
      "Ġlocking": 5029,
      "Ġvolcanic": 5030,
      "Ġscientific": 5031,
      "Ġefficiently": 5032,
      "ç¨³åģ¥": 5033,
      "Ġfavorable": 5034,
      "Ġtechn": 5035,
      "ography": 5036,
      "Ġsatisf": 5037,
      "çŀ¬æĹ¶": 5038,
      "Ġdeadlock": 5039,
      "Ġrobust": 5040,
      "æ¤į": 5041,
      "Ġpicture": 5042,
      "driven": 5043,
      "Ġneighb": 5044,
      "la": 5045,
      "tention": 5046,
      "¯ä¸Ģ": 5047,
      "éŁ": 5048,
      "ĠçĲĨè§£": 5049,
      "ıè§Ĥ": 5050,
      "Ġaway": 5051,
      "atible": 5052,
      "anning": 5053,
      "arithm": 5054,
      "åı²": 5055,
      "Ġtoler": 5056,
      "ash": 5057,
      "Ġlands": 5058,
      "å®ıè§Ĥ": 5059,
      "ä¸įçŃīå¼ı": 5060,
      "state": 5061,
      "Ġhard": 5062,
      "Ġhoriz": 5063,
      "åı¯ä¿¡": 5064,
      "Ġexpon": 5065,
      "æµ®": 5066,
      "æĬĢ": 5067,
      "å¹¶ä¸Ķ": 5068,
      "çĶŁåĳ½": 5069,
      "çİ°å®ŀ": 5070,
      "Ġconcurrent": 5071,
      "isms": 5072,
      "Ġevents": 5073,
      "Ġproducing": 5074,
      "ä¸Ĭåįĩ": 5075,
      "ä½ľä¸º": 5076,
      "éĥ½åı¯ä»¥": 5077,
      "Ġcheckpoint": 5078,
      "è§ĦèĮĥ": 5079,
      "èĥ½éĩıåĴĮ": 5080,
      "Ġdispl": 5081,
      "åĨ³å®ļçī©ä½ĵ": 5082,
      "Ġstatistic": 5083,
      "æĶ¾åľ¨": 5084,
      "Ġreads": 5085,
      "Ġcorrelation": 5086,
      "Ġparticles": 5087,
      "Ġgeneralize": 5088,
      "æĿĥè¡¡": 5089,
      "å¯Ĩçłģ": 5090,
      "Ġprevents": 5091,
      "Ġbegin": 5092,
      "Ġresonance": 5093,
      "Ġreproduc": 5094,
      "Ġtypes": 5095,
      "Ġsignificance": 5096,
      "Ġfollows": 5097,
      "å·¥ç¨ĭè®¾è®¡": 5098,
      "Ġextend": 5099,
      "åİĨåı²": 5100,
      "pecific": 5101,
      "éļıæľºåıĺéĩıçļĦ": 5102,
      "Ġhidden": 5103,
      "å¸¸è§ģè¯¯åĮºæĺ¯": 5104,
      "éĺŁåĪĹ": 5105,
      "æī°åĬ¨": 5106,
      "åĶ¯ä¸Ģ": 5107,
      "ä¸ĢæĹ¦": 5108,
      "From": 5109,
      "hand": 5110,
      "ience": 5111,
      "æ½": 5112,
      "Ġult": 5113,
      "itives": 5114,
      "Ġwarning": 5115,
      "edim": 5116,
      "Ġopen": 5117,
      "Ġnar": 5118,
      "ased": 5119,
      "ims": 5120,
      "ä»½": 5121,
      "iding": 5122,
      "ote": 5123,
      "ety": 5124,
      "Ġhalf": 5125,
      "Ġdele": 5126,
      "æĸľ": 5127,
      "Ġgas": 5128,
      "åĽĽ": 5129,
      "ä¹ħ": 5130,
      "è¿ĩæ»¤": 5131,
      "æĽ´åĩĨç¡®": 5132,
      "åĬ¨åĬĽåŃ¦": 5133,
      "ribute": 5134,
      "çĽ¸ä¼¼": 5135,
      "è´¨å¿ĥ": 5136,
      "æĭī": 5137,
      "ä¾§": 5138,
      "Ġtravel": 5139,
      "Ġcapture": 5140,
      "parent": 5141,
      "Ġproduced": 5142,
      "aving": 5143,
      "Ġclimate": 5144,
      "ä¿ĿæĬ¤": 5145,
      "åĨħèĥ½": 5146,
      "ä¸įèĥ½çĽ´æİ¥": 5147,
      "åıĤèĢĥ": 5148,
      "æ±Ĥå¯¼": 5149,
      "Ġlocally": 5150,
      "æĹ¶éĹ´åĨħ": 5151,
      "è¿Ĳç®Ĺ": 5152,
      "å¹¶ä¸įä¿Ŀè¯ģ": 5153,
      "çİ¯æµģ": 5154,
      "Ġmeasured": 5155,
      "å¤ĸåĬĽ": 5156,
      "æīĢéľĢ": 5157,
      "çī¹æ®": 5158,
      "è¡¨ç¤ºåįķä½į": 5159,
      "åıĳçĶŁåıĺåĮĸ": 5160,
      "Ġreasonable": 5161,
      "Ġserver": 5162,
      "Ġclassification": 5163,
      "Ġscaling": 5164,
      "çº¿æĢ§åıĺæį¢": 5165,
      "éĢĴå½Ĵ": 5166,
      "Ġconcretely": 5167,
      "åĽ´ç»ķ": 5168,
      "Ġfailures": 5169,
      "Ġintegral": 5170,
      "åĬŁæķĪ": 5171,
      "Ġbuck": 5172,
      "ä¿ĿæĮģä¸įåıĺ": 5173,
      "Ġlogarithm": 5174,
      "æŀģéĻĲå®ļçĲĨ": 5175,
      "æļ´": 5176,
      "Ġblind": 5177,
      "åı¯éĿłæĢ§": 5178,
      "èĨľ": 5179,
      "Ġaddresses": 5180,
      "ç¥ŀç»ıç½ĳç»ľ": 5181,
      "æľºåĻ¨åŃ¦ä¹ł": 5182,
      "Ġcurve": 5183,
      "ä¸Ńå¿ĥæŀģéĻĲå®ļçĲĨ": 5184,
      "æĭĨæĪĲ": 5185,
      "Ġcolumns": 5186,
      "åĸĦ": 5187,
      "æĽ¿ä»£": 5188,
      "Ġallocation": 5189,
      "å®¢æĪ·": 5190,
      "Ġinstantaneous": 5191,
      "Ġhorizon": 5192,
      "çī¹æ®Ĭ": 5193,
      "Al": 5194,
      "DNS": 5195,
      "bys": 5196,
      "body": 5197,
      "hip": 5198,
      "ma": 5199,
      "uble": 5200,
      "ıåº¦": 5201,
      "Ġtecton": 5202,
      "rest": 5203,
      "Ġsl": 5204,
      "Ġbody": 5205,
      "çļĦéĹ®é¢ĺ": 5206,
      "çļĦåŁºç¡Ģ": 5207,
      "cel": 5208,
      "Ġstif": 5209,
      "hev": 5210,
      "åħ»": 5211,
      "å®½": 5212,
      "ä¸įå¹³è¡¡": 5213,
      "Ġgiven": 5214,
      "Ġexchange": 5215,
      "osion": 5216,
      "æľīåĪ©": 5217,
      "Ġcompression": 5218,
      "ä½ĵç§¯": 5219,
      "Ġcontribut": 5220,
      "å¿Ĺ": 5221,
      "çĶµéĺ»": 5222,
      "çºł": 5223,
      "æŁĵ": 5224,
      "è¿ĻéĩĮ": 5225,
      "æľĢå®¹æĺĵ": 5226,
      "allen": 5227,
      "Ġrocks": 5228,
      "ä¹Łåı¯ä»¥": 5229,
      "æĸ°è¯ģæį®": 5230,
      "Ġdescent": 5231,
      "Ġdeco": 5232,
      "è®Ńç»ĥæķ°æį®": 5233,
      "çľŁçļĦ": 5234,
      "è½¬ç§»": 5235,
      "å¾ĹæĽ´": 5236,
      "Ġsimulation": 5237,
      "Ġoptimal": 5238,
      "Ġtimeout": 5239,
      "åĪĨå¸ĥå¼ı": 5240,
      "Ġrandomness": 5241,
      "ä»£æķ°": 5242,
      "Ġcollect": 5243,
      "å¾Īå°ĳ": 5244,
      "ä»įéľĢè¦ģ": 5245,
      "Ġmultipl": 5246,
      "Ġbiological": 5247,
      "å¼Ģå§ĭ": 5248,
      "Ġmainly": 5249,
      "Ġavg": 5250,
      "æłĩåĩĨå·®": 5251,
      "Ġconstrained": 5252,
      "Ġquantities": 5253,
      "åĮħæĭ¬": 5254,
      "Ġslowly": 5255,
      "Ġgravit": 5256,
      "èĥĮæĻ¯": 5257,
      "Ġreproduce": 5258,
      "è£Ĥ": 5259,
      "è£ħ": 5260,
      "è¯Ńè¨Ģæ¨¡åŀĭ": 5261,
      "Ġreporting": 5262,
      "ĠOnce": 5263,
      "oxide": 5264,
      "Ġscheduling": 5265,
      "Ġbroader": 5266,
      "Ġdiag": 5267,
      "Ġinstrument": 5268,
      "Ġpubl": 5269,
      "Ġproteins": 5270,
      "Ġcrust": 5271,
      "Ġspread": 5272,
      "åĤ¬åĮĸåīĤ": 5273,
      "word": 5274,
      "æĿ¿åĿĹ": 5275,
      "Ġexploit": 5276,
      "Ġunchanged": 5277,
      "Ġmathematical": 5278,
      "åķĨåĵģ": 5279,
      "éŁ³": 5280,
      "byshev": 5281,
      "cription": 5282,
      "press": 5283,
      "tl": 5284,
      "¼æŃ¤": 5285,
      "çĮ": 5286,
      "èŀ": 5287,
      "ĠçĶ±": 5288,
      "onal": 5289,
      "Ġten": 5290,
      "Ġsince": 5291,
      "Ġsedim": 5292,
      "Ġdimens": 5293,
      "Ġfine": 5294,
      "Ġfund": 5295,
      "ently": 5296,
      "Ġstream": 5297,
      "otic": 5298,
      "èĥ½æĬĬ": 5299,
      "Ġwhose": 5300,
      "åĽ¢": 5301,
      "ormalization": 5302,
      "Ġchallen": 5303,
      "åıĺæĪĲ": 5304,
      "æľīå¤ļå°ĳ": 5305,
      "å½¼æŃ¤": 5306,
      "åĽłåŃĲ": 5307,
      "Ġshif": 5308,
      "ä¸ºäºĨ": 5309,
      "Ġenz": 5310,
      "åı¯èĥ½ç¨ĭåº¦": 5311,
      "åĲĪåĬĽ": 5312,
      "ired": 5313,
      "ignific": 5314,
      "ĠIts": 5315,
      "åįķåħĥ": 5316,
      "æİ¥åıĹ": 5317,
      "åĳĪ": 5318,
      "éĥ½ä¼ļ": 5319,
      "éĥ½ä¼ļå½±åĵį": 5320,
      "idered": 5321,
      "éķľ": 5322,
      "Ġconceptual": 5323,
      "ptimization": 5324,
      "è§ĦåĪĴ": 5325,
      "åĨįçľĭ": 5326,
      "éĿ¢çļĦ": 5327,
      "ĠDifferent": 5328,
      "Ġkeeping": 5329,
      "è§Ĥå¯Łç»ĵæŀľ": 5330,
      "å£¤": 5331,
      "Ġguarantees": 5332,
      "Ġè¿Ļä¸įæĺ¯": 5333,
      "Ġrises": 5334,
      "Ġcircular": 5335,
      "Ġorganisms": 5336,
      "éļ¾ä»¥": 5337,
      "Ġtransferred": 5338,
      "æĬ½è±¡": 5339,
      "Ġinstead": 5340,
      "Ġapplied": 5341,
      "Ġavailability": 5342,
      "Ġfollowed": 5343,
      "Ġcoordinate": 5344,
      "è½¬æį¢æĪĲ": 5345,
      "Ġoxygen": 5346,
      "Ġmaintenance": 5347,
      "æĬĺå°Ħ": 5348,
      "Ġmicroscopic": 5349,
      "æĹ¥å¿Ĺ": 5350,
      "ç®¡çĲĨ": 5351,
      "éĩĳé¢Ŀ": 5352,
      "éĤ£": 5353,
      "Ġservices": 5354,
      "Ġbenefit": 5355,
      "Ġjoin": 5356,
      "Ġpair": 5357,
      "æŃ»éĶģ": 5358,
      "åģ¶çĦ¶": 5359,
      "Ġillust": 5360,
      "Ġyears": 5361,
      "åľŁå£¤": 5362,
      "Ġmembrane": 5363,
      "Ġdimensions": 5364,
      "Ġfundam": 5365,
      "iers": 5366,
      "påĢ¼": 5367,
      "rates": 5368,
      "ying": 5369,
      "ype": 5370,
      "ĠåĽłä¸º": 5371,
      "Ġcall": 5372,
      "Ġbounds": 5373,
      "åıī": 5374,
      "Ġinvari": 5375,
      "çļĦåĽłæŀľ": 5376,
      "çļĦèĥ½åĬĽ": 5377,
      "Ġlist": 5378,
      "imately": 5379,
      "ided": 5380,
      "idge": 5381,
      "åı¯è§ģ": 5382,
      "åĮ»": 5383,
      "åĮĢ": 5384,
      "Ġexpens": 5385,
      "ä¹Ĳ": 5386,
      "Ġsec": 5387,
      "Ġseed": 5388,
      "ders": 5389,
      "å·¨": 5390,
      "Ġcoefficient": 5391,
      "è®¡æķ°": 5392,
      "ays": 5393,
      "åĪ°è¾¾": 5394,
      "ultaneous": 5395,
      "former": 5396,
      "çŃĽ": 5397,
      "Ġsources": 5398,
      "è½¯": 5399,
      "åĩºçļĦ": 5400,
      "Ġtransactions": 5401,
      "éļıæĹ¶éĹ´": 5402,
      "åıįåĲĳ": 5403,
      "åıªåľ¨": 5404,
      "æĶ¹åĸĦ": 5405,
      "éĢļå¸¸ä¼ļ": 5406,
      "éĥ½æĺ¯": 5407,
      "Ġplace": 5408,
      "Ġrecom": 5409,
      "Ġrecurs": 5410,
      "çº¿ç¨ĭ": 5411,
      "Ġsimultaneous": 5412,
      "åħ¨çĲĥ": 5413,
      "isease": 5414,
      "Ġsubs": 5415,
      "Ġnois": 5416,
      "Ġstudents": 5417,
      "Ġequality": 5418,
      "å·¥èµĦ": 5419,
      "Ġfew": 5420,
      "å¤ĦçĲĨåĻ¨": 5421,
      "Ġlevels": 5422,
      "Ġsolutions": 5423,
      "ĠRandom": 5424,
      "è´¨éĩıåĴĮ": 5425,
      "Ġapproximations": 5426,
      "Ġentries": 5427,
      "çº§æķ°": 5428,
      "æĮīçħ§": 5429,
      "é¢ĳçİĩæĹ¶": 5430,
      "Ġadded": 5431,
      "Ġideal": 5432,
      "Ġproperty": 5433,
      "Ġslower": 5434,
      "Ġprevious": 5435,
      "Ġdecomposed": 5436,
      "åĿĩåĢ¼åĴĮ": 5437,
      "Ġrecogn": 5438,
      "Ġthermodynam": 5439,
      "Ġsubstant": 5440,
      "Ġdivision": 5441,
      "Ġbroad": 5442,
      "ä¸Ģç»ĦåĲĳéĩı": 5443,
      "Ġlookup": 5444,
      "æ¿Ģæ´»": 5445,
      "æ·±åº¦": 5446,
      "Ġpublished": 5447,
      "Ġprotein": 5448,
      "ç»Łè®¡éĩıçļĦ": 5449,
      "Ġmedium": 5450,
      "Ġcatalyst": 5451,
      "Ġclosely": 5452,
      "Ġembeddings": 5453,
      "çĽĳæİ§": 5454,
      "Ġcosm": 5455,
      "å°½éĩı": 5456,
      "Ġcircuits": 5457,
      "åħ¨å±ĢæľĢä¼ĺ": 5458,
      "Ġchromat": 5459,
      "Ġinsertion": 5460,
      "Ġlandscape": 5461,
      "Ġexponential": 5462,
      "è§ĦèĮĥåĮĸ": 5463,
      "Ġultimately": 5464,
      "æĸľçİĩ": 5465,
      "ignificant": 5466,
      "Ġexpensive": 5467,
      ").": 5468,
      "Con": 5469,
      "TL": 5470,
      "flow": 5471,
      "sel": 5472,
      "tuning": 5473,
      "Ġ3": 5474,
      "ľç´¢": 5475,
      "Ġtype": 5476,
      "itect": 5477,
      "Ġpolic": 5478,
      "Ġbon": 5479,
      "learning": 5480,
      "Ġfile": 5481,
      "çļĦç»ĵæŀĦ": 5482,
      "çļĦè§£éĩĬ": 5483,
      "çļĦå±Ģéĥ¨": 5484,
      "çļĦä¸Ģç§į": 5485,
      "ç»©": 5486,
      "imin": 5487,
      "ä»ª": 5488,
      "stock": 5489,
      "Ġcomment": 5490,
      "åı¯éĩįå¤į": 5491,
      "Ġprom": 5492,
      "chitect": 5493,
      "ä¸Ģèµ·": 5494,
      "Ġright": 5495,
      "æĪĲç»©": 5496,
      "ively": 5497,
      "Ġcop": 5498,
      "åºĶç»ĵåĲĪ": 5499,
      "Ġsuper": 5500,
      "Ġimmun": 5501,
      "Ġmodes": 5502,
      "Ġmatching": 5503,
      "Ġprefer": 5504,
      "Ġpretra": 5505,
      "Ġrout": 5506,
      "èĩªçĶ±": 5507,
      "Ġconsequ": 5508,
      "Ġvariability": 5509,
      "è®Ńç»ĥæįŁå¤±": 5510,
      "è¾ĥå¤§": 5511,
      "è¾ĥé«ĺ": 5512,
      "ĠEX": 5513,
      "positive": 5514,
      "ĠMo": 5515,
      "æĻ¶": 5516,
      "Ġremaining": 5517,
      "äºĭåĲİ": 5518,
      "å±Ĥæ¬¡": 5519,
      "äº§çĶŁçļĦ": 5520,
      "çĽ®æłĩåĩ½æķ°": 5521,
      "Ġclassic": 5522,
      "äººç±»": 5523,
      "é£ŀ": 5524,
      "å¹³åĿĩæ°´å¹³": 5525,
      "stron": 5526,
      "Ġè¿Ļä¸ª": 5527,
      "Ġconvert": 5528,
      "Ġexperiment": 5529,
      "å®Įåħ¨çĽ¸åĲĮ": 5530,
      "ubility": 5531,
      "Ġbalances": 5532,
      "Ġ19": 5533,
      "æĵįä½ľç³»ç»Ł": 5534,
      "å¸¦æĿ¥": 5535,
      "scale": 5536,
      "Ġbasic": 5537,
      "Ġbased": 5538,
      "Ġthemsel": 5539,
      "Ġprograms": 5540,
      "Ġhashing": 5541,
      "Ġcompletely": 5542,
      "Ġreported": 5543,
      "é»ĳ": 5544,
      "Ġsimpler": 5545,
      "Ġconcentr": 5546,
      "Ġclosed": 5547,
      "æ¼Ĥç§»": 5548,
      "Ġprocedures": 5549,
      "æĲľç´¢": 5550,
      "Ġframework": 5551,
      "Ġlittle": 5552,
      "Ġcoverage": 5553,
      "Ġmaintains": 5554,
      "Ġmargin": 5555,
      "Ġestablish": 5556,
      "Ġneighboring": 5557,
      "æ½ľ": 5558,
      "å®¢æĪ·ç«¯": 5559,
      "Ġpretrained": 5560,
      "Ġthemselves": 5561,
      "50": 5562,
      "co": 5563,
      "ex": 5564,
      "fety": 5565,
      "lier": 5566,
      "no": 5567,
      "«æıı": 5568,
      "çĪ": 5569,
      "Ġ<": 5570,
      "iny": 5571,
      "Ġsizes": 5572,
      "Ġbootstrap": 5573,
      "Ġfit": 5574,
      "Ġwave": 5575,
      "çļĦæĸ¹åĲĳ": 5576,
      "omer": 5577,
      "Ġnons": 5578,
      "å®¶": 5579,
      "ident": 5580,
      "idges": 5581,
      "æĺ¯åĽłä¸º": 5582,
      "olute": 5583,
      "åĪĨæķ£": 5584,
      "Ġcharg": 5585,
      "çĽĲ": 5586,
      "osis": 5587,
      "Ġcompact": 5588,
      "pth": 5589,
      "Ġnearly": 5590,
      "è¾¨": 5591,
      "åįł": 5592,
      "è¿ĩå¤§": 5593,
      "åı¯ä»¥çľĭåĪ°": 5594,
      "è´¹": 5595,
      "Ġresampling": 5596,
      "Ġheight": 5597,
      "æī«æıı": 5598,
      "æĪĸåħ¶ä»ĸ": 5599,
      "çº¯": 5600,
      "çĽ¸åıĺ": 5601,
      "Ġimplicit": 5602,
      "Ġmatch": 5603,
      "ense": 5604,
      "Ġtranscription": 5605,
      "æŀĦéĢł": 5606,
      "åıªçľĭ": 5607,
      "Ġremo": 5608,
      "Ġchebyshev": 5609,
      "Ġconsiders": 5610,
      "ä»İåºĶçĶ¨": 5611,
      "Ġarchitect": 5612,
      "Ġlocations": 5613,
      "ibatch": 5614,
      "Ġaccount": 5615,
      "Ġpositives": 5616,
      "values": 5617,
      "çī¹åĪ«": 5618,
      "ĠDNS": 5619,
      "å®ŀéĻħä¸Ĭ": 5620,
      "åıĳçĶŁåľ¨": 5621,
      "äºĭå®ŀ": 5622,
      "Ġsolubility": 5623,
      "Ġspaces": 5624,
      "Ġapproximate": 5625,
      "èį¯": 5626,
      "æĮ¯èį¡": 5627,
      "æİĴåĪĹ": 5628,
      "Ġeasily": 5629,
      "Ġemployee": 5630,
      "Ġdomin": 5631,
      "ç¼©å°ı": 5632,
      "å½Ĵä¸Ģ": 5633,
      "gener": 5634,
      "è¶ħæĹ¶": 5635,
      "éĺ³æĢ§": 5636,
      "èĥĮåĲİçļĦ": 5637,
      "Ġchains": 5638,
      "ochastic": 5639,
      "çªģåıĺ": 5640,
      "è¿ĺè¦ģç»ĵåĲĪ": 5641,
      "åĩĨç¡®çİĩ": 5642,
      "Ġreceive": 5643,
      "Ġplanetary": 5644,
      "é»ıåº¦": 5645,
      "Ġcapacitance": 5646,
      "ç¬¦åı·": 5647,
      "Ġdecrease": 5648,
      "åİŁå§ĭæķ°æį®": 5649,
      "Ġsafer": 5650,
      "Ġdamage": 5651,
      "Ġmerged": 5652,
      "Ġbalancing": 5653,
      "Ġflexible": 5654,
      "Ġmessage": 5655,
      "Ġidempotency": 5656,
      "Ġexploration": 5657,
      "åĪļåº¦": 5658,
      "Ġperman": 5659,
      "Ġbarrier": 5660,
      "åī¯æľ¬": 5661,
      "æ¤įçī©": 5662,
      "Ġhorizontal": 5663,
      "Ġsediment": 5664,
      "),": 5665,
      "Elect": 5666,
      "Embedding": 5667,
      "HTTP": 5668,
      "Mem": 5669,
      "TCP": 5670,
      "ads": 5671,
      "cument": 5672,
      "ever": 5673,
      "late": 5674,
      "net": 5675,
      "specific": 5676,
      "uc": 5677,
      "«æĺŁ": 5678,
      "¹ģ": 5679,
      "¾çĹħ": 5680,
      "å³": 5681,
      "ç¹ģ": 5682,
      "ĠK": 5683,
      "ino": 5684,
      "Ġsen": 5685,
      "Ġthough": 5686,
      "ises": 5687,
      "Ġdig": 5688,
      "Ġold": 5689,
      "Ġconduct": 5690,
      "Ġstress": 5691,
      "ä»¤": 5692,
      "å¤«": 5693,
      "è®®": 5694,
      "åĴĮæķ°æį®": 5695,
      "ifier": 5696,
      "ĠAPI": 5697,
      "uments": 5698,
      "çĽĬ": 5699,
      "æľīä»·åĢ¼": 5700,
      "Ġdocument": 5701,
      "Ġcould": 5702,
      "å¹¶è¡Į": 5703,
      "æĽ´å¿«": 5704,
      "åħ³å¿ĥ": 5705,
      "irm": 5706,
      "plex": 5707,
      "problem": 5708,
      "cycle": 5709,
      "è½»": 5710,
      "éļıçĿĢ": 5711,
      "éĥ½éľĢè¦ģ": 5712,
      "Ġreduced": 5713,
      "éĻĲæµģ": 5714,
      "Ġconfirm": 5715,
      "åĲ¦åĪĻ": 5716,
      "Ġparts": 5717,
      "Ġgenerate": 5718,
      "Ġsubproblem": 5719,
      "Ġstructured": 5720,
      "èĥ½éĩıå®ĪæģĴ": 5721,
      "Ġbehaves": 5722,
      "Ġcontinually": 5723,
      "æ®ĭ": 5724,
      "æ¯ıä¸ĢæŃ¥": 5725,
      "å¼ķèµ·": 5726,
      "åħīè°±": 5727,
      "Ġidentity": 5728,
      "ç»´æĮģ": 5729,
      "æ»ĳ": 5730,
      "Ġè¿Ļä¹Łæĺ¯": 5731,
      "Ġbiased": 5732,
      "like": 5733,
      "Ġorganic": 5734,
      "score": 5735,
      "çĸ¾çĹħ": 5736,
      "Ġabsolute": 5737,
      "Ġfluid": 5738,
      "Ġdioxide": 5739,
      "è¶ĭåĲĳ": 5740,
      "Ġoceanic": 5741,
      "Ġshortest": 5742,
      "è£ķ": 5743,
      "å¯¹æķ°å°ºåº¦": 5744,
      "Ġgeometric": 5745,
      "Ġpersistent": 5746,
      "Ġsubstance": 5747,
      "ç¥ŀç»ıåħĥ": 5748,
      "Ġcurves": 5749,
      "Ġpolymer": 5750,
      "Ġruntime": 5751,
      "åįıè°ĥ": 5752,
      "Ġexactly": 5753,
      "æŃ£æĢģåĪĨå¸ĥ": 5754,
      "æ°§åĮĸç¢³": 5755,
      "Ġdecreases": 5756,
      "Ġreturn": 5757,
      "Ġservice": 5758,
      "Ġalgebraic": 5759,
      "Ġimplementation": 5760,
      "ä¸įä¸Ģå®ļæĺ¯": 5761,
      "Ġqueues": 5762,
      "Ġbreak": 5763,
      "Ġtemporarily": 5764,
      "robability": 5765,
      "Ġcorrelations": 5766,
      "æĢĿæĥ³": 5767,
      "Ġprotects": 5768,
      "Ġrecurrence": 5769,
      "thesis": 5770,
      "Ġratio": 5771,
      "laims": 5772,
      "Ġstiff": 5773,
      "Ġgravitational": 5774,
      "ĠçĶ±æŃ¤": 5775,
      "Ġillustrates": 5776,
      "ç»Łè®¡éĩıçļĦæĬ½æł·åĪĨå¸ĥ": 5777,
      "Ġsubproblems": 5778,
      "If": 5779,
      "Trans": 5780,
      "aut": 5781,
      "aken": 5782,
      "iver": 5783,
      "ob": 5784,
      "ods": 5785,
      "wn": 5786,
      "yle": 5787,
      "ç¿": 5788,
      "ĠçļĦ": 5789,
      "Ĩæŀ¶": 5790,
      "ä¸²": 5791,
      "ä¸ĸ": 5792,
      "Ġdu": 5793,
      "åı°": 5794,
      "ush": 5795,
      "çļĦçĶ¨æĪ·": 5796,
      "Ġear": 5797,
      "Ġstochastic": 5798,
      "heck": 5799,
      "head": 5800,
      "çĶ»": 5801,
      "ä¸įè¶³": 5802,
      "æĪª": 5803,
      "Ġdepth": 5804,
      "chron": 5805,
      "ame": 5806,
      "Ġalle": 5807,
      "Ġmob": 5808,
      "Ġexcl": 5809,
      "riction": 5810,
      "æĪĲåĪĨ": 5811,
      "æİī": 5812,
      "è¿ĩå°ı": 5813,
      "Ġchanged": 5814,
      "ä¸ºä¸Ģ": 5815,
      "Ġheating": 5816,
      "åı¯èĥ½åľ¨": 5817,
      "æĪĸæĽ´": 5818,
      "åĲĪå¹¶": 5819,
      "éľ²": 5820,
      "dependent": 5821,
      "è½®": 5822,
      "Ġcaches": 5823,
      "Ġadvant": 5824,
      "Ġcomparisons": 5825,
      "ä¹Łèĥ½": 5826,
      "Ġgradu": 5827,
      "éĥ½ä¾Ŀèµĸ": 5828,
      "èĩªåıĳ": 5829,
      "è®Ńç»ĥæĹ¶": 5830,
      "é¡µ": 5831,
      "Ġrandomization": 5832,
      "åĩıå°ı": 5833,
      "ĠHe": 5834,
      "Ġfinally": 5835,
      "æį¢çĥŃ": 5836,
      "å¦ĤæŀľæĿ¡ä»¶æĶ¹åıĺ": 5837,
      "Ġequation": 5838,
      "å°±åı¯èĥ½": 5839,
      "éĢĤçĶ¨": 5840,
      "Ġcaused": 5841,
      "åģĩè®¾æ£ĢéªĮ": 5842,
      "çī©ä½ĵçļĦ": 5843,
      "Ġdefine": 5844,
      "Ġsuppress": 5845,
      "Ġminibatch": 5846,
      "omentum": 5847,
      "Ġcounting": 5848,
      "Ġretries": 5849,
      "éĢĴæİ¨": 5850,
      "æľºåĪ¶æĺ¯": 5851,
      "æ¡¶": 5852,
      "æ¡Ĩæŀ¶": 5853,
      "æķĪåºĶéĩı": 5854,
      "Ġyet": 5855,
      "è´Łè½½": 5856,
      "è¡¨çİ°ä¸º": 5857,
      "ç»§ç»Ńå±ķå¼Ģ": 5858,
      "Ġviscosity": 5859,
      "éĺ»åĬĽ": 5860,
      "Ġdiver": 5861,
      "Ġedges": 5862,
      "Ġcollisions": 5863,
      "å¯¹æķ°åĿĲæłĩ": 5864,
      "Ġtypically": 5865,
      "æº¶è§£": 5866,
      "check": 5867,
      "Ġoxidation": 5868,
      "Ġdrug": 5869,
      "å±ŀäºİ": 5870,
      "Ġpassing": 5871,
      "Ġrestrict": 5872,
      "æĿĥéĩįè¡°åĩı": 5873,
      "Ġaccumulates": 5874,
      "æĹ©åģľ": 5875,
      "ission": 5876,
      "Ġbelie": 5877,
      "Ġmisunderstood": 5878,
      "orrelation": 5879,
      "ç»Ŀå¯¹": 5880,
      "Ġmutation": 5881,
      "ISTS": 5882,
      "ç¡¬ä»¶": 5883,
      "Ġclients": 5884,
      "Ġconnections": 5885,
      "èĻļæĭŁ": 5886,
      "çĮ®": 5887,
      "Ġshifts": 5888,
      "Ġstiffness": 5889,
      "Ġadvantage": 5890,
      ");": 5891,
      "Dropout": 5892,
      "eep": 5893,
      "iqu": 5894,
      "lated": 5895,
      "ton": 5896,
      "trol": 5897,
      "¥ļ": 5898,
      "æ¥ļ": 5899,
      "èı": 5900,
      "Ġä¸į": 5901,
      "Ġä¸įåĲĮ": 5902,
      "ĩåĪ°": 5903,
      "ľèī²": 5904,
      "Ġtur": 5905,
      "Ġtiny": 5906,
      "ret": 5907,
      "rees": 5908,
      "Ġsink": 5909,
      "ites": 5910,
      "Ġdisease": 5911,
      "Ġmig": 5912,
      "Ġmillions": 5913,
      "çļĦä¸ĢçĤ¹": 5914,
      "Ġstabil": 5915,
      "Ġlies": 5916,
      "Ġland": 5917,
      "å®³": 5918,
      "ä¸įåıªæĺ¯": 5919,
      "æķ°åĪĹ": 5920,
      "Ġhier": 5921,
      "åı¯è¡Į": 5922,
      "äºī": 5923,
      "è¯ĳ": 5924,
      "Ġdeformation": 5925,
      "å°¼": 5926,
      "æĹ¶çļĦ": 5927,
      "Ġmac": 5928,
      "osyn": 5929,
      "pted": 5930,
      "Ġunus": 5931,
      "Ġunse": 5932,
      "Ġneur": 5933,
      "è¦ģåĪĨæ¸ħ": 5934,
      "ä¼ļæĬĬ": 5935,
      "ä¼ļäº§çĶŁ": 5936,
      "é¢ľèī²": 5937,
      "ĠSince": 5938,
      "ĠThey": 5939,
      "Ġchance": 5940,
      "åı¯ä»¥æĬĬ": 5941,
      "Ġdouble": 5942,
      "åºĶåĮºåĪĨçļĦæĺ¯": 5943,
      "Ġens": 5944,
      "åı¯èĥ½è®©": 5945,
      "iring": 5946,
      "å¤ļå¤§": 5947,
      "çĶµèĥ½": 5948,
      "Ġimp": 5949,
      "Ġdeserves": 5950,
      "Ġability": 5951,
      "åıĳéĢģ": 5952,
      "Ġtraject": 5953,
      "Ġtraversal": 5954,
      "Ġformal": 5955,
      "è°Ī": 5956,
      "æİ¥æĶ¶": 5957,
      "åıįèĢĮ": 5958,
      "æŀĦæĪĲ": 5959,
      "è®¾ç½®": 5960,
      "ä½Ĩä¸įèĥ½": 5961,
      "ustion": 5962,
      "neg": 5963,
      "åīª": 5964,
      "Ġconfig": 5965,
      "Ġerosion": 5966,
      "ç»ıåħ¸": 5967,
      "Ġdistinct": 5968,
      "æĺ¯åĲ¦çľŁæŃ£": 5969,
      "åĲĮæĹ¶èĢĥèĻĳ": 5970,
      "ĠMore": 5971,
      "æ¬¡æķ°": 5972,
      "å¤ĸçķĮ": 5973,
      "å¦Ĥæŀľç»§ç»Ńå±ķå¼Ģ": 5974,
      "åĨ³å®ļäºĨ": 5975,
      "pendence": 5976,
      "Ġphot": 5977,
      "å¼ĢéĶĢ": 5978,
      "ä»»åĬ¡éĩĮ": 5979,
      "Ġidentifies": 5980,
      "èĢĮä¸įæĺ¯è¦ģæ±Ĥ": 5981,
      "åĽºæľī": 5982,
      "Ġimproves": 5983,
      "Ġextra": 5984,
      "åĬŁçİĩ": 5985,
      "ç»ĵåĲĪèµ·æĿ¥": 5986,
      "æİ¥è¿ĳéĽ¶": 5987,
      "ä¹ĭéĹ´çļĦåħ³ç³»": 5988,
      "æī§è¡Įè®¡åĪĴ": 5989,
      "åħ³éĶ®æľºåĪ¶æĺ¯": 5990,
      "æ¶ĪèĢĹ": 5991,
      "åºĶçĶ¨éĩĮ": 5992,
      "åºĵåŃĺ": 5993,
      "æ¸ħæ¥ļ": 5994,
      "Ġenvironments": 5995,
      "å¤©æ°Ķ": 5996,
      "Ġcorrectness": 5997,
      "äºĮæ°§åĮĸç¢³": 5998,
      "ç¾¤ä½ĵ": 5999,
      "Ġpriority": 6000,
      "åįĩé«ĺ": 6001,
      "çĽ¸å¯¹è®º": 6002,
      "Ġfilters": 6003,
      "Ġcomponent": 6004,
      "èĪª": 6005,
      "èĪ¹": 6006,
      "æī¹éĩı": 6007,
      "ç¼ĸåı·": 6008,
      "Ġlikely": 6009,
      "Ġconsume": 6010,
      "æī©å±ķ": 6011,
      "æľįåĬ¡åĻ¨": 6012,
      "Ġfully": 6013,
      "åı¯ä»¥å¸®åĬ©åĪ¤æĸŃ": 6014,
      "Ġgoal": 6015,
      "å¡ŀ": 6016,
      "Ġassessment": 6017,
      "æĺłå°ĦåĪ°": 6018,
      "Ġdestro": 6019,
      "Ġbelong": 6020,
      "Ġmisunderstanding": 6021,
      "æĥ¯æĢ§": 6022,
      "Ġsufficiently": 6023,
      "Ġobser": 6024,
      "Ġatmosphere": 6025,
      "çĶŁæĢģç³»ç»Ł": 6026,
      "Ġtangible": 6027,
      "Ġlifet": 6028,
      "åľ¨å®ŀéĻħåºĶçĶ¨éĩĮ": 6029,
      "Ġresearchers": 6030,
      "é£Łçī©": 6031,
      "structure": 6032,
      "ijing": 6033,
      "åľ¨åħ·ä½ĵä»»åĬ¡éĩĮ": 6034,
      "çŀ¬æĹ¶åıĺåĮĸçİĩ": 6035,
      "Ġhardware": 6036,
      "Although": 6037,
      "è¿ĻéĩĮåºĶåĮºåĪĨçļĦæĺ¯": 6038,
      "Ġcosmic": 6039,
      "ä»ªåĻ¨": 6040,
      "å³°": 6041,
      "ç¿»": 6042,
      "Ġbeliefs": 6043,
      "èıĮ": 6044,
      "çļĦä¸ĢçĤ¹æĺ¯": 6045,
      "Ġhierarch": 6046,
      "Ġunseen": 6047,
      "è¦ģåĪĨæ¸ħçļĦä¸ĢçĤ¹æĺ¯": 6048,
      "å¦Ĥæŀľç»§ç»Ńå±ķå¼ĢçĲĨè§£": 6049,
      "Claims": 6050,
      "DP": 6051,
      "SQL": 6052,
      "aces": 6053,
      "flo": 6054,
      "io": 6055,
      "nel": 6056,
      "tual": 6057,
      "yme": 6058,
      "¡çĮ®": 6059,
      "èĴ": 6060,
      "ĠèĢĮ": 6061,
      "ĠçłĶç©¶": 6062,
      "Ġvers": 6063,
      "Ġå°¤åħ¶": 6064,
      "Ġaug": 6065,
      "atial": 6066,
      "any": 6067,
      "orizing": 6068,
      "Ġpack": 6069,
      "Ġband": 6070,
      "Ġblock": 6071,
      "åıĮ": 6072,
      "lections": 6073,
      "rows": 6074,
      "åĪĽ": 6075,
      "å®¤": 6076,
      "Ġcomm": 6077,
      "Ġcomes": 6078,
      "åĴĮçİ¯å¢ĥ": 6079,
      "istics": 6080,
      "ategy": 6081,
      "Ġmode": 6082,
      "olar": 6083,
      "å¸Ĥ": 6084,
      "ither": 6085,
      "å¼ł": 6086,
      "åĮĸèĥ½": 6087,
      "è¦ģæ³¨æĦı": 6088,
      "emble": 6089,
      "Ġareas": 6090,
      "åı¯ä»¥çĶ±": 6091,
      "è´¡çĮ®": 6092,
      "åºĶåĬĽ": 6093,
      "åı¯èĥ½è¢«": 6094,
      "irtual": 6095,
      "å¤§åŀĭ": 6096,
      "æ¨¡æĭŁ": 6097,
      "Ġdisturb": 6098,
      "åĢ¾": 6099,
      "Ġimm": 6100,
      "Ġstrategy": 6101,
      "è´¨åŃĲ": 6102,
      "è¿Ļä¸ĢçĤ¹": 6103,
      "éľĢè¦ģåľ¨": 6104,
      "Ġtranslation": 6105,
      "pare": 6106,
      "odies": 6107,
      "ĠWith": 6108,
      "Ġcomparing": 6109,
      "åıªè¿½æ±Ĥ": 6110,
      "å¹³æĸ¹": 6111,
      "ä¹Łä¼ļå¢ŀåĬł": 6112,
      "éĹ®é¢ĺçļĦ": 6113,
      "ä¹ĭåīį": 6114,
      "Ġmanage": 6115,
      "Ġhad": 6116,
      "Ġhaz": 6117,
      "ç§įåŃĲ": 6118,
      "Ġtrains": 6119,
      "Ġrecon": 6120,
      "è®Ńç»ĥéĽĨ": 6121,
      "loom": 6122,
      "ä¸įèĥ½ç®Ģåįķ": 6123,
      "çłĶç©¶è®¾è®¡": 6124,
      "Ġseparation": 6125,
      "Ġchecking": 6126,
      "èĥ½å¤Łåľ¨": 6127,
      "çĥĪ": 6128,
      "æĺ¯åĲ¦åħ·æľī": 6129,
      "è¿Ĳè¾ĵ": 6130,
      "æĺ¾ç¤º": 6131,
      "åĽŀåĪ°": 6132,
      "convex": 6133,
      "Ġindependence": 6134,
      "éĿ¢å¯¹": 6135,
      "Ġimportance": 6136,
      "Ġamino": 6137,
      "Ġdesigned": 6138,
      "åıįåºĶçī©": 6139,
      "æ·Ĩ": 6140,
      "Ġcontinue": 6141,
      "Ġestimated": 6142,
      "Ġcombined": 6143,
      "æĮĩæķ°": 6144,
      "è§Ĥå¯ŁèĢħ": 6145,
      "ç¢į": 6146,
      "Ġminer": 6147,
      "Ġtokenization": 6148,
      "åıĹåĪ°éĩįåĬĽ": 6149,
      "åħ±åĲĮä½ľçĶ¨": 6150,
      "è¯Ħä»·": 6151,
      "æ´»æĢ§": 6152,
      "Ġjudge": 6153,
      "strained": 6154,
      "æ··æ·Ĩ": 6155,
      "é£İåĮĸ": 6156,
      "Ġhypotheses": 6157,
      "è¿Ļç§įæĥħåĨµä¸ĭ": 6158,
      "Ġspatial": 6159,
      "Ġredox": 6160,
      "Ġterminal": 6161,
      "Ġpredicts": 6162,
      "Ġcontextual": 6163,
      "Ġfluids": 6164,
      "ä¼łæĴŃéĢŁåº¦": 6165,
      "Ġpattern": 6166,
      "è¿ĺè¦ģèĢĥèĻĳ": 6167,
      "Another": 6168,
      "Ġdiscr": 6169,
      "Ġanalytical": 6170,
      "ruction": 6171,
      "ä¸Ĭä¸ĭæĸĩéķ¿åº¦": 6172,
      "Ġreceiver": 6173,
      "çģµ": 6174,
      "Ġmemorizing": 6175,
      "Ġpropagate": 6176,
      "Ġvolcano": 6177,
      "æł·æľ¬éĩıå¢ŀåĬł": 6178,
      "éĤ»": 6179,
      "Ġscientists": 6180,
      "Ġfactorization": 6181,
      "åı¥è¯Ŀ": 6182,
      "Ġcolumn": 6183,
      "å¡ĳ": 6184,
      "Ġfreez": 6185,
      "Ġweathering": 6186,
      "åħĪçľĭåīįæıĲ": 6187,
      "Ġqueue": 6188,
      "Ġsurviv": 6189,
      "éĢıæĺİ": 6190,
      "Ġhydrogen": 6191,
      "Ġunconditional": 6192,
      "æŃ£åĪĻåĮĸ": 6193,
      "éĹ®é¢ĺæĹ¶åħĪçľĭåīįæıĲ": 6194,
      "ç«ŀäºī": 6195,
      "Ġåľ¨è¿Ļç§įæĥħåĨµä¸ĭ": 6196,
      "ä¸¢å¤±": 6197,
      "Ġperfectly": 6198,
      "ç½®ä¿¡åĮºéĹ´": 6199,
      "Ġanalyzed": 6200,
      "æ²īç§¯": 6201,
      "Ġoverlapping": 6202,
      "Ġnutrients": 6203,
      "Ġtechniqu": 6204,
      "Ġreproducibility": 6205,
      "æĽ´åĩĨç¡®çļĦçĲĨè§£æĺ¯": 6206,
      "æļ´éľ²": 6207,
      "Ġdecoding": 6208,
      "Ġpublic": 6209,
      "Ġinvariant": 6210,
      "çĪĨ": 6211,
      "Memorizing": 6212,
      "Ġè¿Ļä¹Łæĺ¯ä¸ºä»Ģä¹Ī": 6213,
      "ĠçĶ±æŃ¤åı¯ä»¥çľĭåĪ°": 6214,
      "floor": 6215,
      "Ġå°¤åħ¶è¦ģæ³¨æĦı": 6216,
      "Ġaugment": 6217,
      "Ġmodeled": 6218,
      "Ġtechniques": 6219,
      ");.": 6220,
      "ailed": 6221,
      "based": 6222,
      "ew": 6223,
      "faces": 6224,
      "gers": 6225,
      "iol": 6226,
      "loss": 6227,
      "´æĢ§": 6228,
      "¿åĳ½": 6229,
      "çĵ": 6230,
      "é¾Ħ": 6231,
      "Ġ6": 6232,
      "Ġions": 6233,
      "Ġä¾ĭå¦Ĥ": 6234,
      "Ġçİ°ä»£": 6235,
      "ats": 6236,
      "Ġsw": 6237,
      "Ġsym": 6238,
      "eness": 6239,
      "eside": 6240,
      "ä¸´": 6241,
      "anc": 6242,
      "ital": 6243,
      "Ġbeside": 6244,
      "ctive": 6245,
      "Ġfut": 6246,
      "Ġfood": 6247,
      "Ġown": 6248,
      "raft": 6249,
      "Ġhol": 6250,
      "Ġcome": 6251,
      "quality": 6252,
      "æĺ¯çĶ±": 6253,
      "ĠAd": 6254,
      "ĠATP": 6255,
      "olism": 6256,
      "åĪĨè¾¨": 6257,
      "åĩĢ": 6258,
      "å¯¿åĳ½": 6259,
      "Ġrig": 6260,
      "heric": 6261,
      "pts": 6262,
      "ĠSun": 6263,
      "éĢļçĶ¨": 6264,
      "Ġshr": 6265,
      "ä½ĵç³»": 6266,
      "Ġrespect": 6267,
      "Ġforward": 6268,
      "å¯¹ç§°": 6269,
      "Ġmodeling": 6270,
      "åŃ¦çĶŁ": 6271,
      "Ġtransparent": 6272,
      "åĬłæ³ķ": 6273,
      "éĺ´æĢ§": 6274,
      "Ġrequiring": 6275,
      "Ġproduction": 6276,
      "ĠBoundary": 6277,
      "åİŁæľī": 6278,
      "å°ĳæķ°": 6279,
      "æŁ¥çľĭ": 6280,
      "Ġarrange": 6281,
      "ipping": 6282,
      "åĪĻè¦ģæ±Ĥ": 6283,
      "Ġgeneration": 6284,
      "Ġlocation": 6285,
      "Ġlocate": 6286,
      "Ġdependency": 6287,
      "ä¹ĭéĹ´åŃĺåľ¨": 6288,
      "éļıæľºè¯¯å·®": 6289,
      "Ġconstruction": 6290,
      "Ġthroughput": 6291,
      "åĽŀè·¯": 6292,
      "Ġjust": 6293,
      "ç»Łè®¡ä¿¡æģ¯": 6294,
      "ç»Łè®¡æĺ¾èĳĹ": 6295,
      "æ´ŀ": 6296,
      "æ®ĸ": 6297,
      "Ġsolve": 6298,
      "ĠASC": 6299,
      "Ġspecies": 6300,
      "ç»´æķ°": 6301,
      "ä¾ĭåŃĲ": 6302,
      "ĠLI": 6303,
      "ç¼ĵæħ¢": 6304,
      "ç»Ļå®ļ": 6305,
      "ä¿®æŃ£": 6306,
      "æ··åĲĪ": 6307,
      "Ġlogs": 6308,
      "Ġtheoretical": 6309,
      "èĮĥåĽ´åĨħ": 6310,
      "Ġspanning": 6311,
      "Ġorbiting": 6312,
      "Ġcollision": 6313,
      "Ġbatches": 6314,
      "æī¹æ¬¡": 6315,
      "Ġenco": 6316,
      "æ¶²ä½ĵ": 6317,
      "Ġprimarily": 6318,
      "Ġatoms": 6319,
      "èĦ±": 6320,
      "åįıè®®": 6321,
      "éĩĳå±ŀ": 6322,
      "èĩ³å°ĳ": 6323,
      "ç§°ä¸º": 6324,
      "æķıæĦŁæĢ§åĪĨæŀĲ": 6325,
      "Ġprocedure": 6326,
      "ĠEnergy": 6327,
      "Ġalternative": 6328,
      "æĳ©": 6329,
      "Start": 6330,
      "arkov": 6331,
      "Ġwindows": 6332,
      "Ġsmoothing": 6333,
      "Ġoscillation": 6334,
      "Ġspecialized": 6335,
      "Compare": 6336,
      "Ġmodern": 6337,
      "Ġdissol": 6338,
      "Ġhistory": 6339,
      "Ġseverely": 6340,
      "Ġcareful": 6341,
      "Ġcandidate": 6342,
      "Ġsoftware": 6343,
      "Ġbucket": 6344,
      "Ġtimeouts": 6345,
      "èŀį": 6346,
      "Ġchallenge": 6347,
      "Ġfundamental": 6348,
      "ĠEXISTS": 6349,
      "Ġnonsignificant": 6350,
      "Ġsurvivors": 6351,
      "Ġfuture": 6352,
      "RNA": 6353,
      "bl": 6354,
      "bits": 6355,
      "cal": 6356,
      "craft": 6357,
      "iel": 6358,
      "ops": 6359,
      "taneous": 6360,
      "where": 6361,
      "ĠåĽŀçŃĶ": 6362,
      "ĵä½ı": 6363,
      "Ġtuning": 6364,
      "Ġcate": 6365,
      "ited": 6366,
      "itation": 6367,
      "Ġpe": 6368,
      "Ġpush": 6369,
      "Ġbot": 6370,
      "Ġreplic": 6371,
      "Ġrecept": 6372,
      "Ġwin": 6373,
      "çļĦåħ³ç³»": 6374,
      "åĪł": 6375,
      "åĲŀ": 6376,
      "Ġcong": 6377,
      "Ġbelow": 6378,
      "Ġlos": 6379,
      "åħ¼": 6380,
      "ulary": 6381,
      "è®²": 6382,
      "ä¸įè¦ģæ±Ĥ": 6383,
      "åĴĮæĽ´": 6384,
      "åĴĮæ¨¡åŀĭ": 6385,
      "istical": 6386,
      "éĩıçº": 6387,
      "Ġorbits": 6388,
      "abulary": 6389,
      "Ġgain": 6390,
      "åĪĨåĪ«": 6391,
      "æłĪ": 6392,
      "å°¾": 6393,
      "ormous": 6394,
      "å¼¹": 6395,
      "åį«æĺŁ": 6396,
      "æĬĵä½ı": 6397,
      "æį®æŃ¤": 6398,
      "ç³ĸ": 6399,
      "åı¯ä»¥è®©": 6400,
      "è´¦": 6401,
      "å¹¶éĿŀ": 6402,
      "æĽ´ä½İ": 6403,
      "Ġengine": 6404,
      "Ġenormous": 6405,
      "å¯¹çħ§": 6406,
      "åĢĴ": 6407,
      "çĶŁäº§": 6408,
      "Ġlead": 6409,
      "åĲİä¼ļ": 6410,
      "ocabulary": 6411,
      "ectors": 6412,
      "è¿Ļæĺ¯": 6413,
      "æľĢé«ĺ": 6414,
      "é«ĺè´¨éĩı": 6415,
      "ĠCh": 6416,
      "æİ¥çĿĢ": 6417,
      "åıįåĩ½æķ°": 6418,
      "åıªè¦ģ": 6419,
      "éĹ®é¢ĺä¸Ń": 6420,
      "ä¹ĭåĲİ": 6421,
      "åİŁçĲĨ": 6422,
      "Ġclar": 6423,
      "Ġgenetic": 6424,
      "Ġreduction": 6425,
      "Ġresulting": 6426,
      "è¾ĥä½İ": 6427,
      "æĶ¹åıĺå¯¹": 6428,
      "Ġvaluable": 6429,
      "æĹ¶éĹ´å°ºåº¦": 6430,
      "Ġrandomized": 6431,
      "çĬ¶æĢģæĪĸ": 6432,
      "ĠMon": 6433,
      "pectation": 6434,
      "äº§çī©": 6435,
      "å¦Ĥæŀľåıª": 6436,
      "pontaneous": 6437,
      "Ġdisap": 6438,
      "è¶Ĭå¤ļ": 6439,
      "Ġrepresented": 6440,
      "ç©ºéĹ´ä¸Ń": 6441,
      "Ġsensitive": 6442,
      "å¹³åĿĩåĢ¼": 6443,
      "ç¢±": 6444,
      "Ġenter": 6445,
      "çº¿æĢ§æĸ¹ç¨ĭ": 6446,
      "Ġpreserv": 6447,
      "å¾®çĶŁçī©": 6448,
      "Ġinterest": 6449,
      "ä¸¤ä¸ªä¸įåĲĮ": 6450,
      "Ġcalled": 6451,
      "ç£ģéĢļ": 6452,
      "éĩĩçĶ¨": 6453,
      "å»ºæ¨¡": 6454,
      "Ġconnects": 6455,
      "Ġmissed": 6456,
      "éĺ»å°¼": 6457,
      "å¸ĮæľĽ": 6458,
      "Ġblack": 6459,
      "Ġhandles": 6460,
      "åİŁåŃĲæł¸": 6461,
      "acid": 6462,
      "é¦ĸ": 6463,
      "Ġcoordinates": 6464,
      "åĢĻéĢī": 6465,
      "Ġschedule": 6466,
      "Ġintroduces": 6467,
      "çģ«": 6468,
      "Ġpassword": 6469,
      "å¹´é¾Ħ": 6470,
      "Ġinstruments": 6471,
      "Ġcorrespond": 6472,
      "Ġdifferentiation": 6473,
      "Ġcapacitor": 6474,
      "Ġconstructs": 6475,
      "Ġdriving": 6476,
      "ĠBayesian": 6477,
      "Ġinduction": 6478,
      "Ġheavy": 6479,
      "åįķè°ĥæĢ§": 6480,
      "è´Ŀåı¶æĸ¯å®ļçĲĨ": 6481,
      "åĽ°éļ¾": 6482,
      "Ġseafloor": 6483,
      "Ġdiagnost": 6484,
      "Ġtendency": 6485,
      "éĺ²æŃ¢": 6486,
      "åĪ»çĶ»": 6487,
      "weighted": 6488,
      "Ġdiagram": 6489,
      "Ġenzyme": 6490,
      "åĳĪçİ°": 6491,
      "æ®ĭå·®": 6492,
      "Ġearlier": 6493,
      "Ġversions": 6494,
      "Ġcategor": 6495,
      "éĩıçº²": 6496,
      "Ġdisappe": 6497,
      "At": 6498,
      "Split": 6499,
      "cient": 6500,
      "data": 6501,
      "find": 6502,
      "first": 6503,
      "light": 6504,
      "ope": 6505,
      "uf": 6506,
      "vention": 6507,
      "width": 6508,
      "¸ª": 6509,
      "è¸ª": 6510,
      "İå¸Ĥ": 6511,
      "Ĺåı£": 6512,
      "Ġtake": 6513,
      "atform": 6514,
      "atistical": 6515,
      "Ġsun": 6516,
      "Ġside": 6517,
      "enari": 6518,
      "ised": 6519,
      "Ġpolar": 6520,
      "Ġbinary": 6521,
      "entially": 6522,
      "çļĦåıĺåĮĸ": 6523,
      "çļĦéĶĻè¯¯": 6524,
      "Ġeight": 6525,
      "Ġsteep": 6526,
      "imal": 6527,
      "imination": 6528,
      "unding": 6529,
      "ray": 6530,
      "ä¸įä¿Ŀè¯ģ": 6531,
      "èĥ½æĺ¾èĳĹ": 6532,
      "Ġoff": 6533,
      "Ġhaving": 6534,
      "äºĳ": 6535,
      "æĸ¥": 6536,
      "ĠTo": 6537,
      "Ġgases": 6538,
      "æĹ¶åºĶ": 6539,
      "åĲĮäºİ": 6540,
      "Ġvocabulary": 6541,
      "ä¼ļå¯¼èĩ´": 6542,
      "cking": 6543,
      "æĬķ": 6544,
      "è¿ĩäºİ": 6545,
      "åı¯ä»¥éĻįä½İ": 6546,
      "çĽ¸åºĶ": 6547,
      "çĽ¸åĬł": 6548,
      "Ġtrick": 6549,
      "Ġrelation": 6550,
      "Ġmodul": 6551,
      "Ġmatches": 6552,
      "ä»¶äºĭ": 6553,
      "è¿Ļä¸¤ä¸ª": 6554,
      "å¤įæķ°": 6555,
      "æ°¨": 6556,
      "å±±": 6557,
      "ä¸ĭæĿ¥": 6558,
      "åıĺåĮĸèĥ½å¤Ł": 6559,
      "Ġscenari": 6560,
      "çŃīåĲĮäºİ": 6561,
      "åŁİå¸Ĥ": 6562,
      "Ġclipping": 6563,
      "æĿ¡ä»¶æ¦Ĥçİĩ": 6564,
      "Ġplatform": 6565,
      "æ±ĩ": 6566,
      "æ¯ĶçĥŃ": 6567,
      "éģĩåĪ°": 6568,
      "è½¬å½ķ": 6569,
      "ells": 6570,
      "Ġpartially": 6571,
      "åľ°çĤ¹": 6572,
      "åľ°éľĩ": 6573,
      "section": 6574,
      "Ġoptimistic": 6575,
      "Ġrandomly": 6576,
      "åıĸå¾Ĺ": 6577,
      "ĠMat": 6578,
      "ĠMIN": 6579,
      "é¢Ħè®Ńç»ĥ": 6580,
      "è¿ŀéĢļ": 6581,
      "Ġhighest": 6582,
      "æİ¨åĬ¨": 6583,
      "Ġproviding": 6584,
      "èº«ä»½": 6585,
      "è¶Ĭå¥½": 6586,
      "versity": 6587,
      "ĠRes": 6588,
      "èµ·çĤ¹": 6589,
      "Ġpathway": 6590,
      "Ġsensors": 6591,
      "çĽ¸åħ³æĢ§": 6592,
      "äººç¾¤": 6593,
      "å¼Ģåıĳ": 6594,
      "onsistent": 6595,
      "Ġentry": 6596,
      "éªĮè¯ģæįŁå¤±": 6597,
      "Ġspacecraft": 6598,
      "çº¿æĢ§ç»ĦåĲĪ": 6599,
      "çº§åĪ«": 6600,
      "å§ĭç»Ī": 6601,
      "åħ±åĲĮå½±åĵį": 6602,
      "å£°å¼º": 6603,
      "æ´»åĮĸèĥ½": 6604,
      "æ··ä¸ºä¸Ģ": 6605,
      "çªĹåı£": 6606,
      "æ¶Īè´¹": 6607,
      "åĨĻåħ¥": 6608,
      "éķ¿æľŁå¹³åĿĩæ°´å¹³": 6609,
      "åı¦å¤ĸ": 6610,
      "è¯įè¡¨": 6611,
      "Ġaccelerate": 6612,
      "Ġcurrents": 6613,
      "Ġabsent": 6614,
      "Ġselective": 6615,
      "Ġindic": 6616,
      "Ġdiversity": 6617,
      "Ġdeviation": 6618,
      "èĪį": 6619,
      "éĢĲæ¸Ĳæİ¥è¿ĳ": 6620,
      "èĲ¥": 6621,
      "çĶµåĬ¿å·®": 6622,
      "å®ĩå®ĻèĨ¨èĥĢ": 6623,
      "Ġrequests": 6624,
      "å¹²é¢Ħ": 6625,
      "Ġdetails": 6626,
      "ç¼ºå¤±": 6627,
      "Ġparallelism": 6628,
      "åĬ¨æĢģè§ĦåĪĴ": 6629,
      "Ġwords": 6630,
      "Ġjoins": 6631,
      "Ġwarmup": 6632,
      "orrect": 6633,
      "æĥ¯éĩı": 6634,
      "Ġrevision": 6635,
      "çº¢ç§»": 6636,
      "è½¬åĬ¨æĥ¯éĩı": 6637,
      "æĬĳåĪ¶åħ±æĮ¯": 6638,
      "è´ªå¿ĥç®Ĺæ³ķ": 6639,
      "Ġmetabolic": 6640,
      "åĨ·åį´": 6641,
      "Ġgalaxies": 6642,
      "Ġsatisfy": 6643,
      "Ġdisplay": 6644,
      "è¡¨ç¤ºåįķä½įéĿ¢ç§¯": 6645,
      "Ġlogarithmic": 6646,
      "Ġcontributions": 6647,
      "åĮ»åŃ¦": 6648,
      "çŃĽéĢī": 6649,
      "Ġnoisy": 6650,
      "stronaut": 6651,
      "Ġpermanently": 6652,
      "Ġmobile": 6653,
      "åĪłéĻ¤": 6654,
      "Ġsteepest": 6655,
      "æ¯ĶçĥŃå®¹": 6656,
      "æ··ä¸ºä¸Ģè°Ī": 6657,
      "AT": 6658,
      "ALE": 6659,
      "ND": 6660,
      "PR": 6661,
      "Put": 6662,
      "go": 6663,
      "gma": 6664,
      "iary": 6665,
      "now": 6666,
      "pH": 6667,
      "pus": 6668,
      "patible": 6669,
      "the": 6670,
      "uine": 6671,
      "wers": 6672,
      "åĭ": 6673,
      "è£ģ": 6674,
      "Ġèĭ¥": 6675,
      "inical": 6676,
      "Ġspontaneous": 6677,
      "ending": 6678,
      "Ġdrag": 6679,
      "ĠpH": 6680,
      "arlo": 6681,
      "Ġblo": 6682,
      "åı³": 6683,
      "Ġfra": 6684,
      "Ġfold": 6685,
      "Ġinfer": 6686,
      "çļĦè§Ħå¾ĭ": 6687,
      "Ġecon": 6688,
      "Ġstrict": 6689,
      "Ġlate": 6690,
      "Ġlens": 6691,
      "ä¸įéľĢè¦ģ": 6692,
      "éĢĢ": 6693,
      "stable": 6694,
      "style": 6695,
      "query": 6696,
      "istically": 6697,
      "ĠTCP": 6698,
      "æĺ¯æĬĬ": 6699,
      "Ġexpose": 6700,
      "åĩŃ": 6701,
      "åĲĮæŃ¥": 6702,
      "Ġmagma": 6703,
      "Ġseen": 6704,
      "pty": 6705,
      "Ġunstable": 6706,
      "æĢ§çļĦ": 6707,
      "å·§": 6708,
      "éĻ·": 6709,
      "å¸¸çĶ¨": 6710,
      "è¿ĩå¼º": 6711,
      "Ġcontribute": 6712,
      "ayer": 6713,
      "åı¯èĥ½åŃĺåľ¨": 6714,
      "å¤ļæł·": 6715,
      "ä¸İéĽ¶åģĩè®¾": 6716,
      "ortized": 6717,
      "æıĴ": 6718,
      "æĬĬåħĪéªĮ": 6719,
      "ä¾¿": 6720,
      "é«ĺé¢ĳ": 6721,
      "æ¨¡åŀĭéĢīæĭ©": 6722,
      "Ġvalle": 6723,
      "orking": 6724,
      "ĠFor": 6725,
      "ĠCarlo": 6726,
      "éļıæĦı": 6727,
      "Ġadv": 6728,
      "éĢļå¸¸æĽ´": 6729,
      "teg": 6730,
      "åİŁæľ¬": 6731,
      "çĤ¸": 6732,
      "Ġgenuine": 6733,
      "Ġdecl": 6734,
      "Ġmistakes": 6735,
      "èĩªè½¬": 6736,
      "æµģéĢŁ": 6737,
      "Ġrecall": 6738,
      "æŁ¥æī¾": 6739,
      "Ġarray": 6740,
      "åľ°è¡¨": 6741,
      "æĹ¶éĹ´åĴĮ": 6742,
      "ĠNet": 6743,
      "Ġempty": 6744,
      "éļıæľºåĮĸ": 6745,
      "gnoring": 6746,
      "è§Ħå®ļ": 6747,
      "Ġrequirements": 6748,
      "Ġnode": 6749,
      "æ¦ĤçİĩåĪĨå¸ĥ": 6750,
      "ĠPro": 6751,
      "é¢ĦæľŁ": 6752,
      "Ġcollections": 6753,
      "å¤ĸæİ¨": 6754,
      "åģĩéĺ³æĢ§": 6755,
      "Ġcred": 6756,
      "Ġmembers": 6757,
      "è¶Ĭå¤§": 6758,
      "Ġcellular": 6759,
      "Ġmasses": 6760,
      "åĲĳéĩıåı¯ä»¥è¡¨ç¤º": 6761,
      "æ¸©åº¦åĴĮ": 6762,
      "ç®ĢåĮĸ": 6763,
      "åħ·æľīæĸ¹åĲĳ": 6764,
      "ç¢İ": 6765,
      "å¾®è°ĥ": 6766,
      "æİĴéĻ¤": 6767,
      "å±Ģéĥ¨æľĢä¼ĺ": 6768,
      "åŃĹç¬¦": 6769,
      "å·®å¼Ĥå¾Īå¤§": 6770,
      "è¯ĦåĪĨ": 6771,
      "ä»·æł¼": 6772,
      "ypothesis": 6773,
      "liable": 6774,
      "Ġ10": 6775,
      "æ¶Īå¤±": 6776,
      "Ġorganizes": 6777,
      "Ġlogical": 6778,
      "Ġnonconvex": 6779,
      "è¿ľç¦»": 6780,
      "å¤§å°ıåĴĮ": 6781,
      "Ġproton": 6782,
      "Ġstandardized": 6783,
      "off": 6784,
      "Ġflows": 6785,
      "ç§¯åĪĨæĬĬ": 6786,
      "äºĭä»¶çļĦ": 6787,
      "Ġcoordination": 6788,
      "Ġanswers": 6789,
      "èĤ²": 6790,
      "Ġkinetics": 6791,
      "è¿½è¸ª": 6792,
      "Ġschedules": 6793,
      "Ġsorting": 6794,
      "æĬĺåıł": 6795,
      "Ġframes": 6796,
      "å¯»æī¾ä½¿": 6797,
      "ç¼ºå°ĳ": 6798,
      "SCE": 6799,
      "Ġtransitions": 6800,
      "Ġsuccessful": 6801,
      "Ġ500": 6802,
      "Ġbring": 6803,
      "Ġdegrees": 6804,
      "Ġabsorb": 6805,
      "æİ¢ç´¢": 6806,
      "Ġheavily": 6807,
      "æĪĳä»¬çľĭåĪ°": 6808,
      "Ġeruptions": 6809,
      "æŀģç«¯åĢ¼": 6810,
      "è§Ĵåº¦çľĭ": 6811,
      "Ġsalt": 6812,
      "è·¨è¶Ĭå¤ļä¸ª": 6813,
      "æłĩåĩĨè¯¯åĴĮ": 6814,
      "Ġpolynomials": 6815,
      "Ġwrite": 6816,
      "æľīäºĽç³»ç»Ł": 6817,
      "Ġcalculate": 6818,
      "Ġstationary": 6819,
      "Ġunreliable": 6820,
      "æ°¸è¿ľ": 6821,
      "æ¶īåıĬ": 6822,
      "ä¼ļæĺ¾èĳĹå½±åĵį": 6823,
      "æĬĢå·§": 6824,
      "æ±Ĥå¯¼å¾ĹåĪ°": 6825,
      "åĪĨå¸ĥå¼ıç³»ç»Ł": 6826,
      "Ġpolicies": 6827,
      "Ġimmune": 6828,
      "Ġrouting": 6829,
      "Ġconcentrations": 6830,
      "Ġcharged": 6831,
      "Ġduplic": 6832,
      "Ġgradually": 6833,
      "Ġmacroscopic": 6834,
      "Ġneurons": 6835,
      "Ġbandwidth": 6836,
      "çĪĨçĤ¸": 6837,
      "åĪĨè¾¨çİĩ": 6838,
      "ĠMonte": 6839,
      "Ġscenario": 6840,
      "èĲ¥åħ»": 6841,
      "ALESCE": 6842,
      "è£ģåīª": 6843,
      "Ġeconom": 6844,
      "DH": 6845,
      "MI": 6846,
      "UC": 6847,
      "com": 6848,
      "ffer": 6849,
      "fold": 6850,
      "language": 6851,
      "ople": 6852,
      "system": 6853,
      "¶é¢": 6854,
      "æĤ": 6855,
      "çĩ": 6856,
      "Ŀè¯ķ": 6857,
      "Ġspl": 6858,
      "ener": 6859,
      "itro": 6860,
      "Ġden": 6861,
      "Ġbodies": 6862,
      "Ġwide": 6863,
      "uses": 6864,
      "çļĦç³»ç»Ł": 6865,
      "çļĦåľ°": 6866,
      "çļĦè¿ĩç¨ĭ": 6867,
      "çļĦç©ºéĹ´": 6868,
      "æľ¯": 6869,
      "Ġlack": 6870,
      "ulse": 6871,
      "Ġones": 6872,
      "Ġcancel": 6873,
      "Ġproport": 6874,
      "Ġdeli": 6875,
      "åľĪ": 6876,
      "atell": 6877,
      "è§¦": 6878,
      "ĠAND": 6879,
      "elting": 6880,
      "ters": 6881,
      "å°Ŀè¯ķ": 6882,
      "æĹ¶åı¯èĥ½": 6883,
      "Ġnotice": 6884,
      "çĽĺ": 6885,
      "Ġrise": 6886,
      "ĠIgnoring": 6887,
      "æľīä¸Ģä¸ª": 6888,
      "Ġsegment": 6889,
      "ä¼ļåľ¨": 6890,
      "Ġiter": 6891,
      "duction": 6892,
      "ained": 6893,
      "ä¿ĥ": 6894,
      "ä¸ºçľŁ": 6895,
      "æĽ´å¤įæĿĤ": 6896,
      "å¤§å°ºåº¦": 6897,
      "åĪ°çļĦ": 6898,
      "å¤ļé¡¹": 6899,
      "å¯¹æŀģç«¯åĢ¼": 6900,
      "Ġleft": 6901,
      "ä¸įåĲĮç±»åŀĭ": 6902,
      "åĲİæľŁ": 6903,
      "igned": 6904,
      "æľĢå¿«": 6905,
      "Ġevol": 6906,
      "Ġcap": 6907,
      "Ġmechanics": 6908,
      "ĠCal": 6909,
      "åıĺåĮĸæĹ¶": 6910,
      "Ġschem": 6911,
      "çŃīä»·": 6912,
      "çŃīå½¢å¼ı": 6913,
      "udget": 6914,
      "éĽª": 6915,
      "Ġclinical": 6916,
      "éĥ½æľī": 6917,
      "Ġplates": 6918,
      "æ¦Ĥæĭ¬": 6919,
      "Ġrecons": 6920,
      "ä¸įèĥ½è¢«": 6921,
      "æ±Ĥè§£": 6922,
      "ibr": 6923,
      "ä¸¤ä¾§": 6924,
      "Ġempir": 6925,
      "éļıæľºç§įåŃĲ": 6926,
      "ç§¯ç´¯": 6927,
      "æ³¢åı¯ä»¥": 6928,
      "çĽ´çº¿": 6929,
      "åīįè¿Ľ": 6930,
      "åħ¶å®ŀ": 6931,
      "Ġsubstr": 6932,
      "Ġcorpus": 6933,
      "å¹¶ä¸įçŃīäºİ": 6934,
      "ĠPlate": 6935,
      "æĻ°": 6936,
      "Ġcolors": 6937,
      "Ġcreating": 6938,
      "åŃĺåľ¨ç³»ç»Ł": 6939,
      "æŃ¥éķ¿": 6940,
      "Ġstatistically": 6941,
      "Ġsolar": 6942,
      "ĠRNA": 6943,
      "ryption": 6944,
      "Ġsensor": 6945,
      "Ġpotentials": 6946,
      "äººå·¥": 6947,
      "ä½įç½®æĹ¶": 6948,
      "è§Ĥå¯Łæķ°æį®": 6949,
      "Ġzones": 6950,
      "ometers": 6951,
      "åŁŁåĲį": 6952,
      "entionally": 6953,
      "bital": 6954,
      "Ġretry": 6955,
      "Ġlowers": 6956,
      "ç»ĵè®ºæľ¬èº«": 6957,
      "Ġdirected": 6958,
      "ä¸įä¼ļèĩªåĬ¨": 6959,
      "rank": 6960,
      "Ġorganized": 6961,
      "æ¸ħæĻ°": 6962,
      "æĮĩæłĩåĴĮ": 6963,
      "Ġnonneg": 6964,
      "æµ·æ°´": 6965,
      "åĵªäºĽåıĺéĩı": 6966,
      "å¾Ģå¾Ģæ¯Ķ": 6967,
      "Ġfocuses": 6968,
      "Ġpredicted": 6969,
      "Ġsignaling": 6970,
      "éģĹæ¼ı": 6971,
      "Ġtransporting": 6972,
      "è§Ĩè§Ĵ": 6973,
      "Ġrecover": 6974,
      "Ġcommunic": 6975,
      "åı¯ä»¥åľ¨åĬ¨èĥ½": 6976,
      "åĩłä¸ª": 6977,
      "Ġcarri": 6978,
      "Ġcombination": 6979,
      "åĨ²éĩı": 6980,
      "åĵĪå¸Įåĩ½æķ°": 6981,
      "è½½èį·": 6982,
      "Ġlinked": 6983,
      "æī©å®¹": 6984,
      "Ġrunning": 6985,
      "ç»Ħç»ĩæĪĲ": 6986,
      "ended": 6987,
      "Ġavoids": 6988,
      "éļĶç¦»çº§åĪ«": 6989,
      "Ġelimin": 6990,
      "Ġaccumulate": 6991,
      "æ¼Ĥåıĺ": 6992,
      "æľŁæľĽæııè¿°": 6993,
      "Ġintegrity": 6994,
      "Ġspreading": 6995,
      "atience": 6996,
      "åľ°åĿĢç©ºéĹ´": 6997,
      "åĪĿå§ĭåĮĸ": 6998,
      "éĴĪ": 6999,
      "Ġsynchron": 7000,
      "Ġcorrelated": 7001,
      "Ġeruption": 7002,
      "Ġbalanced": 7003,
      "Ġforever": 7004,
      "ceeds": 7005,
      "Ġendpoint": 7006,
      "Ġobserve": 7007,
      "Ġtrend": 7008,
      "ĠTransformer": 7009,
      "ç«ŀæĢģ": 7010,
      "forward": 7011,
      "Ġcooling": 7012,
      "Ġtrigger": 7013,
      "Ġwrong": 7014,
      "ĠSeen": 7015,
      "Ġsharp": 7016,
      "Ġcritical": 7017,
      "ä¸Ńä½įæķ°å°±æĺ¯": 7018,
      "Ġnarrow": 7019,
      "Ġdelet": 7020,
      "è§Ĥå¯Łç»ĵæŀľä¸İéĽ¶åģĩè®¾": 7021,
      "èį¯çī©": 7022,
      "osynthesis": 7023,
      "Ġdestroy": 7024,
      "Ġobserver": 7025,
      "Ġlifetime": 7026,
      "Ġdisturbance": 7027,
      "åĢ¾åĲĳ": 7028,
      "çĵ¶é¢": 7029,
      "èĦ±ç¦»": 7030,
      "Ġloses": 7031,
      "åħ¼å®¹": 7032,
      "è´Ŀåı¶æĸ¯å®ļçĲĨæĬĬåħĪéªĮ": 7033,
      "ayerNorm": 7034,
      "æıĴåħ¥": 7035,
      "çĩĥ": 7036,
      "itrogen": 7037,
      "Ġempirical": 7038,
      "Ġnonnegative": 7039,
      "çĵ¶é¢Ī": 7040,
      "AX": 7041,
      "ATP": 7042,
      "Boundary": 7043,
      "ai": 7044,
      "oil": 7045,
      "opl": 7046,
      "pressure": 7047,
      "set": 7048,
      "side": 7049,
      "tically": 7050,
      "ytic": 7051,
      "yond": 7052,
      "¥æ¢": 7053,
      "èļ": 7054,
      "é¥": 7055,
      "Ġ8": 7056,
      "Ġ9": 7057,
      "ĠQ": 7058,
      "ĠåĢĴ": 7059,
      "inity": 7060,
      "Ġserves": 7061,
      "enced": 7062,
      "ising": 7063,
      "alities": 7064,
      "Ġmid": 7065,
      "Ġpage": 7066,
      "Ġpip": 7067,
      "Ġpast": 7068,
      "ards": 7069,
      "Ġbases": 7070,
      "Ġbudget": 7071,
      "Ġfitting": 7072,
      "Ġworth": 7073,
      "Ġinward": 7074,
      "Ġnitrogen": 7075,
      "åĲ¯": 7076,
      "asure": 7077,
      "lys": 7078,
      "Ġbeyond": 7079,
      "Ġstale": 7080,
      "å®ĺ": 7081,
      "ä½³": 7082,
      "ots": 7083,
      "otive": 7084,
      "èĥ½å¸®åĬ©": 7085,
      "Ġhund": 7086,
      "äº®": 7087,
      "Ġproject": 7088,
      "istribut": 7089,
      "ols": 7090,
      "åľ¨ä¸Ģå®ļ": 7091,
      "izers": 7092,
      "å¯Į": 7093,
      "å¼¦": 7094,
      "å¼ĥ": 7095,
      "åıĺå¼Ĥ": 7096,
      "æľīåĲĳ": 7097,
      "å®ļä½į": 7098,
      "ä¼ļéļı": 7099,
      "ä¼ļåĽŀåĪ°": 7100,
      "é¢Ĺ": 7101,
      "å·±": 7102,
      "ĠSh": 7103,
      "emb": 7104,
      "åı¯ä»¥æĶ¹åıĺ": 7105,
      "æĽ´ç¨³åģ¥": 7106,
      "Ġcontract": 7107,
      "Ġheated": 7108,
      "åı¯èĥ½æĶ¹åıĺ": 7109,
      "åı¯èĥ½æĺ¾èĳĹ": 7110,
      "åı¯èĥ½éĢłæĪĲ": 7111,
      "åĪ°ä¸Ģ": 7112,
      "Ġdistant": 7113,
      "ervised": 7114,
      "Ġacids": 7115,
      "Ġimpos": 7116,
      "Ġlets": 7117,
      "è¿Ļåı¥è¯Ŀ": 7118,
      "é«ĺäºİ": 7119,
      "æ°¢": 7120,
      "Ġinteraction": 7121,
      "Ġintervention": 7122,
      "åıĳå°Ħ": 7123,
      "Ġtransm": 7124,
      "ROC": 7125,
      "ç³»ç»ŁåĽºæľī": 7126,
      "ĠWorking": 7127,
      "åıĺåĮĸåĴĮ": 7128,
      "Ġheld": 7129,
      "ç»Ħä»¶": 7130,
      "èĩªå·±": 7131,
      "ä¸įæĺ¯çī©ä½ĵ": 7132,
      "è¿ĺåı¯ä»¥": 7133,
      "Ġvariations": 7134,
      "Ġarrows": 7135,
      "ä¸įèĥ½æ··ä¸ºä¸Ģè°Ī": 7136,
      "ä¸įèĥ½èĦ±ç¦»": 7137,
      "Ġworklo": 7138,
      "Ġgenerations": 7139,
      "åĩ½æķ°åĢ¼": 7140,
      "æł·æľ¬ä¸Ń": 7141,
      "Ġseparates": 7142,
      "æĮģæľī": 7143,
      "ç»ĨèıĮ": 7144,
      "position": 7145,
      "INCT": 7146,
      "è®©æ¨¡åŀĭ": 7147,
      "æĻº": 7148,
      "å¾Īé«ĺ": 7149,
      "æİ¨åİŁåĽł": 7150,
      "æĸĩåŃĹ": 7151,
      "åģıå¯¼": 7152,
      "Ġdisplace": 7153,
      "å½¢æĪĲçļĦ": 7154,
      "åıĳçĶŁçļĦ": 7155,
      "Ġsolving": 7156,
      "Ġsolute": 7157,
      "Ġstarts": 7158,
      "éĩįè¦ģçļĦæĺ¯": 7159,
      "Ġupdated": 7160,
      "Ġdetermined": 7161,
      "ä¸»åĬ¨": 7162,
      "Ġautomated": 7163,
      "Ġparticle": 7164,
      "Ġsuppl": 7165,
      "æĶ¶éĽĨ": 7166,
      "éªĮè¯ģæĮĩæłĩ": 7167,
      "âĢĿãĢĤ": 7168,
      "è¯ŃæĸĻ": 7169,
      "Ġexperience": 7170,
      "éĶĻè¯¯çļĦ": 7171,
      "Ġoccurred": 7172,
      "Ġplanned": 7173,
      "æĵ¦": 7174,
      "æİ¥è¿ĳç³»ç»ŁåĽºæľī": 7175,
      "Ġattract": 7176,
      "æķ°éĩıçº§": 7177,
      "æ¡¥æ¢": 7178,
      "æī¾åĪ°": 7179,
      "ä¸įä¼ļåľ¨": 7180,
      "Ġexpectations": 7181,
      "äºĴæĸ¥": 7182,
      "Ġvertical": 7183,
      "æŁĲä¸ªä½įç½®æĹ¶": 7184,
      "Ġrefraction": 7185,
      "æľªå¿ħ": 7186,
      "Ġconstrains": 7187,
      "åĪĨåŃĲçļĦ": 7188,
      "Ġorganization": 7189,
      "Ġeventual": 7190,
      "Ġsingular": 7191,
      "çķĻä¸ĭ": 7192,
      "å¾Ģå¾ĢæĽ´å®¹æĺĵ": 7193,
      "Ġvisual": 7194,
      "å¯¼æķ°åĪ»çĶ»": 7195,
      "æļĹ": 7196,
      "Ġpredictive": 7197,
      "åĪĩæį¢": 7198,
      "å¯¼èĩ´åı¦ä¸Ģä¸ª": 7199,
      "Beijing": 7200,
      "æº¶æ¶²": 7201,
      "éĩıåŃĲæĢģ": 7202,
      "Ġaddressing": 7203,
      "Ġsubjective": 7204,
      "æľĢå¤§åĮĸ": 7205,
      "æľĢå¤§ä¼¼çĦ¶": 7206,
      "åĵĪå¸Įè¡¨": 7207,
      "Ġreachable": 7208,
      "Ġfaults": 7209,
      "Ġtimescal": 7210,
      "Ġelastic": 7211,
      "Ġsimplifies": 7212,
      "Ġfindings": 7213,
      "Ġcloseness": 7214,
      "æĹ©æľŁ": 7215,
      "ç¨³æĢģ": 7216,
      "æĭĨåĪĨ": 7217,
      "æľīåºıçļĦ": 7218,
      "Ġmathematically": 7219,
      "Ġnuclei": 7220,
      "Ġsafety": 7221,
      "Ġelementary": 7222,
      "Ġignores": 7223,
      "Ġliter": 7224,
      "åĲĪéĢĤçļĦ": 7225,
      "ISTINCT": 7226,
      "Ġatmospheric": 7227,
      "Ġmetabolism": 7228,
      "Ġ10000": 7229,
      "å¾®å°ıè´¡çĮ®": 7230,
      "Ġconflicts": 7231,
      "piration": 7232,
      "çĶµå®¹åĻ¨": 7233,
      "çĽ¸è¿ĳæ¦Ĥå¿µ": 7234,
      "èĥ½éĩıåĴĮä¿¡æģ¯": 7235,
      "åıĤèĢĥç³»": 7236,
      "æŁĵèī²": 7237,
      "Ġpairs": 7238,
      "è½¯ä»¶": 7239,
      "Ġbonding": 7240,
      "åİŁå§ĭæķ°æį®æľ¬èº«": 7241,
      "å¤«ä¸įçŃīå¼ı": 7242,
      "Ġdocumented": 7243,
      "plexity": 7244,
      "è£ķéĩı": 7245,
      "ä¸ĸçķĮ": 7246,
      "Ġä¸įè¿ĩ": 7247,
      "Ġswit": 7248,
      "Ġshrink": 7249,
      "Ġarrangements": 7250,
      "ĠLIMI": 7251,
      "æĳ©æĵ¦": 7252,
      "Ġcongestion": 7253,
      "tegration": 7254,
      "Ġmembership": 7255,
      "ç§¯åĪĨæĬĬè¿ŀç»Ń": 7256,
      "å¯»æī¾ä½¿çĽ®æłĩåĩ½æķ°": 7257,
      "è·¨è¶Ĭå¤ļä¸ªæķ°éĩıçº§": 7258,
      "Ġsplitting": 7259,
      "Ġwidely": 7260,
      "å¤ļé¡¹å¼ı": 7261,
      "å¯¹æŀģç«¯åĢ¼éĢļå¸¸æ¯Ķ": 7262,
      "æ³¢åı¯ä»¥ä¼łéĢĴ": 7263,
      "Ġeliminate": 7264,
      "èļĢ": 7265,
      "æİ¥è¿ĳç³»ç»ŁåĽºæľīé¢ĳçİĩæĹ¶": 7266,
      "æ¡¥æ¢ģ": 7267,
      "Ġtimescales": 7268,
      "å¾®å°ıè´¡çĮ®ç´¯ç§¯": 7269,
      "ĠLIMIT": 7270,
      "';": 7271,
      "CO": 7272,
      "aw": 7273,
      "aper": 7274,
      "current": 7275,
      "ered": 7276,
      "olec": 7277,
      "ocean": 7278,
      "ped": 7279,
      "power": 7280,
      "ring": 7281,
      "rine": 7282,
      "tin": 7283,
      "vol": 7284,
      "wh": 7285,
      "Ġæİ¥": 7286,
      "Ġç»Łè®¡": 7287,
      "ĠæĽ´å®Įæķ´": 7288,
      "Ġçİ°å®ŀ": 7289,
      "ĳåº¦": 7290,
      "Ġaction": 7291,
      "ining": 7292,
      "Ġsides": 7293,
      "Ġsays": 7294,
      "Ġsatell": 7295,
      "ä¸ĩ": 7296,
      "itudes": 7297,
      "Ġmas": 7298,
      "Ġbug": 7299,
      "Ġbatter": 7300,
      "Ġreally": 7301,
      "Ġfat": 7302,
      "Ġfraction": 7303,
      "Ġfrag": 7304,
      "roph": 7305,
      "Ġinher": 7306,
      "entory": 7307,
      "çļĦæ¨¡åŀĭ": 7308,
      "çļĦåĮºåŁŁ": 7309,
      "çļĦä¸Ģéĥ¨åĪĨ": 7310,
      "åĲĲ": 7311,
      "ä¸įåıĺéĩı": 7312,
      "åĴĮæµĭéĩı": 7313,
      "åĴĮçĽ¸è¿ĳæ¦Ĥå¿µ": 7314,
      "Ġalthough": 7315,
      "abolic": 7316,
      "tern": 7317,
      "åĪĨè£Ĥ": 7318,
      "åĩĿ": 7319,
      "å°ģ": 7320,
      "æĹ¶åı¯ä»¥": 7321,
      "Ġvaries": 7322,
      "Ġvirtual": 7323,
      "çĶ¨å¯¹æķ°åĿĲæłĩ": 7324,
      "Ġseason": 7325,
      "ä¸ªä½ĵ": 7326,
      "ä¼ļçĽ´æİ¥": 7327,
      "èĢĲ": 7328,
      "ĠSim": 7329,
      "ĠSome": 7330,
      "å¸¸ä½¿çĶ¨": 7331,
      "ersed": 7332,
      "Ġcodes": 7333,
      "å¹¶åľ¨": 7334,
      "å¹¶æŁ¥": 7335,
      "å¹¶åħ·æľīæĸ¹åĲĳ": 7336,
      "æĽ´åĢ¼å¾Ĺ": 7337,
      "Ġintended": 7338,
      "Ġheader": 7339,
      "åı¯èĥ½å¯¼èĩ´": 7340,
      "å¤§çº¦": 7341,
      "æķ°æį®åĴĮ": 7342,
      "æķ°æį®ä¸Ĭ": 7343,
      "ä¸İæŃ¤": 7344,
      "ä¸İçľŁå®ŀ": 7345,
      "ä¸İæĸ°è¯ģæį®": 7346,
      "èĢĮä¸Ķ": 7347,
      "Ġimages": 7348,
      "Ġimag": 7349,
      "Ġrelates": 7350,
      "æĬĬä¸įç¡®å®ļ": 7351,
      "process": 7352,
      "åĬĽçŁ©": 7353,
      "å·®å¼ķèµ·": 7354,
      "é«ĺä¼°": 7355,
      "åįķçº¯": 7356,
      "Ġtraffic": 7357,
      "Ġcached": 7358,
      "ĠFrom": 7359,
      "ä¸ĭä¸Ģ": 7360,
      "ä¸ĭä¸Ģä¸ª": 7361,
      "Ġmechanically": 7362,
      "ĠCheck": 7363,
      "è¡Įæķ°": 7364,
      "ç³»ç»ŁæĢ»": 7365,
      "Ġformed": 7366,
      "éļıæ³¢": 7367,
      "åıĺåĮĸè½¬åĮĸä¸º": 7368,
      "Ġscan": 7369,
      "ä¸Ģä¸ªåıĺåĮĸèĥ½å¤Ł": 7370,
      "ressive": 7371,
      "æĶ¹åĨĻ": 7372,
      "ä¹Łä¸įèĥ½": 7373,
      "Ġmanual": 7374,
      "Ġinconsistent": 7375,
      "Ġremote": 7376,
      "æĿ¡ä»¶åĴĮ": 7377,
      "Ġplants": 7378,
      "Ġdetailed": 7379,
      "è¿ĺæĺ¯": 7380,
      "è§£éĩĬä¸º": 7381,
      "Ġarg": 7382,
      "Ġarm": 7383,
      "åĽłæŃ¤ä¸įèĥ½": 7384,
      "Ġoverhead": 7385,
      "éĢļè¿ĩæĪª": 7386,
      "åĩ½æķ°çļĦ": 7387,
      "æł·æľ¬çļĦ": 7388,
      "Ġclearly": 7389,
      "Ġdependent": 7390,
      "ä¸¤ç±»": 7391,
      "ä¹ĭéĹ´è½¬åĮĸ": 7392,
      "æĹ¶éĹ´éĢļè¿ĩæĪª": 7393,
      "ĠEven": 7394,
      "Ġrays": 7395,
      "åĲĮæĹ¶åıĸåĨ³äºİ": 7396,
      "æ¦Ĥçİĩæł¡åĩĨ": 7397,
      "æ¦ĤçİĩæĬĬä¸įç¡®å®ļ": 7398,
      "æĺ¾å¼ı": 7399,
      "ç¨³å®ļçļĦ": 7400,
      "åĪ¤æĸŃä¸İæĸ°è¯ģæį®": 7401,
      "Ġfiner": 7402,
      "åıĺéĩıåħ±åĲĮ": 7403,
      "åıĺéĩıåıĸåĢ¼": 7404,
      "åĨįæ¬¡": 7405,
      "èĥ½éĩıåı¯ä»¥åľ¨åĬ¨èĥ½": 7406,
      "å¾Īå®¹æĺĵ": 7407,
      "çĥŃæĺ¯çĶ±": 7408,
      "è¡¨ç¤ºä¸ºéĽ¶": 7409,
      "æĥĳåº¦": 7410,
      "Ġprovenance": 7411,
      "å±Ĥçº§": 7412,
      "ä»įåıĹåĪ°éĩįåĬĽ": 7413,
      "æºĲåĨ³å®ļ": 7414,
      "çī©ä½ĵä»įåıĹåĪ°éĩįåĬĽ": 7415,
      "rypt": 7416,
      "æ¸©åº¦å·®å¼ķèµ·": 7417,
      "Ġclassifier": 7418,
      "çĽ¸åħ³åħ³ç³»": 7419,
      "çĽ¸åħ³è¯´æĺİ": 7420,
      "è¾ĵåħ¥éĢĲæ¸Ĳæİ¥è¿ĳ": 7421,
      "Ġzone": 7422,
      "tices": 7423,
      "çļĦæĺ¯è¾ĵåħ¥éĢĲæ¸Ĳæİ¥è¿ĳ": 7424,
      "ä½ķæĹ¶": 7425,
      "çĽ¸åĲĮçļĦ": 7426,
      "åħīçº¿": 7427,
      "æľ¬èº«ä¸įå¿ħ": 7428,
      "ç»´åº¦": 7429,
      "æ¯Ķè¾ĥä¸įåĲĮ": 7430,
      "æ¯Ķè¾ĥè§Ĥå¯Łç»ĵæŀľä¸İéĽ¶åģĩè®¾": 7431,
      "çĭ¬ç«ĭæĸ¹åĲĳ": 7432,
      "åĽłæŀľåĪĻè¦ģæ±Ĥ": 7433,
      "å£°éŁ³": 7434,
      "Ġamounts": 7435,
      "å®Įåħ¨ä¸įåĲĮçļĦ": 7436,
      "ä¼ĺåĮĸæĺ¯åľ¨": 7437,
      "è¿ŀç»ŃæĢ§": 7438,
      "ä¹ĭéĹ´çļĦæķ°": 7439,
      "Ġvertices": 7440,
      "æľªæĿ¥": 7441,
      "åĨħéĥ¨åĤ¨åŃĺ": 7442,
      "èĢĮæĺ¯åľ¨": 7443,
      "æĢ§èĥ½æľĢå¤§åĮĸ": 7444,
      "è¾ĵåĩºåĳĪçİ°": 7445,
      "æĥħå½¢": 7446,
      "çŁ©éĺµç§©": 7447,
      "ä¸ºä»Ģä¹Īä¼ļåĩºçİ°": 7448,
      "Ġdevices": 7449,
      "æķ´ä½ĵåīįè¿Ľ": 7450,
      "çĶµèį·éĩı": 7451,
      "èĭ¥å¹²": 7452,
      "æŀģéĻĲè®¨è®º": 7453,
      "Ġinstability": 7454,
      "Ġstandardizes": 7455,
      "Ġdetects": 7456,
      "Ġhandling": 7457,
      "ä¹ĺç§¯": 7458,
      "çļĦæķ°æį®çĶ¨å¯¹æķ°åĿĲæłĩ": 7459,
      "hemical": 7460,
      "æĿ¡ä»¶ä¸ĭå¯»æī¾ä½¿çĽ®æłĩåĩ½æķ°": 7461,
      "éĿŀå¸¸éĩįè¦ģ": 7462,
      "åĬ¨éĩıåĲĮæĹ¶åıĸåĨ³äºİ": 7463,
      "åŁºç¡Ģåħ³ç³»": 7464,
      "è½¨éģĵä¸ĬçļĦ": 7465,
      "Ġuniversal": 7466,
      "Ġdeviate": 7467,
      "Ġtypical": 7468,
      "Ġmaximizes": 7469,
      "æĸ°çļĦæĸ¹åĲĳ": 7470,
      "ç²ĴåŃĲçļĦ": 7471,
      "Ġinventory": 7472,
      "çŃĶæ¡Ī": 7473,
      "Ġdivide": 7474,
      "è¿ĩåº¦æİ¨å¹¿": 7475,
      "éĿĻæĢģ": 7476,
      "è¯¥çĤ¹": 7477,
      "ä¸Ģç»Ħæľīåºı": 7478,
      "çĶµæµģæııè¿°åįķä½į": 7479,
      "åĳ¨æľŁé©±åĬ¨": 7480,
      "Ġsorted": 7481,
      "æ·±å±Ĥ": 7482,
      "Ġmicrob": 7483,
      "Ġcharges": 7484,
      "Ġdifferentiability": 7485,
      "Ġfalling": 7486,
      "éħ¸ç¢±": 7487,
      "Ġaccumulated": 7488,
      "scillation": 7489,
      "è®¨è®ºç»Łè®¡éĩıçļĦæĬ½æł·åĪĨå¸ĥ": 7490,
      "Ġexplicitly": 7491,
      "å°ıçļĦåıĺéĩıåıĸåĢ¼": 7492,
      "cosystem": 7493,
      "mitted": 7494,
      "Ġimplementations": 7495,
      "Ġbeneath": 7496,
      "åĽłä¸ºå®ĥä¾Ŀèµĸ": 7497,
      "åĩºçİ°çļĦå¾®å°ıè´¡çĮ®ç´¯ç§¯": 7498,
      "Ġcatalytic": 7499,
      "Ġreactants": 7500,
      "Ġsurvival": 7501,
      "åŃ¤ç«ĭæĬĢå·§": 7502,
      "åįģåĢį": 7503,
      "åįķä¸ĢæĢ§èĥ½æľĢå¤§åĮĸ": 7504,
      "æĮ¯å¹ħåı¯èĥ½æĺ¾èĳĹ": 7505,
      "åİĭå¼ºè¡¨ç¤ºåįķä½įéĿ¢ç§¯": 7506,
      "Ġinvolve": 7507,
      "Ġepochs": 7508,
      "Ġunconstrained": 7509,
      "Ġeigenvect": 7510,
      "åıĹåĪ°çļĦåŀĤçĽ´": 7511,
      "ä»ĭè´¨æľ¬èº«ä¸įå¿ħ": 7512,
      "Ġtangent": 7513,
      "Ġlife": 7514,
      "åĽ°æĥĳåº¦": 7515,
      "ventions": 7516,
      "æĽ´å¤§æĪĸæĽ´": 7517,
      "çº¿æĢ§æĹłåħ³åĨ³å®ļäºĨ": 7518,
      "Ġdiagnosis": 7519,
      "ä¸ĭçļĦéļıæľºæ³¢åĬ¨": 7520,
      "çļĦèĥ½éĩıä¼łéĢĴ": 7521,
      "å¥ĹçĶ¨": 7522,
      "æıĲä¾ĽäºĨæĸ°çļĦæĸ¹åĲĳ": 7523,
      "Ġtrials": 7524,
      "éľĢè¦ģéĩįæĸ°åĪ¤æĸŃ": 7525,
      "Ġä½Ĩè¿Ļåı¥è¯Ŀ": 7526,
      "Ġinfinitely": 7527,
      "åĨ³å®ļçī©ä½ĵåĬłéĢŁåº¦": 7528,
      "åĨ³å®ļçī©ä½ĵæĺ¯åĲ¦åħ·æľī": 7529,
      "å·¥ç¨ĭè®¾è®¡å¾Īå°ĳ": 7530,
      "éļıæľºåıĺéĩıçļĦéķ¿æľŁå¹³åĿĩæ°´å¹³": 7531,
      "å¸¸è§ģè¯¯åĮºæĺ¯è®¤ä¸º": 7532,
      "åĨħèĥ½çŃīå½¢å¼ı": 7533,
      "ä¸Ńå¿ĥæŀģéĻĲå®ļçĲĨè®¨è®ºç»Łè®¡éĩıçļĦæĬ½æł·åĪĨå¸ĥ": 7534,
      "Ġmultipliers": 7535,
      "tlene": 7536,
      "åı¯èĥ½ç¨ĭåº¦è¡¨ç¤ºä¸ºéĽ¶": 7537,
      "åĲĪåĬĽåĨ³å®ļçī©ä½ĵåĬłéĢŁåº¦": 7538,
      "éĿ¢çļĦçĶµèį·éĩı": 7539,
      "Ġè¿Ļä¸įæĺ¯åŃ¤ç«ĭæĬĢå·§": 7540,
      "åĩºçļĦè¶ĭåĬ¿": 7541,
      "éĥ½æĺ¯å¸¸è§ģ": 7542,
      "è´¨éĩıåĴĮéĢŁåº¦": 7543,
      "ä¸Ģç»ĦåĲĳéĩıæĺ¯åĲ¦çľŁæŃ£": 7544,
      "çļĦä¸Ģç§įçī©è´¨": 7545,
      "ä»İåºĶçĶ¨è§Ĵåº¦çľĭ": 7546,
      "Ġarchitectures": 7547,
      "å½Ĵä¸ĢåĮĸ": 7548,
      "generating": 7549,
      "åģĩè®¾æ£ĢéªĮæ¯Ķè¾ĥè§Ĥå¯Łç»ĵæŀľä¸İéĽ¶åģĩè®¾": 7550,
      "åı¯è¡ĮæĿ¡ä»¶ä¸ĭå¯»æī¾ä½¿çĽ®æłĩåĩ½æķ°": 7551,
      "Ġtrajectories": 7552,
      "å¤ĸçķĮåĳ¨æľŁé©±åĬ¨": 7553,
      "èĢĮä¸įæĺ¯è¦ģæ±ĤåİŁå§ĭæķ°æį®æľ¬èº«": 7554,
      "åıªè¿½æ±Ĥåįķä¸ĢæĢ§èĥ½æľĢå¤§åĮĸ": 7555,
      "ield": 7556,
      "Ġpeople": 7557,
      "Ġbottlene": 7558,
      "åĲŀåĲĲ": 7559,
      "Ġclarify": 7560,
      "çĬ¶æĢģæĪĸä¸Ģç»Ħæľīåºı": 7561,
      "é¦ĸåħĪ": 7562,
      "Ġcategories": 7563,
      "è¿Ļä¸¤ä¸ªåŁºç¡Ģåħ³ç³»": 7564,
      "æ°¨åŁº": 7565,
      "Ġfraud": 7566,
      "åĲĳéĩıåı¯ä»¥è¡¨ç¤ºæĸ¹åĲĳ": 7567,
      "äºĭä»¶çļĦåı¯èĥ½ç¨ĭåº¦è¡¨ç¤ºä¸ºéĽ¶": 7568,
      "Ġdelivery": 7569,
      "ä¸įèĥ½è¢«è¿ĩåº¦æİ¨å¹¿": 7570,
      "æľŁæľĽæııè¿°éļıæľºåıĺéĩıçļĦéķ¿æľŁå¹³åĿĩæ°´å¹³": 7571,
      "éĴĪå¯¹": 7572,
      "è´Ŀåı¶æĸ¯å®ļçĲĨæĬĬåħĪéªĮåĪ¤æĸŃä¸İæĸ°è¯ģæį®": 7573,
      "ĠåĢĴæİ¨åİŁåĽł": 7574,
      "lysis": 7575,
      "åľ¨ä¸Ģå®ļæĿ¡ä»¶ä¸ĭ": 7576,
      "åĪ°ä¸Ģä¹ĭéĹ´çļĦæķ°": 7577,
      "ä¸įæĺ¯çī©ä½ĵåĨħéĥ¨åĤ¨åŃĺ": 7578,
      "æĻºèĥ½": 7579,
      "å¾Ģå¾ĢæĽ´å®¹æĺĵæ¯Ķè¾ĥ": 7580,
      "å¯¼æķ°åĪ»çĶ»çŀ¬æĹ¶åıĺåĮĸçİĩ": 7581,
      "å¯¼èĩ´åı¦ä¸Ģä¸ªåıĺåĮĸ": 7582,
      "ç§¯åĪĨæĬĬè¿ŀç»Ńåĩºçİ°çļĦå¾®å°ıè´¡çĮ®ç´¯ç§¯": 7583,
      "è·¨è¶Ĭå¤ļä¸ªæķ°éĩıçº§çļĦæķ°æį®çĶ¨å¯¹æķ°åĿĲæłĩ": 7584,
      "æ³¢åı¯ä»¥ä¼łéĢĴèĥ½éĩıåĴĮä¿¡æģ¯": 7585,
      "å¹¶æŁ¥éĽĨ": 7586,
      "Ġheaders": 7587,
      "éļıæ³¢æķ´ä½ĵåīįè¿Ľ": 7588,
      "ä¸Ģä¸ªåıĺåĮĸèĥ½å¤Łå¯¼èĩ´åı¦ä¸Ģä¸ªåıĺåĮĸ": 7589,
      "æĹ¶éĹ´éĢļè¿ĩæĪªéĿ¢çļĦçĶµèį·éĩı": 7590,
      "æ¦ĤçİĩæĬĬä¸įç¡®å®ļäºĭä»¶çļĦåı¯èĥ½ç¨ĭåº¦è¡¨ç¤ºä¸ºéĽ¶": 7591,
      "åıĺéĩıåħ±åĲĮåıĺåĮĸ": 7592,
      "çĥŃæĺ¯çĶ±æ¸©åº¦å·®å¼ķèµ·": 7593,
      "çī©ä½ĵä»įåıĹåĪ°éĩįåĬĽä½ľçĶ¨": 7594,
      "çĽ¸åħ³è¯´æĺİåıĺéĩıåħ±åĲĮåıĺåĮĸ": 7595,
      "çļĦæĺ¯è¾ĵåħ¥éĢĲæ¸Ĳæİ¥è¿ĳæŁĲä¸ªä½įç½®æĹ¶": 7596,
      "åĽłæŀľåĪĻè¦ģæ±Ĥä¸Ģä¸ªåıĺåĮĸèĥ½å¤Łå¯¼èĩ´åı¦ä¸Ģä¸ªåıĺåĮĸ": 7597,
      "ä¼ĺåĮĸæĺ¯åľ¨åı¯è¡ĮæĿ¡ä»¶ä¸ĭå¯»æī¾ä½¿çĽ®æłĩåĩ½æķ°": 7598,
      "è¾ĵåĩºåĳĪçİ°åĩºçļĦè¶ĭåĬ¿": 7599,
      "æŀģéĻĲè®¨è®ºçļĦæĺ¯è¾ĵåħ¥éĢĲæ¸Ĳæİ¥è¿ĳæŁĲä¸ªä½įç½®æĹ¶": 7600,
      "åĬ¨éĩıåĲĮæĹ¶åıĸåĨ³äºİè´¨éĩıåĴĮéĢŁåº¦": 7601,
      "è½¨éģĵä¸ĬçļĦçī©ä½ĵä»įåıĹåĪ°éĩįåĬĽä½ľçĶ¨": 7602,
      "çĶµæµģæııè¿°åįķä½įæĹ¶éĹ´éĢļè¿ĩæĪªéĿ¢çļĦçĶµèį·éĩı": 7603,
      "æĮ¯å¹ħåı¯èĥ½æĺ¾èĳĹå¢ŀå¤§": 7604,
      "åİĭå¼ºè¡¨ç¤ºåįķä½įéĿ¢ç§¯åıĹåĪ°çļĦåŀĤçĽ´": 7605,
      "ä»ĭè´¨æľ¬èº«ä¸įå¿ħéļıæ³¢æķ´ä½ĵåīįè¿Ľ": 7606,
      "æĽ´å¤§æĪĸæĽ´å°ıçļĦåıĺéĩıåıĸåĢ¼": 7607,
      "çº¿æĢ§æĹłåħ³åĨ³å®ļäºĨä¸Ģç»ĦåĲĳéĩıæĺ¯åĲ¦çľŁæŃ£": 7608,
      "Ġä½Ĩè¿Ļåı¥è¯Ŀä¸įèĥ½è¢«è¿ĩåº¦æİ¨å¹¿": 7609,
      "åĨ³å®ļçī©ä½ĵæĺ¯åĲ¦åħ·æľīéĢŁåº¦": 7610,
      "å·¥ç¨ĭè®¾è®¡å¾Īå°ĳåıªè¿½æ±Ĥåįķä¸ĢæĢ§èĥ½æľĢå¤§åĮĸ": 7611,
      "åĨħèĥ½çŃīå½¢å¼ıä¹ĭéĹ´è½¬åĮĸ": 7612,
      "åģĩè®¾æ£ĢéªĮæ¯Ķè¾ĥè§Ĥå¯Łç»ĵæŀľä¸İéĽ¶åģĩè®¾ä¸ĭçļĦéļıæľºæ³¢åĬ¨": 7613,
      "å¤ĸçķĮåĳ¨æľŁé©±åĬ¨æİ¥è¿ĳç³»ç»ŁåĽºæľīé¢ĳçİĩæĹ¶": 7614,
      "èĢĮä¸įæĺ¯è¦ģæ±ĤåİŁå§ĭæķ°æį®æľ¬èº«æŃ£æĢģ": 7615,
      "çĬ¶æĢģæĪĸä¸Ģç»Ħæľīåºıæķ°åĢ¼": 7616,
      "è´Ŀåı¶æĸ¯å®ļçĲĨæĬĬåħĪéªĮåĪ¤æĸŃä¸İæĸ°è¯ģæį®ç»ĵåĲĪèµ·æĿ¥": 7617,
      "ä¸įæĺ¯çī©ä½ĵåĨħéĥ¨åĤ¨åŃĺçļĦä¸Ģç§įçī©è´¨": 7618,
      "ç§¯åĪĨæĬĬè¿ŀç»Ńåĩºçİ°çļĦå¾®å°ıè´¡çĮ®ç´¯ç§¯èµ·æĿ¥": 7619,
      "è·¨è¶Ĭå¤ļä¸ªæķ°éĩıçº§çļĦæķ°æį®çĶ¨å¯¹æķ°åĿĲæłĩå¾Ģå¾ĢæĽ´å®¹æĺĵæ¯Ķè¾ĥ": 7620,
      "æ¦ĤçİĩæĬĬä¸įç¡®å®ļäºĭä»¶çļĦåı¯èĥ½ç¨ĭåº¦è¡¨ç¤ºä¸ºéĽ¶åĪ°ä¸Ģä¹ĭéĹ´çļĦæķ°": 7621,
      "çĥŃæĺ¯çĶ±æ¸©åº¦å·®å¼ķèµ·çļĦèĥ½éĩıä¼łéĢĴ": 7622,
      "ä¼ĺåĮĸæĺ¯åľ¨åı¯è¡ĮæĿ¡ä»¶ä¸ĭå¯»æī¾ä½¿çĽ®æłĩåĩ½æķ°æĽ´å¤§æĪĸæĽ´å°ıçļĦåıĺéĩıåıĸåĢ¼": 7623,
      "åİĭå¼ºè¡¨ç¤ºåįķä½įéĿ¢ç§¯åıĹåĪ°çļĦåŀĤçĽ´ä½ľçĶ¨åĬĽ": 7624,
      "çº¿æĢ§æĹłåħ³åĨ³å®ļäºĨä¸Ģç»ĦåĲĳéĩıæĺ¯åĲ¦çľŁæŃ£æıĲä¾ĽäºĨæĸ°çļĦæĸ¹åĲĳ": 7625,
      "01": 7626,
      "10": 7627,
      "He": 7628,
      "Rem": 7629,
      "SG": 7630,
      "aced": 7631,
      "fol": 7632,
      "hib": 7633,
      "kstra": 7634,
      "link": 7635,
      "mass": 7636,
      "our": 7637,
      "sens": 7638,
      "sho": 7639,
      "spot": 7640,
      "table": 7641,
      "¬åĽŀ": 7642,
      "æ¹": 7643,
      "èħ": 7644,
      "Ġè®Ńç»ĥ": 7645,
      "ĬæĸŃ": 7646,
      "ĸçĽ´": 7647,
      "Ġsoc": 7648,
      "anced": 7649,
      "itative": 7650,
      "Ġdimensional": 7651,
      "Ġmi": 7652,
      "Ġport": 7653,
      "åı¬åĽŀ": 7654,
      "Ġrepl": 7655,
      "Ġreject": 7656,
      "Ġfig": 7657,
      "Ġfart": 7658,
      "usting": 7659,
      "çļĦçĽ®æłĩ": 7660,
      "radient": 7661,
      "ä¸įæ»¡è¶³": 7662,
      "etition": 7663,
      "Ġonto": 7664,
      "Ġonline": 7665,
      "è¯ĬæĸŃ": 7666,
      "åŃ£": 7667,
      "æĺ¯ä¸¤ç§į": 7668,
      "ä¹±": 7669,
      "åĪĨæķ°": 7670,
      "è¡Ģ": 7671,
      "umerical": 7672,
      "Ġmade": 7673,
      "çĶ¨æĿ¥": 7674,
      "ä¼ļéĻįä½İ": 7675,
      "èĢ¦": 7676,
      "æĬµ": 7677,
      "éĻĨ": 7678,
      "è¿ĩå¤ļ": 7679,
      "è¿ĩé«ĺ": 7680,
      "Ġrespiration": 7681,
      "ĠThese": 7682,
      "è§£çłģ": 7683,
      "åı¯èĥ½åĩºçİ°": 7684,
      "andard": 7685,
      "æķ°æį®ä¸ŃçļĦ": 7686,
      "å¯¹åıĤæķ°": 7687,
      "çĶµè§£": 7688,
      "çĶµæŀģ": 7689,
      "èĢĮä»ĭè´¨æľ¬èº«ä¸įå¿ħéļıæ³¢æķ´ä½ĵåīįè¿Ľ": 7690,
      "çĽ¸åıį": 7691,
      "Ġleading": 7692,
      "Ġtrust": 7693,
      "åĲİæŀľ": 7694,
      "æĬĬä¸Ģä¸ª": 7695,
      "è¿Ļä»¶äºĭ": 7696,
      "å¤įåĲĪ": 7697,
      "Ġabstra": 7698,
      "æľĢåħ³éĶ®": 7699,
      "æľĢä½³": 7700,
      "æĭħ": 7701,
      "é«ĺæ¸©": 7702,
      "Ġinterventions": 7703,
      "æ¨¡åŀĭå¯¹": 7704,
      "åįķæ¬¡": 7705,
      "Ġpreval": 7706,
      "æģ°": 7707,
      "pace": 7708,
      "ç«ĸçĽ´": 7709,
      "åĬłå¯Ĩ": 7710,
      "ç³»ç»Łåľ¨": 7711,
      "ç³»ç»ŁæĢ§": 7712,
      "ç³»ç»Łè¯¯å·®": 7713,
      "Ġscoring": 7714,
      "çŃīæĮĩæłĩ": 7715,
      "Ġqual": 7716,
      "ĠBe": 7717,
      "ĠBFS": 7718,
      "ĠBloom": 7719,
      "ä½Ĩå®ĥ": 7720,
      "Ġobserving": 7721,
      "Ġobservational": 7722,
      "æŃ¤æĹ¶": 7723,
      "Ġgenes": 7724,
      "åĳ¼": 7725,
      "Ġdecides": 7726,
      "éĥ½èĥ½": 7727,
      "èĩªä¿¡": 7728,
      "åħĪæĬĵä½ı": 7729,
      "ç¼ł": 7730,
      "è°ĥåıĤ": 7731,
      "ç´§": 7732,
      "è§£éĩĬçļĦ": 7733,
      "è§£éĩĬäºĨ": 7734,
      "åĪĻæĬĬ": 7735,
      "Ġpartly": 7736,
      "Ġoverfit": 7737,
      "Ġoptimize": 7738,
      "Ġworkflow": 7739,
      "å¯¼çĶµ": 7740,
      "ifications": 7741,
      "å¼ºçĥĪ": 7742,
      "éļıæľºè¿ĩç¨ĭ": 7743,
      "åĿĩåĮĢ": 7744,
      "å¹¶ä¸įæĢ»": 7745,
      "Ġassumes": 7746,
      "ä¼ĺåĬ¿": 7747,
      "ĠMAX": 7748,
      "åĽŀæĶ¶": 7749,
      "conf": 7750,
      "æį¢åıĸ": 7751,
      "å¦Ĥæŀľä»İ": 7752,
      "å¦Ĥæŀľå¿½çķ¥": 7753,
      "Ġcontrolling": 7754,
      "å°±éľĢè¦ģ": 7755,
      "Ġamortized": 7756,
      "ĠDFS": 7757,
      "åıįåºĶåĴĮ": 7758,
      "åıįåºĶéĢŁçİĩ": 7759,
      "Ġlocality": 7760,
      "Ġground": 7761,
      "Ġcausing": 7762,
      "Ġsolid": 7763,
      "oura": 7764,
      "Ġcontinues": 7765,
      "Ġcontinued": 7766,
      "ç©ºéĹ´ä¸ŃçļĦ": 7767,
      "å¤įæĿĤçļĦ": 7768,
      "æĮĩåĩº": 7769,
      "å¼ķåħ¥": 7770,
      "éĿŀåĩ¸": 7771,
      "éĩįå¤įæµĭéĩı": 7772,
      "Ġcomputer": 7773,
      "æĺ¾èĳĹæĢ§": 7774,
      "æĮ¯åĬ¨": 7775,
      "Ġè¿ĻéĩĮ": 7776,
      "èĢĮä¸įæĺ¯åĨ³å®ļçī©ä½ĵæĺ¯åĲ¦åħ·æľīéĢŁåº¦": 7777,
      "ç¡®å®ļæĢ§": 7778,
      "ä¼°è®¡æłĩåĩĨè¯¯åĴĮ": 7779,
      "åŃĹèĬĤ": 7780,
      "åĽłæŀľåĽ¾": 7781,
      "Ġinfluenced": 7782,
      "ä¼ĺåĮĸéĹ®é¢ĺ": 7783,
      "Ġallowed": 7784,
      "åħ³éĶ®åĮºåĪ«": 7785,
      "äº¤åıī": 7786,
      "åĨĻåĩº": 7787,
      "ç¼©æĶ¾": 7788,
      "éĩĩéĽĨ": 7789,
      "Ġfolding": 7790,
      "åı¦ä¸Ģ": 7791,
      "ä¸»è¦ģç»ĵæŀľ": 7792,
      "å±ķç¤º": 7793,
      "Ġselectivity": 7794,
      "Ġindexing": 7795,
      "Ġsums": 7796,
      "ä¹ĺåŃĲ": 7797,
      "Ġmonomer": 7798,
      "åĲįç§°": 7799,
      "æŃ£ç¡®æĢ§": 7800,
      "æ¼ıæİī": 7801,
      "æĻ®éĢļå®ŀæķ°": 7802,
      "è¿Ļä¸ªä¸»é¢ĺ": 7803,
      "çĶµåľºæĺ¯": 7804,
      "çŁŃæĹ¶éĹ´": 7805,
      "åľ°çĲĥèĩªè½¬": 7806,
      "Ġadjusts": 7807,
      "Ġsubstances": 7808,
      "Ġreports": 7809,
      "ç±»åĪ«æĿĥéĩį": 7810,
      "Ġinvest": 7811,
      "é©¬": 7812,
      "Ġemphasize": 7813,
      "readable": 7814,
      "è¿ĩåº¦èĩªä¿¡": 7815,
      "Ġincreasingly": 7816,
      "Ġlatent": 7817,
      "Ġperiods": 7818,
      "å¹²æ¶ī": 7819,
      "Ġcapacitors": 7820,
      "æ°§åĮĸè¿ĺåİŁ": 7821,
      "ç»ĻåĩºçļĦ": 7822,
      "Ġdifficulty": 7823,
      "Ġworld": 7824,
      "ĠRepe": 7825,
      "Ġadaptation": 7826,
      "Ġdegree": 7827,
      "Ġhotspot": 7828,
      "æİ¨å¹¿åĪ°": 7829,
      "åºķçī©": 7830,
      "Ġoscillations": 7831,
      "Ġ202": 7832,
      "Ġflexibility": 7833,
      "æľĢåĲİä¼ļå½±åĵį": 7834,
      "å¤ĸéĥ¨æķĪåº¦": 7835,
      "Ġfluctuation": 7836,
      "Ġelectrode": 7837,
      "Ġmoderate": 7838,
      "apsack": 7839,
      "è¿Ļæł·çļĦè§Ħå¾ĭ": 7840,
      "Ġwaiting": 7841,
      "Ġsevere": 7842,
      "è§£æŀĲåĻ¨": 7843,
      "Ġgalaxy": 7844,
      "Real": 7845,
      "æ°¸ä¹ħ": 7846,
      "Ġcriter": 7847,
      "è¿Ļä¸Ģä¸»é¢ĺ": 7848,
      "Ġtolerate": 7849,
      "åĽĽåĪĨä½įæķ°": 7850,
      "Ġtectonic": 7851,
      "çºłç¼ł": 7852,
      "ä¹ĲåĻ¨": 7853,
      "å·¨å¤§çļĦ": 7854,
      "Ġrecomm": 7855,
      "Ġrecursion": 7856,
      "åĿĩåĢ¼åĴĮæĸ¹å·®": 7857,
      "Ġconsequences": 7858,
      "æĻ¶ä½ĵ": 7859,
      "é»ĳæ´ŀ": 7860,
      "æ½ľçĥŃ": 7861,
      "åįłçĶ¨": 7862,
      "Ġexclus": 7863,
      "Ġmigration": 7864,
      "Ġmanagement": 7865,
      "Ġdiscrimination": 7866,
      "Ġvolcanoes": 7867,
      "Ġfreezing": 7868,
      "Ġsymb": 7869,
      "Ġrigid": 7870,
      "Ġtransparently": 7871,
      "Ġjustified": 7872,
      "Ġdissolved": 7873,
      "blind": 7874,
      "çģ«å±±": 7875,
      "Ġdiagrams": 7876,
      "Ġsunlight": 7877,
      "ä¸ĭæĿ¥åĨįçľĭ": 7878,
      "Ġadvance": 7879,
      "Ġreconsidered": 7880,
      "Ġsubstrate": 7881,
      "Ġsynchronization": 7882,
      "Ġæİ¥ä¸ĭæĿ¥åĨįçľĭ": 7883,
      "Ġçİ°å®ŀä¸Ń": 7884,
      "ä¸İæŃ¤åĲĮæĹ¶": 7885,
      "hibit": 7886,
      "Ġsocial": 7887,
      "åı¬åĽŀçİĩ": 7888,
      "Ġfarther": 7889,
      "æľĢåħ³éĶ®çļĦ": 7890,
      "Ġprevalence": 7891,
      "åħĪæĬĵä½ıè¿Ļä»¶äºĭ": 7892,
      "ADH": 7893,
      "Earth": 7894,
      "bability": 7895,
      "base": 7896,
      "cles": 7897,
      "dle": 7898,
      "down": 7899,
      "gest": 7900,
      "ikelihood": 7901,
      "length": 7902,
      "rite": 7903,
      "sh": 7904,
      "sup": 7905,
      "trans": 7906,
      "uction": 7907,
      "©çĽĸ": 7908,
      "»æ³¢": 7909,
      "å¨": 7910,
      "æ¾Ħ": 7911,
      "ĠåĽłæŃ¤": 7912,
      "Ġåħ³éĶ®æľºåĪ¶æĺ¯": 7913,
      "ĵåĲį": 7914,
      "Ġtea": 7915,
      "Ġtells": 7916,
      "Ġthir": 7917,
      "energy": 7918,
      "isible": 7919,
      "orph": 7920,
      "Ġdns": 7921,
      "Ġdense": 7922,
      "Ġbase": 7923,
      "Ġfam": 7924,
      "Ġwidth": 7925,
      "Ġinvariance": 7926,
      "çļĦæł¸å¿ĥ": 7927,
      "æľĪ": 7928,
      "æľĹ": 7929,
      "Ġconve": 7930,
      "ceans": 7931,
      "æķĻ": 7932,
      "Ġoffs": 7933,
      "æķ°ç»Ħ": 7934,
      "Ġhost": 7935,
      "åĴĮèĥ½éĩı": 7936,
      "åĴĮæĽ´æĸ°": 7937,
      "åĴĮæķ°åĢ¼": 7938,
      "åı¯æµĭéĩı": 7939,
      "äº¡": 7940,
      "äº¿": 7941,
      "quer": 7942,
      "ĠTra": 7943,
      "éĩıåĴĮ": 7944,
      "æĺ¯ä¸Ģ": 7945,
      "ä¸Ģæ®µ": 7946,
      "åĩ»": 7947,
      "urity": 7948,
      "urther": 7949,
      "åľ¨ç»Łè®¡": 7950,
      "rie": 7951,
      "åĲĮä½į": 7952,
      "å¯¸": 7953,
      "herm": 7954,
      "Ġunt": 7955,
      "ä»¥åĩıå°ĳ": 7956,
      "æİ©çĽĸ": 7957,
      "ä¼ļè¿Ļæł·": 7958,
      "æµĨ": 7959,
      "å·¦": 7960,
      "åį¡": 7961,
      "ä¸Ńæľīå¤ļå°ĳ": 7962,
      "antic": 7963,
      "åı¯ä»¥ä»İ": 7964,
      "ived": 7965,
      "Ġresh": 7966,
      "å¹¶å½¢æĪĲ": 7967,
      "æĽ´å¤§çļĦ": 7968,
      "æīĵ": 7969,
      "åı¯èĥ½äº§çĶŁ": 7970,
      "å¤ļéĩį": 7971,
      "å¤ļæ¬¡": 7972,
      "éĩįè§Ĩ": 7973,
      "éĩįåıł": 7974,
      "æĬĬæķ°æį®": 7975,
      "probability": 7976,
      "dings": 7977,
      "Ġbyte": 7978,
      "ç©¿": 7979,
      "éľĢè¦ģåĲĮæĹ¶": 7980,
      "éľĢè¦ģç»ĵåĲĪ": 7981,
      "ä¾µ": 7982,
      "Ġinteract": 7983,
      "Ġinterference": 7984,
      "åıĳèĤ²": 7985,
      "Ġtraces": 7986,
      "æ¯Ĵ": 7987,
      "æłĩéĩı": 7988,
      "åĬłæĿĥ": 7989,
      "Ġunderfitting": 7990,
      "Ġperme": 7991,
      "Ġperplexity": 7992,
      "ä¿¡åº¦": 7993,
      "è°¨": 7994,
      "ä½įäºİ": 7995,
      "ä½įç§»": 7996,
      "æİ¥åı£": 7997,
      "Ġadmit": 7998,
      "ĠOptimization": 7999,
      "Ġrough": 8000,
      "Ġround": 8001,
      "ç»ĵæŀľä¼ļ": 8002,
      "æŀĦå¿µ": 8003,
      "æ¸¸": 8004,
      "æŃ£äº¤": 8005,
      "æĿ¥è¶Ĭ": 8006,
      "æĸ°ä¿¡æģ¯": 8007,
      "epoch": 8008,
      "æĿ¡ä»¶æ¯Ķ": 8009,
      "è·ĥ": 8010,
      "Ġconsidered": 8011,
      "åħĪæ£ĢæŁ¥": 8012,
      "çĤ¹ä¹ĭéĹ´": 8013,
      "Ġtrained": 8014,
      "Ġvariants": 8015,
      "è¾ĥå°ĳ": 8016,
      "è¾ĥå¤§çļĦ": 8017,
      "åľ°åĮº": 8018,
      "é¡¶": 8019,
      "åĩ½æķ°åĴĮ": 8020,
      "ä½İäºİ": 8021,
      "ĠNew": 8022,
      "ĠElect": 8023,
      "éļıæľºæĬ½æł·": 8024,
      "Ġraise": 8025,
      "æ²³": 8026,
      "è¿ĽåĮĸ": 8027,
      "èĥ½å¤Łå¸®åĬ©": 8028,
      "ä»£ä»·": 8029,
      "åĿĩè¡¡": 8030,
      "Ġcomplement": 8031,
      "å¹¶ä¸įä¼ļ": 8032,
      "è®¡ç®ĹæĪĲæľ¬": 8033,
      "ĠMarkov": 8034,
      "Ġlearns": 8035,
      "é¢ĦåħĪ": 8036,
      "åĪ¤æĸŃå°±éľĢè¦ģ": 8037,
      "Ġjum": 8038,
      "conquer": 8039,
      "Ġcold": 8040,
      "éĽĨæĪĲ": 8041,
      "Ġvalidate": 8042,
      "å¾ĢåĽŀ": 8043,
      "äºĭåħĪ": 8044,
      "Ġways": 8045,
      "è¶ĬæĿ¥è¶Ĭ": 8046,
      "åģĩè®¾åĴĮ": 8047,
      "Ġfunctional": 8048,
      "è¯ķéªĮ": 8049,
      "Ġexamine": 8050,
      "åĲĳéĩıçļĦ": 8051,
      "Ġexpands": 8052,
      "æĮĩä»¤": 8053,
      "æ¸©åº¦åıĺåĮĸ": 8054,
      "å¿ħçĦ¶": 8055,
      "Ġclassical": 8056,
      "çĽ¸åħ³éĹ®é¢ĺæĹ¶": 8057,
      "è¾ĵåħ¥ä¸Ĭ": 8058,
      "æĺ¾èĳĹæĶ¾å¤§": 8059,
      "åħīåĲĪ": 8060,
      "apor": 8061,
      "aped": 8062,
      "000": 8063,
      "å§ĵåĲį": 8064,
      "å¾®ç§¯åĪĨ": 8065,
      "Ġè¿Ļæł·": 8066,
      "çĭ¬ç«ĭçļĦ": 8067,
      "Ġknapsack": 8068,
      "å±Ģéĥ¨æĸľçİĩ": 8069,
      "å°ºå¯¸": 8070,
      "Ġimproving": 8071,
      "æľĢç»Īä¼ļå½±åĵį": 8072,
      "ĠCOALESCE": 8073,
      "Ġextens": 8074,
      "ç»ĵè®ºæĺ¯åĲ¦": 8075,
      "åĲĮä¸Ģç§į": 8076,
      "ç®Ĺæ³ķåľ¨": 8077,
      "è®¸å¤ļçĭ¬ç«ĭ": 8078,
      "æľªè§ģ": 8079,
      "æ£ĢæŁ¥åīįæıĲ": 8080,
      "åĨĻæĪĲ": 8081,
      "ĠAsking": 8082,
      "å¸¦å®½": 8083,
      "Ġweightless": 8084,
      "Ġconstants": 8085,
      "Ġgeolog": 8086,
      "çŁ©éĺµä¹ĺæ³ķ": 8087,
      "éļ¾åº¦": 8088,
      "Ġfolds": 8089,
      "Ġglob": 8090,
      "Ġcontexts": 8091,
      "åĪĴåĪĨ": 8092,
      "èī¯": 8093,
      "åĲįè¯į": 8094,
      "Ġassigns": 8095,
      "Ġreproductive": 8096,
      "å¯¹æķ°åĩ½æķ°": 8097,
      "acific": 8098,
      "Ġcrosslink": 8099,
      "è¿Ļä¸ªåĲįè¯į": 8100,
      "å»¶è¿ŁåĴĮ": 8101,
      "ĠVectors": 8102,
      "å¹ħåº¦": 8103,
      "ç±»åĪ«ä¸įå¹³è¡¡": 8104,
      "Ġbuilt": 8105,
      "é©»æ³¢": 8106,
      "Ġoxid": 8107,
      "Ġlengths": 8108,
      "osphere": 8109,
      "æ¿Ģç´ł": 8110,
      "clic": 8111,
      "Ġinequalities": 8112,
      "åģıç¦»çĽ®æłĩ": 8113,
      "åģıç¦»åĿĩåĢ¼": 8114,
      "ç¼ºéĻ·": 8115,
      "Ġdeployed": 8116,
      "Ġconsistently": 8117,
      "Ġthresholds": 8118,
      "Ġcryst": 8119,
      "Ġincluding": 8120,
      "ç²¾ç¡®çİĩ": 8121,
      "Ġadaptive": 8122,
      "èģĶç³»èµ·æĿ¥": 8123,
      "Ġextends": 8124,
      "åģľæŃ¢": 8125,
      "Ġnucleus": 8126,
      "Ġalternatives": 8127,
      "éĴ¥": 8128,
      "éĥ½åı¯èĥ½æĶ¹åıĺ": 8129,
      "Ġabsorbs": 8130,
      "ç¦»æķ£Token": 8131,
      "åĢ¼å¾ĹåħĪ": 8132,
      "Ġinvolving": 8133,
      "æŃ£å¸¸æĥħåĨµä¸ĭ": 8134,
      "Ġtrends": 8135,
      "Ġidempotent": 8136,
      "çĶµç£ģæ³¢": 8137,
      "åİŁæĿ¥çļĦåĪ¤æĸŃå°±éľĢè¦ģ": 8138,
      "Ġcharacteristics": 8139,
      "æĸĩä»¶ç³»ç»Ł": 8140,
      "åı¯çĶ¨æĢ§": 8141,
      "Ġsharing": 8142,
      "Ġmixing": 8143,
      "Ġstacks": 8144,
      "çīĩæ®µ": 8145,
      "Ġincompatible": 8146,
      "çĻ¾åĪĨ": 8147,
      "Ġburst": 8148,
      "Ġobtaining": 8149,
      "Ġtolerance": 8150,
      "Ġsecurity": 8151,
      "Ġchromatin": 8152,
      "Ġchromatography": 8153,
      "Ġè¿Ļä¸ªçİ°è±¡": 8154,
      "Ġconfirmatory": 8155,
      "Ġallele": 8156,
      "ĠHeat": 8157,
      "checkpoint": 8158,
      "Ġimpulse": 8159,
      "Ġconfiguration": 8160,
      "èĴ¸": 8161,
      "Ġhazard": 8162,
      "ancial": 8163,
      "Ġreplicas": 8164,
      "å¦Ĥæŀľåıªè®°ä½ı": 8165,
      "çº¿æĢ§æĸ¹ç¨ĭç»Ħ": 8166,
      "æ¶Īè´¹èĢħ": 8167,
      "stronauts": 8168,
      "Ġvalleys": 8169,
      "æĪĳä»¬çľĭåĪ°çļĦç»ĵæŀľ": 8170,
      "ä¸ºçľŁçļĦæ¦Ĥçİĩ": 8171,
      "åħ¶å®ŀæĺ¯": 8172,
      "ç»ĵè®ºæľ¬èº«æĽ´åĢ¼å¾Ĺ": 8173,
      "ç«ŀæĢģæĿ¡ä»¶": 8174,
      "Ġimpossible": 8175,
      "processing": 8176,
      "å¾Īå®¹æĺĵæ¼ıæİī": 8177,
      "ä¸ºä»Ģä¹Īä¼ļåĩºçİ°è¿Ļæł·çļĦè§Ħå¾ĭ": 8178,
      "åĳ¼åĲ¸": 8179,
      "è§£éĩĬäºĨä¸ºä»Ģä¹Ī": 8180,
      "å¦Ĥæŀľå¿½çķ¥è¿Ļä¸ĢçĤ¹": 8181,
      "åħ³éĶ®åĮºåĪ«æĺ¯": 8182,
      "æ¾Ħæ¸ħ": 8183,
      "Ġteach": 8184,
      "åĲĮä½įç´ł": 8185,
      "ä¼ļè¿Ļæł·è¡¨çİ°": 8186,
      "Ġroughly": 8187,
      "æĿ¡ä»¶æ¯Ķç»ĵè®ºæľ¬èº«æĽ´åĢ¼å¾Ĺ": 8188,
      "æľĢç»Īä¼ļå½±åĵįæĪĳä»¬çľĭåĪ°çļĦç»ĵæŀľ": 8189,
      "åİŁæĿ¥çļĦåĪ¤æĸŃå°±éľĢè¦ģè°ĥæķ´": 8190,
      "å¾Īå®¹æĺĵæ¼ıæİīæĿ¡ä»¶": 8191,
      "æĿ¡ä»¶æ¯Ķç»ĵè®ºæľ¬èº«æĽ´åĢ¼å¾ĹåħĪçľĭ": 8192,
      "20": 8193,
      "PA": 8194,
      "UDP": 8195,
      "lig": 8196,
      "met": 8197,
      "name": 8198,
      "ok": 8199,
      "over": 8200,
      "rons": 8201,
      "wave": 8202,
      "¦çļĦæĺ¯": 8203,
      "º»": 8204,
      "éº»": 8205,
      "ĠæĽ´": 8206,
      "Ġir": 8207,
      "ĠæĬĬ": 8208,
      "ĠåĨį": 8209,
      "ĺè®¤": 8210,
      "inery": 8211,
      "attention": 8212,
      "Ġcust": 8213,
      "Ġsk": 8214,
      "Ġsust": 8215,
      "ening": 8216,
      "ional": 8217,
      "Ġdb": 8218,
      "Ġded": 8219,
      "Ġmark": 8220,
      "Ġpow": 8221,
      "Ġpull": 8222,
      "Ġpatience": 8223,
      "Ġisot": 8224,
      "çļĦéĢŁåº¦": 8225,
      "çļĦåĪĨåŃĲ": 8226,
      "çļĦåħ³èģĶ": 8227,
      "çļĦåľ°åĿĢç©ºéĹ´": 8228,
      "è¿¹": 8229,
      "Ġstead": 8230,
      "å®ľ": 8231,
      "uler": 8232,
      "åĬ±": 8233,
      "step": 8234,
      "åĴĮåħ¶ä»ĸ": 8235,
      "åĴĮåıįåĲĳ": 8236,
      "åı¯æ¯Ķ": 8237,
      "åı¯çĶ¨äºİ": 8238,
      "åı¯éĢĨ": 8239,
      "ä¼¸": 8240,
      "istry": 8241,
      "resent": 8242,
      "plate": 8243,
      "ä¹¦": 8244,
      "åĪĨç¦»": 8245,
      "åľ¨è®Ńç»ĥ": 8246,
      "åľ¨ç®Ģåįķ": 8247,
      "rial": 8248,
      "å¼¯": 8249,
      "Ġridges": 8250,
      "ĠIP": 8251,
      "åıĺå¤įæĿĤ": 8252,
      "æľīå¤ļ": 8253,
      "Ġcompatible": 8254,
      "Ġunb": 8255,
      "Ġneither": 8256,
      "ä¸ŃéĿŀå¸¸": 8257,
      "ç¨Ģ": 8258,
      "Ġforget": 8259,
      "Ġintentionally": 8260,
      "æī£": 8261,
      "å¤§è§Ħæ¨¡": 8262,
      "æĪĸä½ĵç§¯": 8263,
      "æķ°æį®è§Ħæ¨¡": 8264,
      "å¤ļæķ°": 8265,
      "æĮĳ": 8266,
      "ä¸İçĽ®æłĩ": 8267,
      "dequ": 8268,
      "Ġrelies": 8269,
      "ounting": 8270,
      "ç©·": 8271,
      "éľĢè¦ģå¢ŀåĬł": 8272,
      "æľĢåĢ¼å¾ĹåħĪ": 8273,
      "é«ĺç»´": 8274,
      "Ġinterchange": 8275,
      "æ¨¡åŀĭåģĩè®¾": 8276,
      "åįķçľĭ": 8277,
      "Ġpred": 8278,
      "åĬłçĥŃ": 8279,
      "åĬłå¿«": 8280,
      "ç³»ç»Łä¸Ń": 8281,
      "Ġpert": 8282,
      "Ġscience": 8283,
      "ä½įçĤ¹": 8284,
      "ç»ĵæŀľåĽ´ç»ķ": 8285,
      "ç»ĵæŀľå¾ĢåĽŀ": 8286,
      "å¹³è¡Į": 8287,
      "å°ıæķ°": 8288,
      "å°ıæī¹éĩı": 8289,
      "éĽ·": 8290,
      "ä¹Łè¦ģ": 8291,
      "éĢļå¸¸éļı": 8292,
      "éĹ®é¢ĺåıĺå¤įæĿĤ": 8293,
      "Ġhowever": 8294,
      "Ġmanuf": 8295,
      "Ġincorrect": 8296,
      "Ġoutside": 8297,
      "Ġdecimal": 8298,
      "çľĭæĪĲ": 8299,
      "çľĭä¼¼": 8300,
      "å®ĥä¸İ": 8301,
      "ades": 8302,
      "æıĲåīį": 8303,
      "è§£éĩĬç»ĵæŀľ": 8304,
      "éģµ": 8305,
      "æııè¿°æŁĲä¸ª": 8306,
      "åľ°å½¢": 8307,
      "Ġoversho": 8308,
      "sequ": 8309,
      "Ġgenerated": 8310,
      "Ġgenerating": 8311,
      "åĩ½æķ°ä¸įä¼ļåľ¨": 8312,
      "iber": 8313,
      "çłĶç©¶çļĦ": 8314,
      "éĢŁåº¦åĴĮ": 8315,
      "éļıæľºå®ŀéªĮ": 8316,
      "Ġrad": 8317,
      "æ³¢åıłåĬł": 8318,
      "çĥ¦çļĦæĺ¯": 8319,
      "åħ¶ä½Ļ": 8320,
      "ç±»éĹ®é¢ĺ": 8321,
      "çĶ±äºİ": 8322,
      "Ġsubstructure": 8323,
      "ä¸ŃçļĦéĩįè¦ģ": 8324,
      "åŁºåĩĨ": 8325,
      "Ġassuming": 8326,
      "çĬ¶æĢģåĴĮ": 8327,
      "posed": 8328,
      "æŁĲç§į": 8329,
      "æŁĲçĤ¹": 8330,
      "ĠMe": 8331,
      "æ¸©å®¤": 8332,
      "ĠProbability": 8333,
      "ĠPacific": 8334,
      "ä¾ĿéĿł": 8335,
      "Ġfinancial": 8336,
      "æĹłç©·": 8337,
      "åıĹä½ĵ": 8338,
      "å¾Īå¿«": 8339,
      "å¾Īå°ıçļĦ": 8340,
      "active": 8341,
      "éħµ": 8342,
      "éĢĤçĶ¨äºİ": 8343,
      "æŀģåĢ¼": 8344,
      "Ġsurve": 8345,
      "çĿ£": 8346,
      "æĶ¾åĽŀ": 8347,
      "é¢ĳç¹ģ": 8348,
      "Ġupdating": 8349,
      "oyancy": 8350,
      "å½ĵéĹ®é¢ĺåıĺå¤įæĿĤ": 8351,
      "åĲĳéĩıç©ºéĹ´": 8352,
      "Ġnewly": 8353,
      "Ġclasses": 8354,
      "ç»Īç«¯": 8355,
      "Ġoperational": 8356,
      "äººåĳĺ": 8357,
      "è¾ĵåħ¥è§Ħæ¨¡": 8358,
      "å¼ĢæĶ¾": 8359,
      "Ġoccup": 8360,
      "ometric": 8361,
      "éªĮè¯ģåĴĮ": 8362,
      "çĽ¸åĲĮè¾ĵåĩº": 8363,
      "Ġranges": 8364,
      "Ġsequences": 8365,
      "ç®ĢåįķçļĦ": 8366,
      "æ¢¯åº¦ä¸ĭéĻį": 8367,
      "è¿ĲåĬ¨çĬ¶æĢģ": 8368,
      "æĦŁçŁ¥": 8369,
      "Ġè¿ĻäºĽ": 8370,
      "Ġretrie": 8371,
      "Ġcontainers": 8372,
      "è¶³ä»¥": 8373,
      "æıĲä¾ĽçĽ´è§ī": 8374,
      "ä¸¤ä¸ªçī©ä½ĵ": 8375,
      "åħ±åĲĮåĨ³å®ļ": 8376,
      "Ġorigin": 8377,
      "æİ¥è¿ĳæŃ£æĢģåĪĨå¸ĥ": 8378,
      "çľŁæŃ£éº»": 8379,
      "æĦıåĳ³çĿĢä¸įåĲĮ": 8380,
      "å¤§éĩıéĩįå¤į": 8381,
      "æķĪåºĶå¤§å°ı": 8382,
      "åĮĸåŃ¦åıįåºĶ": 8383,
      "è¾¹çķĮæĥħåĨµ": 8384,
      "Ġlag": 8385,
      "Ġlaws": 8386,
      "Ġconservative": 8387,
      "Ġfiles": 8388,
      "éĵ¾è·¯": 8389,
      "å¤©çĦ¶": 8390,
      "ç»§ç»ŃæĪĲç«ĭ": 8391,
      "è¿ŀæİ¥æĸ¹å¼ı": 8392,
      "çĶµèį·çļĦ": 8393,
      "çĶµèį·åľ¨": 8394,
      "è½¨è¿¹": 8395,
      "Ġinstances": 8396,
      "åįĩæ¸©": 8397,
      "ç§¯åĪĨåı¯": 8398,
      "Ġdiverse": 8399,
      "è¿ĺè¦ģè®°ä½ı": 8400,
      "Ġlooks": 8401,
      "çĶŁæĪĲæłĳ": 8402,
      "å®īæİĴ": 8403,
      "Ġnegatives": 8404,
      "éĿ¢ç§¯åĴĮ": 8405,
      "å²©æµĨ": 8406,
      "Ġevaluates": 8407,
      "æº¶è´¨": 8408,
      "åİŁåĽłåľ¨äºİ": 8409,
      "ĠVol": 8410,
      "Ġbuilds": 8411,
      "Ġflight": 8412,
      "å±ŀæĢ§": 8413,
      "å¤įæĿĤåº¦åĴĮ": 8414,
      "é»ĺè®¤": 8415,
      "Ġconsumers": 8416,
      "Ġdeliber": 8417,
      "æĪĲç«ĭæĹ¶": 8418,
      "æī©å¤§": 8419,
      "åĳ¨æľŁæĢ§": 8420,
      "Ġprobabilistic": 8421,
      "reads": 8422,
      "Ġmachinery": 8423,
      "Ġsummarizes": 8424,
      "æīĢä»¥åİŁæĿ¥çļĦ": 8425,
      "æīĢä»¥è¿ĺè¦ģè®°ä½ı": 8426,
      "Ġopposes": 8427,
      "åĪĨä½įæķ°å¯¹æŀģç«¯åĢ¼éĢļå¸¸æ¯Ķ": 8428,
      "Ġcloser": 8429,
      "Ġwrites": 8430,
      "Ġwriting": 8431,
      "Ġconfounder": 8432,
      "Ġpoorly": 8433,
      "ç»ĨèĬĤéĹ®é¢ĺ": 8434,
      "Ġreturns": 8435,
      "åīįæıĲæĺ¯": 8436,
      "ä¸¥æł¼åįķè°ĥ": 8437,
      "Ġauthent": 8438,
      "Ġmedia": 8439,
      "ĠReal": 8440,
      "Ġ50": 8441,
      "ĠEngineering": 8442,
      "åĽłä¸ºå®ĥä¼ļçĽ´æİ¥": 8443,
      "Ġalternating": 8444,
      "æĽ´å®Įæķ´çļĦçĲĨè§£æĺ¯": 8445,
      "ä¸īç»´": 8446,
      "ographic": 8447,
      "éĽ¶åģĩè®¾ä¸ºçľŁçļĦæ¦Ĥçİĩ": 8448,
      "éĢıéķľ": 8449,
      "Ġtemporary": 8450,
      "Ġdegra": 8451,
      "æľĢå°ıçĶŁæĪĲæłĳ": 8452,
      "éĺĪåĢ¼è°ĥæķ´": 8453,
      "æİ¢æµĭ": 8454,
      "çĽ´è§īéľĢè¦ģå¢ŀåĬł": 8455,
      "Ġentirely": 8456,
      "çĽĳçĿ£": 8457,
      "å¸¸çĶ¨äºİä¼°è®¡æłĩåĩĨè¯¯åĴĮ": 8458,
      "Ġparticipants": 8459,
      "åħįçĸ«ç³»ç»Ł": 8460,
      "Ġantib": 8461,
      "åħħåĪĨ": 8462,
      "åºķå±Ĥ": 8463,
      "æ³ĽåĮĸèĥ½åĬĽ": 8464,
      "Ġreview": 8465,
      "ceeded": 8466,
      "æľīæľºçī©": 8467,
      "ä»»ä½ķä¸Ģä¸ª": 8468,
      "Ġcircuit": 8469,
      "Ġelectrost": 8470,
      "æİ¨çĲĨæĹ¶": 8471,
      "ä¼ĺåħĪæĲľç´¢": 8472,
      "çļĦåĪ¤æĸŃè¿ĺè¦ģç»ĵåĲĪ": 8473,
      "åĢįæķ°": 8474,
      "Ġfloor": 8475,
      "Ġfloating": 8476,
      "å°Ķåı¯": 8477,
      "æĹ§æķ°æį®": 8478,
      "Energy": 8479,
      "Ġcandidates": 8480,
      "Ġä½Ĩå½ĵéĹ®é¢ĺåıĺå¤įæĿĤ": 8481,
      "æĬĢæľ¯": 8482,
      "æľīåĪ©äºİ": 8483,
      "æłĩåĩĨå·®æĽ´ç¨³åģ¥": 8484,
      "Ġè¿Ļä¸įæĺ¯ç»ĨèĬĤéĹ®é¢ĺ": 8485,
      "åĮĢéĢŁ": 8486,
      "ä¹Ĳè§Ĥ": 8487,
      "Ġrecursive": 8488,
      "Ġsimultaneously": 8489,
      "Ġpreviously": 8490,
      "åĿĩåĢ¼åĴĮæłĩåĩĨå·®æĽ´ç¨³åģ¥": 8491,
      "Ġsubstantially": 8492,
      "Ġcopies": 8493,
      "æŀĦéĢłç½®ä¿¡åĮºéĹ´": 8494,
      "Ġremoving": 8495,
      "Ġconductor": 8496,
      "Ġsinks": 8497,
      "Ġstabilize": 8498,
      "çģµæ´»": 8499,
      "Ġaugmentation": 8500,
      "Ġ60": 8501,
      "Ġencode": 8502,
      "Ġwinds": 8503,
      "å¼¹æĢ§": 8504,
      "ä¸¤ä¸ªä¸įåĲĮè¾ĵåħ¥ä¸Ĭ": 8505,
      "åıĸå¾ĹçĽ¸åĲĮè¾ĵåĩº": 8506,
      "going": 8507,
      "Ġgenuinely": 8508,
      "Ġbrings": 8509,
      "Ġdisplacement": 8510,
      "ĠæĽ´å®Įæķ´çļĦåĪ¤æĸŃè¿ĺè¦ģç»ĵåĲĪ": 8511,
      "æĥħå½¢ä¸ĭ": 8512,
      "æ°¨åŁºéħ¸": 8513,
      "Remove": 8514,
      "åŃ£èĬĤ": 8515,
      "confident": 8516,
      "é©¬å°Ķåı¯": 8517,
      "Ġrecommen": 8518,
      "Ġçİ°å®ŀä¸ŃçľŁæŃ£éº»": 8519,
      "å¨ģ": 8520,
      "Ġthird": 8521,
      "ä¾µèļĢ": 8522,
      "Ġglobally": 8523,
      "Ġè¿Ļä¸ªçİ°è±¡èĥĮåĲİ": 8524,
      "Ġteacher": 8525,
      "Ġsteady": 8526,
      "åľ¨ç®Ģåįķæĥħå½¢ä¸ĭ": 8527,
      "Ġforgetting": 8528,
      "Ġinterchangeable": 8529,
      "Ġmanufact": 8530,
      "Ġovershoot": 8531,
      "åĩ½æķ°ä¸įä¼ļåľ¨ä¸¤ä¸ªä¸įåĲĮè¾ĵåħ¥ä¸Ĭ": 8532,
      "çĥ¦çļĦæĺ¯è¾¹çķĮæĥħåĨµ": 8533,
      "æīĢä»¥åİŁæĿ¥çļĦçĽ´è§īéľĢè¦ģå¢ŀåĬł": 8534,
      "åĪĨä½įæķ°å¯¹æŀģç«¯åĢ¼éĢļå¸¸æ¯ĶåĿĩåĢ¼åĴĮæłĩåĩĨå·®æĽ´ç¨³åģ¥": 8535,
      "ä¸¥æł¼åįķè°ĥåĩ½æķ°ä¸įä¼ļåľ¨ä¸¤ä¸ªä¸įåĲĮè¾ĵåħ¥ä¸Ĭ": 8536,
      "åĽłä¸ºå®ĥä¼ļçĽ´æİ¥æĶ¹åıĺå¯¹": 8537,
      "å¸¸çĶ¨äºİä¼°è®¡æłĩåĩĨè¯¯åĴĮæŀĦéĢłç½®ä¿¡åĮºéĹ´": 8538,
      "Ġä½Ĩå½ĵéĹ®é¢ĺåıĺå¤įæĿĤæĹ¶": 8539,
      "Ġçİ°å®ŀä¸ŃçľŁæŃ£éº»çĥ¦çļĦæĺ¯è¾¹çķĮæĥħåĨµ": 8540,
      "æīĢä»¥åİŁæĿ¥çļĦçĽ´è§īéľĢè¦ģå¢ŀåĬłæĿ¡ä»¶": 8541,
      "ä¸¥æł¼åįķè°ĥåĩ½æķ°ä¸įä¼ļåľ¨ä¸¤ä¸ªä¸įåĲĮè¾ĵåħ¥ä¸Ĭåıĸå¾ĹçĽ¸åĲĮè¾ĵåĩº": 8542,
      "EW": 8543,
      "Ex": 8544,
      "KT": 8545,
      "LS": 8546,
      "Probability": 8547,
      "VD": 8548,
      "We": 8549,
      "cre": 8550,
      "creas": 8551,
      "elect": 8552,
      "fix": 8553,
      "gent": 8554,
      "ha": 8555,
      "present": 8556,
      "rong": 8557,
      "worth": 8558,
      "Ġ\"": 8559,
      "Ġ-": 8560,
      "ĠèĥĮåĲİçļĦ": 8561,
      "Ĭå¼±": 8562,
      "Ġauc": 8563,
      "Ġtakes": 8564,
      "Ġtaking": 8565,
      "inistic": 8566,
      "atab": 8567,
      "atable": 8568,
      "Ġcut": 8569,
      "erc": 8570,
      "ernel": 8571,
      "Ġthous": 8572,
      "Ġthreads": 8573,
      "itable": 8574,
      "Ġmelting": 8575,
      "Ġbran": 8576,
      "Ġbond": 8577,
      "Ġbillions": 8578,
      "Ġtheories": 8579,
      "Ġrear": 8580,
      "Ġwider": 8581,
      "Ġina": 8582,
      "Ġinval": 8583,
      "Ġoceans": 8584,
      "enter": 8585,
      "çļĦä½įç½®": 8586,
      "çļĦçİ°è±¡": 8587,
      "çļĦæľĢå¤§": 8588,
      "çļĦè®¢åįķ": 8589,
      "çļĦä»·åĢ¼": 8590,
      "çļĦåŁºæľ¬": 8591,
      "çļĦåİŁæľī": 8592,
      "Ġecosystem": 8593,
      "omain": 8594,
      "Ġconversion": 8595,
      "Ġstrain": 8596,
      "Ġlarg": 8597,
      "åħ«": 8598,
      "utious": 8599,
      "ä¸įä¸Ģèĩ´": 8600,
      "æķ°åĴĮ": 8601,
      "æķ°çĻ¾": 8602,
      "Ġher": 8603,
      "Ġhire": 8604,
      "åĴĮæĪĸ": 8605,
      "åĴĮåıį": 8606,
      "åĴĮéĺĪåĢ¼è°ĥæķ´": 8607,
      "åı¯å¯¼": 8608,
      "åľĨ": 8609,
      "ĠTwo": 8610,
      "ifiers": 8611,
      "amorph": 8612,
      "Ġexc": 8613,
      "ä¹İ": 8614,
      "åĪĨä¸º": 8615,
      "åĪĨå±Ĥ": 8616,
      "åľ¨åĲĮä¸Ģ": 8617,
      "æĹ¶éľĢè¦ģéĩįæĸ°åĪ¤æĸŃ": 8618,
      "åĨ»": 8619,
      "Ġunf": 8620,
      "Ġunweighted": 8621,
      "Ġneut": 8622,
      "Ġnever": 8623,
      "ä¼ļéĻĲåĪ¶": 8624,
      "ä¼ļéģĩåĪ°": 8625,
      "è¿ĩæľŁ": 8626,
      "è¿ĩåİ»": 8627,
      "éĢļéģĵ": 8628,
      "Ġface": 8629,
      "åı¯ä»¥æĮī": 8630,
      "å¹¶éĢļè¿ĩ": 8631,
      "æĽ´å¼º": 8632,
      "Ġcontention": 8633,
      "åı¯èĥ½éľĢè¦ģ": 8634,
      "å¤§éĥ¨åĪĨ": 8635,
      "æĪĸæķ°æį®": 8636,
      "æĪĸæĹ¶éĹ´": 8637,
      "æķ°æį®æ³Ħæ¼ı": 8638,
      "éĩįéĩı": 8639,
      "Ġsug": 8640,
      "çĶµä½į": 8641,
      "èĢĮä¸įåıªæĺ¯": 8642,
      "çĽ¸éĤ»": 8643,
      "Ġimpa": 8644,
      "èĩĤ": 8645,
      "åŃĲæŁ¥è¯¢": 8646,
      "Ġabund": 8647,
      "æľĢä½İ": 8648,
      "æľĢçŁŃ": 8649,
      "æľĢéĩįè¦ģçļĦæĺ¯": 8650,
      "é«ĺéĢŁ": 8651,
      "æ¨¡åŀĭåľ¨": 8652,
      "éª¨": 8653,
      "Ġcautious": 8654,
      "Ġtransmit": 8655,
      "ä¸ĭæ¸¸": 8656,
      "èµ°": 8657,
      "ĠIntegration": 8658,
      "ĠCurrent": 8659,
      "ä½įåŁºåĽł": 8660,
      "çŃīä¸įåĲĮ": 8661,
      "çŃīæĸ¹æ³ķ": 8662,
      "çŃīä½įåŁºåĽł": 8663,
      "ĠOb": 8664,
      "Ġroles": 8665,
      "ç»ĵæŀľæĺ¯åĲ¦": 8666,
      "æŀĦå»º": 8667,
      "åıªæĶ¹åıĺ": 8668,
      "åıªåĪ©çĶ¨": 8669,
      "å¹³å¸¸": 8670,
      "å¹³æ»ĳ": 8671,
      "æŃ£è´Ł": 8672,
      "éĹ®é¢ĺåĩºåıĳ": 8673,
      "Ġdescending": 8674,
      "ä¹ĭä¸Ĭ": 8675,
      "Ġmanages": 8676,
      "åİŁä½ĵ": 8677,
      "necess": 8678,
      "åīĬå¼±": 8679,
      "åħĪæĺİç¡®": 8680,
      "æ±½": 8681,
      "Ġdescribing": 8682,
      "ä¸įæĺ¯åĲĮä¸Ģ": 8683,
      "è¿ĺåºĶ": 8684,
      "æ¯ĶéĽª": 8685,
      "Ġarithm": 8686,
      "ipitation": 8687,
      "è½¬è½´": 8688,
      "ightness": 8689,
      "æĶ¹åıĺè´¨éĩı": 8690,
      "ä¸įèĥ½æį®æŃ¤": 8691,
      "Ġoverw": 8692,
      "Ġoverconfident": 8693,
      "Ġgenerates": 8694,
      "ĠNADH": 8695,
      "ĠEach": 8696,
      "éļıæľºæĢ§": 8697,
      "åīįè¿½": 8698,
      "åıĸåĩº": 8699,
      "åĲĮæĹ¶åħ³æ³¨": 8700,
      "Ġsubduction": 8701,
      "ĠHigh": 8702,
      "åŁºäºİ": 8703,
      "Ġassumed": 8704,
      "ĠPo": 8705,
      "ĠPre": 8706,
      "ĠPressure": 8707,
      "è¿ŀèµ·æĿ¥": 8708,
      "åıĺéĩıåĲĮæĹ¶": 8709,
      "éĢīæĭ©åģıå·®": 8710,
      "condition": 8711,
      "å¤ĸå±Ĥ": 8712,
      "åĨįåĨ³å®ļ": 8713,
      "Ġobjectives": 8714,
      "Ġcontroll": 8715,
      "åĪĨæŀĲè®¡åĪĴ": 8716,
      "å·¥ä¸ļ": 8717,
      "åıĤæķ°æĽ´æĸ°": 8718,
      "èĢħçĽ²æ³ķ": 8719,
      "Ġfewer": 8720,
      "Ġrepeating": 8721,
      "æŀģåħ¶": 8722,
      "å¾Ģåīįè¿½": 8723,
      "Ġsurfaces": 8724,
      "åĩºçİ°åľ¨": 8725,
      "ä»įåı¯": 8726,
      "è¯ķæİ¢": 8727,
      "å¥ĩ": 8728,
      "æĶ¾åħ¥": 8729,
      "Ġdeterministic": 8730,
      "ä¸»è§Ĥ": 8731,
      "æµĭéĩıè¯¯å·®": 8732,
      "æµĭéĩıå·¥åħ·": 8733,
      "æİ§åĪ¶åģıç¦»åĿĩåĢ¼": 8734,
      "Ġtree": 8735,
      "äººä»¬": 8736,
      "æ¯ıä¸Ģ": 8737,
      "éĿŀçº¿æĢ§": 8738,
      "Ġnetworking": 8739,
      "Ġoccas": 8740,
      "Ġmagnet": 8741,
      "Ġmagnitudes": 8742,
      "æĸ¹æ³ķåĪ©çĶ¨": 8743,
      "è¯Ńæ³ķ": 8744,
      "å¾®æ³¢": 8745,
      "struction": 8746,
      "Ġè¿ĻæĹ¶": 8747,
      "èĮĥå¼ı": 8748,
      "Ġconverge": 8749,
      "Ġplane": 8750,
      "angular": 8751,
      "æľĢç»Īä¸Ģèĩ´æĢ§": 8752,
      "çī©è´¨çļĦ": 8753,
      "ĠLarger": 8754,
      "ĠLayerNorm": 8755,
      "æĿĥéĻĲ": 8756,
      "å®Įåħ¨ä¸įåĲĮ": 8757,
      "Ġprecipitation": 8758,
      "æĦıåĳ³çĿĢåħ¶ä¸Ń": 8759,
      "éĵ¶": 8760,
      "Ġbuffer": 8761,
      "è¿ĳä¼¼åľ¨ç»Łè®¡": 8762,
      "Ġrotating": 8763,
      "Ġformulas": 8764,
      "Ġexplains": 8765,
      "åºĶçĶ¨çľĭ": 8766,
      "Ġtransformed": 8767,
      "çľĭåĪ°çļĦ": 8768,
      "Ġweighted": 8769,
      "Ġlogging": 8770,
      "Ġhappen": 8771,
      "Ġspi": 8772,
      "Ġspans": 8773,
      "Ġchemistry": 8774,
      "Ġorbitals": 8775,
      "Ġescape": 8776,
      "æ°§æ°Ķ": 8777,
      "åĪĩçº¿": 8778,
      "åĪĩæ¯ĶéĽª": 8779,
      "æľįä»İ": 8780,
      "Ġresonances": 8781,
      "æħİ": 8782,
      "Ġuniverse": 8783,
      "Ġdecomposing": 8784,
      "å¦Ĥä½ķåıĺåĮĸ": 8785,
      "è§Ĩè§ī": 8786,
      "Ġaggregation": 8787,
      "è¿Ļä¸ªéĹ®é¢ĺ": 8788,
      "Ġevaluated": 8789,
      "éĩıåŃĲåĬĽåŃ¦": 8790,
      "ĠVari": 8791,
      "ç¼ĸè¯ĳ": 8792,
      "Ġkinds": 8793,
      "å¤ªéĺ³ç³»": 8794,
      "Ġreceiving": 8795,
      "å¹¿æ³Ľ": 8796,
      "Ġdefinite": 8797,
      "Ġamplified": 8798,
      "æĪĲç«ĭçļĦåŁºç¡Ģ": 8799,
      "èĦĳ": 8800,
      "åŁºåĽłè¡¨è¾¾": 8801,
      "çĹħåİŁä½ĵ": 8802,
      "å¢ŀéķ¿æľĢå¿«": 8803,
      "Ġelse": 8804,
      "èĩªçĦ¶éĢīæĭ©": 8805,
      "èĩªçĦ¶è¯Ńè¨Ģ": 8806,
      "æīĢä»¥åħĪæ£ĢæŁ¥": 8807,
      "Ġdifferentiable": 8808,
      "Ġdifferentiating": 8809,
      "Ġrelevant": 8810,
      "ä¸įåıĺçļĦ": 8811,
      "åģļåĩº": 8812,
      "æŃ£æĢģè¿ĳä¼¼åľ¨ç»Łè®¡": 8813,
      "Ġdistinguished": 8814,
      "ç§»åĬ¨æĪĸ": 8815,
      "æĭ¥å¡ŀ": 8816,
      "Ġmonitor": 8817,
      "Ġä¸Ģä¸ªåħ³éĶ®åĮºåĪ«æĺ¯": 8818,
      "issions": 8819,
      "Ġwaste": 8820,
      "ä¸įä»ħæĺ¯": 8821,
      "Ġtradeoff": 8822,
      "Ġsuccession": 8823,
      "Ġadapts": 8824,
      "Ġdefinitions": 8825,
      "Ġelectromotive": 8826,
      "åİĭåĬĽåĴĮ": 8827,
      "åĩºçİ°çļĦè¯¯åĮº": 8828,
      "åĲĦèĩª": 8829,
      "æĲ¬": 8830,
      "Ġbrightness": 8831,
      "Ġbreaks": 8832,
      "ä¸įèĥ½åıªéĿł": 8833,
      "Ġinduce": 8834,
      "çĽ´è§īæľªå¿ħ": 8835,
      "çŀ¬éĹ´": 8836,
      "æİ¨æĸŃä¸ŃéĿŀå¸¸": 8837,
      "æĦıä¹īçļĦ": 8838,
      "Ġå®ĥæĪĲç«ĭçļĦåŁºç¡Ģ": 8839,
      "Ġcosine": 8840,
      "æ··æĿĤåĽłç´ł": 8841,
      "è¾¾åĪ°å¹³è¡¡": 8842,
      "å°±èĥ½æİ§åĪ¶åģıç¦»åĿĩåĢ¼": 8843,
      "ä»İå®ŀéĻħåĲ«ä¹ī": 8844,
      "ä»İå®ŀéĻħéĹ®é¢ĺåĩºåıĳ": 8845,
      "ä»İå®ŀéĻħåºĶçĶ¨çľĭ": 8846,
      "æĹłéĻĲå¤ĸæİ¨": 8847,
      "Ġexploratory": 8848,
[...]
